BDD1B153
3D28E029
BDDEEED9
BE028805
BD6ADFF8
BCE4B0B9
BD7255BE
BCFD14C9
3C7816FD
3D61115D
3D7A4724
BCC571C4
3D91268C
B99F77AA
BD1CCEBD
3D8E2585
3D9D2A12
3E280D80
3E1F1A1A
3DDABC0E
BAE6304B
3E2FA1E4
BC5F1FB6
BDB37634
3D8D0FCE
BD3E01C3
BCAF2DB5
BD343FBE
BC024E9A
BDE25FA6
3E35421C
BE3D0AAA
BD94DD57
3A1EDA7F
3DCDA986
3D73F947
3CEC8133
3D962BFF
BDE1700D
BB28A34D
3E2901D2
3D9CDADA
3E20AAA8
3D94063A
BD0DE764
BD00A17B
3D75BB03
BD9D9C28
BB671C03
BC410518
3E053F3A
BE0C5EF6
3E0FBE34
3ABDBF13
BAB081BE
3BFC8AEB
3D0B2ABC
3C062DAC
BBA5726B
BE12339C
BDF89481
BDB948DC
3CCC4304
BCA94E78
BE305144
3E16705D
BCCD7061
3D94FF6C
BDB7CECC
BD7C0D62
3D894813
3D0CA164
3D90B707
BDA0FD49
BD87E465
3CC65F2A
BDC2F6A5
3E0850DF
3BA40457
BE335B0C
3DB6E9BC
3D998783
BC6E462F
BC32AD67
3C579654
3D9E60C4
3CECB8C6
3E28EC10
3D3FCFA9
3D5BEC25
3DC05865
BDD1B047
3DC1593E
BDDB7F9D
3DDBA238
3DC3BC5B
BDCF7660
BD503629
3D12B5CA
3CDEA7F6
3D61B0DA
3D3C2042
3D6BA301
BD05E354
3C37838F
3CF82B8B
3E2D6388
BDF3C148
3AD70B14
3E180022
BA0B1717
BD4D8BA4
BDBB9A0A
3C34D8BA
BCF97B82
3E07229F
3E14B513
3E03543B
BD26DFEE
3D9E618D
3D352886
BDABDCE3
BDCBC416
3E13EAF7
3D7E123A
BCB97CC4
3CF2FE90
3DBB2090
3D3C01A3
BC98298D
3D838ED8
3DFFCD25
3DC35895
BCF0B6ED
BDFB6DCA
BD12E97C
BC1BDF2F
BD4C2466
BD8D5E65
BC8507DC
3D157181
3D82C435
3DDE1544
3D47B74F
3C01589B
BCB7F7F4
BBF6980D
BC60AB3C
BD44DA3F
3D930C8F
3D938ED8
3D25168B
3D3CA2E9
3DB57EFB
BDC975D8
BB9852B2
BDB1490B
BE4840E1
3DE7BDCF
3CA2BCC3
BCD7F2D0
BD7641C1
3D73D981
BD8EAE84
3D44ABB1
3E18BDA9
BD4F66A5
3CF3D479
3BCE1E86
3D7955DD
3DE31B58
3B07559F
3D60CB37
BD50D13E
3BC1362B
BDC8BE3D
BD5BFC80
3C83AD9F
BD4B65DF
BDB505C4
BC8151DA
BD393D6E
BE1E7686
BD3737A5
3DB6233D
3D657662
BDE3FDD6
3C38F72D
3E220EA6
BBEB32BE
3E2F26F2
3C45DF07
3E16CA8A
3D885A92
BD8F0231
BD8F04A8
BDC9E7B8
BDC6EE74
3E0E9DD8
3E097D4A
3E0B495A
3CC1574E
3C86AD63
3D1B3F71
3D0B7D41
BDD2DF50
BD977ACE
BCE22707
BD05F578
3E1B3398
3B9ED9F5
BE063F14
BD80778A
3E47EA60
BD2915A3
3BA4184E
BD2F0BA1
3C7C3EAA
3BBC33CD
BD80E828
3D9E3921
3D5652BD
3D2DE277
BD2F771C
3E287C63
3D7C08C5
BD1C66B9
3D4C4BEE
BDEE264E
3D9ACB50
3CF73231
BCE01330
BD9736E9
3E13A96D
BC4B43CB
3E1CC815
3B831DD7
BE471A3B
BE00E022
3DAD3034
BD7F8968
BC58834F
3DA82A2E
3CA507F7
3DF82F51
BBDC4134
BDFD9E41
3D2629E6
BE054930
BDCE2110
BDB90372
3DB37ECD
3D522BCC
3DA05AA6
3B9A896E
3E12A844
3E91BBAE
BE6A5CE6
BC106F8F
BD09DF2C
BDF76CCE
BE045E0B
3E223572
3D0A42E5
BD8D25E0
3E1A600B
BD329224
BD892F2B
3D87DB1E
BD5D9FEE
BDA9B24B
BD3363DB
BCE93AF7
3D90E60F
3D9E477E
BE79EC70
3D9D607E
BD6954A8
BC60D6DA
3E562F9D
3DF8F68C
3C7AA766
3DEAC5C1
3DB48F54
3DB5E37C
BDED349C
BD13D8E0
3DF40BBB
3D89EB13
BD916BDB
BDE44BF5
BDEF12C2
3DD42AAA
BE42A887
3D6CA362
BE0D551D
3DECB4AF
3DA210BF
BD712A5F
BD830546
BC6F6655
3E2C4370
3DA1C0D8
BE070CDD
BD7F6D69
3D8F86FF
3CD2C6AC
BE046E8F
BE0DF86E
BDC251DC
BD4CAC16
BDE71716
BDAEB7B1
3BA8F9B4
3DBF401C
3CFC873A
3EA5FAEC
3DBD47F5
3E117F41
3E20FE48
3C5FCA00
3DCB98AD
BD888D0F
3DEA276B
3DEAADA3
BE3AB8A6
3DC1BBDD
BD65139B
3DF3E5FB
BE726784
BE0DBE3C
BDDBC1AD
BE03BCD3
BDED0918
3DE405B4
3CFCB202
3E4CB03A
BD90CB52
3D2D7152
3C11F805
BE3C521E
BE0A37AC
3DA9A48F
3CC1F7BC
BE1D08D5
BE46DC5D
BE14E8FB
BCCBF60D
BD8D050E
3D919843
3DAF9DDA
BDE1B7E1
3DF7CF5F
BD55EB8F
3D6EBD68
3D504F38
BDEFF8EC
BDD07747
3E14FCA4
3DB4DC08
BD631AD2
3E3D2E0E
BE1C76D1
3E16CD29
BAEE9F30
3C932D03
BDDDFE33
3D9194E8
BD549C54
BE1AF7D3
3E13AC4F
3DCFEC57
3E912945
BD59E823
3D77891E
BD33CBDF
3E0C9F73
BDBB7846
BDFB9064
3DA795CE
3E5762D8
BE361416
3E0E4EF0
3D8A4A13
3E124420
3E009CC3
3D7D6719
BCF9C18D
BD29572C
3E50A41A
3DBFB86F
BE02B9D4
BE4DB0DE
3C290FC4
3DF05A71
BE557471
3DDFEDA6
BC7F1081
3E2A9FBE
3DBB03FD
3DBC896E
BD95DA27
3E30E454
3E3DEEFE
BE1D0636
BDB52EC3
BD671477
3E1AE254
BD2CFF57
3C9F5169
BDB04E97
3D943790
3E41F6CB
3CC39764
BE8190F3
BE136B09
3DD7B203
3E443915
BDA36A18
3DD49E02
3DDC6328
BE2198AF
3D792D48
BD94B59A
3DAD9C50
BD756AE6
3DD0BB6F
3E11DEAD
BD13F4AA
3D35DC0A
BD91C5D3
3E047779
3E0BB0A3
BD7D2F86
BA1C3203
3D5D3D78
3DA4CE23
3E83E37E
3D2EC489
BE0DE508
BCC06805
BD88E531
3E08EC53
BE3A42AF
BD288179
3DB6EBAD
BE018B50
BD53A026
3C1CA9CF
BC3A1901
BCCADC67
BBAA4AED
BDB5AF0E
3E364734
3DB1F6D8
3DD71540
3E12552A
BD903006
BE2612C7
3C2BD49A
BD3660E5
BE1DA87A
BDA3751A
3DFCC07B
BC126FB9
BD34DA32
3E14F7EC
3D2A6E69
BE41C2A0
3D6FA44D
BE0961C3
3DFF7A4E
BD70FA08
BE5092CD
BD9C825A
BE818266
BE08D64D
BDCAC167
B9F52FDC
BCD4DE49
BDF5DEDF
3A8497AA
3E026EDB
3D5B5591
BD4FEA74
BD49C800
BDB7B31D
BC3F5A89
3DF7B5AF
BE36C58F
3E1EC5B0
3DC656D4
BDF31099
BD9437AB
BD9869B9
3DA8C869
3D996C40
3E506573
BE0F9EBF
BE2A9153
BD6AC662
BDDFC19C
BD68A556
BC1A6B7C
BDACBFA4
3CE29E90
3E0AEA74
BC9C8649
BCBFA1D6
BCEF4CF5
3E253EB4
BE7CB46C
3E4B191E
BE06512B
3DBE3659
BDC9E9F9
BD97C526
BBEBE368
3DF9CB68
3D674B33
3D5D363C
BDAF06DC
3D12E474
BD3E99B4
3CCA9550
BD0DCBEB
3CDDD02A
BCBA1321
BD51782D
3CBE8724
3D9F955C
BE28D046
3D61D67F
BDA31EC1
3DF34699
3E0A3CA7
BD934B87
3DE0FECE
BDA10010
BCBBBDB1
BE335B0C
BE29E2BD
3E0CE9A3
3E514DF9
BB9ADBA3
BD34CB69
BE00FE48
3DE9EF52
3DD31EC1
BDA831A0
3E2BA51A
BD4863CC
BD142876
3E1B0D95
BDAD298C
3D8A000C
BCFCC7D2
3C87CF01
3A4B03CA
3E446349
3DB9592A
BD14B9CB
BC3B319A
3D845077
BDF34938
3DA6763C
3DAB971A
3DBB88D8
3E58F606
3D2B995C
BD8FF724
BBF30BE6
3E6120E2
3D671BE9
BBD997E1
3CF8631E
3D9D98DA
3DEEF998
BE25E397
3CECEDD5
3D3E66BE
3D6D594F
BC585313
3E0B7D41
3CDB7613
BCCED8E1
3E0764AE
3A7CD4C1
3BF29F2F
3DA6BAEA
BD8FE8D4
3AF967B5
3DEF86A1
3CD2A950
BC587EB2
3D282675
3E29EE46
BE01A501
3CB4B5B5
3E1C0D2C
3D2089FE
BC5A469D
3DA9420B
BE35C8DA
3DBBFF3A
BDC29BFF
BE25E918
BDCA3337
3D3AD71C
3C9C7871
3D8E7CD0
3D93D54F
BE497A25
BCF9799E
BDCF7DB7
BA8C2C1E
3D6FA666
BD9D1245
BE4A0275
BD96688D
BE13A4F8
BD35E55F
BD296539
BDCD562A
BD3938EC
3D9308AE
3C84D7D6
3E211340
3E266B1E
3CCC4121
BE1D92FB
BDD68406
BDD30AD4
3CF13059
BE00980B
3D462CD5
3DC70EC0
3D03DDF6
3CDEFD1B
3E01DDA0
3DA12D19
3D2CA52A
3A763867
3DDABB88
3E35DCC6
3DC9E20E
3E23D9A9
BDE406C0
BE361C7A
3E29C454
BC3DEB88
3BD961B1
BDD23FEE
3C9900B8
3D42026E
BE0F294E
BD51DED5
3E291687
3D6C23AA
BB9ADB38
BD915825
BDE50ACC
3E14A01B
BE0BCCF3
3CBFE8B9
3C8BDD18
3DB92CDD
BD54C173
BC6BD2B7
3D572998
BE35CB36
3C18496D
BD8278C3
BCAFA864
BE3C9FF9
3CD74993
BDDAE03B
3DB4A30A
3DAEBD32
BC5922B1
3CAB748D
BD7C3AE4
3D83596C
3DC29E18
BDBD2F43
3E5625A7
BD9FB2AB
3DC3FBCB
3CE0F4A2
3E09CD3E
BD7C14EF
3D9E6DEC
BE12DC2B
3C84057E
BDB15B80
3E2C8649
BBCFD429
3DF9042E
BB274F90
3D61B3E5
3D89916C
3C77AC74
BE3E670E
3C61DA7B
3DE5E4E7
BDF142B3
BE321E1D
BDC128A4
3DF3AA37
3DAD47B1
3E1D34DF
3DFE8F6D
3D82A95D
3CC06FC7
3E0B649D
3C2497FA
3C3BCA46
BD303E21
BC9A1449
BD9D4075
3DBB1481
BD015210
BDDA33BE
BE07E308
3D3D9A2A
3CDBDD0B
BE503105
BD8FE2E7
3D886AC5
3DD3B4B3
BD6DC27B
BDF717DF
3C95EFF7
3DB79789
3DD39C95
3D507223
BC531338
BE2C33F8
BDFEAEE2
BD5E6F72
BE8551D7
BD9E2D04
3D792CDD
BE6AEC8D
3E4B3BFB
BD3546D4
3D232CA5
3D792627
3DD4299E
BCECCCB2
3E534D27
BE4605EE
BBBFC6D5
3DB094E6
3E0C2D6B
3DC4EA30
3D35E1B4
3CC5C53C
3D6E8B7E
BE47AB75
3DAA9619
BCFE6561
BC9C0809
BD45C0BA
BA57B624
3CF21C47
3DE8E1D6
BD83D669
BD1ACA1B
3D543C48
BD60B0E5
3DF0BB6F
BD84497E
BD8FDF21
3D54FD6D
BCEBDE0A
3DFAB3AB
BC5221A0
BCAD4FFA
3E052B0A
3DBCF96B
BD6FEFCD
BD814361
BDF50A89
3DBFEB8E
3E451C19
3E118EB9
BC3B4261
BBF711AF
3D4BD5DC
3E4CCD96
3E14B7F6
3D826B80
BDDDCCEA
3CC35BD5
3DA6E801
3C5EAB87
BE18F92B
3C5CF9D6
BAF7F84A
3C87892C
BDAC5726
3DE9A134
3DB4C8AF
BC570A3D
BC6C5741
3CEB08F8
BD7AD8AF
BD937DCE
3E5FB4C4
BD91DA6E
BE1DBCA9
3DB7A62A
BE421D54
BD408F3C
BDF4F69D
BDA97120
3E3BE729
3E020DDC
3E5D20F3
3D84E245
BE14BFD3
3D9A5D44
BD82F845
3DC96DB8
BDC18C19
3E4239A4
3E0C2763
3D2DEE1A
BDD54E2B
BDB0F909
BDCC4AB9
3C9D9176
3E3C1ACE
BC9F410E
BDE1F080
3C6D11E7
BDA55E44
3CB4A29F
3CA2C486
3DDCE0FC
3DB8DEBE
3DCBD216
3DBF946B
BE155E29
BDA3FD35
3C83F2D4
3E034C1B
BD2566A7
BD566CA4
3DBB61FE
BDEFF089
BCD84861
BE431594
3CB09D8C
3D47D440
BD5BF75D
3E063A5C
3DF6CA47
3E488B97
3CB16B12
BC9CC1D8
BE0A7FC3
BE59756D
BDDEC3DB
BD13F6C2
3E2F7B9E
3D2C30E0
BDE49CB2
3D2EC220
BD9441E4
3DB3AD26
3E27B353
3D3E1793
3D6D73D7
BE0023EA
BE04538F
BD2A4DE7
BD09D587
3DDF0E4E
BB640828
BE0D2C38
BD8202BF
BE09274E
3E1E321A
BDBC65EF
BC80DC69
3D028332
3D3A09E7
3C3A29C7
3DF59DDC
3E04894C
3DC73091
3E1F96E1
BCDE3A7E
3DF60179
BDA54577
BD934910
BDBDCAB6
3E2F993D
3CF96470
3DB43683
BD0DF49A
BD3132C3
BE2CF4E8
BC23E97F
BDFDD11C
BDB74D16
BD412AD8
3D908271
BCC4A6C3
BDDCC9EB
3D7E0FD0
3E20D1B7
3DED46F6
3DB7FC76
3E13B85F
BD80F338
BDB2A016
3E6BA062
3E204EE8
BCF2BBAA
3E0DEBD9
BC37A0EC
BE309F1F
BE2B5B2D
BDBF077D
3B72B0E2
3C864C15
3E37EA1C
3D1DA2F9
3D3ACDE2
BDB34041
3E08609A
3DA1CE36
BC9E3F86
3C19D8C4
3DD9FDBD
BDA8A952
3E0AD688
3DC44630
3E1A9C13
BDA955CF
BD8D288D
3DE2602D
3DA7A800
BE196FA8
BDAD78D2
BE0F7C24
3E17B2CC
BD7400B9
3DC8BB5B
3BB1B3C2
3D8CC0B0
BD320678
BD675A9D
3E3DA7B1
BDE97C81
BD9E15D8
3C369919
3DCB5958
3E27C0F4
BE202928
BCA39749
3D4B30D1
BDB05781
3AC77017
3D9EC8AE
3DE49342
3CD1DB5F
3DE3AA7A
3CA8EFE3
BE698E97
3C52B7C8
BD9E4DC9
BDD9F6EC
3E4CA9AC
BE63DAB6
BD0F30A5
BE0AC647
3C9ACDE2
3E0FFE2A
BE6719B5
3D4A19E5
BCB61D94
BE1FCE74
3D9F63EB
BE467E84
3DE6B7AA
BE430A0B
BCE24108
3E175DDD
BE0477BC
3C6591C0
3D303644
BC322658
BE5CFE58
BE0BD662
3DF3AA37
BD9E2817
3E38BAC7
3D4990D8
BB38A375
3E479E9D
BCAE4B6D
3DB825C6
3DC53099
3DEC3FC4
BD6DAA28
3D8A6BF2
BD8A6C78
BE02AE4B
3D57A5BE
BD7E91D6
BE192EA5
BC33EF86
3D27D54C
BDE36439
BD1A989D
BE55EF63
3DD929ED
3E2F2F98
BCA5B45A
BE24BE83
BD423ED4
BD611955
BE0C0DB2
3DEDC5D6
3CFCCCA5
BD3A02FB
3D37F6CC
BD3D78D2
3D742CC3
BDDF1E8E
3B6813FB
3E10BBF5
3BDE4D7E
3D434CA1
BCDB6185
3DD14B16
3B50CC36
3DF208E1
BC121618
BDDB0143
BDC0FB65
3DC00658
3D3DF2AA
BD37698E
BE13DD55
3DD082CF
3DF944AA
BD06BACF
BDEA3D71
BDB5D547
3DD2B884
3D491629
BDE7F3CF
3DF38BCE
3CECC129
BCC71A05
BDA56184
BDF69D30
3D07D8A7
3E3C9FF9
3CF3EC97
3DF4B8BF
3E0CB535
BE0E48E9
BDB030A7
3C9D8B61
BD6F8F3A
3E1D694D
BC7F250F
3E2D6BA9
3D474D31
3D732541
BD485122
BDB45268
3C958B82
BDA21AC2
3E5BB060
3D54884D
3E44299E
3E0E807C
3E295960
BE4697F2
BDFDE615
3D6E97A8
BC0E0B51
BCE1FE58
3E0ECBB8
BC806805
BD7C970F
3DFC2C1B
3E314F48
BD98AF23
BD23992D
BD881A8E
BDF05C03
3DEFB6DD
BC76CC7B
3CF4AF6A
BD73712C
3E2D80E5
BD0D240B
3E3E5647
BD463370
3D145283
3CF151E7
BC0FFCC3
BD904890
3E145AA3
BCB6D25A
BDD9E59F
3DB26289
3DD403DE
BE3620EF
BE18F084
BD2525BF
BDB653A1
BD15C4A8
BE27FF9B
BDA76EDA
3AFCE23E
BE27A5F4
BB9CAE0C
BDD37004
3E1FDD66
3D181692
BDBC1392
BE5E4324
BDB6BAA7
BE34DE7F
BDC5BB96
BD787C48
3B9BB944
BC6DA87A
3DDA5B10
BC8D200F
BDC4510B
BB2FC5AB
3DBA77BE
BE1FBD27
BDF620EF
BDB929C5
BC6B4FDA
3E140D91
3D9F5C1C
3DEA4229
BD0C5E63
3DE1E57E
BDC3F093
BD597F63
BCBB80AA
3D005C2B
3CA6065A
3DE7C287
3D8CB84D
3E3C1052
BCABF1F6
3C34B6C1
3DA5B193
3D7E13E7
3C302F73
BDF72D5E
3DE8CB4B
BE070CDD
3D2DBCB7
BDE8AD69
BC800F85
3DE61F9F
3DEE3A3B
BD2DB3B2
3C9B8AD6
3D832569
3E30F16F
3DFE9857
BDC46E67
3CA5E212
BDA9BFB7
BDDB46FE
BDAF6754
BDCD1D04
BD150423
3C23DF6E
BE0E8C48
BC01FEDE
3E760392
BE24573A
BDE43244
BCCC53CB
BE3E336A
BD190B9F
3D55A45C
BD7E9913
3E1C1E79
3DE01DE2
3E091AFC
BD9F69CB
3DE55B03
3E331B15
BC319752
BDC53B4B
BE19C800
BD1D2341
3CB461D2
BD106127
3D40B491
BD88F903
BD3FAEF2
BE367F4E
BDA6470C
3DEA6F3F
BE35B7D0
BE0F61AA
BE013E3E
3DF15F89
3E147E07
3BABAE85
BE293294
3DE07703
BD8124F9
BDFF761D
3BC25A6E
3E68B9FE
3E0E1B4C
3E34D6E4
BCAD065E
BDD4B6A6
3D8C62A2
BD90EFDD
3DDB60AF
3D503FE9
3CA16D38
3D8CE3F9
BE0DCF46
BDFCA85D
3DE61D00
BE0DC055
BE0CDB38
3D42C8D2
BD196ED1
3D1FF442
BE0BECAB
BBCF5700
BE4B0DD8
BC125416
3DDE3865
3E195465
BE4D1EDA
BE39BE4D
BD1A59E9
BDF45E0B
38ED2224
BCEE5FFA
BE1FB04F
3D4E5E9D
3D763221
BE103B82
3DA10335
BDADBF48
3E032CA5
3E67D417
BD9E1735
3C8E5E32
3D08382D
3AA30E62
3C9FFD61
BCFC6AB5
BC1C9150
3E300432
BDFCB2D9
3D213900
BE658687
BDBB8123
BE3217D3
3CCAA7FA
BC0B3D56
BE057ABC
3D3D24B9
BE029308
3BCCD90C
3C8A837C
BC4C96B2
3C07316D
BE06C26A
3D8B7798
3D8AB01A
BD76CB03
3D82F82A
3D004C56
BC7F7D8F
3D234C86
3C8BF4CB
BD011559
BD3C8DD5
BDBBC7CF
BDAD1AB6
BDFA671F
BC2798CB
3C075B7F
BDA9C28C
BD67AA4E
BD89C76C
3DD7531E
3D1AFF0F
BD92F230
3DA6A31D
BDBADD23
3E07179C
3D432A72
BD06BF1C
BD9D9F75
3D5718EC
BCCF1C68
3D1DDFE5
BC7F33BD
BDF5EC81
BDDD31BA
BDD1654D
3E1304CD
BDFA871A
BDC0307F
BDBA0225
BD55B91F
BBB8ADDC
3D1E8B20
3D97A9F0
3C250863
BD19FE43
BD3298BF
3D67F03F
BDA42013
BC9767C6
3DC08EF9
BD6FDA83
3DC5FDDB
BD7959BE
BD0C985F
3C904ECD
BCAA0A2A
3DEEEAEA
39E566B3
3D4B3F64
BD454859
BD64435C
BD0F6BC9
3E004189
BDFB267C
BC3B1799
3D1509CD
BD46F263
3BCE0836
3D8B92A6
3D9E9E00
BD6103A1
BCF7797E
BD1A66CE
3D55FDCE
BDF3E3E3
BD0F2354
3CBA0225
3DE3FEE3
3D7B5D54
3DD0C3D2
3D08CCC3
3DA6C432
3D287CDC
3CD2A18E
BD761FE2
BD027FA2
BDC9227B
3CFE4580
3D26B195
3D96EF65
3DA7793B
3D9176B5
BDB2B89F
BE0C84F9
BC33BEDF
3E172431
3D971CCD
3CE6A297
BD74181B
BE178573
3CFDDFCA
BA0D15CA
3D41D1C7
3B6A19BA
3E088B97
3D6CEC27
BDEA9EF5
BCF25F63
3DD5E28B
3C2D051C
BDA86FA6
3D9518CC
3E24B945
3D61C68F
3D35FCDC
3D438C11
3D080121
BD731CA8
3DE75D57
3DE26784
BD6F2C08
3D5D5D08
BB386892
3CAE84AD
BB0B7C75
BDCB5690
BDA47553
BAC95F04
BE2E058A
BD0D5828
BD26F8E3
3E0693C0
3C615D12
3E2EE0B1
3DED5AE2
BDBAF1E6
3DBF9C70
3D59CA0B
BD0F3004
BCAA1AF1
BD4D2B2C
3DF17F84
3E23EC89
BDA0ED81
3DFBDD76
BE0544BB
BE1B313C
BE08294A
BDD13AD6
3C8E2776
3DFB395C
BDB28955
3D34AF19
BCFBA70B
BD48FDA0
BDB8943E
BD8587D7
3E0BA9D2
BE35F139
BDCC37CC
BDF65C2D
BE1A2C67
3E0AF07C
3C9C0981
BC8262E6
3CD75D14
BE173083
3E01CCD9
BDB1517C
BDB6A2A4
3AB325DD
BD978CAF
3CE261F5
3DF6CE79
3C0857D3
3DE1D4B7
3C93836B
3D77A065
BE3E3EF3
BDE603D5
BDAE1C80
3D8635BF
3DB72ADA
BBD765D8
3E00B06C
BDAB5200
BDB7BCB5
BDB40A36
BDDAC0C6
3E0231C6
BE070C13
BDEAC860
3DAA483E
3E00B567
BDD9D1B3
BE1EC6BD
BD469D58
3C3D34A9
3DBAEDEA
3DC7DCF4
3D6FA5FB
3CA30F9A
BDB6B6AB
BD807E9E
3DF132F8
BD963455
3CE445C5
3DC8AE32
BA3A28E4
3E3727DD
3DFEA3DF
3E202CD4
BC9544A0
3D4B0C1D
3C97DE79
3D44676E
3C324994
BD790D4D
3D8D2CCC
3DF2BECF
BD01BCCE
BD94ECEA
BD9B15C3
3DCA1DB8
BDC7414A
BCD18F74
3DE28028
BE23D6C7
3CA492BC
BD4C5883
BDD94FAD
BCB19066
3D364099
BE07EAA3
3D68FAE6
BBCA96A7
BDDA176E
3AD91484
BD153BD1
BD1B9F48
BD517665
3C343526
BDA44C45
3DCD7F0F
3D147EF8
3D5EEDB1
3E39096C
3DD1F70E
3D3E8D04
3CA1A679
3E0859C9
3DEC8CD6
BDF0342B
BE1AE07E
3CD69C8F
3C902C68
BE0FFE6D
399B39B5
3C832A8D
3D134E0B
BE2293D1
3D80BD7A
3DF110E4
3E4112FD
3DA7664E
BE1AF31B
3DB14560
3D0FE104
3DA027CB
BE180CFA
3D8F0B1B
3DE02F30
3D90E3CE
3C503D9B
3E35B574
3C8D7965
3DCB5F0F
BDA16A13
BDE03EEA
BDC2A0DF
BE25B036
BD034FAB
3DFE6FF8
BD5B8FA8
3CDC90FB
BDC8151A
BDFC2C1B
3D7E9821
BDD3B6CC
BDB66250
3DA58DDE
BD88C8AC
3E123AB0
3DB3874C
BE1F9054
3D76683C
BD6325D5
BD634041
3DB42E05
BCBA757D
3DCD0A24
3DE48CF8
3DB3F8A6
3D79EE53
BDB044F2
BC9DFEEF
BDBB2CBA
3D76BE6E
3D018988
3E16C2AD
3C3FA319
3DA6224C
3D791D8E
3BF82E7A
BDFD145E
BE10F883
BD967F69
3DEBFDB5
BDBBC508
3E168E3F
3E0AA4BA
3DEB302F
3D6240D2
3BCE4344
3E155001
3E15D2D0
BD0817E2
BDEB9D3D
BDFE9425
BE4B2BBB
BDD48A9C
3E10C1B9
3CFD8DCA
BDB396D1
BDCD83C7
BCE9A580
BE4C5650
3E28B589
3DDBA0A5
BE3037D6
3D365816
BCAF20B5
3E0137B0
3D98C1A5
BCD3289C
BE0A148C
3D065981
BE3B1DD6
BE3FE586
BDF995EE
3E2037D6
BE1C51DB
BE1174C5
3DE90258
3E456DA0
3D9EE1D8
3CD8DE89
BE0C2DAE
3D0B2E31
BE014C66
3D82CDA5
BD882DB1
3DA7D0F2
BD2A7F4A
3E0FFFBD
3E1412CF
3CF386E0
3E681E04
3C4E08A2
3C8F227D
3D24D933
BD8B6135
BD48FCE4
3C680171
3E351C5C
3DBDF14D
3E29D5A2
BDBC297C
3DBB814B
3E35CE9E
BD99637E
BCF68FDF
3D9D87F9
3E00ED3E
3E2B1811
BD1A37D5
BE412A95
BDBDCA08
3D297BFA
BD4503E0
BE2B890D
BDB26924
3D0FFCE8
BE0B8F58
BCE78DAE
BE136D65
3D980453
3DBE657C
BD8B1BB0
3D13019A
3DB1296E
3DB68E32
3E1369BA
3D8572F9
3D8F8C65
3D746DFC
3D54A904
BBC444D3
BE331FCD
BE176039
3E10214B
3C59C6B0
B9EF5F1E
BE004EA5
3E3DE615
BD9C0981
BDD0FD7E
3DD90C0B
BD9C0958
BE0527A2
3DB07846
3D604189
3D4A945E
3E05C7CE
3CDD1301
BE4EE200
3DAB4BB6
BAF2A854
3D54A06B
BE38E087
3DDE55C1
3D47C195
3DE89FC7
3BD36D7B
3E05E311
3D55B58F
BD3809C7
BE1BF120
BD9A4B99
3E1FF4FD
BD7E8577
BDA47C67
3C692197
3DD50332
3DDB1D93
3D2BDBF1
BE410907
BC877F1B
BDCDF1E1
3D1C6DF5
BDCB73B7
3C571525
3D84160F
BC8FC1DF
BE2CD4AA
BE20C910
BDCFCE74
BD500B96
3DBA086F
3D730927
BE118DEF
BC0A169A
BDFB5FA2
3DAAEAC5
3E1D3ED5
BE409D49
BD757ABC
3B7DA609
BBF2C9B7
BE223465
BE9ADA55
3D8BA4E4
3D2F817D
3BCF2415
3CF975D8
3C58A61F
BDDA3A8E
BE4EC67A
BDB9345C
BD09CB25
BD11FF06
3CB8E087
BDBC0DA5
3E758BC6
BDB421DB
3C5FC4F7
3DB36121
3CC91E57
BD5C8415
3E595EE1
BE328AA4
BCE42147
BDC323C9
BD697AB8
BE368598
BD96C806
3E24BD77
BDAB6658
BDA8AC26
3C5EE782
BE4E6320
3D9664AB
BE23ACD6
BDA114EE
3E24C9C9
3DDECC3E
3D847545
BDAFBA88
BE233615
BE348733
3DEAB1D5
BDCE1E71
BC1C7D19
BE39B1B8
3D0586D8
3DA86C22
BD592C3C
BD957A93
3C7C73EF
3E01D3ED
3B1CEEB9
3D9C0824
3D67F32E
3D711821
BD77E52F
3C8A6183
BD935F3D
3D9FAB7C
3DC95373
3D6DF38E
3DCEB895
3D097AD3
BBC25423
3E0534BD
3E1D5172
3AF1DA4D
3D434946
BE253719
BCA7A637
BDAFD86B
3D9DE30A
3DBC7094
B9FE85E0
3E262B28
BE3B734B
BCC6B73F
BDB85447
3E49D6F1
BDC66051
3E51DFB9
3E17FE4C
BD30B285
BDA15F53
BD13CC80
3DBCB22B
3DCAC231
3DBCA263
3D0B6D51
BDA67D35
BE17EB29
3C966674
3DDF7836
3D36EA5D
BDFA2596
3DA76F96
BD0657D3
3D952E8E
BDE03A32
BBE30B7E
3D900185
3DC4668A
3CC3294A
BE1A719B
3D775F98
3CE2B3BF
3E13BC0A
3D452C3F
3CC7DDE5
3DE50C5F
3DB328A9
BD13113A
3E12AFDE
3D427F1B
3CE3D9C4
BDF13F8E
BD90D372
BC21606D
3E0A7C9E
BDC1428B
BDAC996B
BDA36E14
3DDC01A3
3E149CB2
BDBBA3A2
3C8B97AE
3E1F127F
BC9BE107
BE091B82
BD2D0170
3E24549B
3C8872CB
3DA9DE05
3D963D81
BD66559F
BDB97DF8
3C8F044A
BDEF861A
3E2AB2E1
3BCD1486
3DCD06FF
3E2AAFBC
BDDF0FE0
3C7B02D6
BDC54C05
3CF57131
BD05E60E
3D88E24F
BC2CDDAF
BD023605
BE2B76F7
3DBE52DF
BC499EB0
3DE203E6
BCBB89E4
BD97710E
3DDCAA76
3E1F598A
BD8146AF
BE50C847
3B424B6A
3D50DAFF
BC0C201F
3E1B1A2A
3E021EA3
3D94A44C
3D1DC84D
3E294C01
3E3A12F9
BD5A3917
BC29A870
BE60EC31
3B4B933C
3D0D2C6E
BCAC0D6F
BDCAACCC
BA8EA3F2
3DDD816B
3D71154C
BDADD2FF
BD83363E
3E08A090
BD6AC7DA
3DA93F94
3DB83566
3D99C221
BCC6A3BE
BE3C7B46
3DC9BB0D
3DD60AE9
3DCBEFA8
3E5F4342
BE2FE932
3DFBCC29
3E3F10ED
3DA49E2A
3D21248D
3E022707
BD9FF1B0
BD57BE48
3E092EE8
BE304EA5
BE3ABB88
BE3DC50D
3DC43B7E
BDBBAD8B
BDFC7B46
3D9CEE68
BDD2AE8E
BDD08356
3DD2F5DC
BE11897A
BDD1F688
BD939C37
BDD0E1B5
BE2E3BCD
BD286EEA
3E12A8CA
BD4E65D9
BD4951B8
BC397C8E
BD36FF3B
3CC6AA3E
BD29B4D0
BCECD4E0
3CA70C7F
3D170718
3D157AA1
3D887301
3D2E7A31
3D4A2538
BE03D8E0
BE060CBF
3D678621
3C37B1B3
3CA36D58
3B917AE7
3DE97311
BE30BC38
BC589C79
BE11BA80
3DAC6061
3D6E51ED
BE2DC593
3ADB097B
3DAF9ADD
BE23C31E
3E3F9229
3DAD1EDA
BD03CCF9
3DC370A6
BDE50F84
3E5CD291
BDF6FC9C
3E0ED4A2
BD4D720E
3DEC56D6
3E16E2EB
3D1F41CA
BC84B216
3D39F864
3DC92F7C
BC98DEF4
3D04EA15
BB16A64A
BCAA3B07
BC22A8B7
3DF85943
BE0C9E67
BDC5291A
3E1CDD94
BD50B87F
BC0BAEC0
BE0F3E03
3D146ABB
BBD1C3C2
BD2A2DEC
BD5CD771
BCF20246
3DCE05CD
BCA7AB0A
3CA139A1
3E2B86F4
3E212F4D
3BAFA001
BD43CB31
3D808DFA
3E11C044
BCE74843
3DC24936
BE1EC4E7
3DE754F3
3CBC7531
3B9A44E5
BDECABC5
3E3ED395
BCBC891D
BD05895C
BD1E37DF
3E1E66CB
BDA5365E
BDD478C8
BE16783A
3D727807
BD9E6B0A
3D822340
3D69D261
BE018F3F
3D95D19B
BDB5B53E
3DA00340
BB97CDA7
3E10E0A8
3DE534BD
3B248D69
BD800000
BD45C4D0
3E2080B6
3D4B2994
3DF0214B
BE068555
3C6BFBD2
BDA1EF9C
3C45A815
BE2023EA
BCBF72DD
3DA243DD
BBD0C657
BD115FA4
BBD453BF
BAB2572B
3D3D8DCA
BDD7ACC5
3DD0AC3B
3E306141
BDBD5C67
BCA055E1
3E02E947
3DFE0C5B
3D9293B6
3D289D5D
BC3BE3DC
3CA2FFAA
BE3864CB
BDB86FC1
3D90FF2C
3DCBC34D
3DD528F2
3DED1959
3D663411
3BB3989E
BE1F5DFF
BD554435
3D139508
BE4DB121
BE09CAE2
BE1314CB
3C8B54FE
BD181A58
3C94E3BD
3E009AED
3BDB9C33
BDFB0575
BD976669
BE3AFF6D
BDB5A0B1
BD0E40A0
39921D01
3C8299D9
3D81A46D
3E33E2D6
BC487EF5
BAC4B379
3D44638D
BC522425
3D9090C2
3DD9A848
3C09FBF8
BC05E999
3DCF8056
BC54C62B
3D249FBD
3C8E0115
BE035B0C
3DA819AA
3BA1FFAF
BC6667A9
3DA0FCB5
3DDC054F
BDDE774F
3D23F4B7
BCF30B5B
3D9332D5
BDB68C91
3D38A853
3DDCA537
3C5CD706
3BB65277
BDA367AE
3DEA9260
BD07F9AF
BDA8E3B9
BDC2DAE9
BD12612C
BE177B7C
BC061808
BC028E45
3E0338B4
BE0B2075
BE1C99F2
BDC5B333
3DAEF97D
BD111B10
3DFC58AC
BD3B3DA9
BD7E53DE
BDD16B12
3E0D62BF
3D89454B
BCEDE226
BE12DF0D
BE1C5C9A
BE362739
BD990BBA
3D5D00F7
3D53300E
BD7F8EA6
BC520297
BDC6A1DB
3DBC1FC9
3DC49ECB
BD24AD5E
3E1A2728
3D819D74
BDFD50A9
3DC238B2
3DE2B389
BD41ACC3
3CAF492E
BE5E9318
BDF59AB7
BD753551
3C94A6EC
BC106B88
BE06130A
BDC8C8C7
BD19E300
3D9D0199
BB037FA7
BDC70451
3DC20B30
BCD70718
3DC7045E
3D541992
3D1C3AFF
BCB88949
3D806332
BDE68017
BDE5C9A3
3E07F1B7
B9AFFEBE
BC469DDF
BE0D1D47
3D480D80
BCF16822
BE12BBAA
3E058B82
BDC05617
3DADE241
BDF0D6B2
BE150EBB
BD9B5BC1
3DC2B3F5
388F0699
3DF0FCF8
3D39898F
3D1DEEC9
BE577C89
BE3D028A
3DB36A9E
BCAB7F3F
BD2EC926
3E160392
3E006B7B
3DEF3B21
3B80976A
BDF80F56
3B23245D
3C56F4D9
BD07AB0A
3DE254A4
BDA68E9D
BDAD7435
3CDF77CA
3D471A3B
3CF3EAB3
BE19F2BB
3E147F56
3DE2AED1
BDC8377F
3DF0025C
BDF3B42D
BDA509F5
BE03022E
3D409F98
B98B3313
BD27319D
BD0856B1
3C98859D
BDE3D578
BDAD7B7E
BCD32D6F
BDB79A43
3E368DFC
3DA0EEB5
BDC6A99D
3DD9F7F9
3CFE4FFD
3D5B22B6
3E3D362F
BDBCFC4D
3DE58794
3E1625A7
3DA391FE
BDAB319A
3E319115
BE12BC30
3DF8AFC4
BCDB0468
BE0AEA74
BDD2E947
BC03C5BD
BE0FAB97
3E056F33
BD8E3781
BD0108C4
BD520C21
3D363165
BCE41CAA
3DD951C6
BDD2C94B
3D450B37
3D90FF61
3B160815
3CB96FC3
BD81A17E
BDA42A4C
3C67DB46
BE1AFFF3
3D809CF9
3D26CE6B
BDF17269
BD64906E
3DB0B5E0
BD68A76E
3DA7FF3D
BCDE8633
3D32D250
3E23647C
3DC06BE6
3D601A1C
3C0A7524
3E0FDA40
3D7370F6
BC9B34DA
3CCAFAD0
3D89132C
BD17815C
BD443823
3DC243EA
3D9AFA22
3E0125DD
3DF57DE1
BD4D6792
3D02D7D1
3D094417
3D9D9938
BDC045A0
3E06A099
3E0EB075
BDB31FC0
3E0954EB
BD0CDE35
BDD44913
BA33E6AA
BDC94340
3E028D43
BDE85122
3DCDB489
BD9A1FA9
BDB720AE
BC9E2C3B
BD21B8B7
BB9DF2DA
3DDEAE5C
BD101BD7
BDF029AE
3D4C951F
BE06A551
3D548924
3D136629
BBBC49DD
BDA0EE9A
BDD59DDC
BE04E69F
3D72F29C
3D9D48D9
3DC1214D
BD7BFECF
BBFB2A83
3DD80ED0
3DE4063A
BDE7C7C5
BD858545
BD40BEA2
BC53F119
3E04330D
BC42F90E
BD3F0747
BC810873
BDF60957
3CA79937
BD0158AB
BD820E12
3D634C50
3D25CD4F
BDC66136
3D20D075
3DF31DB4
BD20947A
BE0C9E23
3D927576
3B937D76
3DF80779
BDC67DA0
BD39E732
3D71701A
3E01BA80
BDAA53FC
BD1A9923
BD163FDD
BD45817F
BDA3211D
3C2A26B0
3CB82972
BE0A38B9
3C39C447
3D86CD36
BD53DADE
BC94E245
BDC73308
BDA2576B
3CB74511
BC2FC18F
BD9F78D7
BC5D96B4
3CF64785
3C057C8C
3D8932AF
BDCE9D52
BD1D47A4
3DB73259
BD466F6B
3E047ED0
BE01971C
BDA402C4
3DE154CA
BDECB210
BD99B7A4
BD481791
3B95C829
BBC4A271
3D79EC3A
3AFD92BD
3E0D8BE7
3D81011C
3D1BC15C
3D6AC3C3
BD98755D
3DF4F9C2
BD9EB68A
3DF33333
BBE71CAF
BDC83955
BD63B206
BD7780F0
BE1563ED
3D8EC121
BDC3C31E
BCF0B037
3DB25B24
BD3610FE
BD28C4CB
3E010B63
3DD7B41C
BDF01190
BB841233
3DD64F98
BD10D38D
BDB74F8D
BD8D1202
3BA6D973
3E09A9DA
BD7E959D
3CAFA2F0
BD52D285
BDA3CC08
BD7749C9
BCF36D15
3E1890D6
BD0FBFC6
BCEB7B43
BD2C008A
BDD595FF
3CDEFD51
BD476F45
BD2E61F8
BD8C3068
BC54A64B
3D668753
BD6D8234
BD5D3855
3D5DB5A3
3DEE336A
BCC89317
BDC32A7F
3D7C272D
BDCE514C
3C2A0019
3C0229A6
BDFF92F3
BC62DDB0
3DD3B081
3B53745C
3D2B0C6E
3D319645
3E070C99
3C742B4B
BCB0AD47
BE100D1B
3D8E590F
3D07A5E7
3DCD288D
BD89CEB6
BD161424
BCD858F2
3CE73BAE
3D810576
3D400A47
BD2E464A
3DDCB9AA
3DB14354
BE077100
3D0605EE
BD790A5D
BDA110AF
BDCC09F9
3E0B31C2
BD9C3266
3D280EC2
BDF1FA33
BCDDB629
BB5EA511
BD7764BB
BDF8E087
3C9509E8
3DFD5E4A
3B72F52B
3DD31B9B
BC065031
BDFDCF03
3CF2A788
3CBB2753
3DE1C609
BDDFBBD8
3D60DE9D
BE07BE55
BBCFBF05
BD9F4B04
BCDCC16C
3D9C6393
BD7E05BF
3DDF316E
BDD68D76
3DB634B3
BD2E4B37
BDAE5D40
3D214B3F
3DFD3FE2
3CC80878
BD2B079B
3D6F463F
BE20A915
BDE7B678
3DCA57B5
BE0024B3
BB8427AD
BD6C91C4
BDA7A19A
BE0788DB
3DDC3611
3D074589
3C59F7C3
3E0F1498
BDA877D3
BDE1615F
3CCD031E
BD29D1C0
3C853BDF
BDCBB525
3D486BAA
BDA38F51
BE048E47
BACE98D5
3DD44242
3D3E2336
3D77E798
3CD99E37
3E06E32E
3DD0880E
BE104EE8
BAC5AB1A
3E092C06
3DC8E3C7
BD4CA311
3DC0BD45
3D742C07
3D881A30
BDBC7EFF
BB8281D0
BDE8EEF2
BC99D346
BCCF5AE7
BCB2D8D0
BB4616A5
BDF8116F
BE1AC8E7
3DDF8CA8
BCA11E93
BDD8AB93
3DCEA748
BD9C38BE
BDB4E79E
BD95ACCD
3D14E535
BC95AF29
BDD9BD40
3D6C4736
BD90526B
BDD81E8A
3BD622E2
3DC602C9
3E0723EE
3D9EB3DD
BE030F06
3DEC3E32
BCE8D618
3DE6E115
3DCBED16
3CD2B8D5
3D5FC639
3DB13C9E
BD8087A2
3D934839
3DCA74A6
3D7F9EE7
BCAB8F65
BDE1CE6C
3DCF190D
BDE66BA5
BD2CDD0E
BD8B1458
3DE0F7FD
BDE405B4
BC47D079
BCA647FE
3CAA931C
3E12AB69
3DC34A1D
3D3D5F8C
BCF48AEC
3DE82385
3D9A82B3
3C9B9842
3DC7BB58
BE08E8A7
3D8DD617
3DD4916D
BD2A70B7
BE0954EB
BCF6D14D
BD7FDF49
3E10A56A
BC8A50F2
BE08BE73
BD3B9B9D
BDA3BF2F
3D6D4AD7
3E01975F
BD539DD7
3D0FCD9E
BDCE0EB6
3D3F255F
BA9435AD
BBBFBA55
3D5FEEB3
3D74ADD7
3CA04B65
3AC794AA
3D6E7D3C
3DEE52DF
3DD09D8C
3D175AC5
BDB2A348
BE03860A
BDE2C450
3DC30546
3D8DFC6A
BD1CDFBA
BE00AB2E
BDD74BC7
3DE8D6D4
3D81896D
3D1154A1
3C969E3D
3B08C185
BC58FFE1
3D455707
BBB182AF
BDB9E541
3DA1BEF5
BDA8140E
BCB49FAF
3C7E612F
3E0B630B
3DDB163C
3D5C7029
BBDBCC6F
BDA13A85
3D320DCF
BD57518B
3DF1715C
3CE61C29
3DA08F21
3D4FB275
BC2F5269
BB89D66E
3BA52757
3DE02A78
BB567FA9
3DD5EBFB
3E1822FF
3B4BDA34
BD5C4C67
3DD14F48
BDBEA938
3D8DEF5C
3DABE86C
BDC13AC8
3CF9E8C4
3DA0D05A
3D99A580
3E03C9EF
BDDCC8DE
BDECC682
BDDA4BDC
BDFDC487
3D90078D
BE01D713
BE085C25
BDE5CDD5
BD1D2E5F
3C82B6FF
3D8C3357
BB810132
BD193BF6
BD204011
BB37BD1B
BD7006C3
3D3D8D95
3D8C4256
3D139BA3
BDBBB9A7
3D32198D
BD515DDB
3DECBF2B
BDFFFCDB
3DF86877
BDEE4218
BDBF7597
BD511531
3DC2CA65
BDC066EB
BC3735F7
3DFCA85D
BC98566E
BCCF2354
3CDC0F60
3D5CAF13
BD8F7066
3DD227D0
BDCCFD8F
3CA193CE
3D9770B0
BC81531C
3A859E65
3DCE2B8C
BDE65732
3D24AE35
BDCD1FA3
3DD9C94F
BDDADC0A
B9CD42C7
3DC062D4
BCA66E5F
3B7860CF
BD9D7CF6
BD660781
BD2296E9
3E08CB8E
BD83F7EA
3AB3278A
3E026202
3D26B576
3E12A38C
3D96BEA3
3DD54C12
3CD00E35
BD199C1E
BD6558D0
3DE39A39
BD6237CE
BCF5E885
BDF9D66B
BE051A43
3DEFE1DA
BE06C54C
BDC7574F
3DFB089A
3D1E88B7
BDB0DE75
BD49998C
BD25FA30
3CA585CC
3DFD102C
BD696A5D
BDB99A99
3DF85511
3DD13837
BDE77708
3DD87DF6
3CCB0044
3D62B7A0
3CA06A03
3D290EB7
BE0460AA
BD8B5F37
3D4D7DB2
BE013FD1
BDD97BB7
BDAB7C5D
BC45161F
3DB1DCAF
BBF6B325
3DEBAF96
BE461AA4
3D9B1A0F
3CC1FE07
BD4016C1
3E16E222
BDE4EA4B
BE04573A
BD21D5C3
BDAC3CFD
3CFA0A52
3D0DA24A
3DCCA31E
3DB6C5DF
BD7CA750
BC91DB5F
3B97C066
BDBA718E
BD2F573B
3DB47212
3D2EAFC6
BD7EEAC2
3D84FA8B
BD04032F
BDDC0B13
3DD7763E
BD42F5E9
BE1246BF
3DAF0902
3E21101B
BE10B956
3CB70047
BD65ABC1
BD6D6DDC
3E00B3D5
BCD7DA7D
BDA07076
3C7D43F8
BCCFC5A6
3ADFF823
BDD6E158
BD5F5515
BD16C6EC
3DC326D4
3DA45712
BDE43AA8
BD11EDD4
3DEBE597
3DD1B585
BE06C2AD
BE414D2F
BBB39417
BE0A1CAC
BCE2FFDF
3D33BAC8
3DA9ABCB
BD86A9E0
BADBA786
3E11AAC5
BD6B0319
3D9C5E70
3BB54B66
3DCDAFD1
3DBBBD53
BDD8C2A4
BD495839
BE135222
3E114A90
BD5FD02F
3D862A79
BDEF0F17
3DDD2418
3DA5DD67
3E282C2C
3D7CE43C
BCC5F395
3D67AA33
BE374214
3CC154FF
3DC507EA
3D8327EE
3D99EFB0
3DDABC94
3E1BBBA5
BDA58411
3DE6B9C3
BDB8A182
BCFF08BF
3BA946F6
3A92B071
BE0E83A1
3DAF722E
3D834DBB
3DF12A95
3DA7D01B
3C8E5E32
BD9AE650
BDD12F4D
BE277425
BD5A7E81
BB03B17B
3D8D1EE7
BDE92D56
BDAA908A
BD129025
3D72EEBA
3DAA3E3A
3E15E56D
3DDA8D65
BBDFF5B4
BBF6CF2A
BDB04A65
3DA54C55
3DFB0F6B
BD86EDAB
BD8A9D1F
BD7EBD5A
BC9CD771
BD8127C0
BDBE4035
3E095AF3
3DC9A8C0
3DDD3D43
BD9B1C1B
BD9ECD08
3DC4DA4D
3D5AA766
3DAC53D9
BA104D26
BE4167EC
3DBB495A
BD4B0A04
BD278D28
BDBD3290
3DAE7D9A
3D54E2E6
3D9CABED
3DDB0EE5
BDC31579
3DA7B11F
3D4DCFE7
3DE19B0B
BDC6D8CD
3CA0C96E
BCF2B600
3D759990
BDBB8796
BD87C003
BD2C9265
BE1013A9
BD9383FE
BD867621
3B68DC78
BC312613
BC82D568
3DF65343
BDF717DF
BDE29F17
3D81187E
BDE77A2D
BDC6E48B
BE111277
3DD8090B
BD28B5B1
3BD0CDB8
3DEB191E
BD90E7AF
BDD3FC87
3B58F2CB
BDCEC205
3D6B8697
BD9CCACF
3E09203A
3DD47CFA
BE150CE5
BE287C63
BD9D8A55
BD5892EF
BE0DDACF
BC965EE7
BDB1A9EE
BDD2C5A0
3E206AB1
BCBA90C0
3E000086
39FDED23
BCE32C8B
BCCF55DE
BD9F203C
BE042A24
3D5C0BB4
BDAADABA
3E2B71FC
3D2B880E
BCC4CE66
3DFF969E
BD03AA7A
3BA5A23B
BE0B52CA
BCF3C204
3D9BBCBF
BD4A6EEF
3E21CC96
3E047F56
3C24FE52
3DE0FDC1
BB43DD90
3C48A739
BB62D679
3D583714
BD80D39A
BC12CD62
BC731A3E
3DCCF851
3E16BB13
3DC685C1
3E2D816B
3E25A9EB
BD28B0DE
BC6E7F3A
BDA51CAD
BD81296E
BC955780
BBAA5F90
3DFE774F
3E2B1961
3CA31727
BD965ECC
3CC7FE31
BDA284D2
BD315FA4
3E1BACF7
3D8F8F1F
BCEB9B8F
BCD89D86
3E30EB68
3DDEF523
3DACA60E
3E181238
BD20F924
3DF4BE83
BD2D2A8B
3DC42F11
BCBE75BC
BD88C5CA
3CF25263
3B8F33A5
BD659048
BDB7A61C
BCB3086B
3D91438A
BC885AAD
3E222F27
BE08E582
BE398A22
BEB22DB6
3E6DCB58
3D947439
3D2C9C40
BE219B0B
3DAFEE7D
3DDA1F4B
BE8A6FA4
BE1D95DD
3D1B8AD6
BE15B424
BE13C925
3C93DADE
BE087400
BC9336A9
3E32EFD4
BE1FC32F
BC69A9E8
3E2C343B
BE01F81A
BE5CAFB4
3DC3EC7C
BE521C8A
BE365A14
BD774942
BE15C183
3E512EC7
BE33FC87
BDAC121A
3E7C0160
3E7EC919
BE1D78C4
BE045E92
BDB11424
BE47EED4
3E1545C8
3DEEE526
3E24156E
BE077EE5
3E16D506
BE3B7415
BE730271
BDAD21E4
BDC56019
3A37682E
3DA7FC18
BC17161C
3E3502AC
3B576C63
BD56262D
3E6ABC0E
3CADB3CD
BD863D23
BE1D9408
BCE995C6
BC6A5D01
3E230058
BD9AFF88
3E2203A3
3E6E8922
3E1D5A18
BDE5260F
3E5FA00E
3CFA7DAA
3DDB0DD8
BE0BA8C6
BE015B9A
BE0A908A
BDE04B7F
3DD17614
3DCFE048
BD96BC12
3CFEBF8E
BD3AF386
3E25C5F8
3D7057B7
BDB53338
BE0CEAAF
3CDC7C6D
3DF211CB
BE12D9CF
3E2C050C
BD38DA3C
BE3CC89B
3C1054A1
3E166BE8
B8487CDC
BCDA6A0F
3DBF7FA8
BE60C283
BD8264FF
BD050467
BE6FEAC4
3DCE04C0
3E18C048
BD910300
3E04C511
BDFBA344
3E756C51
3DA2D9B4
3CBCB7E2
BDDDC9C5
3CE5A8D1
BCE16972
3C58BFB5
3D8308AE
BE4BDC27
BDE01CD6
BC7C18EB
3C12DD12
BE069D30
BE54E400
BB38B137
3DCEDBB6
3E93E5DA
3E34CD31
BDF0C997
BE09A06A
BDD784EC
3E4142F6
BCF6B2E5
BDBB71EE
3E707421
BBE60807
BD899377
BD78A471
3DAE2626
3D29C8F1
3E618F82
BE5ED17C
3CFBA9FA
BE07CE53
BE2347A6
BDDDA37F
BE13DAF9
BC5CDC0F
BC853346
3E6713F0
BC92F789
3DED0918
3DB12132
3E2FCA00
BDCDEB96
BD0EE8EC
3DB90A42
3E8EBBDC
3E1BB731
BE1C2507
3C580F20
BE278034
BE5A558F
BE30F388
BB947F13
3C565577
3E80F734
BE50A99B
3E74ECA7
BE00B2C8
BD5A95C8
3E37F0AA
3E181CB4
BE09567E
BE29D777
3C99DB08
3D22BE3B
BE501712
3E4DE8B4
BDABEC82
BE7B75EA
BD5D4C26
BE8A1661
BE18A32F
BDF75B81
3E37496B
3EA3B1F2
BD86D29D
3C0B6B0D
3E1409E5
3D889522
3D2E2D04
3CC2D6AA
3E11CC53
BB04FCD4
BD6809EF
BD5E40C8
3AFAF702
3E080629
BE1A7CE1
BDD1F4F5
BD06B0F4
BE984DBA
3E2C8DE3
BE2C71D6
3EA07E9E
3E444524
BCE2DF28
BE1BC558
3C93D4FF
3DDB8801
3D427540
BE79EE46
BD8BC10C
BE458D9B
3DE8A505
BD38179F
3DD0403A
BE29841B
BE89018E
3E3B8024
BCC169C2
BDB097AD
BC927AC1
BE2C6973
3E4D102C
3C71E083
3DADCF89
3E4CEAAF
3D44B846
BD213702
3E5867F1
BC0132C5
3DAE89C3
3E2DAAD6
BE453975
BE216590
3E8CA6CA
BCF054FD
BE03C70D
BE819E0E
3E210DBF
BB2B9BA5
BD871EBD
3D9DC685
3E1615A9
BE0E7642
BE27314D
3E954BCF
3DA59734
BDCBE2DD
BE162175
3B8293C4
BE378D50
3CD6FC9C
BD4B9B3F
BD14DCB6
3E2D9A52
3E030CAA
3E5C07AB
3E004FF4
3E4C8DE3
3EC27200
3E758299
3D1C51C0
3E9F3648
BC497D8D
BE02BA17
BE1FBEFD
3E32A66E
3E01C4B9
3BF87674
BDF9D0A6
BDD8E8EA
3C37BA16
BE3C5155
3D0725FA
3DE7DB2B
3CCA76E7
3E0090F7
BE21626B
BE21CAC1
3DAB61C8
BD459EC0
BD97EB94
BD3EE8F9
BC9B7176
3DA76CF7
3D12E20A
3DE29952
3D4FE890
3CDF2B3E
BD4E6701
BD894277
BC14116F
BE0BF488
BDAD127A
BD890654
BCFE047D
BDD899BF
3B84F4B1
BDA245B3
3E001FB8
3B7FADA0
BB79C7D8
3E186013
BE1B0814
BDA82A3B
BC782393
BD2603A0
BC6CF4F6
BDE1187E
3E00FECE
3DF76AB6
3C45494B
3BE4360A
BDBA3BD1
BDED2568
3D040CF0
3CF8CEB3
3DDFB15B
3D4FD743
3D8E4291
BD9D8A3A
3C74C108
BE137868
BCC59210
3E2B4289
3E3794A7
3D6F5DA1
3DDC88E8
3E2C636B
3E16049F
3B2BB3A3
3CF7263D
BDB4BFC5
BE22AA19
3DCCE704
3DCC4E22
BD7BCA61
BE0C1334
3C816235
3D84DC73
3CDBFFA5
BBF9B6D0
BDC32E2B
3E230CAA
3D8702BE
BBCD333A
BD901084
BBF1E474
BC090DBB
BDF3E682
BD9449C1
BE0F6599
BD04662C
3D9F22A5
BDC20DA7
BCD84AE5
3D87D05E
BCF0761F
3DAD0785
3DB5196D
3C80DB27
BDAE41D5
3D933FF1
3D1A2E65
BDAE345B
BE287336
3D9DC7FD
BDED26FA
3D996F3D
3D644391
3D2CC1AF
BCB9DC2F
BD3AE6D6
BC1330D5
BD052828
BDF6451C
BDB5168B
3CD076DB
BDFC4C16
BDA09460
BBED191E
3D84B670
BDB04EDA
BCFD735E
3E2A0D78
3D36FEB5
3C1127FB
BD2BE86C
BD0ED098
BD10F099
3D09C652
BD3816E3
3BF3F296
3CE5555A
3C75019F
3DA1C872
BDEE7CD0
BDE94813
BDF9E83E
BC5BCA2B
3DA97C66
3DD9285B
3DCDC8FC
BDCDB50F
3E0C01E7
3D9E0B26
BDBFDD08
BD13028C
3D10C8C0
BD7702B1
3DBBC9A5
3D07D871
BE259F2C
3D6C36A5
3D679F9C
3CC123B7
BDFFA765
BD916F00
BD9DF49A
3E203EA7
BDC315AF
BD1413B3
BD866CD9
BE1F5A53
3DCA2CDF
3D0CC469
BBADB647
BDFB96AF
3D6AECDE
BDF12770
BDCE5DE1
3E0C13FD
3D61A120
BD842104
3CB418D7
BE362ED3
3D90EF8C
3C60F792
3D64005B
3D3F8D49
3D850580
BDE21AF8
3BB98609
3C3B4C72
3D9BAD55
BC89B739
BDABBF94
BD32F952
BE0974A3
BD3B0509
BD60E878
BD643A21
3DC2B587
3E0EBF66
3D65CB00
3D4829EB
BD74C371
BD9D4662
3E06F7A1
BDF695D9
BCDE1346
BD04E8D3
BC8C2283
3DFD9C28
BCAD1A14
BC82D4C7
3D85C0AC
3CF33EBC
3DB34084
3DEFBA88
BD9F4EF3
BC247601
BDCE5365
BD8E6736
3CBCD573
BB763C07
3C406042
BE323140
3D9118F7
BD3AF94B
3BB8DCD6
3DDB762E
BE02A51E
BDD74E66
3C3D4A79
BDC24C33
BC40A0DA
3D9DC890
BAC1785B
3E01C6D2
3D8FBC43
BD90E9D5
3E16C051
3D8DBDF9
3D0FC7A4
BD617424
BDCFBA02
BCA4CEEC
3E1815A0
3C95F677
BD548685
3D8728CE
3D1E637D
3E04662C
3D04CE16
BC26011C
3C5B7BBC
3C57FAFE
BDAC5DDC
BDE46CFD
3BC6E394
BDAD52B4
BD0008CF
3D28538C
3DE3C42A
3D7FF731
3D92D568
BBF1E926
BD1D92B8
3E074081
3DCFED63
3C59E4E3
3DA291C6
BDCA16BF
3D802DFB
BD764049
3B26C379
3BF83B90
BE389CE5
3DCAFBC2
BE05A07B
BDE1B64E
3DEB1359
3D9378FC
BE05CEE1
3CF61ADA
3E0861E9
BD8FF4E3
3D88ACF0
3BA81A7B
3CB26832
BD2F21F7
3DCED352
3D7FA40A
BDE54AC3
3D8E1D07
3DDFFC54
BCCD2517
BD9443C7
BDB2D3E2
3DB8300D
BC10234E
BE39BB28
3DB47BD3
BD9A8A9D
BD4CC393
3DD0E6F3
BB4D1094
3C33E001
3D9D43F8
BDC922A4
BD809F1F
BE10EE07
BE16F2E9
BE230E80
BD207E40
BDBD8C2A
BD2DEA89
3DC0582F
BD084F5A
3DF6805A
3D832881
3D9DA0ED
BC93B62B
3D669F06
BD00791C
BD80A295
3D253402
3D8195BF
BD1A1987
BC2CE4D0
BB0DA194
3BBAAB0C
BAF3D09D
3C024184
BD815BC3
BE027B2D
BDA594CA
BCFE18D5
BC66B328
BD3959BE
BD95361A
BB68E506
3D31145A
3D12A7F3
3D8520F9
BDE80E06
BE068E3F
BDCAFF38
BDA2BB81
3B818C47
BDBFA567
BCA22A62
3CE35EAA
3DFDFA87
3D863F4A
3E10841F
3CC49A99
3DA715D4
BDD89EFE
3CD01770
3D1B6C88
3CD010EF
BD9B9892
3E0EFB6E
BD5E0031
3D4A9296
3CEA72D0
BE04373F
3D9F3097
3C33A117
3C8BE4DB
3DC2C146
BBCE4D6B
BE0AE3E7
BD572DC9
3E16B3FF
BD99E2B0
3C88F38F
BD991893
3C6C4A41
BE15E679
3DAC0046
BE09A77E
BD22A03E
3C8387DF
3E17C5EF
BB90AF25
3CF4A630
BD982378
3E0E5A79
BD6ADD59
3DE97072
3DCC91DF
3DF92E1F
BD14902B
3DF76D55
3E1AC216
3DA1ECE2
BC9134DC
BDA37C13
BDC52EF9
3DF30165
3D8CDDF2
BD388151
3D79DBFA
BDA5D173
BC36C8EA
3DB46702
BD8CB9ED
BD3931E5
3DCCF0FA
BDA85DD2
3DB5149A
3D8F8099
BE04F9C2
3D9F86FF
BDC6DF4D
BE2A1A93
BB95FCEC
3D06F60E
BDC70CEA
BDD06CCA
3DA2B9C6
3C8111AE
3E1E91C9
BD8A223B
BD2EF25C
3D111AC0
BD635B85
3D71634F
BCCA28E3
BE236EB5
3CCED012
3DAEB23D
3D9C318F
3D905E7A
3E1E5ABC
BC03A74A
BE2DCA08
BCA0479E
3DC7FFD1
BD799F79
BABD9476
3E0CED0B
3E21E215
BD07E2EE
BE192296
3D786262
3E108FEB
BD36C01B
3C116909
3D7DD243
BCF58695
BDAD0D3C
BDFC89F4
3CD44242
BC808FA8
3CD2B4A3
3CCCEB35
BB88F70A
BDB13D67
3DDD4413
3D93E758
3E0BCCF3
BC8EFADA
BBDBA7F1
BD948627
3DE9DD7F
BDE43782
BD26912F
BDAF68E6
BDC4F858
BE098890
3D6DE4C5
3B4FA6F2
BD82D9DC
3D99C935
BE175254
3D8AF5FD
BE06CD29
3CA48302
3DDC0097
BD8192EA
BD09F7D1
BE0784A9
BCEB68CF
3CABC43F
BDBF122F
3DFD3565
3E24AA54
3D90A2A2
3DFAAE6D
3D70FB9B
3DDC5155
BD8CBE7D
3E15ED8D
3DC93C8A
3D2A6F75
3C577C53
BD361368
3DD0624E
3DADA943
3DD8C4BD
3DAA97AC
3B7373AB
3D694C0F
3E459253
3DEA0A96
3CBD6917
BD9F2BD2
3CA88052
3D875BA9
3D4FA3C7
BD65EB9D
3D88404E
BCF89035
3DC6D938
3C6D31C7
BDE239E7
3DDC8323
3DC22326
3D76DC50
BDEBBA99
3CD380E6
BD8C026D
3DF5B78D
3D716914
3BC68AD4
3D36FB09
BE4DC593
3C6A0EFD
3C280354
BDC0946D
3D902D67
BD04C03E
BC4FABA4
3CA3E872
BDD8CC14
BD187740
3DE93EA3
BD1C5982
BD501B1B
BCBB8F8E
3D4F6AF2
BDDDB339
3D7FE5FF
BDA4ADBC
BB036DB3
3D88E0AF
BD19A1AD
BDA83CBD
BCD5AAF8
3DD0D7BF
3DCCEEE1
3C78E051
BC7F9AEB
BD85AAC2
3E00F1B2
BDBF6944
BD8AC13F
BD08F8CD
BDDE53A8
3B33CE23
BD7B80C5
3DD94B7B
3DDA97E1
3E378CCA
3D716279
BB60E65F
BD340F4C
BC3627DA
BD0A49B5
3BB97908
BD8527D8
3E06B3BC
BD60B3BA
3DE07358
BDACE033
BD156BA2
3E2F80DC
3D5D5B0A
3B1B8C8E
BE1EB7CC
3E04CA0C
BDCAC7CD
BDB5FC64
3CB3746C
BDA52447
3E230A4E
BDC48F61
3C69EC98
BE18AA00
3D56A66A
3D860B98
3D929AE5
BE0326E1
BE3F0AE5
BC3E6B0A
BCA9B5DC
BC14C9BC
3DB79159
BDE1C2E3
BDB9A706
3D2B6E79
BD465153
3E0B50F4
3D8F89D3
BD823CF1
3E1AD8A1
BDFC1052
BDE82731
3C1030FB
3DB64CDE
BDCF7553
3D71A3CC
3DC4B4C3
3E0DB014
BDCC4C59
3DF22FAD
BDAD44EA
BDA71FAF
3D9FD1C2
BD9203B1
3D3061AD
3D1DBB82
BDEB9A9E
3B48F984
3C1519B8
3D27CBDC
3C843F60
BC90777C
BC948593
3BFB6551
3D8B3220
BC43B2DD
3CFE9C88
3D34E2E6
3C52849D
3E0FA00E
BD9FCDD3
BDD2B6F2
3CDE4F76
3CC099B9
BC637D7E
3CA06855
3DE1815A
BE1A0B5F
3D8DB2CE
3D788659
3D2D5EDE
BD6C9031
3CC6F9EF
3D4A57C2
BE124181
3CC0BED7
BDA67EE2
3E00B4E1
BDFBDC6A
BD8C91FA
BCAF8E2D
BC8FACE6
3DC67705
BD1EAF68
3C190738
3DC66AF6
BD9DA6BF
BDD0EFDD
BD36F453
3CC7D871
BDD18549
3DF6D4C3
3D4E3228
3D0D9077
3D7769DF
BD594B60
3D8AA07A
3D15302E
BC0C7CBB
BD108B68
3C6DFB86
BCABBC11
BC95AFCA
BE02E169
3DC2F09E
BDB66ACE
3D2E86E1
3C2575DB
3E041462
BCF7E224
3DA3B9BB
3DD36A40
3A00CB0E
BE181E47
3D1CFD16
3DC209EE
BE157CD4
3E0AEA31
3C9A9BC2
BDEA51E3
3D2406F6
3B2DCBAB
3D2D6F8A
3D284670
3D3C304D
BE32B7BB
3D61ECF0
3D005865
BE1C9FB6
BD648B4A
3C0C14B6
3DE1DDA0
BDE738A4
BE14D7AE
3C699129
BE198740
BE03CAFB
3D441F14
BDBF9351
3D918A29
3C0C0242
BE2A51E3
3DF15F89
BD80E205
3D61E563
3D774688
3E4218DF
BDA7ABFC
BE1DAEC5
3D8BD7A5
BE10110A
BE13C255
3D0207C7
BD716EBD
BDD78C43
3D88CEB3
3B74CC45
BDA71957
3DB7788D
BD2D01DC
3CA207FD
3C8E2AD1
BCF807AE
3D9AFC48
BD0BA0CD
BE2BB235
BC0664FF
BD76F23A
BD70C7B4
BC8F9F45
3CE81634
3E123AB0
BD0773AD
BE0A46E1
BD8F03A9
BD731444
BD2D3F33
BD3B99EF
3E0AB863
BDE670E3
BD7B2307
3DFC39BD
BBD15979
BE40CC79
BD9C2466
BDB35943
BE0CE67D
BCE3E9B4
3DE342AB
3DC6B78F
BBBBDDBC
BD86DAD8
BD81B60B
3DB21D89
3DD1F0C3
3DD34D6A
3DFBB40B
BE1043E5
3D96917F
BDEB7DC8
BDA22630
3D4EC6D8
3DEB0857
3CAEC1EA
3C9CE7CD
BC5BA6F0
3D03137B
3D0BBD1D
BD02A52C
BD2ECB75
3CABAA08
3E07DD01
3CAF4674
3DEDD26B
3CF33C6D
3DA2AC4D
BE041E15
BD497BC5
3D5FE9E0
3DC4770D
3DB7B254
3DBBDAE5
BD568BC8
BE060FE4
BD17D036
BD64F34F
3D8FB9CC
3DFE2153
3D89D063
BD1E70CF
BDEA6B94
3DFD11BE
BDDF2346
3DFB2A28
BCEF2D4A
BCC517CD
BDD6E8B0
BDF9999A
BDADD3FE
BD7492E4
3A0BAED3
3CE836B6
3D598A15
3DDDA837
BDE50ACC
BDD0AE53
BE0DF97B
3D19884C
BE0548ED
3DD12125
3D224555
BDECD6C3
3BD41B20
BD3CC2C9
BDCF1ED1
BD7145A3
BD828A6F
3DDBCDBC
3D7440E5
BCB7707A
BDDB3F21
3DDDA9CA
3D7E9CD9
3976472B
3C42DF79
BD8B6A04
BDFEBB77
BDBD7930
BD672F84
BCF3F8C0
BC2F5192
BDF187E8
3D5F1E23
3C8D74FE
3D8248BD
3DA9EF02
BC89392F
3D66DC43
BC97DD6C
3DD780BB
BD853FE8
BDCBD3DE
BDDAD752
3D507208
3D7CE076
BDBE6F64
BCB223D4
3D26DC0D
3DEAD57C
3C2F5416
3BEAE902
BC84C2A8
BE133CA3
3DA23C5D
3D30A59F
BD457A5E
3D361C01
BC2BCCA2
BD2A2121
3D19A939
3B213B4F
BCECA4A4
BCC5341C
BD3B1BCA
BDD5842B
3BB09B13
3DCE1262
3DB7D087
BDA4CCAB
BDDB517A
BD808FEB
3E05CD4F
3D900EF1
3CBAEE48
BDD25919
3DA552AD
3D5A35A1
3DB073F9
3DF6249A
BD800508
3D9C6B63
3DD7F499
BC48ABD6
3D57E19E
3DD67A96
3DDC0A8D
BD99493A
3DDE5754
BD29FC02
BC8E6F64
3D726B57
3D5BFAD3
3D888708
3D58541F
3DA93EA3
3D6247BE
BDDF0E4E
3DA6376C
BBE51DD1
BBE67413
BDC88C53
BDDB82C3
BB9B9DAB
BE17CD8A
3CDE1163
BD61F121
3BB88DFC
3CA9FBE7
BCF2D250
3E039581
BD3587D7
BD06B2D7
3D472EAE
BC883ACD
3C2B8E8F
3D1CFF2F
3C2E6355
BD80E8D6
3DFC5A3E
BDAEAD4F
3DE45910
BDC935B9
BD891497
BD8BFB81
BD9EABD8
3B5DBC33
3D1C2F91
BD156BF3
BCC3B3B4
BC97E77D
BD5120BA
BD6A0F33
3D8C68EC
BC84FE01
3DD6E1DF
3D92F860
BDB87202
3E15FD8B
3D39E5BA
3C77608A
3D9744F6
3D9DA661
3DADAD5A
3D65355F
BDA2CD04
BD3860EA
BDAA420E
3DE999DD
3DCC0E7C
BD920D56
BDFC9258
BDD4DF05
BD02863D
3D40262B
3D8C4DA9
3C68F664
BD54B889
3DB0584A
3D643AC2
3E10CE92
BD866BDA
3C4AC3DE
BB9D5AEF
3DB11F6A
BDA7BF11
BCB527CA
BCEA8651
3D9B7704
3DDEC02F
BDAB4E12
3DCC03E5
BDA29267
BD3B4891
3CC22B53
3DA49C7D
BE095571
3C64019D
3CE477AF
3E18B0D1
3D8142E9
3D915DDB
BDA213BC
BDB3E1D7
3C82B983
BDE93187
BCE941E3
3CA15479
BBAAE45A
BD9CEA0E
3DE74C0A
3D46743E
3D4EB082
3CF9D1E9
BCD47FB4
3D811ADA
3D94F6C5
BDFD27C4
3DC64D64
3D49F9CF
3D892F39
BDB3FDC9
BD4AE247
3D76E38C
3DB8CA8F
BC041FCA
BE07D5AA
BD2B356E
BD2C25F9
BDE1B4BB
3C717F9F
BC887047
3D70B001
BBF614DA
3DDD00F7
BDC54DA5
3D962C19
BD860F1B
BDDAB29E
BCCAA82F
BCE6FB17
BC34F540
3DD7A787
3DFDEE78
BC8C7234
3E165D3A
BD87F8CB
BBBE070C
BCC33F50
3D2DC18A
BDF9181A
3D7354A6
3B82978A
3D38B736
BD9C0C63
BD1C6BA6
BE26BF87
3DDE3C10
3E087F45
3D8B1D0D
3DAD7229
BC464488
3D06F410
3D2FDBAB
BE0075B4
BDDC5EF6
3DC5786D
3D9C78B4
BDA05708
3C55241F
3DB4CA4F
3B042F24
3CAB4C7F
BDA35DB8
3DA9F98B
BD102B91
3E86BDF5
3D0DB84F
BC9C9456
BDC1D6C2
BE05EEDD
3C87E897
3D2DFB00
BDEB0293
3DE9F6A9
3E2291FB
3D30EB5A
3C0A269F
3DC47F3B
BDE548AA
3DFB089A
3D8434F1
BD65C3DF
BD1B1275
3D7DAD3F
BB5D225A
3D8AAFE4
BE46A11F
3DECAC4B
3D27DC02
3DE359BC
BD795358
3C11658E
3E0DC8B8
BDE15C21
3DE1EFFA
3E2E8640
BC4D8128
BDB7200D
BC53FC01
3DF171E3
BD2E43FB
BDCCED4E
3DF36156
3C4348C0
BDC1F800
3C8C798B
BD009389
BC956705
3DFBEC25
3D7D3225
BDC18D0B
3C62B85C
3D681A66
BDD31EC1
BE1EFE0D
BC596E9C
3D9F79BB
BC48DC7D
BC73AEB9
BCE952E0
BD2917F2
3CF4285B
BE16D506
BD868109
3CD0932B
3E2C3E32
BD057357
3D5D6B30
BDA85E9C
3BD7E94B
BD3DC197
BE015875
BCE3A5C2
BB83FE27
BCFB73A9
BDC7B063
BD88BB5B
3DD82667
BDD57D5B
3DBA802F
BBBD756C
BDC21ED9
BD940A51
BE15EBB7
3D97CA7F
BD8079BD
3CD8DA21
BD219928
BD09208B
3D48A76E
3D4A015B
3C19070D
BE342396
BD6E6DEC
BDDEEAA7
3DDB62C7
BBCCDE6B
3D891248
BE1ECB32
3DB922B1
3E053B8E
BE6ADAFD
BD811B10
3D4AA9C2
3E1242D0
3E420F6F
BD943386
3D02CD70
3CCF260E
BB1B70B4
3DC8F6B4
3CE63D16
BDC41BB9
3D5DB3DB
BD9A50F2
BE226AEC
BE180304
BDA0E370
BDEB2D90
BD22A206
BDC4BDAD
3DD54003
3E38F53C
BB19D1A3
BE34A8C1
3DB99532
3DC626B3
BDDFC979
BD89A0E3
BD0408A3
BC418CFE
3DBF2BAA
3E0893B8
3E2EFAE8
BCB0B285
3D31886E
3DB8249F
BC285879
BD78334D
BE31F18D
3DD737DA
3DA2FA94
3D06719F
3DBF86E4
3D36FF71
BDC8D3D7
3D29E35E
BD9C3DD4
BDC9FF28
BE36540D
BCBEEA56
BD1E5174
3DB3A209
3E34A665
BE2FDD66
BDB61A1E
3DCEE30D
BDA3A67E
BD3E1DF8
3D511A6F
3CD5C6A6
BC83BDC5
3DE85A92
3BAFCB4A
BC2FBCF2
BDE5AA2E
BD9C5E7D
3E053DEA
3DF526D9
BD5CC964
BDD02795
3DA40DB9
3DD67770
3DF8359C
BBFDDF13
BDAB6ADA
BE3C04C9
BD6D684E
BCFAF02B
3DE67F91
BD5E6404
3D93596C
3DF41BFC
3D62372D
3DC85928
3E337479
3D5B29BD
3D57ECF1
3D69B175
3D15A5EF
3BE570C8
3E13B42D
3B43FDF1
BDD356DA
BC04AE66
BD636B75
BD9BD506
BA4D32AC
BD0845CF
BDF1287C
BD369A41
BCEE59B0
3DAA6A5F
BE1ED2CC
3DD6E7A3
3D198161
3D97971E
BD8891F0
BD9D9BA2
3D8E9143
3D611C2A
BD9298E7
3DB74CB8
3DE8A04D
3C2422F5
BD00870E
BD54265D
BD8310DC
BD996180
3D26E8D8
BDA3685D
3C5984D7
3DC20693
3DCF00EF
BE5C66D3
3DB5961A
3C91AFC0
3E2A4A06
BD85F4C9
BDDFA54C
BDE285EC
BE589BD8
3DFBE8FF
BE083BE6
BC242071
BD8A34AF
3D6EC022
3DC138BD
BE14BC27
BE12E558
BCCDE20B
3D5A0910
BDF00581
3D1508DB
3DB8A739
3DD691A7
BDA3E4B9
3D251E83
BE2CFBB9
3D72C5D5
3D49A7CF
3D2979FC
BE611C6D
BDB8CDA7
BCBE846A
3DA6F410
BDAE157A
3DF31099
BD9CC492
3E2D002E
3DD7D391
3D50C382
3E06C8B4
3D0CE648
3C6A2B82
3C3ECA40
3D0246B2
BDC651D9
BE2B4EDB
BD7D00F7
BD7964C0
3D8265AE
3DCB8511
3DD1C6D2
3DE97E13
3E036E2F
BCCF8F8A
BE30F909
BE2C953A
3DB5F288
BDB154D7
3E377708
3CB1CFF1
3E28765C
3E0907D9
BE02BE06
3DF0C240
BA6FD0DE
3DCAAB70
BD4120C7
BCCAE211
BE226E54
3E0EF955
3E5A4335
BDCEAC00
BCA1D2EE
3D30D520
3E4D7D7C
BCFC1C46
3E946A7F
3E42502F
BE3A18BD
BE1C81D4
3D3A2652
3E20A84C
3DCCF851
BC92C2B0
BDAE6221
BD59EEBF
BDB875AD
BD83467E
3E6B7E4E
BC166837
3CE2CFD9
BD97C0CC
BB49A0C8
BD1E1A32
3DA8B637
3C4F5035
3CCABD93
BD7C27CE
BD67D11A
BD1016E9
3DDCED91
3D8F03D1
BDAD513C
BDE917D7
3E92E408
3DB626F6
3C60F1B2
BE1A161E
3E00FF11
BD72F570
BE0A0621
3E68C155
BC03BA95
BE0B3EDE
BC4FC611
3D186679
3CD6D2E0
BD2B0DE6
BC61CCA4
3C6A8687
3D2592CC
BE1DD26B
BBB28C04
BDB4F624
3E67F9D7
BD33DA22
3DFB7953
3DAC7333
BD036E14
3D89959E
BD81F3F6
3DF2617C
3D940365
3C0DF1F1
3DFE9EA1
3D08E516
3DCC8C86
3E02FDB9
3D578DBB
3D0788DB
3C48A1C5
BE3F3301
BE2775B8
3D48E582
3E2B356E
BC08FB87
BDBDBEC2
3DA00A62
3E446A5D
BE3D10F5
3D95AF29
BDCC957D
BD38E69C
3DDC1722
3C672A46
BE2F6EC6
3DBCE209
3DB069CD
3D850F33
3CB930D9
3E67E4DE
BE5749F1
3D94F2D6
3DCB3729
3D67A8D6
BBF82CE2
BDD30404
3DFD4068
3D9ED9ED
BC5AA0CB
3E1FB3FA
BE40C0F0
BBF8D3A6
BDE83A11
BD37CC55
3E098C7E
3DAE9E28
3C89C61D
BBD81B60
BE2953DF
BCFE34B9
BD1AE579
BE4CC964
BE46A2B1
3DA08729
3DC0FC14
3DB692F7
BD4B7ED4
3DCA3AEC
3E15B899
BE1B47C7
3D044ACE
BE3B1748
3C2B3828
BE4F4CF5
BCE18698
BE3A24CC
3E144849
3C697148
BCE7982A
3E170F39
3D9E51E0
3E04BCF1
3E398E97
3DF709B7
BDB2BDB5
BE82B580
BE21AEB4
BD908CE0
BDC54980
3C851040
3DEE3BCD
BE27A744
BCFBCE42
3DE63843
BAB20246
3E131A8F
BB0E07EB
3D4DC79F
BC165D04
3D9EE385
BE19274E
BDB390BC
3C89BA5E
BDAB57D2
BD7A51A0
3DD64CF9
BE213C25
BE2CD424
3D5EA0F0
BD9F1D8F
BB9ED807
BD7AB848
3DAF4DA3
BDA30893
BE18A548
3DC5394D
3E207DD4
BDCC3D18
3DDC4C9D
BE6FFD61
BE7F21B4
3DADBD07
BCDC8572
BD215931
3DE472C1
BE030A0B
3D007ACA
BDB29AF2
3E52C55D
BD391489
3E1A048E
3E3E1E71
BE2C8CD6
3EA629FA
3DDD1D47
3C1A10B8
BE2388EC
3DA0029F
BE4C18F8
3BB64333
BDB111BB
BE167558
BD1E0A5C
BE736E2F
3DA98DDB
BC8F0CAE
BD4F5B37
3CAE5182
BE04CCAB
3D5398B4
3E586CEC
3DC7BC72
3D8C1631
3D464346
BD86B9B6
3E18AB93
BC8060E3
3E773797
BE0F0069
BCC503AB
BE567E41
3E5EF1BB
3E3547E0
BDDA1A93
BD897643
BE00AA22
3D27B8C7
BE31B6D4
BDBC6B48
BDB265E4
3D95A526
3E1FA97E
3CE818B8
BE0F2B67
BE0C625F
BE351548
BC983F5C
3D68D053
3D0C120C
3D99AB02
BDD09E99
BD7174ED
BBBFA486
3E1E0C17
BDB1E62C
3DFF57B4
3D8B8661
BE0F37FC
3D1D78D2
3D6B3CE0
3CFD4A0D
3C298FB1
3C95AE53
3E769EC3
BE375819
BE2DDCA5
BE68722A
BE5A9C13
BC9FE50D
3BA6FD1A
BA2CC249
BE4CCAF7
3D807AAF
3D17DC45
3E1721D5
3E4D5886
3C291FB4
BBC26EBA
3DC394B8
BCB4FEE5
BD39F1C9
3DC9C370
BDCDF8B1
3D14166D
3E005F6C
BE125E57
3DC78416
BD08D9F9
BE454541
3CCA0176
3CD0AF7B
3D266681
3D063FD0
3E744BB2
3DCD2999
BC2EA1D4
BD284EEE
BCFE5647
3C6F85CA
3DF8AB93
3D2AA5FC
3D99C015
3DE126A6
3D793BC1
BC8D75D5
BD910A3C
3DF308BC
3D7558F8
3D9F60AB
3E862718
3E08DF7A
BDA6F22D
BE41D218
3E1E4F33
3CB1645C
BDD24074
3E834F83
3D4754D9
3D1F374D
3E06CB53
3E13E1CA
3D93ED60
BE66E08F
3C57A065
3DD5D463
3D9246B2
BD93A513
3E21E81D
BDDF3F10
3DFED95A
BD807CC8
3D83C361
3DC163FE
BE1A6656
3E178C43
BC8951B8
3E22EB1C
BB4ED8C1
BDA84C27
3D77DF85
3D91273A
3BAA35F4
3E0CFD4C
3D76598E
3DABCA39
BDA05624
BE5235F8
BE39D7FE
BD6A48C4
3E65F30E
BE205F29
BD4C3380
B96FDB00
3E4C0831
BD7E542E
BC7F2361
3E0D9EC7
3E209C80
3E18722A
3E10242D
3E2D9903
BE1C1F86
3D94F575
3E59806F
3E547992
3D865288
BE55247D
BE1129CC
3DED1F1D
BDDFC5CE
BD9E176A
BE12FBA0
3E359147
BD532F6D
BCF3A43D
3E86EEFA
BDB719F8
3C3A223B
BD308A0C
39EF6B10
3E13DF6E
3D44CBE2
BD874E3D
BE093922
BDDBD9CB
BCE62995
3DE2B628
BE6A2553
3D0812F4
BDC820B0
3DB67408
BE15D24A
BDA2C26D
3E5524C0
BC928508
BB59C584
3CA3CF7E
BE1B606B
BD44458F
3D9D97C0
BD3A15C0
BDF588E3
3E0E0D24
3D5D0438
3C9D5439
BDA5B3C6
3A850C19
3E031EC1
3E0CABC5
3E38AA86
3BBD089F
BE88D866
BDCAD9F1
3E04B7F6
3DB1A37C
3DCBD457
BCB93AB4
3D089119
3E17A13C
3E1BCC6C
BCE7EDBB
3E4ED6FE
3E0EEE95
3E32C83F
3D4B32B4
3D10CAA3
BD8C2BD8
3DDFAFC9
3E0047D4
3C6FCD83
3E8BE708
BD4FB621
BDAD4372
BD3983AF
BDB35B85
BD8613C6
BE0EF391
3DC8066C
BDD5275F
BE30EED0
BDB60250
3E1CD185
3D84A10C
BE476FF4
BD373902
BE631E7E
BD77D128
3CA2C486
BC4670FE
BD7C5719
3DC50317
3CA6A551
BB149751
3D410442
3E398A65
3DE156E2
3DED59D5
3D0C0740
BE810300
3E337A3E
BE32A348
3CD540A4
BD92CD62
3DB038BA
BD9B2BFE
3E21897A
3E35336E
BD8BA486
3CA89F5B
3C9ADAE2
BD9FB184
BE136B90
BC189BC3
BDE6A4CA
3DBB30EB
3A8FBF7B
BE004923
3E1633CE
3DC4122E
BD583B10
3E05EFE9
3E487336
BE815AD1
3E0DB65F
3E222292
BE85BAB2
BDF52546
3E20EF13
BDB95CFE
3C9EDE12
BDE9EA14
BDA80F13
3E83C276
3E2A4BDC
BE1DD378
3DCF7FD0
3DFBF0DC
BCFD36F8
BD02095A
3E0F4E44
BDE51B0D
BD6EA580
BDD3FA6E
BE57503C
BE424F66
BDC3E25D
BE84B924
BCC7958B
3C885A0C
BE441701
BE0E9AB3
3B554F52
BD200A11
3C8329B6
BD0F2FCE
3D94A178
BE6361DD
3E24DF48
BC81896D
3E3F39D2
BC4A0B51
3C8FD7AF
BCAE42D4
3DEB87BE
BDA13B77
BE00A5AD
BD8F087C
3E4156E2
3C547AAC
BDCD83C7
BE8E4D1A
3B7D22AB
3BC4C5ED
3E82031D
3D575EF7
3D7C8BBC
3DE97397
3C3AA36A
3D94B381
3E5E978D
BD1AEFF6
3DAF6BAE
3B61CF68
3DC25636
3E11FC4C
BC5CF09C
BC9F9B3B
3DD3D20F
3B12F0B3
BCB640CF
BD6A78E5
3E0AD107
BDA9DA16
BDCC5EF6
BD621A8C
BE395C85
BD10B7F9
3CFDFAA2
BD7E9FAE
3D49CED1
BDAB876D
BD7CB30F
3C296B9F
3DF062D4
BE56A594
3DE1D085
BCDB50F4
BE57EF9E
BC4D71A3
BDEB1C43
BE2E9D0F
BD8198CA
3E1D9CF1
3DCD7E02
BE295A6C
BCD1600F
3E0F9485
3D9FAB54
3D53DD12
BDAA0458
3E2286F9
BE504C49
BD53201E
3DFCF249
3D9373D8
3DD5A858
BE3E963E
BD3FFE02
BD21065B
BC5E283F
3D65F8EE
BBC14240
BD518513
BD371759
3E29F341
BDF85836
BDEBED74
3D1629F3
3DEBC276
BB81FFCA
BC8A8B09
3E09181A
3DCDD3FE
BCB2D0A2
3D13E418
BB33133D
3D93A960
3D940711
3E390EED
3DD0C34C
BDDA732E
3E17D34E
BBA43F0F
BDA67169
3CC054BA
BE851EB8
3C99F2F0
3C6D99CC
BCFCD0D6
3CDF7B25
3E18FB01
3DF20B80
3D0CF023
BE06B335
BE23DCCF
BE30E8C9
BD9698BB
BD7680C6
BBC8FDA0
3E7DE0D6
BB927147
BC465EF5
3CA99C7C
BE307C42
3E0B573F
BD43B399
3DF9F01C
BDCD87F9
BDAC14E1
3D815BDD
BDAC8ABD
3E20DBAD
BE325919
BE361B6D
3DC25629
3E07C7C5
3E0293D1
3CE7FFF9
3D2CCE0F
3DDD512F
BE095315
3DCEC398
3BAD96D2
BE3C63AE
3DA6D473
BE23B8E5
3E437436
3E0A7DED
BD804F61
BE242BFA
3D627632
3D7BB9D0
BE2F911D
BC4CAC81
3D582AB4
3DDD4AE4
3DCEB13E
3CF2FDEF
3E46605F
3DC2C676
BC7BEFD0
3CC6B195
BDD43526
BCD469AF
BDEE9E5E
BDD7EBAF
3E10029F
3BE08338
3D93B28D
3E38255B
3E6429E1
3E63300E
3B9570C0
BD372E6A
BE2596C8
3DD9389B
3DECC144
BE3BB6AA
3D982426
BD71B25F
BC1CBA15
BD58A6A5
3D6BA098
BD1B0C2B
BEA0038A
3DE11905
3DE9081C
BE726784
BCF666FA
3DA15DDB
3C88E8DD
3D956656
BE0AFDDB
BDFB9F99
3D921A72
BDF3C03C
BD77ECA1
3D91D9F5
BD16D1D4
BDE4D7F1
3E03D9EC
BE210D39
BD669362
3E5434E3
BE053437
3D9E1EDC
3E211DBD
3D994764
BD72EE6A
BDFF0803
BD749045
3DDDA8BD
3DBF2B9C
BB5284C8
BD85D371
3D86FD2F
BD3286B6
BDBFF3AE
BD99FECA
BD96A3A3
3E10AB71
BD5E0FB5
BDF89481
BD9E8EF4
3D40C24D
BE007AAF
BCBB645A
BDBD085C
3CE5D4A6
BD6D1592
3E1B6028
3BFBDE32
BDBA9428
BD6E0B0B
3D215641
3E16B1E6
3D09647D
3DB33440
3D338533
3BD75897
3D99E435
3D3F118E
BDE5C704
3CE119C1
3D2FECC2
BCE3BA19
3D9F207F
BDD75E20
3DA675C3
3DE84BE4
BDD8B828
BDCE46D0
3D47E415
BC3908CB
3D9CA6AF
BE186488
3C6A0C79
BE21C821
BE19EBEA
3CCD9D77
BDE8E25D
BDF219A8
BD856415
3DD30510
3E057ABC
3CBDC883
3D5DF6A6
3DDE3EAF
BD8B573F
3DC971A6
BE08DB49
3DFB5AEA
3D5748D7
3E1CA750
BD7B8547
BD9DE54B
BDDA3337
BE03E100
3DE00FBB
3DBB6094
BE17E38F
3CD92D63
3E0647BB
3D907FD2
3DCB42BF
BB1D3D68
BD3AAC1E
3D346E16
BDD740C4
3D917515
3E62C450
BC9C5536
BDDB86F4
BD4504D2
3D66DEAC
BE0C9A78
BDC6E3CF
3DACA311
BE0141A7
3DE4CB5C
3C305675
BD92602D
3D03E79C
3E17E38F
BDC5C282
3D082F5F
3DE1882B
3D459BD1
BDFA2270
3DDEAD4F
BE3AE2DA
3D6114D3
3CF311DB
3E083DBC
3DF14DB6
3CE7E15B
3DD0EFDD
3D86ECD4
3BC41B8E
3DFD4F16
3D0B952A
BDB862CD
3D84BB36
3D4334EE
3D9FAA62
3DAEB0AA
3DF2AC75
BE1802C1
3E1409A2
BD5B57AA
3DFED070
3CA0B517
BD523FB8
BCAD93B7
3C2422F5
3D0B484D
3D01E34A
BD300CD8
BC2BA5A0
BD8F6131
BDC7D5FA
BDC3B836
BDBDB03C
3D1F223A
3DAD0E7E
3D16A89E
BCFE7C07
3CEBB667
3E117119
3E15D6BF
3D11E4CF
BD403D3D
3E31D9B2
3CAA04EC
3D1F2BC5
BDDFA5D3
3C973358
3D468174
BD887C71
BE10025C
BDBF46E0
BCDF813A
3D6B3828
3CBA3296
B7FFDA40
BDAB59B5
BE15F17C
BE1DA3C2
3DE2938E
3E30318C
BE3515CF
BE0B6912
3D07F23D
3DAAF145
BD94BA01
3E02502F
3E15A4F0
BB8FB0F8
3D68621F
BE020579
3E0C5261
BCF76FA3
BBB5E37C
3D2B3F13
BD0F3FBE
BD220F8A
BD2194DB
3D485660
3B92D027
3C408F3C
BD8D40AB
3D45FA4B
BB5B9C48
3D952F57
3D0083B3
BDF05A71
3DE8C79F
3E13B928
3D2D0120
BBBB6BD1
3E110236
BDCC0ECC
3DCABA46
BDD12989
3DA0AF88
3CF8BE8D
BDA50962
3DCCD4AA
BDD72DE4
BD1A1463
3D76C219
BDF056C5
3D0A4C1F
BD875198
3DA676B5
3D35228C
BC768167
3D7A5D44
3D63F1E2
BC984FB8
BBA07393
BDE9CD3E
3DBC0DC0
3DBC115E
3DBFBDBB
BD9F4E5F
BDD96745
BE01C4FC
3DE9E5E2
3DD7EAA3
BE04052D
3E2099E1
BD6F6A51
BDA864A3
3DA0777C
BD6FCB6A
BDA66BA5
BD02ADC5
3E1A2DB6
3DF7279A
3DAEEA2E
BD63911A
3DAD200F
3C50C6C2
3D81D481
3E1B6C37
3D29E790
3D49C073
BDA4E2B0
3DA6AF47
3BC06002
BD04028E
BCB47919
B9C0AE17
3C5F9816
BE00FA16
3D465102
BE05BC45
3D915EC0
3E0B7E91
3E0C5D20
BD866DD8
3CDEE965
3D919561
BDE3BE66
3E1A5871
BD89A39D
3E20841F
3CD5C275
BE2BC127
BE2DE58E
BE56B1E6
3E0E2260
BDFFE6D6
BD958DA9
3DB9EC48
3C8E2C48
3B114D9B
3DC99AA6
3DD177A7
BD3F3F2B
BD9AC0AB
BE0DBF48
BD9B2563
3D03C1A6
3D7AA136
BA83161F
3B9CFCA6
BE1CEAAF
3E3F93FF
3D81EE4C
BD80554D
BDD6B335
3DBA0D78
BDD5C63B
BE0E6F72
3E0E6EEB
3E315F46
BD4D8F50
3C65E537
3DDEEB2D
BDB37FCC
3DC3BD9D
BCDCED0B
3DEFA82F
BB5EBA35
3D6A974E
BD75D448
3BA0E1A2
BD187C63
3E4DED6C
BDA6B808
BCA5C8E7
3D622376
BB3A1C1B
3E0B2E17
BCD664FC
BDA0E38A
3D9FA73D
3DE2528B
BD46626A
3DF15619
BD5F00C7
3D6E0470
BD7C3B1A
BC87F207
3C0822D9
BD2553E2
3D3979B9
3E0167EC
3DC6EDB8
BE2A14CF
3B530246
3E480735
3D240BC9
BCE12945
3E3FE436
BCEDE79A
3E2B1FAC
3D8E4756
BD56A9E0
BDCA60C7
BCFC26F8
3E04B1AB
BCA82CA5
BC8D8B39
BD614EB5
BE033EBC
BD5AEA4C
BD85EA0A
3D16CA62
3E166ADB
BD7C96DA
3CF15909
3DB043E5
3D2C4919
BDF8A761
3D79B72B
BD8F97B8
BD94A74A
3CE73FAA
3DC6938B
BE02C9D1
BDB8A710
3D3762F3
3D41A42A
3E0C3D25
3E410C6F
BD6A87AE
BD151D9E
BE0CFFA8
3D6CA255
BD0903EA
3A75EE84
3E0CD35B
BE16A594
3D2FE678
3E0A06A7
BD8EFD29
BE55A188
BD3C56FE
3CD8284B
3CEBDCFE
3DA57F23
BE863737
BDED4B27
3E1D490E
3E41C971
3E025205
3D9E42B9
BE086F8B
3D7B0285
BDE34B94
BB47025D
BD8D8391
3E08D8ED
BDC8ADAC
BDDC1F86
BD1E8577
BC8ED444
BD0E7F3A
3D6EA77E
3E21ED18
BD202C76
BCD64262
BD850E42
BE0A05DE
3E39B49A
BE05668C
BDC7BAB7
BCC776B7
3E050093
3DC51845
BDCC00DA
3D998824
3E2BBC6F
BD01CCD9
BDC77D88
3D84CE30
BCD3BAFE
BD222178
BDFB7846
3E417EFE
3E855B03
BD484DE2
BD8456C2
3CA39424
3BE92822
BCF726DE
3D8FAF42
3CC54EBF
BE187B9A
3D04EE61
3DDE3758
BE6CA31E
3E097636
3E0DE82D
BD22ED86
BDFE0371
3D3164E2
BD02B27D
3DFB76B4
BD6C1FE4
3DFCD9A5
3E2B1C43
BD6CFA85
BE0F82B2
BDA48479
3D2AC4B5
3C2BC1BA
BE43C148
3E259818
3DC371A5
BE3AF70A
3D3E8287
3DC0F253
BE1CA9EF
B9BD1B43
BD958BE0
39C2AA5F
3D88174E
3B924C73
3D047D8E
BB825504
BC91778C
3D8E9B11
3DE2467C
3D6824FD
BD1DA314
BE2B417D
BD29D0CF
BD568E9D
3CAA6605
3DB5C041
BDFA6613
BD64005B
3DC533A4
3E0B239A
3DE3B9AE
3DCCD078
BD42352F
BD2C332F
BBF6DB13
3BDA6918
BCF214F0
BD0D38E8
3E2DE4C5
BD87E1EF
3DE03819
BD8AFE6E
BD1F74DB
BDC4723B
3D7DED87
BDF99243
3DD4E8FB
BD29BEFB
BDCEFE50
BD14DD3D
BE661FE2
BD656748
3E1FD04A
BBEDF1E1
3E26C482
BDEA7CE1
BCDE657C
3CEC9265
3DC0E644
3DD1600F
3E6B9842
3E01ECD5
3E1B3EDE
3D12C0CD
3E457321
3DF1FAB9
BD935B41
BC926B07
BDF86C22
3E87AD4B
BE43FEE3
BC1342E8
3E62BF98
3E24F7EC
BB791F3B
BDAD0EF7
3DD86877
BD01CADB
3E834FA5
BCD0B956
BE0A500D
BDDB18DB
BD1C887C
3C2CB7EF
3E21BE6E
BDC317C8
3E12D5E0
3E20F7FD
3E38283D
3DA3A4F8
3DDD5992
3DA53437
3BCF7081
BD1F8B30
3E10B06C
3DD2D235
3E225B31
3CE2C923
BB767DF6
BDEFFDA4
BDFC182F
3CEDE185
3E0B480A
BDF6DA88
BDCADBB9
3CA9BB50
BDFA9004
BE2836A8
BE047B24
3D819FF8
BD5026BF
3E5E4218
3B9CC94F
3E063066
BD8E0C4D
BD953353
BC086097
BD979512
BCB83C87
BD9DA321
3C25C663
3D389DF1
BDCAD5F5
BD2779F7
3D851DC7
BDC53917
3DF9934F
3BB0AD87
3DA8415A
BD8AB1F0
BD1534CB
3D835C76
BD672C29
BDC2A081
BD9C7FE3
BDA8F664
3CA26692
BDD7C99B
3DDE8790
BC9B6292
BDE4C166
BE0D2913
3E086595
3DD372A4
BD898351
BD09B47F
BD90554D
BE11EA36
3DF3F962
3DFD3ED5
BE00913A
3D436DDE
3C9157AC
3DA3B547
3DF63ED1
BE077CCC
BD100E50
BC641FD0
3D4C1AF6
3D49676D
3D886402
BE4F3387
BE05A5B9
BE00064B
BE31871E
3D60BD2A
3D6624DD
BB8FF79A
BDDB29A2
BDD67903
3DFDBDB6
BDAC36F5
BD31C483
BD3A24A4
3DEDFE76
BE05AAF8
3AC119BB
3E29BE90
3CE28276
BDD8CF3A
BD5367F2
3DBFEB65
3D28BA84
3C4F652E
3BB10A4F
3CD699D5
BE16390D
BE34638D
3CB386AB
3DD7D849
3E02E72E
BD96B294
BC3E6A33
3E045BAF
3D3CAE8C
3D5C1001
3E1731D3
3DB629B0
BC9BBC1E
3DC4E74E
BDB80AFC
BD2FCB19
3D32571B
3BAD77F3
3E09DCB5
3E289DAE
3E1B90EB
3CA1C5EE
BD6E840C
3D89FB11
BD8C2621
3CA69DC4
BD8A91DA
3DAB83EA
BDF1B691
3D5D32C6
3C11048A
BD99F608
3C094CD0
BD30BD88
BD12A0B7
3DF6DD27
BE14DD72
BE2428D4
3C6FE642
3D8AA4AC
BB8AAE19
3DD7353B
BD656240
BD0B232F
BE4F9054
BDBBB576
BCB983E5
3C911FE3
BBD14684
3DFCC74C
BB971A8E
BDB535F2
3C49D02E
3D3806A2
BDE54AC3
3E5BF50E
3D3E4119
BCE55524
3C853C15
3E362B6B
BE443BB4
3DB24C40
3E2CFBFC
3E4470EB
BDB2E10B
3CDDEE5D
BE223E9F
3DD076C0
3E3ACC0C
BD4244B4
3D9C87B3
3E4B53D6
BDAD585E
BD730B75
BD2A18BD
3DCEF673
BC6F60E1
3E201F32
3D7CCB12
3DAA6BE4
3BC31264
BDE4FB98
BD65E04A
BDDEEED9
BDA44E6C
BE08D435
3D726A30
BD3BABC3
3DA32DF5
3C0199F4
3E149881
3E45D24A
3D1EE808
3D302222
3E1CC5B9
3DBADA5C
BC264E48
3E8093D9
BE7DD0D9
3E07DC38
BE2E618D
BDB7595B
3D53EB8A
3E0B9AE1
BE505682
BDD0C671
3DEEB24A
BDAD6FF5
BD9A81B4
BD5D188F
3DE60914
3D427250
BCA2B60D
3E088616
BDE44B6F
BE1EC13C
BC5FA5ED
BDF600F3
3DA5B78D
3E699AE9
BCBAC81D
3D5718B6
3DFF1BEF
3E3DA0E0
BD3F2CD1
3E217614
3D802950
BE3A07F6
3E179182
BE2E17E3
BD531B30
3E11F7D7
3E07D029
BCEA5D36
BD9407CC
3CDC1001
BD84B44A
BE7E5A36
3E3080FA
BE255D1C
3C18B34A
BE2E12E8
3DAB3510
3EA51EFB
3D77ACFB
3D83CE3B
BB8B7EA4
3DD6DF40
3E67BC3C
BDD761CC
3D8A7B84
BC8FA9F7
BDAA6323
3E02D949
BCC6A13A
3D7D1534
3E1FCB92
3D81CE79
3D56758D
BDC643CC
3DD5AE1D
3E94562E
BAF93D6E
3E17C5EF
3D89D346
BD6389A8
3C0CD6FE
3DB8C389
3DC26840
BE25D67C
3E18D435
BE2FA3BA
BE05DBFD
BDB653FF
BE212DFD
3D14736F
3DB6B4F0
3A9B7C48
3C2EE632
BDF820A3
BEB75F0B
3E922BE0
BE2C20D5
BDFB4F61
3E6DF612
BD431203
BDACC609
3D7FD0EB
3E161AA4
3E5C2268
3D2D5E07
BB2C7CA0
3E25AEA3
BE61B196
3E3E47DC
BDE182ED
3E887747
BDB6EE74
BDF724FB
3D3E7536
BDA8C048
BE26A8B9
BE0110A1
BE5B480A
3DB6FF20
3C26754A
BDBF1D4C
BD36B477
3E75729B
3C93CD3C
3D0EE8B6
BD9F27BB
3D038ECB
3BA6AD94
BE1701DA
BE2CAD58
BE1FFDA4
BDE312F5
BD91B641
3DF4983D
3E5789A4
BCC0D7CC
BDC29A44
BD310BA6
BDF82A99
BD602AAD
3CA0B806
BDA83368
BE44BC27
BE04F7EC
3DD83276
BDB1AD3C
3E68F53C
BE19C5E7
BB9EB39F
3E3F7AD5
3CB32BA6
3DD865D8
3E2A619E
3E19E6EF
3BEA8976
BEA834F4
3D8BAC3B
3E638DA4
BD25F01F
BDB5CD77
3E01A4BE
3E520CD0
BD2C67D2
BDA4746E
3E0291FB
BB95D224
3DEFCCE2
3E37F8CB
3E862414
3D43661C
3D97F7BE
BE32DCB1
3D2B5DB2
3E14AA54
3D814E9A
BD8B9C8E
BDAA2F20
3DC53501
3D287D7D
BE35A709
BE38DFBD
BDA05AC1
3DFFEEB3
BC3D9F32
3DCB42BF
BE2DC832
BE464F98
3E620A74
BC05D97E
BCDE812A
BD97C8B7
3D4A1471
3D669EB5
BD4027BE
BD85C4D0
BD2E2FD9
BDEED02D
3CEBD49A
BD8F29D4
BE44E26D
BCB16C54
BE373711
BE84ADBC
BE8533B1
3E56EDAB
BDA6679B
3DAC6E1D
BE6C0379
BDFE7F2C
3E3FF9B5
3E7600B0
BDEBBB1F
3E07DD87
BE6D099E
BE204923
BE159EE9
BDC246B2
BE1C9B84
BDA1DC94
3E2D6A9C
3E099CBF
BCAF474B
BD8B5AEA
3C92B32B
BC91FE2F
3E9AD645
3DBB52F2
BDDB994E
3E2A77E6
3DAF3FBE
BD8B4246
BE0F8940
3E9A263E
BD0BEFA8
BDD62068
3CAE3D96
BE2B99D4
3E061D00
3DA61622
BC9B771F
3CBB76CF
3D5EA1AC
BE775B3E
BE437B4A
3DA0EE8D
3DD0ACC1
BE22F76E
3E632D6F
3E02F72B
3E7BEAD5
3C6FCF30
BE3978D5
BE0EF5ED
BCF66186
BD3538C7
3CC1C3BA
3E4CB429
BD2975CB
3D750820
BD9C1029
3E08C3F4
3E1BD05B
3E14C059
BD6CAD58
3D743450
BCBF9110
BD5C556B
3EBB17AD
BDEDE54B
BDC13BC7
BE90828C
3E217C1C
3E00E736
BBCC1A4A
BDF7D6B6
3E2D51B5
3DF3354C
BE1DFBD7
3D8E3EF3
BE674928
3E8EB1A3
BD9B281C
BCCD8A62
3EA2A6F4
3CE58FDD
3DBB0715
BCB820A3
3E2C62E5
3D4725A9
3E3EA8DA
BCF8140E
3E04CC68
3DCE2542
BDB2CB64
3D0FAF86
3E4570C5
3E2BF445
BE2A871A
3E56FF3B
3DDD0636
BE5FF9B5
3E22278D
3CE25FA6
BBEF6513
BE32D278
BE0ACCD5
BE1093D9
BE2D2FE4
3E401ABD
BAA0DC03
3D0C5579
3B93DB95
BCE08E80
BDBE9524
BA5A6E65
3DF86445
BD3A92BE
3DD4384C
BC1F6B6B
BC9888F8
3E01E109
3DFFD263
3DC42742
3DDF43C8
BDDCFB33
BD57324C
3C93B0B7
BD8707FC
3DDF5D79
3DB7D06C
BD160E7A
BE08B6D8
3D27DA8A
3C35A20E
3DF90AFE
3D8FBC79
BE0CBA30
BDFEF8CF
3D8CA199
3B66BF92
3C5B61BB
BC9E47EA
3E0564F9
3DD00E6B
BD2D26C5
3D94EA8E
BBB724F0
3E04E1A4
3D1810E9
3D89C48A
BD6ED825
3DA48CF8
3D522DAF
BDBCB5F1
3D62ACB8
BCB3BCFC
3D5FAB7C
BD832DB2
BDD0DD83
3CF45176
BBDB540F
BD6638AF
3DFDC50D
3DF86F48
BE1EAAF3
3DF93FF2
3DE8DFBD
BC8F9E6E
3CCD3FB9
3DC77524
3DB48345
BD2C1949
3DAA2F56
3D6FC2EC
BD8635A4
BDE4CF8D
3DF3B214
3D9CEEE1
BD90360E
3D357AF1
3D69FFFE
BDAB4B80
3D6F2BB7
BD5F0F3F
BE052B0A
BE06D224
BD986CF9
BDE20579
3D6613E1
BE0F9097
BDEE5797
3B740474
BD3F97FB
BDFDAC69
3DDD4E90
3B430C85
3CDF3EBF
BD06946F
BDFBE76D
3E12A51E
BDECAFF7
BC6B15F9
3DDB4352
3D2FAFA0
BD82D715
BD6B40C1
3D832C62
3D8AD41F
BDAECE72
BE037048
BDD7CE53
BD839E0D
3D4DE05E
3D4A3DA6
3DEFA3FD
3C8F1399
3AB865B8
3CAE6249
BD8449F7
3DC064D2
BD5BB807
BDC321CB
3DB39EFE
BB6B7C0F
3C2555FB
BCA3DB72
3E01F362
3DAB0864
3DE02AFE
BDF103C9
BD5F2113
3DB14E57
3CE9C6D9
3C65ED9B
3E01D6D0
BCBEBAF1
BDD30835
3D6F009F
BDD17721
BD72F901
BD8C62E5
3D92442D
3D0F2AE0
BD905CB2
BAC604B2
3D82EB88
3DBB42DA
BD35ADB1
BD85D9AE
BD525FE9
BDB3B412
3DE1D10B
3D028A54
BDBAFE96
3D98A3EB
BDBE64CD
BDB211CB
3D502CEE
3D852E07
3DD88334
3DDBDCF0
3B9F73F9
BD88D633
BDC49922
3D99AB37
BD2E54F8
3D1BEBEF
3CCE62CF
3E01E81D
3D2FA3E2
3DEABD5E
3D3C96BF
BDEA875D
BDA72BD9
3E027957
3DD6909B
3D37BCEB
BE08FFB9
BD0B9778
BC3B54D5
BCC2A744
3DF4C76D
BD123699
3DC56898
BD6FE16F
3D5B7D34
BDC06AB1
BD0A2E21
3D4D304F
3D880977
BDB80311
BDF080B6
3E044849
BDF55369
BDCE22A3
3D819E8E
BDAD1669
BDEC7E28
BDA58EC3
3E050481
3DF45522
BDB64EE9
BD11922E
BDA93426
BCAB50B1
3DDDE9C0
BDF42F62
BE10D23D
3D98AE24
3DBB290E
BDC27D96
BDD27FE5
BDDDAAD6
BCBBEE58
BD9D7E89
BE0C3DAB
3DA942E2
BD2BF31E
BD94FA2D
3DB9ED1E
3D0090CF
3DDFA6DF
3CA4EAD1
3DC41F8D
BD9215FD
BDF00C52
BDAE37B6
3DA2F43C
BDB37BDE
3D61FEA8
3D96F5F3
BB82216D
BDDD7F52
BD4B3461
BDD648C7
BD804494
3D28C36E
3D61E0C6
BDCFD7E4
3B252AC7
3D90CF76
BD454229
3DD25B31
BDD5B35B
3BCDF5D7
BE1F93BC
BDB354F7
BCCC3AD7
BCD8AF59
BD06B7C5
BCE9BFB7
3D262604
3DB99609
3DA77F0D
3D1D4555
BDAC1590
3DACC723
BD2B09B4
BC953CDE
BD9F4949
3D74E7B9
BDDD1676
3DDE1B09
3A4A7630
3DA85BB9
3D707995
BD72ECF2
3CD5AA21
BD0E0978
BD22BF63
BD9105C7
BDFD3B2A
3DCD2FE4
BD779D5B
3E00C804
BCFFF8DF
BD9CCA56
3B709122
BDF8C21E
BDE38195
BD7CA99F
BD8353DD
BD906482
3C5B2E8F
BDBFEDDC
BD570E8A
3D6531B3
BD330404
3BEC4F5F
3D00D0AB
BDA103D6
3D360FF2
BD7BAEB2
3DBE9B6F
BD0AB276
3DD39B02
BC9D1EBF
3D79B2DF
3D2D6594
3D8FD7CA
3B9FA4A1
BD5B57C5
BD5D1783
BDB8C826
3DD79AF2
3D8B291C
3D8E433F
3DFF0026
BDC9802C
BDABF105
3B9A04A3
3CC33B54
BDA90987
B90DC298
BDBD126D
BD9CA41E
BDF9C6B0
3CFAF74D
BDDB22D1
3C68236A
3C549010
BD20FEE9
3D84E6E2
BD9E0264
BDB35AC9
3D613936
3E033C1D
3D97437E
3DEE7925
BD357604
3D52CE89
BDD239A4
BDEAC6CE
BE0A99B7
3DBE6439
3DFBE7F3
3DC23C78
BD9BA6AD
BBB6BDD7
BE0099E1
BD9C06C7
BD85A731
BD96ABDE
3D9EBA93
3D10AEF4
3DC48784
BDD69E3D
3D9169EA
BD39979C
BD233D6C
3E0046C7
BCAA08E8
BD93FF0B
BE0366D8
3E058AFC
BD924067
BDE13A93
3E022856
3DA6C0A1
BC2CF1D1
3D85FAC4
3E0A20DE
BD8EDCCF
BD905F29
BD44BB00
3D3EB745
BDF04D55
BD91EEB8
3CCB35BE
BC071721
3D89614B
BCCACC42
BCBC7D29
3DEA2A0B
BBAE3CA9
BDD24E9C
3CD2E6C2
BDCEDFE7
3D4C6625
BD2C89B1
BE072431
3DED2807
BD8E98A7
3DE1754B
3DB16B8B
BDD2B55F
BCF0995B
BDAC78B4
3DB3B5B2
BDAF0E33
3E06D506
BDED5736
BDF3FFAC
3C87EDA0
BDC7495D
3DFA708F
3DAF4484
3D8007A8
3C3A16E8
3DE6DBD7
3E0BA51A
3DEBC6A8
3DFEADD6
BD7E3A99
BDE3443D
BCB4E8AA
BDFB4B30
3CC17E85
3DF0BFA1
3D100079
BDEE17A0
BD030C5A
BDA4FFE4
3D203636
BD7AB756
BD2EC439
3D26F969
BD2258D6
BDD2EC6C
BD194EF1
3DBF3776
3D840C0C
3D454D62
3D3609C2
3DEFC372
3C8B9CB7
BD7D9E26
BD65FF89
BD98730E
BD205B1F
3D3BB949
3E06006D
3D35D9F1
3DCE09FF
3D91BEB2
BD9AC15A
BC10FDC9
3C03C5FD
BD87DC60
BDE09EDC
BCED4F8F
3DFDA8BD
3BC9E1F6
BCBD3E85
BD34E931
BDC335ED
3CE97A82
BE093294
3D93B56F
3D80083B
BD6EEDF4
3D69EB8C
BE02278D
3BB2D86F
BD7F08BF
3D313639
3DC8DD39
BDF15D70
BD258C67
3DA809BA
3D90B4E1
3D9F8A24
BD07CF52
3D7887D1
3DED2E51
3E039A39
BD398AB6
3D99BE9D
BD4724B7
BD6EEF87
BD580C31
BC61D0D5
3D93F276
BE160F1B
3CF6BE6E
3C89B58B
3D6E04F6
3CB6B569
3DC81197
BDA64501
3CB1730A
3E095D0B
BDBE3F86
3CA9B24B
BD0514C2
39CCB7BA
BCA79FED
BDE8EBCC
BDDB7A5F
3DB2FEC5
3D8880D8
3D873B35
3DADC909
3D04AFAD
3DE53650
3E04E619
3DCB8C76
BDBE9524
3DE92791
3D3CCF94
3D88657A
3D0FDBFB
BD8DA8E5
3DDFE543
3DF5D91B
BD43B7CB
3DA418C9
BDE76EA4
BDDBB16C
3B022158
3D9329C3
BD21797D
BD8F79A0
BCA1B237
BDE7820A
3DB6DBAF
3DF7963A
BD2E98B5
3DD2B453
3DD52546
BD9B0849
BDC4746E
3DC0CD0D
3D05A724
BCE6B393
3E77F173
BE9F6DDB
3E1D1AEB
BCA0E080
BDF19935
3D8307CA
BE7C05D5
3DA4F7A9
3E42A51E
BCBCF29A
3E1BB16C
BE257604
3D508213
3E81003F
3E45A5B9
BD010859
3E003F70
3DAA5AA5
3E88F734
3DC4D735
3E9EA748
BDB8B8FF
3D73AF3F
BE43D8E0
3E09C454
BDA3AA01
BE7575C0
3D42188E
3DE65E03
BE2A0F91
BE7F4A12
3DF53826
BDF72607
3DD52978
BD6D5030
BD2F9427
3E0AA4FD
BE28A82A
3C3B411F
3D8277AA
3E32CB21
3E209310
3DBB5002
BDF7110E
3E298740
3E2BA12B
370332A5
BCE31C2F
3E231A09
3E760FE4
3BC67647
3E0DFF3F
3DCBEBD4
BCA35CFC
BE02480F
BE098E11
3D22B76A
BE080410
BD56A4BD
BE9952F4
BEA5AC47
3DED527E
BE89611C
3C7E6D59
BE861544
3E81819D
3E0FCD68
3D2A4ED9
3DD286B6
BE8CBDDC
3D23CA0A
3D8ECFEA
3E34EB57
BE2136A4
3E4255F3
3D9E953F
3D372CA2
3CE5D4DC
BC6C3471
BD5A295C
3D918B35
BE544A62
3BBDE8D9
BC82E558
3CD49767
BD3C2606
3E6BBE88
3DD50657
BD41EAF1
3DBA505E
3E47C0F4
3DD6AB58
3E3DB3C0
BE1FE500
BD9D8C0F
3DF2E2FC
3D48D5FD
BC459825
BEB47CB7
3E05903A
3D9AD7E5
3E203D9B
3E7620AB
3E3B966C
3E25614E
BD1D5652
3D8A270E
BD302F73
BE688CE7
3E503537
BC55DA93
3E831F68
3D88F430
3DD7A67A
BE75E56D
BE241D08
3E1BE76D
3CB3311A
3DE5C140
BE7F077D
3D076F96
3DFB0814
3E1F16B1
BD70D230
3E00C4DF
BE2513B6
BE6B1572
3DACAE64
BE850679
3E266773
3D339574
BD401803
3D9DB60E
BD46C6A9
3E460179
3E4AD752
BDE9795B
3D25CB1B
3DCB6E35
BEB615CA
3DF2A066
BE396EDF
BD612041
BE5FD439
BE614057
BE27952D
3C217F41
BD509594
3BB2C8C0
3E59C0A9
BD6B3D9B
3E1811F5
3E6D3F18
3E1E3CDA
BE181B65
3E696788
BE3653CA
3DF13D75
3DF686A5
BE133E36
BE8BE8DE
BC531840
3D6C9016
BE4305D9
BD7616DE
3DF821AF
3C1384B7
BE64E26D
3EA7737E
3C0BD0EF
3E3C5500
3E74801F
BC66EEB7
3CAF562F
BE442BB6
BC59542F
BDDBBE88
BD8A2D66
BD47AB25
BD0E6C3F
BE71D68C
3CA4C03E
BDB1C8F8
3C815B4A
3E3F79C8
BDA3D6EF
3DDEE675
3E401E26
BDE4EA4B
BE488FC9
3E4A5EFF
BE2A0621
3E23B7D8
BDA9A1BA
BE12BB66
3D654859
3E06C8B4
BE8322F2
3C99D8EF
3E17AEDE
3E5F61AA
3D102B5C
3E9716D3
3CCDCE8A
BD2DE368
3E17229F
BE0430B1
3E079570
BAFDB4A1
3DB33659
3E087F45
3DCAD800
3E5D71B0
3C5D0600
3CAFF089
BE02DE87
3E259DDC
BE072086
3DC420EA
BE1A75CD
BE4C44BF
3DA73D0B
BDB6BE1D
3EA0999E
BD816B04
BE14AE86
3D7E2534
3D1C3A0D
3CF919C7
BE353FC0
3C0ECD8E
BD989035
BDE1FC09
BE90A43C
3E47ECBB
3E83A81E
BE9EC28B
BCF9C8AE
BD465F7B
BE547ED0
BE1ECFEA
3E977814
3D01847F
3E351EB8
3E1BCEC8
3DA1BE1E
BD04E634
3D05AB70
BCB7106D
BDC0FE7D
BE885F29
BE038A3B
3E0A5482
BEA7253E
BE1622C4
BD749B98
3D8DDEE6
3DC91D15
BE0D96A7
3D9FA483
3CC5073B
BE07C45D
BD8F82E8
BD0B8E3E
BD9267EF
BD97E82C
BDC3B0AA
BD8FBE92
3DF8BD66
3DFF7404
3D2C6C1F
BDA0B8DD
3D3385D4
BDDB4C3C
3DA0C3FB
3E090082
3D6C5543
3DF2C626
BD46045C
3DD5C747
3B242767
BCC0D2F9
BD405682
3D493CF5
3D5E2641
BDFDFCA0
3D3A67DB
BCE605B9
BCABE4F6
BBE13FF6
BDA7BFCD
3C49C6F3
3D6420DC
3DE93426
3D3D0EEA
3D73953E
BDEBD662
BE003AFB
3CED27B6
BE03EE1C
BC83C1C1
BE067CAF
BD42050E
3D8FFF44
3DE95422
BDD5A965
3D4162D7
3C9CF356
BCE7F2F9
3D8EF2BA
BD86B731
BDF9EADD
BD9D6289
3B56ACA0
3DB8CE98
3DB6D87C
BCF7A22E
BD871F36
3DF14339
BD9865E5
3D5C1433
3AB740C9
BDB5BF42
3D9F1A42
3D7AEECE
3C126D8B
3D2D6A81
3B828D8E
3D87BA67
BDBFE7FD
3BFC1B19
BDA9245F
3D486071
BE0708AB
BDE9ADC9
3D1C96F5
3BECCC31
3C4A727F
BE029D84
3E0FC82A
BD4488C6
3DB9D7AD
BD4E462F
BD92EA38
BDE28D43
3DD1361E
BD981974
3D8C7490
3DF18091
3C3331F1
3DC8CF11
BDE413DB
BDCD9275
BD092111
BE02ED35
BDF335D2
3D5A1504
BD2D23D5
3DCFF7E0
3DD62B6B
3D17C9EB
BDD47065
3E00F063
BD51A148
BCA243F8
3D1D9897
BBE57E9F
BD0FC33C
BC860F0E
3E0DB22D
3DA69E8D
BD416144
3E0BBA56
3D57A461
3B7D89AE
3DCCF180
3D0675EB
BD2F9046
3DBCF9C9
BDF97A25
BD422772
3D862945
BCA4CFC3
BD45D801
3CDB6806
3DB4369E
3D7F0026
3D0CCD02
BDD66F93
BDD6FB8F
BDB5ADB1
BE01D92B
BD092DC1
BCFACBAE
BD7D7F1C
3B514908
3DD73C92
BD3E1310
3D4FFBF7
BD47C50B
3D751F82
3D17D4D3
BDA19F65
3CAB822F
3D2210CC
3D192931
3DA7FE81
BC902ABB
BD598A65
BDE53D21
BC188AB1
3CA5895C
BDB5C217
3C24327A
3BCD4583
3D9F52C6
3D984F17
3E01BFBE
BDA8B992
3C6E081B
3DA278DE
3D832CDB
BCD3462E
BD188E6C
BDB05EE5
3C4330D7
3DF42CC3
3D430A26
BDE29F9D
BDD0B49E
BDB8359C
BDE5BA6F
BDDCC4AC
3C8F64C2
3879FB03
3CF6F7E4
3D1BB187
BCD40C5C
3E05DD90
3DF0C88A
3CCE3334
BDA42A74
3C7AF717
BDE723AB
BCF56466
3D1A48D1
BD6A51E3
3DFB6FE3
BC82C8D2
3CC1BA80
BDB2A696
BD8988D3
3CD3798F
3C8A2A25
BD8CA4E7
3DFA1555
BB980708
3D9F2ECF
3D14A899
BE106AF4
3C709A9D
3DBF05CF
BDCCC8A8
3E052E30
BCDA4709
3DB71D53
BD892B4A
3D871ED8
3D8BB68F
BC838D1E
BCD29209
BD257CAC
3E03009B
3E09667B
BDDBC6EB
BDA8D3FF
3D2D89A6
3DF3B96B
3DE6A876
BDC20D3B
BD18B5D9
3D941538
3D89150F
3DDF401C
BD77A8E4
3C7AC025
3D64FD96
3CFEE767
BDB2C40D
BD0F776C
3DB86BB7
BDE4C2F8
3D861B96
3D9BE9BB
BD47A688
BD44FA3B
3D1A6E91
3D43A084
BCA24E3E
BD8ED4F2
BDD79D0A
3E044178
3C81C8C2
3D24D6FF
BC6CB103
3DBAB4ED
3DF26BF8
BD900135
3DB12359
BD530206
BC43EB7D
BC82CD3A
3D58EAE8
3D6EEA13
3D92C0DA
BD1D42D1
3DAF31F4
3DC5C3A9
BC9AF07C
3CCBEAF0
BE2E19FC
BDD7E5EB
BDCE9814
3CCF308A
3D3FE8D4
BE17268D
3CC49BDC
BD3B95F3
3AACD536
BC0E35EE
3BE72325
BCA28276
3CEE85F0
BD59240E
3B026C81
3CF91596
3D808688
BD95F9D2
BC7DABFD
3D3BA0F6
BD4C9EDF
3D4441FF
3DCE67D7
BDAD4083
BC202026
BE34FB12
3DBF13F7
3D3CE9CB
3D62AAD5
3C63C8FD
BE12D667
BDE154CA
BCE78911
BDF4F3FE
BD1D8E00
BDCE7A31
BDD5C5B5
BDB9F186
3CA96986
3D82599F
3CA33EC9
BD844C88
3D9600D8
3C0BBB2A
BDC3DEDA
BDAFB77E
3B8669E7
3E1E132B
3BF8F12D
BD3116F9
3DEC9AFE
BC45A15F
3CFC5D13
BE1FF7E0
BD09F54C
BCC7C160
BCCEE002
BD4BFD9A
3C8B687E
B9F8D604
3CCA4BB3
3DD9B34A
3E23B14B
BC0C3ACC
BCACDA89
BD538385
3CC85D67
BD67EC43
3DC40CD5
BDE48D7E
3DEAB607
3CD530B4
BC54FECA
3DD480A6
BDD3FEA0
3DCCD291
BE2DC8B8
3D9CB791
3CB632C2
BD9DE2D4
3CA3ED7B
BD979A5E
BE2739B0
BE0F2496
3D8A77B0
BE1DE15D
BC8B1BF3
BDEEF912
BCF1EC77
BCFA2601
BD8F4CF5
BD272573
BD6E9178
BD1F3768
BB9B33CE
BC88A952
3E03C5BD
BDFC4FC2
3E079075
BD48E63E
3DE90C4E
BD8CB769
BDD6AB58
BD8B79E6
BD2872E6
3D23E781
3DDC3F81
3DFF8EC1
3C930E65
3D6564F9
3DC2D93B
BDB9C33A
BDEE9B39
BD0F78C9
BD80FF47
3DDA6267
3D249AB4
BDBAFF2A
3BECBEDB
BD9AD843
3D41198B
3CF145BD
3B6CB6A2
3BAC49F5
3DF1FCD2
BDB92111
3CA5F527
3D891DA9
BD0A0DF1
BD49D11F
BDD75105
3D41DD1A
3CABB815
3C691E3C
3D805B8A
BDE89763
3E0B98C8
BD5049C4
BDB6D1E1
BC6CFFDE
3DB110E4
BDAB7E84
3CD926E3
BE10CC79
BD812C5D
BDD5D031
3E11D2E1
3DAD29DC
3CDA5871
BD99F4E1
BE049D7C
3D2B4EE9
BD8593B0
3C6F1F07
BDF029AE
BDC0DBFE
BD116D10
BC4E8D2C
BDCE0B0B
3D5CB726
3DA32B05
BC01FAB7
BD93F324
3D3A4957
BD8B92B3
BD117E42
3D914FF7
3DCAC91C
BD256118
BD7D34C4
BC5AA99A
BCB7E6F7
3DFEF523
3DF1C7DE
3D9A856D
BD99A423
BD833BBF
3D569B4D
BE0434A0
BDBC6632
BC5CDFD5
BDFE4D5E
3DCC2B7A
3D189573
3CB2ED5D
3DBBD2ED
BC37C27A
BE0572DE
BD32A2D0
3944B74C
BB28559F
BD66FAAB
BDCCFA6A
BE020104
BD7412F7
3D4EA3D2
BDA45374
3C8E1064
3DB46D17
3D573F31
BDDBA3CA
BCA4C0AA
3DC1ABD2
3D80E3C0
3DA52114
3CEEFFFD
BC798669
3DA65CF6
3D9343B7
3B81AF6D
BD0E93C7
3DF87C63
3DC6FF56
BDFD6E05
BBDA2479
BC545A60
BDA98AB6
3DFE3F36
BD908DD2
3D612B94
BD2C69D0
BDC31D21
BA09DD6D
3DF48ECE
3D8F0605
3DC73281
3DA58B75
BCD4DD07
3DD753A4
BDE2B735
3CDAE5CA
3A8BAC9C
3DDF1F15
3D03AB86
BD0C45F4
BD5413E9
BC9BEC25
BC25BC52
BC465C05
3BF52861
BDEC918E
3DF914F5
3DF4C986
BD87F031
3DCBB9F8
3D8E15BD
BE1570C5
BDECF206
BDC3A23F
3DB95C93
BD186750
BDBBCFBA
BDF839CE
3DD3D07D
BCC8F4D1
BD1609DD
BD07CDDA
3C8A61B9
BD72635F
BCB99730
3DA74B84
BDB7462B
BDB4C0C5
3D5603AD
BD8EB58B
BDC88CCC
3D317AE7
BDB3A2B7
3D04D460
3CB3F8F6
3E03A81E
3D8B51D8
BDE62A1B
3DA28B53
3E01A9B9
3D967657
BD47C9A8
3D62C973
3DBAB9DB
BDED844D
3DA387FA
3D9D2425
3D58618B
3D36AA81
3D08DEB1
BBF39B83
3D11B3BC
BE02224F
BD949DBF
BDE1DF33
3DB4F759
BD9B778A
BD465640
BD383078
3DAEDD56
BE0CD7CF
BB400137
3DC33F35
BDF7B528
3D9C0E6E
BDFF39D2
3DA568DB
BD9D701E
BC38D244
3D760617
BBA503DB
BD83FB1C
3D9C25F9
BCE01BFF
3D62F471
BDFF26F2
3DCC495C
BC29D628
BE0320DA
3DE1E604
BD95B0AF
3E068837
3CCCD6DE
3BC860ED
BD6F4095
3DA80502
BCF7C782
3CEB7F75
3D5C4149
3D58E758
3D5421A5
BDD6E265
BD8C62CA
3C46484E
BDEE8188
3D54FB55
BD9925C9
3DE44418
BD20B9CF
BDAE03C1
BDE0D2C4
3D89264F
BD9F7D4C
BD8EC410
BE018506
3E07C5AC
BD1584CD
BCA0C283
3CBC06AC
3DA0213D
BDC3B04C
BC9BBB7D
3DAEE1B0
BDA97793
3DBDE5D2
3DC93350
3DFF1E8E
BD669149
BDC62C77
BDCF5EC8
BE00AC7E
3C832B63
BD66FEC2
BD9D7478
BDA495E1
3C8208B9
BD81D2B9
3E004F2B
3DC36CC4
3DBB2471
BDCFC58B
3DF1E6CD
BDE3EEA2
BE08E821
BC3544F1
3C362698
3D55AD46
3CD47502
BE012945
BCB084CD
3DD0E5E6
3D29973E
BDF52C9D
3E0662BB
BD99AC36
BDC7A503
BD1CDC7A
3DB82B12
BD72C6C7
3DC478C8
BDFAA4FD
3CE09353
BE078317
3DCF8D71
3D5984A1
BDDB5D89
3D842BEC
BD3A3DCF
3D1F876A
BD8304C0
3CA8CA59
3D7488EE
3D7E4621
BB804205
3B146A5B
BD952D8F
3DB86940
3D4F776C
3C3FF045
3E025EDD
3C37BDDC
3E1466F5
3D743E96
BD2EB9A1
3DE8EEF2
BD2D170A
BDDBFBDF
BC858794
3D9603E3
BBA8A007
3D5C03F2
BD501BF2
BDCA9E39
3E04BA0F
BDC9D719
BC8EDC06
BCFF3890
3E077814
BD92670B
3D96E829
BB614BE0
3D905590
BDCFE261
BDBEBDC6
BD04D460
BDC339C1
BDC68FDF
BD788491
3DBF791A
3DB9874D
BDD5B9A6
BD8744A5
BDA456CF
3BF90AEE
3E023B79
BE08A19D
3DB15ADE
3D574272
3DD2D880
3CFF917B
BD878573
BD93033A
3E0BCB60
3E064495
BC301A0F
BD37E05C
BC1B79A3
3DC39EC9
BD715EE8
3E03FDD6
3E0657FB
BDC235EB
3CFD30E3
3D351307
3DC97AFB
3D649B8B
3CE7B5F2
3DFD3804
BDAC08C5
BDE5BAF5
3A07F67B
3C0246ED
3DE4CBE2
BCB45E77
BDA46420
3D90D2D1
3D800036
3DD7F7BE
3DE5321E
BDF3A8A4
3D6852B5
3D88FD92
3A523D4F
BE150F41
3CB31211
3D1FC166
BCE4C979
BD8FE0B3
BE02F017
3E07FCFC
3D74CC0A
3DC572F9
3D213951
BD88F4A9
BDCF1349
BD150AD9
BC5F421A
BCAB9A83
3D72486D
3C8A7E08
BD07C6B9
BD7CA263
3D9025F5
3DB6188B
3DA59BEC
3D1D5FC2
3DA642CD
BDC56BD8
3DF2745C
BCE65B7F
BE3C7CD9
3D6F4C39
BD4D4512
BE3589AD
BE3797CC
BD2BD4B5
3C4D6437
BE5E4D5E
BDB6683C
3E345F9E
3E82C190
BEA0EFFE
BE957A57
3D919D67
3CCB2CEF
BDADB199
BA87C358
3DC56649
BD96B9A8
BA0DB9AB
3D55A6FC
3E6CD680
BE5109D0
BE1E9292
BD8FB7B3
3DB77DBE
BE3B1F25
BD744227
3E391E64
3E5DFE76
BD091D65
3C7D0FF6
BC99A69A
3E03D89D
3D323034
3DEB61FE
3E0BF8BA
BD27055D
BD2A68A4
3E67A787
BE70EB68
3C59F391
3D9C6D97
BD926289
3D8580DE
3BA7818F
3C8214E3
BE13CD14
BE045E92
3E0C49BA
BD75D71D
BD57126B
3B926C7F
BDEBF3BF
3E3A9F38
BC7B51B0
3DF06A2B
3E912902
BBBFC0E0
3DED002E
BDCA2926
3D494BBE
BDBF1BFD
3E7C625F
BDF86EC1
BE863433
BD3C9456
BE3830A1
3E639219
BD8F0C5D
3E68BEB6
BD1792A9
3E6995EE
BD883D79
3EA412AE
BDE7A6BD
BE658FF7
3D8549C4
BD82731A
BE081388
3D91D54A
BDD8BC5A
BE7CCEA3
BDF239A4
3DFEB420
BD62F040
BDFB517A
BE259D56
BE09552E
3E891080
BDDE1112
3CDD2FF1
BE23DEA4
BE0AA9F8
BCE6BA7F
BE5443D4
3DA82822
3E8A90EF
3CF6DF90
BE0670E3
BCF6E753
3E2E04C0
3DE5D0FA
BDDAAAC1
398D99ED
3B87FAE1
BE4D9168
BC4CBFCC
BD05F69F
3D8740FA
BD1515DC
3DEDEA03
BE2DA2F9
BDA404A7
3EB34EFD
BDB1B1D9
BE02495E
3DA3A231
BCE4642E
BE67B80B
3D268860
3E785986
3EC7AC3F
3E6A9C56
BD613C76
3D219744
BE024A6B
3E55B91F
3CBD7C62
3CDFFCC0
BDB55956
BE04F0D8
BDA2B651
BE5618CE
BE132D6F
BC2FE9D3
3E78B4C0
3DFE8B3B
3DE5D5B2
BDCC4835
BDFAC711
3D8DB02F
3CD397C2
BDACE0B9
3E8C8238
BC6C6294
BBF8E809
3D91D184
BC03FAB6
3E5D933E
3BA106E1
BB0E9F96
BE37E49B
3E85B318
BD1BD0FC
BD497270
BDAB6F85
BCB94B45
3E01D2E1
3E1CD0FF
BDD9B2C4
3DF99243
BE11CFFF
BE35FA22
3D64FE37
3DC3CB67
3D13FBCB
BDC4B4D0
BE1C957D
3C3E3773
3D9A46FB
3E2AEAB8
BDAAB7A7
3EA19F1B
BD2BD71E
3E3D30AD
3D7D3713
BDEB3E57
BC1C339D
3BDB8BED
3CE54A07
BDED4F59
BCA37E55
3DC716EE
3D8B60F2
BDF4F723
3D4ED80A
3CC68AFF
3C939FF0
BCAA48DF
3CA02D67
3D910BA6
3CF75AE0
BE1F76A3
3D2A6EB9
3C38C1E8
3CFB14DF
BE2B1F25
BDCB2A50
BDED0A24
BDF72474
3D6D4D5B
BDCE7360
BD89695E
BB25A00D
3E39F773
BC837E04
BD9F7AFD
BCBA76BF
BC913979
BDF10E45
3C3008DC
3D68D287
BD94B564
BB17658D
BDD43C7D
BDD967CB
BE98EA7D
3E112B1B
BDF20E1F
BD77527D
3E83E22E
BE24BC6A
BDCDE4C5
BE47778E
BDE0E065
BE0EB032
3DDFC222
3D165C48
BE0069E8
3E2D91AC
BD58BFD0
BA74DB5F
BD96842E
3DB1B3AF
3E38609A
BD06E115
BCAE9468
3C09085D
BBE6574D
BE6688BE
BDD0F388
BD01DAE6
3E1B6998
3BBBDF29
BDF1A8EF
3D6F479C
BD7C6E45
BCA8DB20
3D446647
3D98542D
BD679789
3D3B86A4
3C923DBA
3CEBB4BA
3EBBE271
3D6C6D7C
3E0892AB
3E739820
3E0B4FA5
3E9106CD
3E247065
BDDF65DC
BE6B6523
3E128E0D
3C933999
3D8B8B26
3E158D9B
3DED0E56
3E9DB4EE
3EC0168B
3E0B8499
3ED06DD7
3F13C6B9
BEA736F0
3D02AA34
3E1F4949
3CE9028D
3D955F28
BCDA26F3
BE05BF27
BCFED2A4
3D2DE5EC
BE6B1EE2
3E92DE01
3D7FE7FD
BE143C3A
BE3420F7
BE45425F
BE938583
BE506898
3E9B5D25
BECC43B3
3EAA439A
BD8A10AA
3D75B87E
BE4B2D0A
BD1151E7
3C8EB3C2
3E4992C9
BDD4F69D
BD3BC58E
3D8E3BF5
3DB75A5A
BDBF6457
3CABB30C
3EBF1D1D
3E00C133
3CDF6CAD
3E0E8251
3E121294
BD93641E
BE4DBCA9
BDF95A29
BD53273F
3C2B4741
3C2FA143
BDF9231C
3D5A72C3
3B9C12C6
3ECC9EAA
BBBAB51D
BE97353B
BD377807
3BA75A77
3D2C5254
BD414728
3DD59F6F
BDD2CF96
3D131B30
3DA217FB
3EC6ACEB
BD196EB7
3E163FDD
BE115012
3DC5DEC4
3E7B3CC5
BDA5F26D
BE4E36D2
BE570EF5
3DFEDC7F
BD2B2C9F
3DBC51A5
BE84FF43
3C7B81EC
3D247835
BE620AFA
3C752DAA
3D872D43
3D77838F
BE0ACCD5
BABA39CD
3DDA493D
BE8E8B1A
BCB990B0
3EBB04EE
BDA247F4
BD2CD424
3E566235
3E90BAE9
3CD03786
BE815443
BDA9557F
BD3F85BC
3DE42A67
3CC3E3BA
3ED83409
BD543A64
BE5E379B
BDAEB9FF
BD50AE39
3BD595DF
BD9BDA87
BEA149C7
BC7B704E
3D2C7813
3EB6FC37
BE05742E
BD9720E4
3D20EA40
BDD5C0FD
3E673DE2
BD7FCB0C
BEBF67D3
BEAE30A9
3E839E8C
3E4568A5
3BA46479
BE54B231
BE021EA3
3E5565C3
BD6C26EA
3AB05AD1
BD4E16AF
BD007358
3E844439
BDB54BA7
BDA3BFD0
BCC3AAE5
BE5CAAB9
3DB5D498
BE74ECEA
3D5D5E4A
3DC77D45
BDB30220
BE2FF823
BE590ABB
BD70243A
3E250EBB
BDEB367A
BDB5F832
BE5F0F17
3D616F36
BE97075B
BDA66377
3DA5BE43
BE6F41F2
3D8A3FBF
3D7D75AC
3DAA0E5C
BE91E710
3D9A5531
BC005590
3EA45B4B
3DE436FC
BE89E8C4
3E98303C
3E27BB30
BE0FDDEC
3957BF22
3E783622
3DE00B89
3D93301B
3E207CC8
BE866927
3DF0FD7E
3E2F6B5D
BD375339
BC55588D
3E31DFB9
BE5E1006
BD8ED2D9
3E3ED246
3E38B5CC
3DA850D2
3D0E978D
3BC99ABE
3E386A4D
3DE5D52C
BE38A3B5
BE2812BE
BE1822BC
BD2F38D3
BE19AE4F
3CA3F898
3CA4EAD1
3E0C47A1
3DAABE78
3EB0B8AE
3E077B7C
3E7348F5
BDE5A2D7
BD1588C9
BE54EB14
BD49A4DF
3ED6B3FF
BE8FC0F4
BDFBD7B2
BE446D83
BCC27B3A
3DC910C3
3E94C059
BE6F498C
3E2ADC4D
3DB1436F
BE291D58
BD93806D
3E067AD9
3EA27957
BE36F47B
3E1ED917
3E318C5D
3D243625
BE38A937
3E22146A
BDA92586
BE8B0532
3E9C4B0A
3E5F88FD
BD29721F
3DD0FC72
3E0BA4D7
3D159C64
3E069446
3E201F32
BE158FB4
3EA5F6BA
BE7F3F10
BEB8A04D
3DD762D8
3D8FB2EE
BE065FD9
BE0A26A2
BE7094A3
BD7D3A89
BE590CD4
3DA9DDC2
3D3B4C57
BD8814AF
BE0EE1BD
BC670D55
BBFEEB43
3DA9982F
3D99141E
BBA42D06
BB00F6B5
3DA94325
BD540281
BD86ABB6
BD932DE8
BDC17284
BCA6A338
BDF190D1
BDE6EB0B
3DFBBF94
BD9AAD2A
BD393F51
BDCD7732
3D6F00B9
3DD71C97
3D9DCB3D
3C15B142
BD82D63E
BD170EF5
BC9AF809
3DB9EFCB
3CA62889
3D947827
3E177143
BC83785B
BCFC635E
BDF39B89
BCF5F40E
3C11929A
3DD6605F
3D92788E
3D81F1DD
3D8D70E7
BDDAD3A6
3C8C494F
3DE875D5
BE029DC7
3D3DF330
BD6399CE
BD85B72F
3CFC0783
BDA188E7
3DB94376
3D24CD5A
BD3023CF
3C8ABE35
3D46AA3E
3DBF596F
BDE96BBA
3DAE38C3
BD3ECF7E
3D69F186
3E007315
3C8AAD38
3CB298A4
3CD31302
3C3E8BC1
3D87E7CE
3D34510B
BD89A7C1
BDAC43E9
3D8F3908
BD242884
BC611BA4
BD97E897
3D28E00E
BD5DE192
3D75E52A
3C9996AA
3DA922E7
BBB69C1E
3D14D17E
BDF3E3E3
BD5D5779
BDD8B157
BBB8A791
3B0B28E9
3D42909E
3DCA2EDD
BCF96760
BDD6CEFF
3D3352F9
3D8F5E34
BBFACDBC
3C401381
BDA42EDC
3CA8A49A
BDC09C8D
3E0C5F39
3D4A0E5C
3D5C82B8
3E028ED6
BD0B0CBE
BE1AC472
3D867316
3D1EAE0B
BD8D0686
3D7D730D
3DFDC726
BE0FB6DD
BD06BD03
BD139F19
3B475640
BD117508
BDA83C5F
3CAFE932
BDAE5215
3DA75BD2
3CECD409
3DFED17C
3C9B5D89
3D9F497F
3D2E8C55
3DF1098D
3CEC97D9
3C468C41
BC53415B
BB135D15
BD5498A9
3D7B593D
BD144E1B
3D8D4090
BDF03644
BC7808BB
BDBB4DDC
3E137197
BD9C10E5
BD33C61B
BD017EA0
3D7AED72
BD8924AF
B9DB9AD7
3D11FAEF
3DB3A7E8
3DAEA34C
BD2D1C63
BDF0FA59
BD17D6B6
3D4E9ECA
BD4DA067
3DCED890
BD6ADBAC
3E14F50A
3C926A66
3D083DF2
BD9CEDEF
3D68A464
BD18A761
3D30CB5F
3DDA56DE
BD40F0F6
BDA8FA60
BD534191
3D277F1B
BD298B49
3DA0F30F
BB026D58
3E1BCF92
3DDF7271
BD25F69F
BDEAF3E4
3E200150
BD584A29
3DF3037D
BD54C950
BDC55864
3D80D57D
BD8042A3
BC1822AC
3D845FD4
3D22EEC8
3D4BE4A5
3C848825
3DBD206D
3C61705D
BE015486
BDCF251C
BABAFFC6
3C5BFB3E
BE044913
3D6BAF2B
BCF3B9D6
BC593D89
3DBCABE0
3D7CED77
3CB453C5
3D31B6AC
BD8DA0B8
BD102795
3D133516
BCC420F7
3A0E5CE1
BDDD65A1
3C81A94D
BCBC4205
BD6F0E40
3D694A2C
3DF08E58
3DC4076F
3D47C01E
3DA14AD3
3BC9304B
BDE554B9
BCB05532
BD7A04C4
3DF7FE09
3D4AF252
3D0616B5
BDD39431
3C2B35A3
3CE33E28
BBAD40AB
BC4D4AA1
3CC61D50
BC4E61F8
BDF986BA
3C903750
3DDEB7CC
3D274E08
3C12F94C
BC03651A
BD1EF376
BDF0E2C1
3DF9D239
3DF7C244
3AAA50A1
BCDEA6B4
3DF5DAAD
BD9DFFE0
BD1E8D6F
3D01A6FF
3CB50607
BDDE7AFA
BE02584F
BDF0D174
BDA67C86
3DA52696
3D3C4ED0
3DB04D1F
3D06F07F
BDC8FD85
BC8264FF
BD8CFCEE
3DF16DB1
3D69C37E
3DB0173A
BD5C635E
3D31C681
BDBF55F9
BD2BE4A5
3DA11C95
3E4956C1
BE04A72F
3D7265E4
BE49B068
3E5BC5DF
BCBEB4A6
BDA8770A
3DD65FD9
BDFDB3C0
3D59D360
BDB87C99
BB78F4F4
3E25182B
BD04BCAE
BD938AC2
3D6F837B
3CAE7CEB
3DD9BED3
3D269312
BCBCD96F
3DDEEC39
3E0530CF
3DDE3D1D
BD7DA8F3
BC49AE34
3D4CD34D
3E115E7D
BE37021D
3CA78580
BDBBEFC3
3DBC5289
BD3D508E
BDE2DE01
BABFD192
3D089D78
BDD1372A
3D619A84
BDBFD256
BE2DCCEA
3DE3779F
BDFB2464
BDDAF9EC
BDB3F0D6
3D7C8C43
BE58F367
BC3AB5DE
BB2F57F2
BD313C83
BDC0D76E
BCA1B2D8
3D92E558
BD15DFEC
BE0BE554
3D092D05
BC7639AE
3DD2FF4C
3D74FDBE
3DEE69F0
BBD52A3E
BE3B9B67
3B3C5D13
3C40AA80
3E0DE4C5
BE1CAB3F
BDE6234B
3C9043B0
BC4FBC6B
BDD35DAB
3D085BB9
3D57CCA5
3DAA93F3
3E267DFE
BBDF62A7
3E229739
BDB2E29E
3CE0EA91
3E27D73D
BDDDECE5
BCF0F536
BE12B66B
3CF3C37C
BD8631C3
3E16D506
BCE36D22
3E19DDC2
3CAD509B
3D627C47
3DB4340C
3C08AEE6
BDA0CC79
3DC7BC9A
BE31C3F0
3AAE962B
3E3A0CAE
3CCC462A
3E267F91
BE100A39
3DCA4EF4
3E017EFE
BE12BA9D
BDB68FA9
3D165527
3CC42A31
BD90C15B
3BE2AF0C
3D423D0C
BD94ECCF
3E56887B
3DC3973C
3E3B7803
3E755E6C
3DBEF34D
3E07292C
BE2618CE
3E0DFE76
3E136B4C
3CB65DF5
BD81E944
3E21A5CA
3D54EA3D
BE1BC9CD
3C25D2F8
3D22C867
BE43DF2B
BD8C7A2C
3DC80DB6
BCEF5269
BCEE8B2E
3CD6E1FA
BDBBA2F4
BDB58992
BD74A4B8
3D9A0572
3C7951FB
BDACBE97
3CEC39AF
3C114D3A
BE486013
3E01C326
3DD06C44
BDA6B915
BE22599F
BCA5686F
3D61B831
3CEEC072
BD922000
BDDCED91
3E41422D
BCAA3A66
3D8FA6EC
BE1E63E9
BDA7503C
BE3F398F
3CE92DF7
BE0F2410
BCCC79C1
3DA0B044
BCE72DA1
BDF6DDAD
BCF81260
BA6930D3
BCFDCD8B
3D966758
BE221D97
3D66198A
BE0DDBDB
3B28DD84
3E1EB4EA
BD8437B8
3DA65B49
3D7F6988
BCF61028
BDF7BE12
3D9F718D
BDBED494
3D791311
BD0AD851
BD2801DC
BE426AA9
3D9CFB84
3BD32EBC
BD520917
BCF61093
3E1FAF42
3E1EF4E0
3C81AA90
3D5329C3
BDD162AE
BDB24979
BDD865D8
3CADD7DF
3D8B5AB5
3D4B68B4
BE1DA943
3CEF6259
3D571FBC
BE069985
3E374214
3D150B2A
3DC73803
3C0DB02C
BE2BC0A0
3DC2A371
BDBF6EE1
3E4E1544
BC4AF70A
3DF38F7A
3DDA847B
BC902BFD
3DC6461B
3D8B4891
3E3B7ED4
BD9FD601
BE1F9379
3CB151E7
3D95A5AC
3E1AD363
3CB93907
3E14EEBF
BBF8371E
3CF9CD16
3DB0AA07
BD78B6B0
3CF00A8A
3DBC0B8C
3CABD2B7
3DD44674
3E3286F9
BDC40C6A
3C9B7140
BDD1E9F2
3D9DDF6C
3D07B261
BD990D32
3D608BC6
3D079F16
BCF03918
3A5F53C9
3E1862F6
BD6B3B17
3C95178A
BDC8543A
3E106E1A
BDC73CF0
BE103E64
39E0039C
BD7AD589
BDBA8E8C
BE33E964
BD63E293
BE25EFA6
3E040182
3DCA7B91
3E3373F3
BCDB006C
BE359EE9
3DE70542
BDA130C5
BDF2CC71
3C82E6D0
3E103A32
3E0A6480
BCFEE65A
3DCD7ADD
BD9054D4
BD2E6107
BD381C21
BCEC03FF
BDD46FDF
3E3BE836
BDAFB423
3E430A0B
3E0D35EB
3C9ED75C
BD09BA5E
BD832DB2
BE0FC2EC
3E09F7B6
3D449FF2
BD2CAB24
BD47CA2F
BCF994E2
3D6E87EE
BDF7D630
3E058C8F
BDD96638
3D71D14E
BD532B8C
3C8A4782
BD969C31
BDA6485C
3C9E1E64
3DA2AAAD
BDFFBBD8
BDC4E791
3DBEAB36
BE14F095
BDE18F82
3E106E5D
3CC9F5ED
BC8C2CCA
3CBFE020
BD6A64F9
3DEEAD92
BE6D7E46
3D870733
3D1C054F
BE7A3F46
BD20E62A
3E11F81A
3C939574
3CD87AB6
3D518FC5
3CA647C8
3C88C3F4
3D20FD05
3DC317C8
BD330FA7
3E2E6A77
BE06DA45
BD487CA6
BDEAA7DF
BCC91DEC
BDF4677B
BD1F4088
BDCF06B3
BDE4955B
3E38EC10
3C684C85
3CC08E9B
3DABEC75
3D69F6A9
BB0D8564
BCFBD747
BDEF2064
B98FFDF6
BDF9463D
3E15DD90
3D9B83A7
3B84BDD5
3DE3B689
BD1A9EB2
BD6D8B39
BA6567D7
BD0E09AE
3CDF9343
BBE07D03
BE44B05B
BD89F178
BD3C6F1C
BDAF7C90
3DB306D8
BD9D8574
3E25FBB5
3DE7991C
BB3C89B4
BDE69F8C
3E1AE148
3B462899
3D74666F
BE025397
3D56035D
BDE54F7B
3DED40AB
3DF043E5
BB8E4654
3DB6D5A7
3DB9618E
3CB41A19
BE062ED3
BC8EB8CB
3C7F8A8F
BD45A89C
BD936E06
3D16AAED
3D950283
BDC5B6EC
3E0E64B2
3CF1B809
BDEC269A
3D2FEF7C
BE0AFCCE
3D431C9A
3C82E522
3E2BA344
BD9F6DC7
3D0AFB21
3C3F8693
3D852D66
BC91B99C
3CAE65A4
BDB19462
BC9B9877
BE427807
BDD574F7
BDC4FCB2
BBCAA845
BD5D5B75
3DAF2B82
BE0C2F40
BD77540F
BE3CCD96
BDB68994
3D2035E6
3E1274E2
3E2AB8E9
BCD164E2
BE46E2EB
BE393AB4
BDFEF955
BDDF3C71
BDEC447C
3E4293D1
BDA1B6EF
3CEB921F
BC87980F
3CA4DF12
BE1EAAF3
BDC83B38
3D50F3A3
BE025248
BDCA1A00
BCDDA4C1
3DBCF942
BE19F98B
3C09BB8B
BDB96DD2
BE14406C
3E24B407
3CD83516
3D566DE6
3D913257
3D8B734B
3DB54824
BDEC7000
BD043D97
BE0866A1
BD11E1E0
3E0CC815
3D5C2D0D
BD78FBE5
BD42C7C6
BBF258A3
3DD6CA47
BD4FFA13
3D3F649A
3DD2452C
BCF140EB
3E1E89EC
BDA0A915
3DBAD660
3DE94706
BDCCD291
3E44DD2F
BD868F4B
BCB45613
BD9C2C43
BBECFE05
3E4FA26A
BDC0BFF1
3E390796
3D4EDB65
3DE3D9A9
3D0C9B69
3E17F499
3DA95521
3CEC1ED7
3E69AD00
BD17CF95
BDF39192
BD97C1BE
3B270EF8
3D8405C1
3E00474E
3DD740C4
3E253261
3E079357
3E06D5D0
3DD11F92
BDBEC2DC
BC244C7B
3C509402
BDB83C7A
3D5AA101
BD12CA07
BDF39C0F
BDE281BA
3E399568
BE138B8B
3D9C303F
BDA4ABCC
BDF68C69
3D9A73CF
BBAAA7DF
3DAF2BC5
3E0D690A
B9A4FDA6
BE45A294
3D7DB919
BCFCCB62
BCB82EE6
3DAEC560
BD22A1EB
BD93449B
BACC5E12
3C0D5CD5
BE4AA92E
BD57B203
BDAA03ED
BD7894B7
3E10E6F3
BE2C2B95
3DD5097D
3ACD7EA3
3E23E5FB
BDFA261C
3DCF13CF
3CF77807
3E0F5DFF
BC55A0B1
BE653826
BD28C211
BE09C12F
BD4A1FA9
3D63419E
3DA15D3A
BD08ED95
3DA1B288
3BFAC497
3E390471
3D06068F
BDAE7F8A
3D3E299C
3D8D5EF9
BC2D00EA
BD92C394
BC98C7E3
3C994BCC
3E12AD3F
3BEBED24
3DD680E0
BC13F7C4
3E58A548
3E4DEE35
BE6B64E0
3CD86DEB
BE005037
BE5BE7B0
3DC41AD5
BDE9CA9F
BE2AFC48
BBBBC3E6
BDDCF356
BE04A277
3D5E43D3
3DC4FE7A
BE60752E
3E3CC07B
BE296074
BBF8398D
BE14F590
3E16A6A0
3E37C244
BE20068E
BDF4BCF1
BD69667B
3D32C189
3E06C93A
BD5EF955
3E0DED29
BE015012
BCEB0319
3CBC59B8
BD027342
3D2998EB
BDF5115A
3D4B76F7
3D9A98E0
BDD859C9
3D9E1AD3
BDD3B081
3C922ED7
3DFE846A
3E75ED07
BE275925
3DA70FA4
BD22BB81
3D9AE32B
3C637A23
3DAF3F53
BE28D478
BDB81FBF
BE0A3593
3E22CA15
3E3A9FBE
BE00FDC1
BD212CD6
BD3F5C01
BDA89141
3D9BBB04
3E447FDC
3D1EB05A
3DF93038
BDE62FE0
BC6AFAB5
3D3F122F
3DF42BB6
3E2EC3DB
3D537C49
3D65AC47
BCADB57B
BE09AA1D
BE18F29D
3E3F3669
3A3212C8
BDA23C5D
BB43440D
BAF2A955
3CB94424
3DA7F5C0
3D39D884
3D55B086
3E18CA3E
3BE90222
BD8D09D4
BDFC4DA9
3E3690DE
3E0268D3
BCDA2510
BD4A5863
3E0E5040
BD4D0E05
BD03DDC0
3E144CBE
BD75B0D7
BDE4BA95
BC3F5FFD
BE067169
3E2E94AB
3D98DB2E
3E554867
3D7A37D5
BE302A35
BE31A0CF
3DA5B284
3E2FC04D
BE17F23D
BDC8B81B
BCA40B78
BE625BB8
BDFA059A
3CAF1ED1
BD82FBD6
BDBCE8BF
3D32F13F
BD67E217
3DE877EE
3D0B7671
3DE597D5
3E5169C2
3C8284AA
3CE95FE0
BDB168EB
BE61E3A8
BE83FAF4
BE08E582
3A2357CD
3E07A850
BB51AD06
3DDE9079
BB64E7A1
BCD75AFB
3DC7E077
BD549A3C
3D860873
BE03D74D
BBB39D66
3D457E24
BD06B251
3BCAD277
BD7B6714
BE2A3012
3DD5E0F8
BD5E7EC1
BDDC9ABB
3D98BB68
3E0AEF2C
3DACCD1D
BC58AD40
BDFF3626
BE15043E
3E5FCBD5
BE562B28
3E6A33BE
BD71508A
BDAB0FAE
3E3F1F15
BE20BD88
3E1BE122
3C0F4CDA
BDE37931
BDAA2AB9
BCC34D5D
BE132618
3E82456F
BE06AA8F
3C780CEC
3E10BA1F
BC826388
BB87C546
BD9A316F
BD5B9D65
BD91E0C6
BBD6205E
3E4A808D
3CDC68EC
3E641D8F
3D7DA1B7
BD607109
BE151E75
3DC40307
3D22C867
BD4174C5
3DB0BB61
BE19884C
BDDB1B7A
BE2906CD
3DD50119
3DCB99B9
3DCA5A97
3D7CE0FC
3CF72D94
BD1DE91F
BC8175EC
BE450764
BD424E59
3DBCC25E
BE3ED4E5
3DC0A1A3
3E5F6599
BE037CDD
BD95902D
BD552978
3D941454
BCA2892C
3DFD80E5
3C8353A7
BE06C11A
3DBB95B0
3E8BE07A
3DE350D3
BDAA9344
3E22D906
BE3037D6
3D1BE081
BD192EDB
BDC58E9A
3E31E9AF
3D93D8D3
BC3FFE88
BCAE795A
BDD61566
BD5A58F7
3CEB9B5A
3DD6BF44
BD309B8E
3E37CAA7
BDE4F766
BDD64495
BE3DB595
3DFADD9C
3CF7D087
BD8F8162
BD978B95
BE0B5E0F
BE109F62
3CF699BA
3D8C0EE7
BDA0A519
3DE440F2
3C6FF26C
BD4B4162
3A3B5488
3DE29846
BD8D01A6
BD38415A
BD05E8AD
3CDF127F
BC20EAB1
BB2B7793
BCB82A7E
3C53CC9B
BC67D780
BDD1E4B4
3D496B4E
3CF207BA
3DC2258F
BBF9A588
3C1920E3
BC69C52B
3DB6946F
3D2089E3
3D212E84
3DECB5BB
3D14D361
BA8C6E38
3DE2413E
BD62DEBD
3DD362E9
BDBE6320
BD8356CD
3DBE47A7
BCA2A6BE
3DBEE78F
BDCBD97A
BDE6B26C
3E18A266
BD1FFD97
BD79571F
3D1A58A7
BD9E05B2
BD4DF033
3D8365F3
3C88DD54
3D3EE5EF
BD3EED10
3D72F4CF
3D210350
3DC92345
3E255087
3D3F5459
3E1B5B70
3E1ED528
BAFC10DD
BE1EE350
3CF01FB8
3D3502FC
BBD59D56
3D88C005
BC6EAF0A
BDD05EA2
BC71D459
3CC39F27
BC84CB77
3D5B86DA
BD1AF188
3DAD7ECC
3DE1DB87
3E2A6E33
BD28C6FE
3E053B08
BB3399F6
BD23F466
3D9BD739
BDA3CA75
BD803885
3D7C9FC3
BD4185A7
3DA2A5DA
3DE9CC32
3D90C324
3D67264A
BD89DB08
3DEB91B4
3BF5BAC2
3DB6EE4C
BDF098D4
3D794BE7
3DF16EBD
3DEA7CE1
BDA0CBBD
3DD7A4E8
3D72CFB1
BD9184EB
BD2EB29B
BE03F573
BE15E311
3DBA43C9
3DA42E8B
BD5100D9
BDE63AE2
3D35AADD
3C868C77
BB902AB0
BD841E30
BDA3860A
3DE239E7
3D82F075
BD05B4AB
BDC14CC4
3DDF1412
3D83CC80
BD22392B
BD0EF531
BD697397
BDA54BEA
3D72B940
3E40E94F
3DBBA6D5
3E0084E8
BE06EF80
BD1F034B
3D8E54DD
3D42EFEF
3E017508
3DE187A5
3E290EED
3D8DBE06
3DE93858
BDC5E1DC
BE1C0CE9
BDE81451
BD9892D4
3E0AA002
BCBC4E9B
BBB00830
BE165F52
BC5D0FA6
3D41E2C4
BDC5BFA0
3DC2977D
BC9BCBA3
BDA39DCA
BD828B10
BDFFCC18
3E2CC3A0
3E150EFE
BD6D1FF4
BDB8E3AC
3DFD3ED5
BDF0DA5E
BDFE0696
BDDA083A
3C86DA45
3CDE141D
3DA8EDE5
3D5B98C8
3CFBB1BD
3896C905
BD7C66D3
BD9A7836
BB015A33
3DB25878
3E1738E7
3D81B9B6
BC0B6E13
BD4F4CA4
BC885031
3DDAB29E
BD4FC04D
3CFFE6D6
3D57AB9E
3D5911B4
3E1C2CA1
BDE0A8D2
BD6EC164
3E02C882
3CED43D0
BE040CC8
BC752D3E
BDCCD078
BE2D8FD6
3E05336E
3D0A54EE
3C8918E3
BBE5A4F5
3DB9EC2D
BDD07C85
BDE91B82
3DD5DFEC
3D83A0D4
BD3B76CF
3C287BB5
BBFB8F98
BD2F3400
BDA0A768
BDB23ACB
BD8D5D23
BDFB5E96
3D6A1DAB
BD346116
BDF00EF1
3E00E51D
BDE73A36
BC28CB66
3C27334B
BC4595A1
3D99A43E
BC4264FF
3D324DFB
3DE02214
3DD3F317
BDB52FDD
BDFF2885
3D81FB40
BD83A988
BDD8DBCF
BDE3419E
BCD46B27
3C33127C
BDCC3449
BDFDDA8C
BCFA2596
BD6242B6
BD3143BF
BD82CB64
3D80E934
BDF3636F
BDD35B92
BDF0F840
3D0050F3
BD4C7E5E
3D37DF50
3DBA0E92
3CD8775B
BD4B829A
3CEFDA83
3DD6ACEB
3D8C873A
3DBA1654
3CDBD1EE
3E02DF0D
BDBC248E
3DE79B35
3E64D163
3B07A6FE
BD12CF2A
3D02496C
3D87B16F
BDA73612
BD3147F1
BD7FFEA3
BD9BCC01
BDABC0F1
BE1E171A
3E1AE254
BCB653AF
BD3B5F01
BC43B9FF
3D889A1D
BE02E3C5
3DF1DF76
BD3E4C87
BD4262B1
3D748CB5
BD91932D
3D4C31ED
3DA599B8
3BAF575C
3DE5870E
3C47D2FD
BE121188
3DC0DA0D
BE14E5D6
BDA75925
BDC3DC3B
BDB11D0E
3DEACC0C
3D717863
BE0893B8
3D5E513F
BDDB5632
BDA80A25
BC9E7104
BE21B196
BD2E6787
3DB4DF2D
BD6CA651
BDA9FB2C
3D1455F8
BDBFAB46
3E4D3CBC
BE5E8709
BD26D648
3D1A6755
BE381A15
BE26A11F
BDCF8D71
BD4390FF
3E1106AB
3D8355E8
3E2D7A9A
3CD3D2E6
BDAC2EAD
3D92030F
3D99F2F0
3D62A689
BDDB2032
BE22FCF0
BDA5F817
3D4193E9
3DE3E319
3C05646E
3CEE55B4
BDD36C59
3D93F1BA
BDE0F66A
3E1BA6AD
BE03E39F
BD546F8E
3B2ED617
3D8146BC
BDB19645
BE190EAA
3D102EEC
3E2A7D67
BDE2D16C
BD3157C7
BC37C20E
3B775B97
3D60F5FF
3C958AAC
3CEBFAC5
BCA47B0A
BAE56448
BE5897EA
B958CAC3
3B6FFF2C
3A485AD6
3D0E5AA1
3DF754B0
3E0375C9
BBFE41A4
BE614489
3D0C1B7C
3CCACC0C
BC347E21
BCE7D34E
BE2B7415
3DDB688C
BDC253A5
BCF4186B
3CC9B6CE
3D834A95
3E683DFF
BCA0C1AC
BD986E13
3CE85305
3DBE1E13
BD1DE574
3DE67621
3DE43A21
BD334ACB
3D9199C9
3D5C76F9
3DC30E07
BD28013B
BD930744
3CC4DB9C
BDD85B5B
3E15F245
3CF3C37C
3E40DCFD
BD501EFC
BC57B5C9
BE17E996
3E38DA7F
3D772749
BCF12465
3D8FF69E
BCF752E8
BD3F4179
BDCB0334
BDA61EE3
3D3B2FB7
BE241D8F
3D8F2CD1
BD551B50
BDAA98E0
39E62D7A
BD1E675F
3DCBAA3D
BD4388B6
BD023DAD
3DCE2EB2
BD76F2C0
BE1B0E5E
BDBF0F32
3D314A5B
BDA28119
3E377D52
3E1BCE85
BD1F1DB8
3E0A1CEF
BE23F6C2
BE227FE5
3DC62556
BE0255B0
BDDB0E5E
BE0A0D35
BD8921F5
3DBE9150
BD1CBB8D
3CB580B6
BDA44DCB
3D06B78F
BDC97F8B
3BBC7F37
3D523ACB
BDB3A2ED
3D9CBA23
3D24AB7B
BE2EC786
3D09FA8A
BE2B762E
BD759924
BDC44DBD
BAE43346
3DBFBB7A
BDC26EDB
BDA53F2C
3D4276EE
BE45DD90
3DC515C1
BD4BC2FC
3DD85C68
3BD77A65
3D8646C9
3DC3C113
BE07EA1C
BCF1ADC2
3E65F916
3D3959A3
BDD9DD3C
3DEA05DE
3DA16250
3D5CFD31
BE09F6A9
BD93393B
BC074B84
3D6198BC
3D9057EC
3E1544FE
3DC6EC68
BC8B6086
3D71B966
BE1DAB9F
BDC2EDBB
BDAF454D
3E1064AA
3CB74688
3CFF8CA8
3DE8C826
3D6FB5B5
BD94E0F5
3E1E1C58
BDAA9C13
BE1722E2
BD030F64
BE321D11
BC82FA86
BBA0E82D
BE38BE73
3DB2AF80
BCC5FC64
BD253B08
BD6FFD1E
3DE4A16A
BD5F6EE1
3CD8BC8F
BCAF562F
3D8FA920
BD72AF80
3DC99766
BDC0814A
BD8F190D
3E392F6F
BC8912CE
3DF79314
3CD509E8
3DF10DBF
BD676F2A
BDC99C6E
BE18C60D
BC35F51A
BC2F30DB
3D179B42
3CA9DEC1
3D98FA02
BDB94DAF
3D262C34
BC405631
3DDE186A
BC8AAB8A
BD886E64
3CB3FB0F
3D3DA9AF
BDBF4BDB
3D17DA62
BC6F3C63
3D86F04A
BE22806B
BE2E7C07
BDC81D8B
3E0182ED
3D76AD20
3D239581
BE2E7FB2
BBEBF648
BD57D53F
BCF30652
BE0FE436
BE2786C2
BDF09071
3D90573E
3D6E9666
3CF0054C
3DA92E8A
BDD5464E
3DA5569C
BD98B5CC
3BC41873
3D20D852
3BDF342E
BC865519
3D33CA9D
BE081301
3E10E6F3
3D33E2F1
BDCBB1AF
3E2ACC0C
3E1E3001
3DAFDD80
3D14BEB9
3E15E743
BCE8855A
3E1108C4
3D6535E5
3E21B79E
BD86CB6E
BE2B4070
3DE18266
BBAD4675
3C597DB5
3D8B257D
BDCA96BA
BCFC69A8
BDA1D4D1
BD0CC35D
3DC8DDA5
BD2FAE94
3DB46CD4
BDF42A24
3D53AA6C
3D3AF94B
3AC42F9A
BDE683C3
3E59B90F
3DA31AAA
BCC2F797
BDEA1598
BDDCC3A0
BE2B0D95
BD50E5B1
BD35BFA0
BD532195
3CBC2077
BD8659A9
3A3E8935
3D7C8F4D
3DF97E56
3D0FD220
BD50F932
3DC46A35
BDD17482
3D8211CB
3DDE4606
BDBD0834
BE14DE3C
BD034026
BDCD6777
BE2497FA
3DB99B6F
BC90E3B3
BDA8DF02
3DF3E5FB
BC75BA2C
3E03269E
BE0F30A5
BCA7D714
3E21E4B4
BDF59DDC
BDED5CFB
3BA03819
3D6B079B
BC26EE16
3CDBBADC
3D04F99A
BD86AF1E
3E14CF8D
3CF0A295
BE0B81B6
BDB5DCB9
3E0608D1
BD4D1252
3D7B485B
BDB12209
3D0D853F
BDDA00E2
3DEFCC5C
3DE64C30
BE1BBF0E
BD2D1F53
3DAC63BC
3CD4EEA5
BD986B09
BDE38434
BDE05C46
BD0CC038
3E237B4A
3DC28530
BD04FAC1
3B0FD6A2
BDCE935C
BE0507EA
3D305D2A
3D8D106F
3D170494
BC9CBC2E
BE12F7F5
3E18476F
3E491FF7
3DD55608
3D706F34
3D68E912
3D95DF80
BDDA4DF4
3D560E5F
BC76CDBD
BE387C20
3DAE04DB
3D7480A6
3DAD2179
BCC08602
BD83717C
3BDB6414
BDF6B010
BCDF2B09
3CD4D687
3D501BD7
3D7462DE
3DDDC26E
3D649236
3CE0308D
BDA9C787
3DC86C9B
BD9AC845
BD795018
3BCFBBEA
3CE41447
BE23EB7D
3BA866E7
3DE6D04E
3DFB30F9
BDBEB37F
3E10880E
3E0B3E9A
3C9BE498
3DDA6B51
BDA965CD
3E08A71E
BDA189E6
BD040EB8
BDB486F0
BD9EE31A
3C85260F
BDD8C437
3D030F9A
3C69DC3D
3DFBFCEB
3D3077CD
3D744135
3CB9F418
BDF904B4
3DC0653D
BE16C2AD
BB616103
BC746CB9
3E1E978D
3DC763F2
BD57F18E
3DC8EDF3
BDD035BD
3CADAFD1
3D6C3258
BC947CFA
BDD93BC1
BDFD95DD
BE5CFF65
BCD6814C
BE224F22
BD5BBA56
3C7C3499
3D9E40AD
3D9F37FC
BE02845A
BC98372E
3DDA6E76
BDEB5ED9
3D91DFAC
BD9C678F
BDE7296F
3E21F14A
BD232F7A
BD492F54
3AFB0ACE
3CB7CE6E
3D5FECD0
3D9BC713
BCEB0780
BDD9C7BD
3D5F5D28
3E1794A7
BCBC101C
BC0622C4
BE02C0A5
BCD4B889
BDCCDC01
BE155193
BCA6E654
BDC141F7
BD53BDB8
BD5592BF
3E434118
3DAA6F68
BD592494
39CBB940
3C13EC9C
3DA39516
3E13CB3E
3D4A8D07
BD857BC8
3DC0F967
BD592C06
3DF25AAB
3E33BDE0
BDD2D128
3D29EE7B
3D6CDEA0
3DC0CD42
3D203819
3DBFDD15
3C7E6637
3CC4DA25
3DB9563B
3DD4A5DF
3E2795F6
3D6ED8E1
3DC97064
BE10E347
BD4B8371
3D6DBB75
BCB1659E
BDD5E52A
3D8666AA
3E2768E0
3D828B6E
3DFEB314
BD864E2E
3D85C44A
BCC656C7
3D0C41A7
BDB4651F
BD0F3202
3D0045D6
BCFAA2C9
BDADDBA6
3C9BF95B
3E364346
BDA971E9
BDC844B5
BD0F33E5
BDC17AB1
3DE9D734
BD60B242
BDB89580
3DC1B915
BCD8A6C0
BD390E09
BCE3387F
3BC86DAD
BDF1611C
3C96AFDA
BDB0989F
3D41E63A
3B4A183D
BD42611E
3CFE0016
3D76AC14
BAEF2613
BCEF7249
BD64ADCA
3DD7AC3F
BE497D07
3BC90166
BD94CF58
BE0830E4
3C70AA8D
BE331C65
BCC31056
3D3C169C
BD2F128D
BC020863
BD569411
BD97B2A4
3D6D7D11
3D20EA5B
BE2F8727
3BD64C52
BE263FDD
BD2F91D9
BDD58FB4
BBB25A70
3E1F826F
3C1321D1
BC4A90B2
3D7DF72C
BE0043E5
3DA95AA2
3D893CC0
BDB5B7B5
3C798592
BD681BDE
3CB654F1
BDCB6B46
3E0EA91E
3C666BDA
3E3728E9
3D15EE2E
BDC7A6BD
BDBECE07
BDA22E0D
3E091DDE
BD814438
3C24BFD3
3D53A4A8
3D2A37E2
3CF7740B
3D641107
BC3F65DC
3E1036CA
BDAFBFEF
3CBBE3DC
3C96C4D3
BDE1FD15
BCBC8663
BCF2C732
3E1ED56B
BD944B1E
3E04955B
BD151307
BE5850DF
BD38A8F4
BD4A4D7C
3C8D69AB
BE026741
3DECBC06
3D329797
3DBBFD2F
BCF2324D
BB30142F
3DB98AF9
3C9A9684
BD77031C
BD5F07E8
BDFB213E
BD1A6B51
3E3B2703
BD9F2A9D
BE3D2E0E
BDC465A5
BD35246F
3DB28B38
3D8C4B9E
BC826D2D
3D8F8D13
3D9B2C4E
3DA78E5C
BDAC4942
BD87B8B9
3D705095
BB5BB39A
BDF794A7
BE1DDA06
BDEF123C
BDF58644
BCA82A20
3CD2EF26
3E2D7B63
3C987FBE
3DE2A561
3CC0CCAF
BDCC4B40
BE0343B7
BD44B902
3DB6A9AB
3DE5D313
3E002CD4
3C6E6893
3D97C10F
BDF29F5A
BDBE553B
3C1D74B0
BDA177CF
3D90ECFA
3E36EF80
BDACEF9D
3E143CC0
3D8FFBE9
BD860187
BC19E0E7
BDEF7A92
3E31975F
3DD38152
BA14962D
BAB76862
3DCD4995
BD2D6833
BC34D70D
3D34603F
BE341893
3D7FC4C1
BE2B0468
BD7EE096
BD3CB2BE
3D7CCCF5
BCDA17D9
3E39E12A
BD64687A
3E3D57BC
BE3A89FC
BDEEF566
3DD0CAA3
BD5686DA
3DC9D55E
BD6336D1
BD98C990
BC86C475
BBB228F2
3E4C1C61
3DA1C3BA
BDB91794
BDFD8F93
BD9A40CC
BCE87CF7
BDD565C3
3D93C5BD
3E152589
3DA7EFEE
BD8C496A
3D9E2A4A
BD482858
BE140032
3CDBF4BE
BE3DAF4B
BC3806D8
BDC0010C
BE163172
3DD4B48D
3D81EE32
3E167382
BC7EB28E
BDDB762E
3D93A6DC
3B6482CC
BD02C039
3CCCA95C
BD11012A
BB2AD1A5
3D40D598
BD2E014B
BD7C3499
BC14BE28
BD95DB77
3DC92D63
BDCC981C
BAC2084E
BDFE9C88
BC6788A5
3E0A704C
3DB85E15
BCEB89BC
3D4FBABE
3CD4573A
BD52C153
3D91C20C
3DC28F5C
BE4D88C2
3D9E01B6
BDF3D4AE
BE68893B
3DF65DC0
3ED42225
BE5F63C3
3E50DC33
BE8AB4FA
BE8BDCF0
BD1B2FB7
3D86754A
3D782576
BDBF484A
3D1D7ECC
BE5723AB
3CCDC94C
3E425E9A
BE0C39BD
BE65158C
BE4A311F
BDF7F9D7
3C0170A3
BE089F84
BE884C49
3E9B91D5
BD4A8C81
BE15F45E
3E17574F
3E7BC276
BDC7A12F
3DB9AF9F
BD16377A
3E6C5EB3
BDB9039A
BE05EEDD
3E1FEC14
BBA852C5
3CE3373D
BE23BABA
BC9BECC6
BD085879
BE8EA63B
BDFD3A1D
3E1CC708
3E0FFDA4
3E558E65
3D94C03E
BCF492AF
3DE30B18
3E21FB40
3DF04B3C
3D7D40EE
3D19B655
3C234FA6
BD436EEB
BBF10048
BE33B29A
3E0AC190
3D81829C
3D8F9823
BDF8D823
BE35870E
3E916702
3E4E518F
3EB63583
3E171AC1
3E505815
3E1CF9E4
3D2785B6
BD96CA39
BDCC4F49
3E4591CD
3D977151
BD90474E
3E3A14CF
BE0B9453
3BAF1CF9
BE60B0F2
BDB853CF
BE0360D0
BE0CE315
BE5E7A31
BD498138
BD2C1CD9
3E74AFD5
BE38E79B
3DD806F2
BACDD535
BE912620
BE6E3583
3E229739
BE46E8B0
BDD7F173
BE38D691
3C5B8272
BE34C3C2
BE0FC116
3DA6FA4D
3D8C00F5
3C4D7F0F
BD5ACF74
BE7DFB50
BDE549B6
3E0094E6
BDD94079
BE4A465A
3E795DD5
BE3E7579
3E0ECBFB
3E5F7EC3
BA110032
3E02F1AA
3E16262D
3E4EC8D6
BE2053E3
BDA9FB61
3C9DFC35
BD8B65AA
BE007A6C
3E1C6434
3E47FB6A
BDD137B0
BE038A7E
BD67F23D
3DD8D823
3D97848E
BE413405
3D473E32
3E10531A
BE7712E4
3D256092
3D920B58
3E601BCA
3D02D6FA
3D51BF7B
3D380687
BD9834FB
3CEBC409
3E8A2F8C
BE2C3116
BE75B9A6
3DCBE90D
3E0C55C9
BE24028E
3E6AA5C6
BE1C4A84
3E359967
BDB30596
3E616BDB
3CAF4ADC
3DE99FA1
3E1493C9
BE15B78D
BE3529BB
3E0D7775
BBCCBE4A
3D1C6B56
3E3092CD
BE1126E9
3DE88A48
3E672EF1
BE4C55C9
BEA67F0B
BDF64AE0
3DD81ADF
3D56DB5E
3DA47751
3E854CFD
3E681ADF
BDD2178F
3D8CB352
BE193AF7
3E6D0AAA
BE6880D8
3E847A3A
3E8B3722
BDB686DA
3E11F46F
BE4FBA88
3E8137D2
3CD3D5A0
3E7A2835
3DDB3398
BDD50C1C
BD3D63BE
3E2ED890
BC8165C6
BE0A6480
3DA3BD31
BE5DBF8C
3D294B02
BECF86E4
3CACADA8
BDC5D53A
BCDA5C37
3D176E61
BCC4EFBE
3E49DC72
3C39E5D5
BC709020
3DD45CFF
3E24D37C
3E082BE9
BCFCBFDA
3D8BA890
BDA0B674
BDA47695
BE274B84
BE363E08
BCAE6BB9
BDE6937D
BDA6E3F8
BD8CCFCA
3DF70DE9
3E4E2D62
BDF9A7C1
BE6FF690
3E6DBEC2
BE68AC9F
3E19003F
BDD84DBA
BE9679EE
3D58F54A
BE3F5B60
BDA452E0
BD60B9B4
3D5F97C6
BD9F455A
BE193A2E
3E0626B3
3DB0D0AB
3DF22079
3D96ADB4
BD205B70
3D52E43E
3D92957F
3EB420B4
3C25E85C
3E6C358B
3D937A08
BE2929ED
BD67ECAE
BE183276
3E686A0A
3E223CC9
3E487379
BB0BF516
BDF7E34C
BD59D0DC
BD7BA832
BDDD3565
3AC62843
BE531AD2
3DC56B87
BC78671A
BE2C6823
3E799AE9
BE07E1B9
3D96D770
BE77674D
BD01D38F
BDD86A0A
BE13D35F
3DF52B91
3DB9DE12
3D0C4248
3DFCE28F
BDC2CCA6
3D978507
BD958FB4
BDDBF940
3E3819D2
3D67B0CE
3CE2AF57
3C83E8F8
BE0AA10E
BDF02A35
3C78FDAD
BDE357A3
3CA2E06A
BD45654A
3E4635E7
3DB41EDE
BDA0CD0D
3C87A1EB
3DB0365E
BCDA0D5D
3CE54DCD
BE6E5C92
BDAE8BA7
3D5DCBA8
3DA45C36
3DD3A798
BD9B2DAB
3CDB9D80
BD9253A5
3D187E11
BD2541BE
3E047779
BDE86940
3D33B844
BC38A48C
BCFF74C0
BDC2422F
3DC480F6
3D069729
3C482BE9
3D9726A8
BE42EA96
3D91AAED
3E017226
3D3F7ABA
3D485FD0
BDDDFE33
3E1CD2D4
3E244524
3E1E221D
3E2A311F
3E2430B1
BCC2532C
3E13D0C0
3D245C36
BDD7E996
BDEC3223
BD12A7A2
BE042FE8
3D51DB0F
BCCDAE3E
3C6165E1
3E405FF2
BD8D31D5
3E434D27
3E0F9160
3DB602E4
BD7A2AD4
3E61F18D
BE1BF338
BD8DF13F
3D82066A
3D2DDE0F
3C2016B6
3DE8C47A
BE2A9110
BDB44E94
3DC2A9F1
BE3C9364
BD80866D
3E2F0DC7
BDE5BC88
3D90515F
3D601CBB
BE0CCEE6
3CB40DEF
BCD6B584
BE30EB68
BD38392C
BD2EBF15
BE430E80
BDFDEACD
3DE108C4
BD9B0B39
3DA59AA9
BD7317F0
3D4E20C0
BDCE7CD0
BE0C4F3C
3D298F10
BCE8DEB1
BCD1EF4B
3C89D170
3DDDED6C
3D49633B
BCA8CCA8
3E0158FB
3E512F0A
3DF0BF1A
3E0F8445
BD6EDDCE
BDE7CBF7
3C77C8FA
BE2AB9F5
BC870726
3CC33036
BBC4CCF9
3D871477
3E2441BC
3DE66BA5
BD6C848E
3D9CB51A
3E15069A
BDA7B22B
3BECFD84
3E062AE5
3E17CE53
3DDC5155
3C54CEFA
3D4C3A6B
BD6DD7C4
BE2A3A8E
BE03647C
3D524207
3D2EB58B
BE4DB8FE
BD5B06B7
BE3BFA8F
3E538088
3DA7ECE4
BD8A2538
BD098C8C
3DB7F1FA
3E4CD20B
3D9F75B1
3C7B50D9
BC500DCA
3BA8EDCA
BD0D6650
BD0865B0
BDCC7B96
3B17B365
3E5FBA02
BE46AF8A
BDFFF823
BDA8ECA3
3D006B45
BE3EC919
BDE9E5E2
3DF32F88
BE048ECE
BDA5D4F6
BE14DB59
BE490EED
3C90D7F4
BD046CFD
3D1EA415
3D5D3D5D
3D75CB0E
3E04BF4D
3D219CEE
BE218BD6
BC27F43B
3C49F227
BD7D3FAC
BE13A216
3DD4CB19
3E05B680
BCBF7B40
BDE7DAA5
3D1CEBFF
BE0FA11B
BE53404F
BE5394FB
BE02CF96
3DCF8F04
3DECED4E
BDAA0E69
3A750290
3E1F826F
BDF312B2
3E0A9DE9
BD00E080
3E5B9B67
3D5F26D7
3E2B14A9
3DA28E42
BCD325E2
BD28056D
BDD7A249
3CD9E4E3
3E473C0C
BDE5AEE6
3D93F1AD
BE339D5E
3E0C9EED
3D60A5E2
3CA4A6DE
BC8C48E4
BD84185E
BCD7E606
3D8EC90B
BDDB7BF2
BE0893FB
3B910993
BDEEE393
3E263411
BCB99FFF
BE3717DF
BE005A2D
3DF100A4
BE45E84F
BE1219EB
BE47852F
BCD538AC
BCC1079D
BD1B31EA
BE25F352
3E498A65
BD9BDD91
BDDD6495
3DB7F53A
BE7E171A
BD81413B
BD1DDE88
3D4B2FC4
3CB9884C
BD4FFE7B
3E1DAE82
3CB77044
BD91BE03
3E524D0A
BE26F47B
BE243A21
BDD21D54
BB222E3E
3DF1F81A
3D9CCDD9
BCA31D71
3DC2E042
BCF5B269
3BACF79A
3E1A5DF2
3D60350F
3D2BB088
3DE858FF
BC0E15AD
3DB14D2F
BCA66B04
3CEACB86
3D6FD439
3E31EA36
3CFFEE2D
BD90E9F0
BD2F2410
3CAEE342
3C696EC4
3D09B0B9
BD045118
BDB1A27D
BD4CD185
3DECCEE6
BD94EE54
BD85C97B
3D9471C2
BDC80AB9
BE211559
BD55BB03
BDE8CD64
3E39B670
3DB696A2
3D8A48A9
BD3AA16C
3D22DC03
3CD15817
BD00EE57
3E220254
BE04BC6A
3D92B60D
BD462FC5
3DEE8640
3D81FDFA
3BE4523A
BDD333B9
3CAEE2D7
BDC8AB85
3DF1E8E6
3D2775FB
BD2051E5
3E2FC6DA
3CC75ECF
3E1DE764
3D1E3A99
BC38CD3C
3D374602
3CE3B4DB
3D9A015B
3E38D4BB
3D94AADA
BCFCD64A
3C47D582
3CC3AC27
BD37AD66
BE1EABBD
BA0619AC
3D75EDDE
3B9A2F00
3C8C7DF2
3D44BFEE
BC8F4D45
BD17329C
3E11E3A8
3E3B2314
3D5ED197
3E037931
BDB6D71F
3D27640D
3D4CC342
3DCF0175
3C33C7AE
3E0E496F
BCF44D7A
BD82631C
BC1ABBC3
BDD6A594
BD42AED1
3E2B0BBF
BE728416
3D9784C4
3D22A2C2
3E9011B2
BE2624DD
BE444849
3CF5EC81
BE457710
BE6FD588
BDBAB431
3C61B08A
3DFD640F
3C60A0BF
BBF3EF66
BB0F8874
