BE8AE48F
BE1495E1
3D4CE175
3DE14834
BE533B54
BE37FB6A
BD6E3044
BE741A69
3E83DA94
3D8644D8
3B34BB5E
BDFDE721
3C1B4FB2
3D1490B1
BE575B3E
3DF4E2B0
3D669D08
BD6BC332
BC8B0A8B
3E459DDC
3E14B902
3D2B6468
BCB36298
3D1D7618
BDD51ACA
3DE412CF
BE1FECDD
BAADDBF1
BE13048A
3D3089A0
3DCA965C
BD5B34F5
BD7B3B90
3E233B10
BE7EC52A
3D1587BC
3D7A51BB
BC5C5784
3E80FCB5
3BA72E58
BD8D3D43
3D89190B
3E25974E
BC3185B4
BE6A758A
3DB187F5
BD3D3240
BE5FD439
3DE241C4
3E8C2C3D
3E513166
3DD0EBAB
3E22A51E
3D4F8818
3DE18F82
3E7AEB81
3E72A348
BC1774F1
BE14AA97
BD02424A
3E9C7EF1
3C9291D3
3D51CACE
BC6AEB30
BC938228
BDBD9217
BD45EC8E
BE228284
BE53048A
3E325C81
3C223676
BE47DBB1
3E07036D
3DEB0100
3DE9613D
3DBE434D
BE42B0A7
BDA36C31
BDEF2496
BDFCA969
BE8D56F3
3DBF0282
3CECEBF1
BDA37718
BCDC21D4
3DE605EE
BDA6A3F4
3DEB3C3E
3D3F3E39
3D95F436
BCB8C5E4
3CB08F14
3DFBC5DF
3E561B6D
BE7EFAE8
3D8797E7
B99BC36A
3D1C9313
3DC8622C
3DAA1CE2
3D8E9E94
BD2D6C14
BCC139BC
3E89E1B1
BDE750C2
BE02706D
BE898549
3CAC2126
BE219B91
BDB6F99F
BDD96074
3E794FF0
BE05703F
BDA0E787
BE2ADA77
BE22352F
BDC39192
3D85A55B
BD867BE5
BD931594
3DEBA51A
BE7F7D74
3D4389F8
3DB0F5BC
3D7A0AF3
3D30CAA3
3DC39574
3DF38152
BDC827B7
BC7F4773
BDE0EB68
BDB79F23
BC11314B
BC845D27
BD929670
BD84F55B
BDAA5079
BC196E7C
3660D090
3D616EE6
3DADE0C9
3B26D064
BDA554B9
BDC23E41
3D3E4169
3DE407CC
BC244193
3D345E0B
BDA9955A
3B13FB4A
BDC24D0A
3DA3CB3E
3D90A21C
3AE2CE41
BD84BD4F
BC38B701
3DABA202
BBB633C4
3D9A885C
3C42154E
BD2465A5
3CCA0E41
BCED8F50
3D2773C7
BDBA1273
BCA31360
BC4C773C
3DA6FBE0
3DFB0707
3E048F97
BDD3ED52
BCC91121
BCD30AD4
3DE86488
BCF0AF60
BDA741EB
BBB96FF9
3E269A91
3D6595F1
BD5ED401
BCBF597C
3B4DE3CE
3D0CB74E
3DC09EE9
3E0D6ECE
BDF5F3D8
3CBAB508
3DB03105
BD11E5C1
3D6C3944
3D7928AB
BDD763E5
BDDF56A8
BDAEBC41
3DB88426
3DEFD977
BD7BC573
3DA384FD
BDC0896A
3CF49A71
BD957994
BDD9A30A
BCFE7A24
3C8555AA
BC6F0282
3E03CD9A
BDDA4DF4
BD9755A2
3CDC7912
3DAC4A26
3DF0E66D
BC2C244B
3C29BF16
3DC6D67E
3DE59642
BDFEC67A
3D525878
3D9B37A1
3C13E17F
3DA06BB0
BD78B62A
BCE9D5BC
BDA6B0BE
3DC6B201
BD81E53B
3C583ABF
3CCEDCDD
BD3D56A3
BD6BA3D8
BCCBC855
BCD6AFA5
3DCF95D5
BC9077E8
BDF57BC8
BD96D4DE
3D99E8ED
BC7C9A85
BD6CB718
BD915B57
3A9302A7
BD4D71F3
BCBE95D2
3D4FAC7B
3DA36AC6
BD90B087
3DCB67EB
BD6DF9D9
3D04E4A1
BE02C2BD
3CBAD80D
BD0A3FBF
3C90115B
3D9AED06
BCD9C1DE
3AA67372
BDC81F7C
3C6B64D3
BC712A0F
BD0DB37D
BD025DF9
BD605E44
BD3E6FC2
BCF47736
BDB8DB05
3BFEF7AD
BD031E98
BD373B6B
BD1F66B3
BB498A22
BE0E81CB
BD23D35F
BD9BEA0C
BB668505
BDA50D0D
3DCF9D2C
BD0638E4
3B5557E1
3DE3992D
3DC26CDD
BD5D4372
BDCBDA94
BDBC2C94
BDC928B9
BBA07FD2
3A2EEFD3
BDD0A88F
3CDF6E90
BC24737D
3C916E52
3D3FBA96
BD542734
BD039E1A
BD9756E4
3CEEC4A4
3DFB82C3
BC097041
3D137543
3E03419E
BD9901C4
BD7B3AEF
3DF10236
BDF27675
BD075A17
BC85C861
3D89A7CF
3E2028A2
BCA8D46A
BDA02D82
BC0FCEF5
3C6632CF
BDD50225
3DB8EBBF
3E18C60D
3DFA2728
3D5F16CC
3DBB6135
3E001C0D
3D14C5A5
BDE84E83
3D59E809
BD425C9C
3DD503B8
BD4FA773
BD8B332C
BD9BBA71
3D624844
378E9B39
3DCBB972
BDC45862
39C774B8
BD89CF2F
BD3EFB89
BDEECE14
3D91DE6A
3D19785C
BD585993
3DED6A16
3D9227DE
BD000467
BD240FDF
3D640B27
BD6BB5C6
BC97E026
BDA7F8F3
3D394EF1
3C93A889
BC6A4F95
BD8DB601
3DD05F29
3D867E26
BD7BE0EC
BDC956E9
3DD17B53
3D09C46F
3D41948A
BA3E6EC4
3CADD7AA
BD1DFA87
3E0155D6
BD8F6208
3D1D59AD
BDEDDF01
3DC4B803
BDC5553F
BCD89233
3DB7E961
3D981DCE
BD8B715B
3DBCC99A
BDF508F6
3E02CDC0
BCBA47FA
BD8C90D2
3DD1DA38
3E07C915
3C796B26
3B43681F
3D7C8415
3DD95810
3DB7F8F3
BD20DDAB
BD61B4D6
BB312277
3D9CDC29
3DDCC533
BBEFECA2
BDDF090F
BD7AE819
BC8DF480
BB0FB10D
BD740C41
3BA0F645
3D908B40
BC9769A9
3DEDBDF9
3CF63257
3D954DA5
BDB260F6
BDEC5111
3DE27FA2
BD6D3CAF
3DE50DF1
3DF64734
BD5D9C78
BCEA0EFD
BCE79357
3D65E4E7
BD89807D
BD54400E
3C5AAF0E
3CD21E7B
BD20C38F
BD96A154
BD92DA2D
3C5616F8
3DDA708F
3D1B2C91
BD192BB6
3DE398A6
3D193EE6
3D2F2E06
BDF080B6
BD6C9BD5
BB81EAD1
BD6733B6
3BDFB486
3DEAED14
BDADD3F1
3CD1881D
BDAA1067
BD39999A
3D1BA0DB
3D8C0493
3D755CA3
BDC71C03
3DB7AA41
3D92962D
3DDB4891
3DF8C9FB
BCD005D2
BDA1F8C9
3DBD1AA8
BCDCF7F3
BC43A3C4
3BE973CD
BDFA9FBE
BB5F6581
3D45B475
3D512CFE
BC9A4922
3DBE56A5
BD30989F
3D4FBF5B
BD193EB0
3C1EFE9E
BCF085A4
3D917AA4
BDB5F400
BD99F34E
3DFF1066
3D811051
BD31E9A2
BD565790
3DD191DE
3D935CFC
3D938FBD
BDF0342B
3D87AF8C
3CC37EDB
BDD47629
BD78DA21
BCF5FD12
3C3D19D1
BBB171A8
BB9F2057
3D0B0CD9
BCD0D215
3C2276EE
3DC8E3FD
BDD66E01
BCE0C24D
3CBB86BF
BD97FD75
BDDB0707
BC777C38
3C64F83D
BDE799A2
BD5BEFEB
3DF681ED
BD7BC375
3CF9DA4C
BCEB5518
3D273D91
3DBD8BB1
3C7759D4
3DF159C5
BCF92479
BDCCA7E4
3D71D6C2
3DEA7829
3D9CD998
BC62B3BF
3D5D0402
3CA9C81B
3DAC31B7
3DC4B3D1
BDA3935B
BD8AB954
BDFE00D2
BDFBE660
3DF70CDD
3DA1DAB1
3D6BBE5F
3DF950B9
BDA29281
BDF36156
BDDB9E06
3CEB020C
BDDF4BA5
3BC7DC78
3D2D1DDB
BDB9AFC7
3D16AA4C
3CAABD0D
BD8E2C3B
BD9ACC77
3DDF505D
3DA98535
BD28C444
3CB05532
3B1A1EFB
BDBB55D4
3D64C3CF
BDD5CC85
BD2548FA
3D445712
3CEBA210
BD0AB20B
3D9FA64B
BD252D66
BDB52E22
3DCC798B
BBA84A77
BDCB5FF3
BD7F5855
BDE089E3
3DB5E94E
BBCFA788
BD24C166
3D90E8FE
3D5063FB
3C4DCD12
BDF42CC3
BD6F1A34
3DA6084A
3D7DF05B
BD52EF91
BB81483F
3DAF7447
3CD1244A
BCEC4106
BD89955A
3DFDA405
3D19F15E
BDD40032
3DF75F2D
3D9D6833
3D4142C0
3D6F3832
BD884B50
BC9985E3
3C9E979B
BD7D48E6
3DADEDF2
BB9352C3
BD2D1A9B
3DF33C1D
3C751E25
BDB159D2
BDA0B3BA
3C0B01FC
3DF7B396
3DE991FF
BCF44A8A
BD816DD9
3DEFB331
3CF14588
BD2AF196
3DBC38D9
3D9E02EB
3CB161D8
3CA563D2
3D9CE10A
BCC80121
BA1385FC
3DA69D73
3DE8BF3C
3CC4CE30
BB006972
3DFC0874
BBE48AC4
BC93C90B
BDC53C72
3C668DD4
BD35511B
BCBB872A
BDAD7526
BC4D9FC6
BD46698C
3B8C0D7F
BD646555
3AB48127
3DDB76B4
3DA74BAC
3BC639F6
BDEB630B
3C9A4378
3DC28848
3D958919
3D6709C5
BDE12F90
3D5D4124
3DC06706
BDAB3E3C
3BCE8081
3D82066A
BC6A1F59
BDABD8A4
BD18EDBD
BC232B3E
3DEBA27B
3DD47065
3AB009F3
3D103735
3DFEC13C
BA810603
BCE5515E
3D3DDA71
BC9B0001
BDDE939F
BD9D0C80
BDEC386D
3D9F8DDD
BE125CC4
3DDD3459
BDB63DC5
BD1FD5D9
BAE36FFC
3C70CE34
BD2EC601
3D0DCADF
3D0ADC9D
3D2B9C15
3D90E70E
3D9F4C61
3D9B0D6D
3DA33659
BDB2B918
3CD84465
3DEAA327
BD6299BE
3D334268
BCCA7356
3BCC7A57
BDA6A162
BD09ADE4
3DA59B22
BD3E477E
3D0E548C
3DEFD6D8
BD26290F
BB8A113B
BE02F406
3DEAF577
BDE93EA3
BDBCE13F
BDA1B31B
BDF8C08B
3D4F5C79
3DE9A459
BD8FECB5
BD7BFE48
BC281A66
3BC6342C
BDCD106F
BD080694
3E00663C
BD4B5980
3D3E420A
BDBADAD5
3E055087
BC48B652
3C18C4F3
BDEED890
3DE56ABE
3DD3D4AE
BD582E45
BD0811E8
3DFBC87E
BDD41D08
3D202E8F
BC42CAEB
BB837AC9
BDE92FF5
BD76E38C
3D8F568D
BD063447
3DA4AA1E
3D910046
BD8103A1
BC608DDF
BD2E5C19
3DBF7597
BDFD8E00
3DA54FE6
3D71AA82
BDE6D58D
BD0052A1
3DBB2EC5
3B478CC7
3D0EEC11
BDEB1705
3D19033C
BDA1DCAF
BD267A88
BC786501
BCA1CD45
BDBCA36F
BC854D47
3DE330D7
3D79EC3A
BDD4FDF4
BDA57E31
3D8DDCE8
BD906BF3
BDD7F38C
BD1E3DD9
BD2AA2BC
3E0182ED
3DE77575
BBCFA773
B9DC000A
3DB66CBE
3DAEC2CE
BC857D4D
BD6449A6
3DDC8861
3B814C05
3BDD6BD6
BC9BE752
3D693858
BD08ED44
3DA3806D
3DF9FB1E
3E1CAB3F
3D9D21A1
3D74A391
3D52E565
BD442E7E
BE09E1B1
BE04738A
BDC9D6AE
BDEF2841
BDB19638
BD46754A
BDAAA872
BDA99B2C
BDC80E7F
BDE94D51
BD650085
BAB80413
BD97FF8E
BD68BBFC
BDD56B01
BD2EA092
3DDBE879
3D89F490
3D339B1D
3CEF7EA8
BDB730E1
BD7B3687
3D8886ED
3DF0CCBC
BB417E0F
BA5EF9FF
BD882A56
BDB63AE2
BCA7E1C6
BDB4F1CA
3DE01B43
3DDBEE3D
BCEFC18F
BDA24B6A
3CA2050E
3CFE1D07
BDF101B0
3D2B8067
3D842BA9
BDBB0D2A
3BCCDD7E
BDC46D4D
3DB7083F
3DAE3F36
BD8E7AAA
3D992D7E
3D81AC4A
BC4CBEF5
BD927A63
3D51A0C2
3D3526A3
3DB30BE1
3DB17ACC
BD454BB4
3BB475FE
3DEA7D67
3D9CFD4C
3D794E6B
3D02EE0C
3DEBABEB
BDD166E0
3B237794
BD8644B0
BDB03595
3DA32AEB
3CE4921B
3DDD1138
BDAE0158
BD7FB3AA
3D830510
3CD38BCE
3DABD797
3DDCAE21
3D2FE79F
3C45C49B
3D0B1D6A
3D9EA034
BD8E2D12
BD483970
BD9CFEF9
3D35D5C0
BD71B8E0
3DB16A3B
BD853635
3D9B57B7
BDDA6938
3D755C1D
BD822B2B
3CBD5561
BC62789B
BD424E09
3DAE666D
3D0D20E5
BD1F9A7F
3DF4B0E2
BD8BDEEE
3D63497B
BDCBB6C5
BD291F49
BD9E8EBE
BDBED5BC
BD86A338
3D6E46EB
BD1E983C
BDB4CEFA
BD6E9574
3C6C0867
3B3D9B81
BDC26B07
BDCADC75
BDB86156
3DC24EED
3DB674D1
3D69D3D9
BAE3E81C
3DE6EC9E
BD80842C
BD08292F
3D13A9CB
3DC22AB2
BDE5186E
BC9AC548
BD35818C
3DEAFAB5
BDB44CD9
BC5AA6AA
BD337D8B
BDD3CB3E
BD0B5137
3C68A505
BC741DDF
3D163165
BDA6F2DB
BDDE9292
3D190C41
3DA2527D
BDCFFA7F
3D4642A5
BDF44242
3D1A35F1
BCFF0C50
BDEBC947
BD19F468
BD3B654C
BD65069A
3D9C3845
BCA39566
3D8E3AB3
3D82A41F
BC9D7F01
BDC6E837
BD245C50
BD872B1D
BD5FADCB
BD2F044A
3CBD7D39
3DD959A3
3D8BF303
3D1F3CF7
BD477469
3D9765FE
3C73DC71
BB0921FD
3C065ED4
3D640CF0
BD4B2456
BCE207C7
3D53FABE
3DF74CD3
3DBB228E
BDA7B487
3D9FF858
BA38D09F
BDAD387D
BDB77AC1
BC865626
3C978B01
BDEC6B48
3DFB0BBF
BDBAA4E2
BDC04047
BDB92F11
3D4E2DDB
BDBA73C2
3DC5ECEC
3DCEED89
3DAF2C66
3C9E5DEF
3DF0196E
BD59974B
BD3C19A7
BD2594E5
BDCED45F
BD0F8BDF
BC9B0E44
3AF15314
BD94C9E4
BE0CCD10
BDC4A706
BDC331BB
BDC7BC22
3CDE632D
3DF22D0E
BCEEBA28
BDF3A366
BDF1B585
BD1F10B7
BDD2F1AA
BDAFDD08
BDB02DFB
3C2BFF62
BD8EFE43
BD2D939C
3CB32E2B
3D0F7157
3CD57FFA
3E0EA359
BC9B71AB
3D0DB9AC
BDEA0A96
BD445331
3DE2B0EA
BDD2BD3C
3D93B1DE
3DABA0A5
BD840032
3C46EED2
BDC53211
3D2EDFB2
BDE1F080
3D563886
3D653360
3DAE99CE
3C8734A8
3DB64E8B
3D226301
3DCD7492
BDDC011D
3CD7FEC5
BCBF3B7F
BE225A68
BD20AB8C
3B38B18D
3D1DF2C5
BDEA8EB4
3CFC3BF0
3D02215D
3D39DF3A
3DC72241
BDBDEC52
3D869F8C
BC286C9B
BDEF8E7E
BCECEBF1
BD735C69
BDF8DDE8
3DDB5BF7
BDD6CE79
BDE319C6
3DD56649
BB4965E5
BD987619
BD241F14
3D7E7389
BB05E07F
BCD9DDF8
BD2BF6E4
BBB90FC1
3A33E462
3DBD084F
3D5E13B2
3C190AC9
3DED2DCB
3D8F4F5E
3DB59388
3D6BC05D
3DD0D0EE
3B0CDCC8
3D924547
BDAEDBD0
BD85EB4C
3C70D04D
BC7A9F6E
3DD9BF59
3DD77D95
3DF9C0EC
BDA31B9B
3DCE91C9
BDA2F0D3
BD402F4A
3A286E40
3DB48EC0
3D091FEA
3D78CECE
BCCF172A
BD7F3BEB
3DFB499D
3D127A05
BC9F6556
3BBEF203
3D985EEC
BC51D25B
3D2FDF56
BD0647FE
3DE5BC88
3D67B45F
3DE6644E
3DEFB54A
BDD29DC7
BDFA12B6
3BB0660F
3D9D5FC2
3DD5C183
BD39A5A9
3DA081C3
3DAE4375
BDB7F024
3D4F5ACC
BD9B96E5
BDBC95F6
BBA6C1A0
3DFD9E41
BC88D9C3
BDDF0BAF
3DB26C2E
BC3EE294
BD5E7246
BB96E54A
BDB242A8
BBE10E22
BCCD69AB
BCE233D2
3D21E090
BD95E778
BDD0E66D
BDD7A67A
3CDCAF2D
BCC7B60D
BCEB6B89
BDB78606
BBFA239D
BD57FD9D
BDF59360
3DF43D8A
3CA1324A
BD582617
BD976D47
BDA5E120
BDC4A757
3DC381BD
3D85FC3B
3DD5347A
3D4BD7A5
BD32E6C2
BD6FD637
3D285158
BC8CC06D
BBF0FCAD
3DFB59DE
BC0A4A3C
3DD89C5E
BDF90215
3BE90D1F
3DF63D3E
3D7CCFCA
BD932A06
3DBFD8AE
BDCAC952
BDD68AD7
BDF02470
3DBC309D
3D55D5A5
BDB669DC
3DD19AC8
3D3B1A38
3DF1793A
3C3E83C9
3DD246BF
BDA22AF5
3C6FA326
3CFB8009
3DD24A6B
3DB3508F
3D15171E
BE04B3C4
3D9B6219
BDF69DB6
3DEC1D2A
3DE3B689
BC87F887
3CE419F0
BB9EBB2C
3C3B0C46
3DC937AA
3DD58644
3B848D43
BD461B6D
3DDF6F4C
BD54ABF4
3C95311F
3D3D2179
3D1C1C96
3D82C70A
3DAB34F5
3DEF405F
BDEFB00C
BD2B4685
BD8BE122
3D3D4E90
BCE0E7D7
BD374FF8
BBCD5AD2
3CF434F1
BDEA393F
3D6234F9
3D89EB13
3D25C9D9
BC996FA8
3DAB79BE
3CFDE78C
BDFA6480
BD9C683E
BD8FD76C
3DB55278
3D9B2B5D
3D50A9D1
BDF6CD6C
3D8D655E
3DC6C6EC
BD05D313
BD97A1EB
BDD61FE2
3DBEC072
BC2AA5C6
3D0394E0
3D06F27D
BDF54867
BD4CA9FD
3D78FE9F
3D5E33AD
3DE4B2B7
BD9912DC
BDD1947D
BCE38759
BC138B78
3DD97354
3C6C3E82
3DB410EC
BDB191D0
3DE06184
3DDC9928
39EC1796
3D0F2F63
3E05E84F
3CE792B6
3C313D24
3D6EDA3E
3DB13F30
3C93CAB8
BDD1B79E
3DA655BA
3CFDEF19
BD0810F6
BD1C88E8
BD291F13
BDF93E60
BD022483
3B3E8059
3DEA704C
3D65B45A
3DDA2941
3CA2D0E5
BDD14B9D
3D6A010B
3D54D2F6
BDD5A965
BD6B7E18
BDB5C4EB
3DCA11A9
3DD78FEF
BDE77F6B
BC30E362
3DFBA451
BDEC7C0F
3DDEC0B5
3B006744
3CE99C46
BDFBA66A
3D859D2E
BD7E0900
3DC5EDF9
3C70ACA6
BD85F6E2
3C583043
BD69A68D
BD62F8F4
39BAD90D
3D985272
3DACE267
3DBAB6B5
BBE93F74
BDC1D5C3
BAD7411A
BD11D3D2
3DE6D506
3D680786
3D65DF07
BB0D8006
3CAE572B
3D3CA1DC
3E028F19
3D96001D
BD59BBAE
BD850805
3DBF889F
BCF9FCB1
BD5B6622
BDDDE69B
3CA0BBCD
3DB4E45E
BDF91F71
BD0AECDE
BDE7C84B
BCFF8CDE
3C29068A
BDEBC48F
3C24AC88
3D903BC5
3D094F9F
BC009AD0
3DF48B22
3D108B9E
BD867430
BC953C07
3D0BE6BE
3D237F97
BDB3151B
BD4DE409
3D240761
3CA3DBA7
BDE799A2
BDEB2E9D
3DFB85E8
3D1D97C0
BAD41A74
BDD4B381
BDE84407
BDCBC713
BBDD7F4D
3DA14A5B
BC4A29F0
3E027675
3DC01A37
BDED887F
3B92946D
BD1BAE2C
BD6C79DC
3B9D2037
3D29DF2C
3CF35B41
BDD31F47
BDE904F7
3DFA7F3D
3C75CD77
3DBF27E3
3D7050E6
3DE8EFFE
3D46923B
BD86290F
3CEB8448
3CFBF976
BD76C24F
BD4F51C7
3DA71A99
BDCEE06E
3D452B33
3DF2B884
3DB7378A
BD915D3A
3D88D25F
BD37DC2A
BD937619
BBE74589
3DD44029
3D9FD403
3C444B1E
3D748818
3DEB7C35
BC9F9881
BDF2189C
BDD083DC
3C1FEEF3
BDA4F8A8
BB779375
BDCEAA6D
BD38537E
3D503892
BBAF0CDE
3CACC73E
BD99C737
BD1DEC7A
BD0BF297
3DA7B932
BC9AF4AE
BCBFF4E3
BDFCA4B1
3D3912C1
3C73090C
BD1ECEC2
3D952DC4
BDDF40A3
BC9A2CD2
BD7ACAD7
3D5953A9
3B460A10
3DEBDDBA
3DDEEDCC
BDA4E8D3
3CC9C180
3DD6F21F
3C274C75
3DA0242D
BD80FD63
BD5BDFE0
BD4DC02D
3DA097E3
3D912FAB
BD2AD23C
BDC01132
3DFA9F38
BC68BBAB
BD05979F
3D7C3068
BCA2E35A
3D812861
BD995E25
BBCE41D7
3DD7585C
BD81BA2F
3DBEA54A
3DE2B170
BDA71609
3DE6B485
BD815FA4
BD72BE2E
3D8E3A20
BDF97B31
BDCC3B0C
3DA0BF43
BD6EB2EB
BDE558EA
BD3200B4
3BC86D57
BD15C7E8
3D52169E
3D59326C
3D827F36
BD92F838
BCA56042
BD2A1C69
3DC64E3B
3C7B4296
BDF94856
BD44A094
BDFD9D34
3D916BCE
3DC4DA17
BDA11F4F
BD162322
BC758695
BD1A3D99
3C3288E9
BDAA8FA6
BBD76DFB
3DCE5BC8
BD8E6C24
BD6DC012
3DFAC9B0
BC5EBFA9
3D9ECE72
BDAEAA88
3D8F4C7C
BD18A2A9
3D73FB45
3C7F052E
BDD93FF2
3D9FB06A
BDE8F8E8
BD097DC3
BDD9524C
3BFBFA77
3D56FA4D
BDD975F3
BD03F1C7
BDB7A729
BDD3037D
3DE06B7B
BC91FED0
BCBDAFF9
BC71715C
BD7FBE92
BDBA0507
BDB284E0
BD1363A5
3D931EB3
3CD141A7
3D9D40AB
BDDBE660
BE00AB71
3E10CBB0
BDD1E647
BCE08F21
3D177384
3D875E05
3D3B3BC6
3DD29564
3D2BD464
3DA06ABF
BD803339
BD09DB30
3DE30985
3DE7E847
3D366E01
BD1337D0
3DAD4EEE
BDFB3AEF
BD5AB375
3D6C7D01
3DB3CD07
BDE2DF93
3D7BB9D0
3A70FF98
3DC3165D
3CDB7AB0
3D2EFC37
3D607266
3D8FBC36
3DFB2EE0
BC902801
3D50D845
3CCF398F
BDEF4ADC
3DB9EEBF
BDB9F849
BDE6234B
3D346979
3DEF2735
3D8E0EB6
BD83F621
3DC39F0C
BDCC5B4B
3C9CB7C7
BCBA2D22
3D58F8F5
BDCE8A72
3DE9B38D
BDEEC850
3E01C7DE
BD82D5C6
BDB5D1B6
3D10FAA9
3D7ACCD5
3D06B8B7
3C6DEE86
3D2A02D3
BD2D15FE
BDF5E072
BD1A6DBA
3D17198D
BCAA828B
BCE67514
BD9B2E31
3DBEE64D
3D88A62C
BD8B93DA
BD13BAFE
BD4A7CFC
3DCCACC4
3DD6A055
3D9AB9B2
3D065626
3D8E5017
BC4226EC
3DE2C237
BDE57C91
3D86FC59
BCB72EA0
BD83FF4E
3D2B10D5
BD5DBBB8
BCEA920F
BD2B90C2
3DA2EE92
3DD8C3B1
3DD48ECE
BD05DB5C
BD814106
3D6A84F4
BDE01605
3D3FABCD
BDF97247
BDF6E697
3D837B14
B9E4F00D
3DF15055
BDFD9EC7
3B35F977
3D79146E
3C6CC2A1
BD167CAF
3D216200
3DF3E037
BDCE2974
BDB153E5
3D5858BC
BD437F11
3D1A2CD2
BDA76D62
BBFFA049
3D0596AD
BD9BBE1C
3DD8EF35
BD6DF62D
BD56B640
BD1BB9B5
3C3ABDD7
BDB44285
BDCD6239
3CC74894
BDA11FE3
BCE55E94
BD3DB984
3D08E673
BC76C920
BD41EF74
BBC964F9
BD102547
BD881868
BDBADAE2
BD7CAC08
3DFB152F
BCB19066
BD1C9AF1
3D06EBC7
BDCEAE9F
BDD4BE83
BDC57B85
3DEB5BB4
BDEA82A5
3DF320DA
3DA13887
BDE363B2
3DC88E51
BD06B7AA
3DDA0DFE
BC25247D
BD5FD934
BDD62AE5
3DAED2B1
BDC63DC5
3D6BBDD9
BDF86FCE
3D06CA1F
3D294390
BDA30220
BD05FD55
BD87C632
BD3DE284
3D967275
BDA1CCB1
BD9A7696
BD774115
BDC48B80
BDC8ACAD
BDF1800A
3C93C4A3
3CAE55B4
3D0749BB
BC88F5A8
BDBD7D39
3D1A69BE
3B0B667B
BDB3EAC1
3DCEC8D6
BD610F95
3D04A97D
BCE369C7
3C2AF64E
BD8C753E
BDEF7E3D
BD52EDC9
3D1B5C2C
3DC93668
BABC1BA5
3DE71716
BCE24FB6
3D5390D6
BD520B80
3D90C4A9
BD9DB52A
BC01FBC3
3DB56ABE
3DFA3E3A
BD8AC53B
BD3F21E9
3D907810
BC1A0087
BC8BBAE9
3D4D3812
3ADA8A50
BD8CDDF2
BC44FF0E
3CA71151
3D8DFF09
BDD8F712
BD8D7C47
BDE23E18
3C39C6CB
BCE4AA03
3D19E519
3CECB5A0
3D3A9817
BCDDA314
BDE6E32E
3D38B787
3D3B6658
BD279896
BDD24A6B
BCC7DDAF
3D710201
3C8B4C64
3D8B40B3
BD3C9E31
3DD71194
BCE7868C
BD867D6B
BDC7C0D9
3DCE6299
BD4AD28C
BC13673B
BBD66DF6
3D9DBA33
BC424A93
3D2FE5BC
BD1281FE
3C2F0755
3DA95DAD
3D3F1108
BC8BB617
BCA2B353
3D9CA3B2
BDEDBA4D
BDB0D05A
3CB1E9F2
BD80437A
3D48B41F
3D875501
3D27FC9E
BD871B55
BCE05E7A
3D99B2B7
3DF67F4E
BDC4984B
3B908F04
3CD20B30
3D9665AA
3DBEC354
3D5A50C9
BD91AEA6
3D5FF94A
BD5BA4F2
BC6F5C44
3C537F6E
BDE244E9
BDB32BF7
BD6E0363
BDCA4A13
3DB771C9
BDB8C686
BDCB3EC3
BCF5865F
3DCCFB76
3C6E1A24
3DF18D26
BD0462D1
BDAD63E6
3C17E6C7
BDA95183
3DF4AFD5
3C4CB6FD
3D4D5F7F
3DA09579
3B8E8B9F
BB5DA2DE
BD73F093
BDAFCF23
3CBD6734
BD066E79
BDD27C39
BB67F5F3
BDE55FBB
BD9D9F5B
3DCC6B71
BDDB1F25
3D9A2B32
3CDE155F
3DD4B48D
BDC1F52B
3DD1F46F
BC83F050
3D0366D8
BDBBDA36
3DB4E288
BD09807D
3DBC0CF7
3CB8B1C3
BDBBE696
BD86E207
BD955FE4
3D967F5B
3DBCFB0B
BDC7531E
3DBB0F35
3CD1FB0A
BD5A5424
BDFA94BC
B919B81A
BC79936A
BB2EFC82
BCE485F1
3DEA9F7B
BDB1868B
3DE4CF8D
3CA4C57C
BD32FA94
3D98BD74
BD374B5B
3D749A21
3D5AD7F3
BD14D66C
BD9B9B67
3D9BE76D
BD0DA85F
BD8962F8
3C33F77E
3DAA236F
3D887C7E
BD98305E
3D6B891B
3D2C5990
BA75AC8C
BDC32831
3C087941
BDE63C75
3B9F9E6B
BD25CB86
3DC2D7EC
BDEA5EFF
3DCE54F8
3D55F245
BDA4960A
3DD4812C
BDE872B0
BDDAA045
BD4C0F6D
BDD4738A
3D44A9CE
BCEA3CEA
BC30B392
BDD2AD82
BD3D5E2F
3CDCDB6D
3D76352B
3DF0CD42
BC672A46
3BBDEF64
3D862D5C
3E09FCB1
BDC38759
3DDD55E7
BDCC8F17
3DD71C11
3DDB20B8
BCCBE073
3DE1D96F
3D5CA60E
3DB604AC
BCDAD71C
3D0F4532
BDD0DBF0
3DEEA6C2
3D51EF4B
BD9E3ACE
3CDA7FA8
BC98FD92
BDA8FB94
3E004B3C
BD978324
3D562B6B
3D2B6B89
3B033EB9
BDB591E8
3D345F68
BD69E0BF
BD4E3D7B
BE056DA0
3DE93E1D
BD835A6B
3DC71A20
BD9DDF29
3DDF7E80
BDA03B4C
BD2D5305
3DBE30A2
3D951274
3DF91D58
BD80AA07
BD391398
BD32A4B3
3D4B51D8
BD99F150
3DBAF435
3DC1EA43
3DD609DD
3D8192A7
BDF593E6
BCBB589C
BDFE4EF0
3D983D1B
BDADEA11
3DD2C8C5
BDA766AC
3D1ACB0D
BC0B74BE
3DD02B41
BD670F53
BD1EC56D
BD77B5E4
3C223B1E
3DD22531
BD981A30
3C6053FE
BDA474CC
3D41977A
3D54A432
3DFEC248
BC393C62
BD84AC52
3DFB7F17
BD813E66
3E06A012
3D0D2766
BC148A86
BCB34466
BCCC5111
BDDFDD66
BB0C4548
BD4EF424
BCB48A4B
3CBBEF2F
3D1CA71B
BD7CA8FE
3C5BF346
3DC456A7
3B5C5805
3D761240
BDCEA5B5
BDDCAC08
3B951B45
BC271873
3D76030C
3DA2DC7C
3C035A9E
3DA05DCC
BC8E46EB
BD60F005
BDA45184
BDAF8990
BC8FC13E
BDF47AE1
BD91E96C
3DE8F755
3C95D87A
3D2C7468
3CFCE209
BB4AF384
3DF758E2
3C4D3E77
BD02A52C
3DC3B4CE
3DE02539
3DFC3372
BD36D712
3D486925
3D419F07
3DCE8295
BBB4EA83
BD2C0379
BCFF7A34
BDD0ADCD
3DBD3CD7
BB812E7E
BD741652
3DF5E8D5
3D92F00A
3CD39757
3D72BDDD
3D2569E7
3DE3F24E
BD2B4DDC
3CC78E9F
3DBED535
3DF43201
3DDD3D43
B8F0F006
BDF13CEF
3D51868B
BDA5D29A
3DA9C8F1
BC353A74
BDC2FFED
3DAC1052
3D67E71F
BD3AEA17
BC25F923
3C273A6C
3DA46E4C
BDE5ED4A
3D0AC2EC
BD213610
3B2E1B06
3C986156
BD04EBA8
BB0AD80B
BDD1782D
3D490075
BDA3C7F1
BDD3B081
BCB0FE3A
3CC5605C
3D6C159D
3AC88FFC
3DC0DBC8
3C55D158
3D1CE05B
3D031A82
3D433B39
BCDCFE73
3D0E5DAC
3DCF8D71
BC1C9A60
BDA2991D
BDE73FFB
3D505FFF
3C7434F1
BD5BD4F8
3DA0C39D
BDFA13C2
BDBE7DEA
3D346837
BDFC88E8
3DCAEDA7
3D08571C
BDBCDAE7
BD94BE18
3CDA98D3
BDFE20CD
3DB13689
BDA63081
3CF8AB0D
3D6719EB
B9CB6BF1
BCCABD93
BDC84D84
3DEA93F3
3DBCF3A6
BCB5A782
3D94EADE
BC9C2E9F
3DD51A43
BDAF80F7
BB95607A
3CCD1CE9
3C1B15FB
BCFCBD55
3D0F53E0
3D53859E
BD034F0A
3C3B2CFD
BD51A884
3D64F715
3DB91560
BB3582AE
BD14F3C8
BD24613E
BD029323
3D209AFB
BC731B81
3C82D1A1
BD8EC85D
3DA7A8F1
BD01A262
3D3D7ECC
3A808C02
BB806E24
BDBDE3FC
3D99DA9D
BCE5FECD
3C23311D
BD0902F9
BC7D9415
3DD7268D
BD41E710
BDE57EAA
3CD4E966
3DAF355D
BD908D74
BDD70AC4
3B71B50F
3DFE6927
BD8734EB
3D89D826
BDC5F776
3D2734DD
BDEF2389
3DDC432D
3D1CD086
3D879929
BDD7F306
3DE60243
BDA88583
3DB9CD31
BD4B2024
3DCBAD63
3B2864E4
BDC599E0
3DA5563E
3A41FEE8
BCB542A2
3CCCD424
BB8E0628
3CE897CF
BD9F2C30
BD81CF00
BDFF3B64
BC883CB0
BDD0CA1D
3DA2E97C
3BD65BED
BDCB63E1
3CDAC0E1
BD26FA40
BD4E6C3F
BC582D53
3DE901D2
BC9311C0
3DED9408
BDCFD4BF
BDF6A055
3D773896
3D987542
3C14D173
BDFD377E
3DDB1077
BD463C0A
BDF14B9D
3DBA3DB4
3DEA8B09
BCB6A4A2
BDD9CF9A
3D847F8C
BCD1499F
3DC3789E
3D4BA5D6
BA1DB18A
BDA8B4C0
BDC6971B
BD8F3593
3DE53A82
BA418978
BC0BD78F
3DEF9442
BD3DE1C8
BCFB1763
BDA4A714
3DF27AA7
3DCDCEC0
BD6993AD
BAB90E29
BD3E7C8D
BD485950
3C2A41F3
3D2D2044
3D86C45A
BDAB163C
BC42CA80
BC871AA6
BCE76EDA
BDE13C25
BC5DF00B
3D1D65BC
3CAD27B6
BDF87379
BD62CFBE
BDBE9E36
3DEF5BA3
3D4137D9
3DC7DBF5
BDAE8534
3D8BFAD3
3D7825AC
3AB90215
3DE7AA69
3DE59B80
BDAF191B
3D8602AE
BD51A600
3D3A836F
BD9189B0
BDAB6721
3DB3DA07
BDDC2E34
3DA6ABF9
3C7F5332
3D3D874A
3DE98D47
BDDCEE18
BDD805E6
3DDECCC4
3D4EA671
3C60312E
BDA330A2
3CD0CD78
3BAA6AB8
3DD712A1
3DBCE24C
BB9E38A5
3D14375A
BDA1E852
BC606A39
3DDDD228
BDCB8D82
BDC3ACF1
BCDDD279
3DA03C81
3D876FE6
3DFE3A7E
BD52B84F
BDAD0F8B
BCF922CC
3D9C23ED
3D328467
3CEF7320
3D0B4B73
3D4B4A4B
BD8B8738
BDD2F987
BD69F8A7
3DEE1E71
BDBEF658
BCC8F217
3D42F9B0
3D8A241E
3DC5F260
3DE59D13
BDC0A790
BCB32881
3D967C51
BD46C39E
3D9EDD2D
3D67E613
BD5ECC59
BC0A9B24
3D2CD0C9
3DEC814D
BCCC5975
3BBDFB0D
BD8C590A
3D5E4332
BD0E47DC
BD3FEC14
3CD3836B
3D8C0ECC
BD411C2A
BD32477B
BCC026CC
BDC6BF44
3DE9D9D3
BDE8EFFE
BCE1EBE3
BDD100A4
BDBC4347
BD8DCDE9
3D6A8C9C
BDC36270
3D8F6FAA
3D0AC5F7
BC354196
BD898097
BDB6FD73
3C54BCF1
BD216B70
BDC0B087
3D831A9C
3D07339B
3D98C9FB
BD75D554
BD9E2BDD
3D086F3A
3BC5F496
BDA40273
BC8A53E1
BD410477
3D2F218B
3D81E97A
BD8B5C04
BDE66CB1
3D78131C
BDBB1657
BB24A338
BCDEE02A
3A1647F8
3D4073A8
BDB2D186
BD4DDC2C
3CB00A54
BD9D4C26
3DBDBA25
3CBE7EF7
3D3AF061
BA0D3BF9
BD92B064
3B8AD506
BDC7FA50
BC7910F8
3D2830F1
BE01CB8A
3B84E6C5
3DBD31AC
BDCD141A
B9F8570C
3CEE2329
BCB23EE2
3CFDBE3C
BCE64DA7
3DABA55D
3DCEFF5C
3D535273
3CE1E3B5
BDA82A64
3DF7F280
3D758F13
3DD23DD5
BDF7121B
BD8F9790
3D7836F9
3C87F8F3
BAA90979
3DA33574
BDE18698
BCB55227
BD3FD263
3D6B0C53
BC66FB4C
BDE1E929
3BBBE1AE
BD8067DD
BCD4A35B
3D15BBBF
BDAFC81C
BC0FCFAC
3D354B3B
BCE6CCBE
BD8A7F80
3D620CEB
3D6A47B7
BDA22C96
3DA02696
3D146AF1
BD889705
3D137C64
BDEA4B12
3CFCCCDA
3DC03A90
3DD253DA
3DC49BA6
3D00F401
3CF147D6
BC9659A9
3C4F01C6
BD598202
BDE9973E
BD63702D
3DF1DFFC
3D827C47
BC530E2F
BDC14CB7
BDA46DAB
3D8AB14F
BD5954B5
3D08A4EA
3DCAC04D
3D6574EA
3DA6961C
3DE1743F
3D229D9F
3DDA7C9E
BDFE99E9
BD5638A1
3C942E55
3DA42DEA
BD9004E0
BC80229A
BD8EBB77
3D0346DC
BDE064AA
BDC0BCF4
BDFB120A
BDD98394
3DA9232A
BCA12224
BDF25892
3DCE3FFF
BD78C90A
BC1077C7
BDDCFD4C
BCFEF000
BDD8B8AE
3CD2FA43
BDF5E0F8
BC4F567F
3DC99235
BDB67AD9
BDA324F0
3DEA0989
BD9B3FDD
3D042925
3C4BFA3F
3D180022
3D335512
BDAD5A18
3D68A570
3D80C522
3CA69779
BC0E84A8
3CBB9EDD
3C68B19A
BBAC9BD5
BDD234EC
BB692A7B
BCA6A0E9
BD1AAB98
3D8B9636
3DBF2346
BDC95B36
BD4904A6
BDED527E
BD2A3B73
3CF9713B
3D4F3110
3DA8127B
3DFAE89F
BB159020
BDA4ED3A
BD490ABB
3DC592BF
3B565084
3D822C88
3DA63A92
BD11AA4C
BC4D2913
BC42A52C
BD96B10F
BDA478D6
3DC1C1C9
3DD47E07
3D4F393E
BD948769
3DF89720
BDD24E16
BDA1B923
3DD1287C
BD9AD851
BDA36644
3DEDC4CA
BDC138A2
BD3C25EB
BD17329C
BDFC8FB8
BDA87B3C
BD00D5E9
BD38F671
3D82A546
3D08884A
BC86E598
3DD04FF4
3C4BE32D
3DC5337B
BD9A28AE
3BB4A5BA
3D8AC53B
3BAF1BB7
3DC446DF
3D86CFE3
3B08346C
BDD05F29
BDB353DD
BD7F2C9B
3CC507DC
BDAA85A2
3CE7F90E
BB04AC78
3D45D1B6
BA7F1200
BD426D99
3DFD52C1
BD9EF59C
3DA7AA84
BDD3B646
3DCE147B
3D9FE9C5
BD7B6F92
3DC46504
3DE26A23
3D996D5A
BDD90C0B
3CE65102
3DEC98E5
BDCF51AD
3DE2E7F7
3D9469FF
BD9DCE98
BCFA49DE
3D91D53D
3D989225
BDCD8559
BDDF559B
3D9E3D38
BBA45E44
3D1CC6FB
BDB1DB52
BCD55029
BDC7EE0B
3DCE3EF3
3D248444
3CDCFB84
3D955681
3DA2FF66
BDCCA7F1
3DA20818
BD52702A
BD7932F2
3C7878B8
3DA69729
3CCE5888
3DBE9B46
BB09FC6E
3D95D0ED
BDB1120C
3D1658ED
BDE74081
BD803049
3D63468C
3DFA0E84
BD491B4D
3DDC169C
BD7173AB
BDFFD36F
3DE3315D
BA4AAE06
3DED8FD6
BDBB4429
BDA3D097
3B22976F
BCB42A3F
3DD26741
BCCEAF25
BD020A16
3DA30C3F
BCAB360F
3D8BBF5E
BD2DBC81
BD999EB0
3D101CE3
BD54474A
3C03F3A0
BD16C78D
BDE768E0
3DFDA1EC
BDE82060
BD4B851F
3D9B6658
3C10AADE
3D544715
3D088B04
BDFF0132
3D1DB6AF
3D9D8D01
3D4BEED1
3D8F1272
3DADD492
BD4C328E
BDB96272
BCA96EFA
BDB9DC3D
BDC9BBAE
BDA06050
3A9AA736
BDBE3F86
3D63FD86
3DA1CF86
3D0ACE40
3D396E66
BDC7FFA9
3DBAED21
3DA67997
BD817E93
BD096737
BDB098EF
3D54DE2E
3D09A607
BD11A55F
BC85D66E
BD8BF884
3C2B4528
3D058C4C
BD67DB10
BAF49492
3CB0C275
BBA9DC72
BD2E4A2B
BDD04EE8
3B64AEEC
3DD80347
3D712BA1
BDE9D5A2
BD596AA0
BD12DF6B
BD810640
3D979AC9
3DF4751D
BBEEC65C
3D5C2473
BD8293EC
BD4C12FE
BDF7FC76
3DF96074
BDAB3510
BCE37692
BD68A662
BD4D6A9C
BDD6C482
3C9D1A58
BDFCB89D
BDD21145
3DCA3296
BC0C986A
BD081578
3D982EA3
BDAAE7F0
3CBF6571
BD007C27
3C8158FB
BDB623C3
3DF08AAD
BD4B01F1
BD7529AD
BD8B0DF3
BAC239F7
BD973465
3DD38EF3
BC837CC2
3DFE2B49
3DA31727
BDF3C793
BDC1031A
3DCCCF6C
BDD72820
BC51570B
3CD93E2A
BCA16830
BD2AC739
3D249ACF
3D99E6C6
BD567BBD
3B2601B2
BDD05AF7
BD43414E
3DF88334
BC3DA4A6
BD8EF20B
BDFCE4A8
3DD9E94B
BC9DB339
BC97D10D
3DDCE315
BD8B6714
BDC8DB56
BD8C3F31
3CCF2BED
BDCA2BAB
3CF2D682
3BBE7E40
3DDB70EF
BDE1DC94
BD977F5E
BDF53693
BD8BE6E6
BDB541D9
3D83AACA
BDC07D69
BC0733DC
BDA4C412
3CCF2F48
3BC36A78
BC12EFFC
BDBF8247
3DB5AB7E
BD4C5A16
3D87F844
BDBA2502
BCF1001D
BD39C305
3DEFB54A
BB2026A7
3DD018E7
3DDF1E8E
3DE5846F
BDB807D7
BDC11C95
3DCCF6BE
BDD87B57
BD0D6C65
3D9AC040
BC90B5C5
BD2A652E
3BD9C848
3DC7ACB8
BD739050
BC3CA8FE
BDE2CE46
BDA5558F
3DB16D38
3DEA5B53
BD87A5F4
BDBED02D
BD626139
BD002AC8
3DCCE91D
BBF4F1AF
BD3B8DE0
3DD1A4BE
BDB83226
3D8BB73E
BC7BA6D5
BDFEA78B
BD38F4DE
BD0B5CC0
BCB6C417
3D84A490
3D86583F
BD832089
3DC5048F
BDD65450
BD51E2B6
3D704C13
3CE1B669
3CEA5970
3DE71583
3D5DE1C8
3DDD12CB
BD21C949
3D89C4A5
BCB2EB0F
BD860AC1
3DAB5ECB
3DFADD9C
3D6C4497
BC8C2DD6
3DA7C1B0
3D11B54F
B99D4234
3C21BE41
BCF8D2AF
BD84DB59
BD075E49
BD82689D
3D4FE99D
3C239917
BDCD2AA6
BDCE11DC
BD02E903
3D366659
3D1AB3E0
3DC97600
BDBCB685
BD3EA557
3DAA7B41
BDD38716
BDF15A4B
3D4C41C2
BDADD8B6
BDFC7B46
3D7271D8
3DCA2E9A
3D269FA7
3CAA6747
BD82D78E
BDEE11DC
3DD2A173
BDDF4F51
BD2F32F3
BC8CE1C6
BD360880
3D1734B5
3D82BECF
3D971774
3DE47E4A
BDDBA238
BDD6B6E1
BD003545
3DDE9531
3C98C37B
3C3BDED3
BDB53297
BD0BE5B2
BD65CBA1
3D4928B9
BCCBCEA0
BD1D3184
3DBEE9F8
3DA5327C
BD91AF62
3BF33D7A
BCC55B8A
3C9F9B71
BD30CDC8
BD4D7A06
BDC6E7BE
BD9622A9
3D6C90ED
BD82EB2A
BD7A9593
3CA0CFEF
3DC24547
BDD5B142
BDE4BA0F
BDA1A89F
3DC6089B
3D2973B2
BD7353EA
BDAD8234
BD275C80
BD8D112B
3DCED1BF
3DDD1FE6
3DDFD7A1
BD55C0FD
3DE322AF
3DF6C2F0
BDF0B84A
BD1E1A82
3D89E4D6
BDA0088C
3DD78C43
BDBAA4FD
3D0B5DCC
3D192296
BD90F74F
3D9FB14E
3DF57A35
3D395282
3D1F7FDD
BD67AA18
3DE2CE46
3DD743E9
3DF4AA11
BD6C480D
BDF0D8CB
3C224646
BD7EF4D3
BCC3F481
3DDB120A
3C27C4D6
3DAB8FD1
BC6928B9
3D4C258D
BDC9D74F
3D2EA026
BDBFB00C
3D7264D7
BD49E790
3D9EA621
3DD9591D
3CF35F08
BDA8F034
BDA60243
3D168E4C
BCE2FBE3
3C1DBFCF
BCFD73FF
BA21583B
BE025FA6
3DF9EE89
BDAEE20E
3E0087CA
3C09A301
3D8F85F2
3D0AC505
3DA292D2
BBCEE3E9
3D42944A
BDC18040
BDE89A89
3CA6F248
BDDE7E20
3DAE20C0
3D22B841
BC4C9D68
BD5DA5B3
BDD307AF
3DA0054C
3CE86006
3DB8A457
BD2ADFC2
BD42B049
3DD5BFF0
BC19A67A
3DCBAD3A
3D8C1582
BC4EA5EB
BD7C0ADE
3DBB60D7
3DC71095
3DB7C31B
BD0353DD
BDBA67F6
3DD5818C
3DC2E39D
3DEB4E12
3D9CFC83
BC8BB4D5
3D78E376
BDF9E732
BDDCFC40
3DE02081
3CFEC3F6
BDAE2C3B
3DB1631A
BDCBF55F
BD4598AB
3C8F5AE7
BCB6DFFB
BDC5771D
3DA3924E
3DBD310B
3DE6FD65
3DB05568
BD56EAC8
3DCBBF43
3AF91BE0
BDA8A7B2
BDA701B2
3D7F8BB7
BB509707
3D1CF5F5
BD4378AB
B8C15B80
BD5C0859
BD63FC44
BDB350D3
BD399E52
3C793F87
B9386935
3DF02F73
BB547893
BD9D5596
BD633BDA
3C321A9A
3A7E2820
BDC993A0
3DFD102C
BC3DB3C0
BD67EF32
3D992EA5
BD25F923
BC083B83
3CE812D9
3D53D479
BC97A751
BCA71335
BDFFA54C
3D452C75
3DF2580C
BD808F7F
BCDFCB0C
3D2B5FCA
3DA3878F
3D99383D
BDD62175
3D971591
3D98B6D8
BD050B6D
BDE77469
BDCB0D95
3E0704BC
BD7C71A0
BCEB6B1E
BD7FC471
3DCF5771
3D9DAA28
3D76D1B9
3CE97686
3DB34F40
BD196A85
BCC3869D
BDA86C4B
BCCF0E25
BD57CD7C
BD802D09
BAD668AD
BD59D84E
BBF1DE6A
BD71D8DB
BD87B0F7
3C0BAD48
BCCF3B06
BDC2CB7F
3CD34EC7
3D62E91E
3B68FFDE
3DF91B3F
BBCC4741
3D8B4769
3D65B3EF
BC294F19
BD4C84DE
3E11847F
BC375FE9
3D10A4AE
BC32A7F3
3E01ED18
3D532775
BC37FCC7
3D91AAAA
3DC1E39A
BDF30AD4
BDAA5658
3DF49ADD
BDC9458E
3DC02A6A
3DB418C9
3D461A61
3CA050A3
3D65B820
BD4312BF
3DF0984E
BCB33FFE
BD86A2BF
3BBB1718
BCBA1611
BDFA9542
3E05DFA8
BDB236A7
BBF461BC
3D2E491E
3D4D7B63
BCFD188F
3DD13A50
BD42E720
3D8F59DA
BD9D47B1
3BF387E2
3D84CA78
3DE137F4
3B36378A
3D205A2D
3DC745B2
BD9E6E8D
3DB89CF2
BDA79D76
3C0EF9A3
3D9E49E8
BDC049FA
3D8CBEE8
BC14D463
BDF84556
3E0E746D
BD872F77
BD61F736
BDFF9B56
3A210A51
3D3F4A63
BD0EF622
BD77BC9A
3B942C88
BDA299B0
BDC45ABE
BDDAC2DF
3DE28ED6
3D49ED1E
3DE8626F
BDDF88FD
3C9CF788
3D254CA6
BC91B7B8
3C5C00B2
3D6BC8DC
3DF4959E
3E03E469
3CE12FC6
BDC71A3B
3D7FE5AE
BDDA0DFE
BDABE030
BDA75892
3E0380CB
BD44B175
3B1E482A
3C0297B5
3C829861
3DF1A21F
3C9EB3B5
BDD4666F
3C2CFDFA
BAF0246B
BD72CA3D
BDE1DFB9
3AFC8B56
3DAAF336
BDB0C1B9
3D2F3450
3D23CAFB
BCEF02ED
3D7EBCEF
3DE1CBCD
BD5046F0
BD7349A4
BBD143D5
BA49FFCF
BC7A2560
3DAF7F8D
3C8727DD
BDDFF2E5
BD1CC20D
3B487E09
BD1DB893
BDA0A69E
BD9A6FD3
3C86CD44
BD85907E
BC1B7CE9
3CB4C67B
3D0500BB
3D1B4550
3DEDCCA7
BD8F1C9E
3D5BE85E
3D428870
BA8DFC82
BBF8877B
3DBCC731
BDD1F362
3CFD49D8
BDCE7BC4
3DE3A648
3DF19610
3CB080D1
3DA8C071
BD751D4E
3CD1D225
3C9549A9
BDC54683
BDB25F05
3CE6FD9B
BD68650E
BD75B666
3D3279EB
BACEB65C
BD18BC09
3DF4DB59
3D28CD64
3DEECB75
BE051A00
BD145811
3DAAB91F
BDC02257
BDE1C151
BD53A0C7
3DC040A5
3E1428D4
3CE3F82D
3DC4439F
3DCA8DA8
3D80E0C3
3D9661C9
BD9989B7
3C591113
BD93C70D
BBBC0A32
3DF04EE8
3D008312
3D18160C
3C23AC62
3CF8F72D
3DAAF20F
BDDECCC4
3D8DC8EE
3DB35C18
3D544AA5
3D8F777A
3D6EB0B8
BC525CC4
BDD635E7
BDBBD406
BD52A498
3AF336EF
3C8D310B
BC05E4BC
3CF6485C
BD30EA69
3D3BB568
BD7BA684
BC020330
3D23FE5D
3D2D7D97
3D309778
3D9DC6F0
BDB263E6
3B29FE16
3D658A33
3D3F052E
3DAE7297
BD6A79BC
BDC4FDE6
BBDEA364
BD00FB22
BDB3884B
BC8FAC45
3D05C2D2
BDCDF15A
BDD117B5
3DDEFF19
3C0FDE0F
BD8CC8EC
3BC761BE
3BC90619
BD3C06E2
3D0E9D37
3DD0C77E
3DD74EEC
BB17D3F2
BDBEE6C6
BDBAFE2B
3DF00E6B
BDFCA7D6
BDA17F34
3DEFDD23
3A1B7169
BDFBE4CD
3DDA81DC
3D421DE7
3B9BCD3B
BDDC560C
3DB2A851
3DEFB3B7
BCC83F34
3C91F560
3D2402A9
3C899FBC
BDC176A8
BDE0CB6C
3D975D8D
BD8C5E63
BDC18076
3C567770
3D61F8E4
BD984018
BDFED41B
BD768FDF
BDB53AAA
BD0F60C6
BD5B1A38
3D1D7CCE
3DD29F5A
3DD7E3D2
3D7F31A4
3DA2490E
3CFB44E5
3CCD71A3
B96D17AC
3C0838BE
3DE799A2
BC9E4B0F
3D4CB6FD
BD157E67
3DE935B9
BDF13059
3DADEDE4
BDACFD3F
3D852DFA
BC9B5B70
3D3BE787
3DF84EC6
3DC7AD59
3CDED5AE
3DA3566F
3DDEF9DB
BCC694A4
3D84ADBC
3D0F4F0E
BCBA1499
BD8B4E62
3C55BC60
3DD6F545
3CC336B6
BD174F3C
BC2902C3
3DF55E6C
BCF3FED5
BD2B5188
3DC49BDC
BC70F967
BD922948
3C672614
BDCA5490
BD6B0136
3D055E44
3BC0BBB2
BD6EB789
3DAF8536
3DBA19CA
BD4373D8
3CF18F5A
3DA82880
3D823F32
BB9AE4C8
BD69F333
3C819C4D
BD74D41D
BDA06515
BD8B961B
BDD74257
BD819978
3D55EBE0
BDA9468E
3DC736DB
BC7CD10C
3D5E2E1E
3D0887A9
BC2BCD79
BDF23BBC
BCBE6F06
3AE3455F
3DF5D4E9
BDC0BADB
3DBD297E
3DA6DB51
BDA07175
3D698011
3D089DE4
BCB8DFB0
BD704AD1
BDAF2A3F
BD85E8BA
3CEA72D0
BDD74B40
3C822CCB
3A2CB3FE
3DECE571
3D62D7B6
3DF21922
3D91FF49
BDD74DE0
3CF44F5D
3DACE945
3DD6AB58
BD88065F
BDD1422D
BD180270
BC711658
3C1C4BDB
3DB6E0AA
3D84C0AA
BB35FFD7
BD561DC9
BD2ED063
39B5A807
3BD1000D
3DBCC419
3DE1DFB9
BD8D4B93
BDBCF5BF
BDF1550D
3D9483CB
3C9A74F6
3DF314CB
3C6B7AA2
BD72C45E
3D8EBD75
BCA75A4C
3D58379A
3BC6FEED
3D0606E0
3D782C47
3DAD5D9C
3D04B71F
3C3A9882
3BED0490
3DD8C112
3DB5AE7B
3C42D781
3D9048C5
BDCB3AFC
3DB2BD8D
BDD5BA2C
3C4A727F
BD3B9BD2
3D5F56F8
BDCFDEB5
BD1903F8
3DECE78A
BDCED2CC
BC69DB66
BD33D83F
BDD51937
BDEAA64C
BCBB24CF
BC859678
BD80C59B
3DC52BAB
3DC49AC2
3DBC318F
BA839BAB
BD015E54
BD046AE4
BDC172D4
3DEE48E9
BC6160D9
3AAA7A92
BDA6EEB7
3AB67B7D
BDEC5D20
BD39349F
BD669F71
3DE933A0
3DF53BD1
3D8D5E80
BD416590
BD176E97
BDD9DFDB
BD4F6E68
BC1E3A48
BCAFE0CE
BD958AD4
3D25134A
3D1AED3C
BDD9CD81
BD852FD0
3D73899A
BCDF8104
BDD984A1
BDD64389
3DC14502
3DA09650
3D883CE5
3D72018A
BD69ACF2
3DAE973D
3D99C66D
3D8326B9
BD96E2A8
BD1ECBB8
BDB1985E
3BFE5F41
BD398B21
BDC917F2
BDADC2F4
BDFBBF94
BDA59F39
3DC2B4CB
BCF61530
3D750CF2
BDB04395
B9B50B20
BDB94D43
3D1CB2D9
3DB5C755
BDC824D5
BC29BB50
3CD90123
3B13FC21
3C03E014
BDB0FEB3
BCFB2EE0
BDED62BF
3DAB3398
3DAA5721
3CE35D32
3DB458CD
BD8A1DFC
3D270B3C
BCB75E05
BDD6683C
3D92603A
BDF6805A
3DE5D207
3B3E9C08
BDA72284
BDFF57B4
BCE3B4A6
BD765AEB
3CB63221
BD278870
3D7D6BD1
BBAF2486
BDD0CB29
3CB2BF70
BD7BCA61
3CC05088
3ACDD3DE
3C4C0CB3
3CA1C293
3D423092
3D51A488
BD34CEFA
3CA6205B
BC0B0CC4
BDA99286
BD95648E
3D3900D3
3D1C9887
3D2D9E69
3DCE5797
BDA6AA66
3CF162E4
3D1D7E46
BD72AB9E
3D02A81B
3D868AC9
3D1DA28D
3D6ED5BC
3C1B7B7C
BBFFEB07
3DA0616A
BCF91A9E
BC8CEDEF
3D15C620
3DAF4532
BD5D9F32
B9F0A7F3
BDDB163C
3DD20F2C
3A7AB001
BC912B6C
BC8C0923
3D9422B2
3D85DF80
BD6B20E0
BD3F28F0
3D74341A
3D0A535B
BD0BA40E
3BD2C93B
3CAF3288
BD338477
3D8DF0C7
3D708A5C
BDFF8445
3DE727DD
3D2914CC
3CE849CB
3DE56FFC
BCED2999
3DE280AE
3DDAAFFF
BD7A6018
3B41056E
BD729670
BDB74C83
3DC9289E
BDCDB164
BBF2EF76
BC89D7F0
BDC09983
BD11A84E
3DCCF6BE
3D033391
BDA2F1FB
3DD7C45D
3DF95571
BD55B24F
3BDC467D
BD8EFC37
3DBD72F2
3D9AA16C
BD1741B6
3D455E5E
BDF0EBAB
3D82C6E2
3DD045FE
BCB935E1
3CD09EB4
3C9EE3BB
3D084CA0
3DFCBAB6
BDE0064B
3C8264CA
BC1D4A7E
BC8366F2
3D2DEB2B
3D8628B1
BCB76C12
3D20035B
BD8B3A76
3D9CEAAF
BC87B4CA
BCC8EAF6
BD7D0778
3D8F07C0
BDE842FA
3D8186B3
3DFCD91F
BC9FAEBC
BCC5553F
3D7DC30F
BD3F588B
3D0878E0
3DC4680F
BD3D409D
BD207C0C
3D1CB50D
3D88BE8D
BDA176F9
3DBD31AC
3C9DCD70
BDE942D5
BDB69942
BDFDC6A0
3DA540E7
BD851F67
BA780FFA
BD99231C
BDDE9AF6
BC4472F7
BD01324A
BCED49AF
3D607E0A
3D9CE14D
BDB76EA4
BC4281F0
BDA2E5B6
BC674E58
3BD0338A
BCC89317
BD444A12
3C765775
BD7533D9
BD99E592
BDEBABEB
3D601C6B
3D830B9E
3D570EA5
3DDB6998
3DE25743
3D4B0BB2
BD66A5D7
3C59BE4D
3DD056C5
BD5A7130
3D3EBFDF
3C846B34
3DECCC47
3D0FA391
3D42F9CA
BCFC3174
BC455433
BD9B3B3F
BDAF5657
BDA615A9
BD8C9CB9
BBF8637E
3D74373F
BD01D53D
BD60093A
3DE33E79
BC16E2BB
3DA5CF5A
3B4A666B
BDB0B7C3
BDCC77B5
3DC1B0F5
3D09A68D
3DACF33B
3DD83383
BDD460AA
BD1411B5
BDFD0D06
3DE47A18
BDBE6879
3DC399A5
3C1728DC
3DAEB1C4
BC29CE9B
3DB4EA73
BD3FBDA0
39809C03
3DAAD60F
BC51D4DF
3DB0D789
3D165E97
BBBC6BC1
3DEE5BC8
BCC053AD
3CA0AB3C
BDE0D66F
BDD79A6B
BD194CF3
BBEF3EFD
BDC6C82E
3DCA11B7
BD932229
3DBD4EEE
3DFA322B
3C33ADAC
3C0574BF
BD22D872
BDF71D1D
3DE8D10F
3C9E6FC2
3DC4EE39
3D86B5BA
3D52A38C
3BAEE80A
3D8921A5
BD1E7785
BD01A170
3D350276
3DBAB233
3DE0B88D
BD4D78C4
BDC47B82
3DB65054
BD793419
BDF36A40
3DC5F344
BB2EE607
BDB4874E
BDDB6A1F
3DD59F6F
3D8086E6
BDD4BD77
3CD8E285
3CF199D6
3D718274
3DDFB15B
BD6771FF
BBAA81DF
BCB21526
BD495381
BDCD338F
3D1BA161
BC9B2AFF
3D803A17
3CF999EA
BCF020FA
3DCACB0D
BD9A2926
3C04C5B8
3D72B6BC
BDBF9BC2
BD6969A1
3D35539F
3DEEFCBD
BD965336
3DEE2542
3D88A3DE
3DEF483D
3E1DE7A7
BDD6733F
BCBFF6FB
3DCE0EB6
BCCBF170
BDD2556D
BDE69058
3DEB26C0
BCCA7F15
BD65DC68
BDB1C044
BD57C99B
3C973F4C
3D945613
3D94AC01
BD1AB177
BDDCA969
3D911AE8
BD77E23F
3DF8BC5A
3DAD21FF
3C6A23F6
BDCF3BA7
BD00E62A
3D349C8A
3DAF5997
3D6B3D66
3DB4A2F0
BD959FA4
3CB1C82F
3CECA46E
BD1092F5
3E1E53EB
3C775A3F
3DA80149
3C3B8074
3D3857B0
BC952F72
3CAF20B5
BC283E0D
3D258728
BD32F29C
BDC185A7
BDC6C26A
BDEFB118
3DE91C08
BDC0A859
3D8148AD
BD0A7B4E
3D4438DF
3DD75968
3DCCE704
BDF40AAF
3D943061
BD332B3B
BCC30213
3DA02371
BD211DA2
BD342CC3
3D13B71C
3D16159B
BD01AE3B
3BCA5E88
3D49B87B
BDB3086B
3C547248
BD498E1E
BD84ED1F
BDC46951
BD611B1E
3CF23D6A
3DDC371E
3DF3764F
3DED5B68
BDEA8B09
BD875537
BD3E6DFA
BD5E384A
3E2BB40B
BD7598B9
3D25ECA9
BCD96F72
3DC6C127
3E21A36E
3DABEC3F
3DE9B8CC
3DD095AF
3C3707D4
3DC0C3FB
3E26D00B
3DB35166
3D01D126
3D2963F7
BDD72ABF
BD801323
BDED0DD0
BDC47F3B
BDD5B4EE
3D955971
3DE58B3F
3D546ED2
BD0EE0BE
3D19ADBC
3D1FF40C
BD860060
BD9C07EE
BD061ACC
3DE8C500
BD8ED0A6
BCFA2D22
3AE91228
3D3D2631
3DAA8B67
3DF040C0
3CDC6B3B
BDD51373
BD8A0FD4
BD2077A4
BDCC5F2C
BD76B3A1
3D21E5E9
3D9EEA64
BDC3B52C
BDA714C7
3DFCD680
3AE4C6EA
BDE44E94
3DD7B6BB
3D14F667
BD3655C8
3C8CC7C4
3D2DFD84
BD98FE41
BD1631B6
BD4DBB90
BDA11185
3D14CF2F
3D555319
3D85158C
BC7F4F6B
3D2E7B73
3D88FBD7
3C1F8CE3
BD784C92
3C835123
BDC84E76
BBB672D9
BDBFA26A
BCE47BE0
BD78DE6E
3DF36695
BD4BFFE9
3D30B8EB
3D84A333
3C92CC56
BCF25EF8
BD3103E4
3DC89093
BDD7CBB4
BBA8AB45
BCB9E351
BD82E9F5
3D14EBD0
BDCC6808
BD8510FC
BBD8837A
3DAEC13C
BA825791
3C754160
BD458D08
3D856225
BD5A4251
3DD50225
3DF724FB
3D4A94FF
BD1BBCF5
BCE76102
3C701A44
3C0526BB
BDB46D68
3DF0D38D
3C214C6B
BDD7FAE3
BDB2AA4F
BCAB3538
BCACD805
BDA8FFEE
BD84B3DF
BDA77C53
BDFE4ABE
3DC7C75A
3DDFAB11
3DF9CE07
BD26B7C5
3D3B6D44
BC0BA8A0
BCB5E926
BC1A3B40
BD01B908
3C289B2A
BC31352C
3C7CB197
3D691934
3DD47E07
3CD6F255
BADED0DB
3DEE8A72
3D2CF57C
BDB63213
BC49851A
3C4FCE09
3DED3522
3C1F13F7
3D85C839
BD98E3AC
3D19DFC0
BDCA2F64
BDAF94F1
BDB4703D
BDB9A0F1
BC823F0A
3D4B7DE3
3DD9ECF6
3CC11DA2
BDEBBB1F
3D5623F9
BD7F072C
3DC9963F
BD8FA4C6
BD0B0780
3CBFDE07
BBC4F528
BDFB8CB9
BCFE3708
BDAC0AD0
BD6D57BC
BBB7D356
3DC22376
BD9146E5
3DD75297
BDAD9FEE
BCEFA10D
3E012DBA
BCB942E2
3D6C7D01
BCFC518A
BDF87CE9
3D8F4B7D
BBE72B48
3BC557B8
BD5AC655
3D97D087
3DC1AA5A
BC85FD70
BD714892
BBA160B8
3CA50A46
BDA88674
3DD71DA3
3D632C04
BD88CA4C
3DDCFD4C
BDCCD7CF
3CC80E57
BD709071
BD9DAD5A
BC3B32DC
BD36E42D
3D067BE5
3D586354
BB39605E
BDCAD894
3C38EB6E
3D0E5D40
3DC25545
3D82A986
BDDB7176
3D8AC8F4
3DE79032
3D42D8A8
BD073DAC
3D76C193
BD7B2AAE
3DB249C9
3D6F80DC
BD41B5AD
BDD8C543
BC60B68F
BD6E2669
3DA60C11
BCA763BC
3DCA8750
BD83E590
3D161B96
BDC693A5
BDCE3044
3C017B60
3D67CF1C
39406DAA
3DE12C6B
BDD22079
BDC6BA64
3DB2D1A1
BC7CB924
3DBDB842
BCCEFE35
3D4B8C25
3DAEDC06
3D955A47
BD3B4444
3DD8AE32
BC977319
BDCF0C78
BCB85180
BDA93200
BCE90EED
BDD2C16E
BDEC881E
3DCEF45A
BD4B12D3
BDA9D94D
BDEFA7A8
3CEA3C49
37269906
BCACC708
BCECABFB
3D03BBC7
3C929995
3D80F3B0
BDB4068A
3CCCF221
BD9981A4
3DBACC19
BD84EA30
BDAF8A4C
3D1DB67A
3D6120E2
BD00D2A9
BDF9A9DA
3CB5CBCA
BD2CFC68
3CF532E8
BD719503
3D4EF028
3DB9E4FE
3C9D194B
3DE07CC8
3D3A5CA3
BD2E5B78
BC88E6FA
3D4532A5
BD3083A6
BDCD1FA3
3D1BA6F0
3DDDA166
BCFBB54D
3DAE983C
3DA7BA59
3C8419D6
3DA5C902
3D58FCA1
3D8FFC62
BD61AFE9
BDA56EAD
BDDDBB9D
3DE28ED6
BCC33AE8
BDF74257
3D88225E
BD3B942B
3DDB0920
BD54DC66
3D9B1EE2
3D933B7C
BCE5819A
3ABB9314
3D80C092
3D3C031B
BDB68703
3DE42D06
3D32146A
3D46AB15
3D26CEF1
BDE8B8F1
3D8CBCCF
BDF93C47
BCB818AB
3CFDA512
3D70BC7B
BDBC51CD
3CEDE332
BCA9B96D
3DC1EFA9
3A8651E9
3D236977
BD5E9E51
3BB834FB
BD71C8EB
3D0E7B23
BD14B2FB
3D43E730
3D45CACB
3DAB8F3D
BC1EEF9A
BD8BD612
3DA10B63
BD904A22
BDACE38E
BDADE49D
3CF56862
BDC9C41F
3CEB104F
BDD564B6
3B12D631
BD49D27C
BC3F7271
3B2C65FA
BC898A22
3D8FB00C
BC894050
3DA7E1FC
BDF8B2EA
BCE6BC98
BCB89EE3
3DE835DF
3DE5A9A8
3D49B9BD
BDC97FCE
3D82BD4A
BDCDBBE0
3DF420B4
BD9E24C9
BDAB9BD2
3DE25AEE
BD61BC12
BC5A2D08
3DE5D4A6
3D106665
BCC3C3A4
3D04B1AB
3BF83BE6
BD9FBAF4
BC929F09
3D09D36E
BC41376D
3D5E1793
BD1CDF34
3D81441D
3CA4B557
BD13C37C
BD225A83
3CD08F9A
BDDF6449
BD1033F5
3DEB3355
3DEA1273
3D2039AC
3DEEDCC2
BD90406F
3DCBA161
3CD7B924
BDDC3DEE
3DCC8A5F
BCDC9130
3DA3EC39
3DA7D2F0
BD9DCF46
BDC35C4E
3A4332AB
BB97B6C0
3DF27C39
3D8C673F
BC87035F
BC2F3791
BDA671AC
3DE8650E
BDD9C172
3DE60DCC
3D722658
3DE39714
BDAC5BEC
3B0ED3C3
3CBF8917
3D876C05
3D20FAED
3C54EC56
3D655C2B
BAF5A55E
3D819EC4
3CA381B0
3D798C7E
3DC0554D
BDA315D7
BDA39482
3DA8F0BA
BDB34CAE
BD3ADA5C
3DB73648
BDF10BA6
BD939127
3D870F39
BD0D6B73
3DE51A00
BDE63950
BBD26BC8
3B7901DF
BD082060
3DDE8251
BD157208
BCB9A3FB
BDB9443F
BCFF70F9
BC927DB1
3DF83E85
BCA627E8
BDA7D673
BDBD4548
3DDB3743
3D953CEB
3CBDF960
BD28794B
BDCD38CE
3CDE1163
BC27F009
3D20A329
3C8B2C84
3D719DED
BDA9DFA5
3DF72607
BCE50939
BDC63114
BDB18223
BDCEAF25
BDE28672
BDA5A26C
3DB4E6D5
3C3711E5
3E00A99B
3D807648
3D05936D
3DCFAE79
3C4B2A35
BD939C1C
3D743E46
3D94F609
BD9AB119
3CC14113
3D71480C
BDF8372E
3DBD5F06
3DE8DF37
3DCA3CD0
BDAF17F3
3D201F90
3DD152F4
3C8799F3
BDF1C194
BDB1A5BD
BCD7E854
BD7A1789
3DB76D11
3DAEFFAD
3DAABAB1
BDF0EC31
3D870C71
3BF2EE4A
BCE3524A
3BE4487F
3CEB03BA
3D69AE1A
3D8E284C
BDA6C4AB
BDE47BAB
3DA52462
3CCA2AC6
BD8A3500
BC55241F
BDC3DDE8
BDB6213F
3D8C71F1
BCDF0E18
BDBFF393
3D987974
3D86DF32
BDBAC33D
3DF5D895
3DB8AD4E
3DE75819
BDB202F5
BD5E6927
3D40BD45
BCD9E336
BDB9D9FC
3D71AE48
BDA29D91
3D942500
3DD230BA
BDB0D604
3DD2BE49
BCCEDB65
BC383C1C
BDB4543D
3DE6527A
3D0ED0B3
3DE4B5DD
BDCE392E
3CA7897C
BD6F73F6
BDC71E37
3D9BFC80
BDF7DE94
BD88F9E7
3D72E6DD
BDB94A46
BAF45324
3DCD1202
3DF77EA2
BCD5842B
BD3AB5F9
3D875E56
3DB7FF15
3DDB91F7
3B214A93
BD2BB1E5
BDF05C89
BDFB4D49
3DCB7762
3DB95E9E
BB81E03F
3DC1C73D
BDC5347A
BC884EEE
3DF2378B
3BD62AC4
3DD00608
BDEA50D7
BDAFFEA3
3D109FC0
3DB3D0DA
3CDF000B
3D5137B0
BB20036B
3DF79314
3C87D7D0
3CEB1EC7
BD75B49D
3AC6FDAB
3D5E13CC
BDF4FE7A
BBCA93F8
BDB153A2
BD56B188
3DA89870
BDFB60AF
3DD5D80E
3DFE54B5
3DC50A96
3D5AF4AE
3DD640EA
BCEACEAB
BD514DEB
BD1FB0D5
3DB58EB5
BDF34EFD
3D0D3649
3D0EC4A4
3DF50B95
3C512CAE
3DCE410B
BDE650E7
BDB08C24
BD523EE2
3DEF10AA
BDB79D5B
3BF1EEB0
BDB336A9
BD3DED1B
BDF74ABA
3DE220BC
3D641107
BC104837
BDD8372E
3D82F083
3D8A45E2
3DF8A4C2
3C130348
BCC9360A
3DAE0B69
BDDD10B2
3C7DD873
BC849485
3D92C867
BD9CEE25
3CE9D876
3DBD381F
3C95DCAB
3D1AB085
BD19DECE
BD0B8108
BDBE8138
3CB0970C
BDFB25F6
3B924C89
3D92B064
BCD1E753
3D24A277
BC5C02CB
3C2B3E07
3DD48451
BD41475E
3D9A416D
BDF1105E
BDB47149
3DF6C722
BB5BA786
BCB1659E
BDA24DC6
3D9396F9
3D4A13D0
3D89CF9A
3D93AFD3
3DA5831F
BD7AAA56
3D983BD9
BD9D0460
BDC11475
BDA909D7
BD64E238
3C7DFE33
BD9F4DA3
BDBA176E
3CD7CA8D
3D541B25
3AD25019
BD7C1AE9
BD04C130
3DE79DD4
3D68C587
BDAA8834
BD4C26EA
3D2C1369
3D699D53
3C168223
3D8FAACE
BC7BEB33
BDE149C7
3DB7D0A1
BDAE2A9B
3DC80339
BCA01FC6
BD2548AA
BB7CCCF0
BD5A0E9F
3ABC5860
3DEFEEF6
3DC4BC35
BD701282
BD2347B3
BD8C7333
3D3694B2
3D5C1194
3D16F90B
3D4A6CA0
3DF5B142
3D80C72D
BD8A501B
3DB94FAD
BD221533
BD4F6761
BDC4EE7C
BDAA1E67
BD19EC55
3D49F7D1
3D57E656
3DE137F4
BD5A1E8F
BD7E0AFE
BD5A2F56
BC3791D2
3CFA53EF
3C9BA436
BD87F80F
BDD06BBE
BDECEEE1
3DBE166B
BD0B8E23
3D990ED2
3DA6F1A7
3E23A0C7
BE03B7D8
BDAAA2F1
BDB9DEB3
3DD4DF8B
3DB602E4
3DFF86E4
3DC5BE78
BC6A3883
BDE8240B
3D5376F0
3DC61706
BD22FC9F
BCFC1341
BDC43618
BB90E657
BD170FCC
3C8CC0A3
BD102009
3DB3840C
3C8ABA38
3DE214AD
BD775460
3D41C582
BCB13FA9
BDCB6DA2
BDCC40C3
BD43722B
3C4483BE
BDCEA183
3DB61141
3DF52B0A
3C6767EE
3C8897B4
BC63E949
3D602108
BDA559EA
3DB6C623
3DC3CD7F
BD8821F3
3E064F98
BBC32935
39D3E215
3D7BCBBE
3DD18223
BC26D770
3DDD377E
BD312770
3D33EACE
BDAF330E
BD9E1D4A
BDCEC28B
BD92891F
BDDCCC8A
BB24931D
3C96D747
3DA2949A
3DA26E62
BE199A20
BDD03F2D
3D9527AF
BDE5A46A
BD6FAC96
3CA35B19
3D4DCBB5
BC442A67
3DC596AD
BD6821BD
BDA58058
BDCD19DF
BC5FDDB6
BBF9513A
BD99BE75
BE016A8C
3CD155FE
BC9F394B
BD9102CA
B93D54F9
BD0D9E19
3DB43C05
BD4FEA8E
BD99F73D
BDE0FCB5
3DBAC124
3CFE5C5C
BDE8EC53
3C69721F
3D26FA40
BDE4A409
BCB2C916
BDC0EE22
BDDFDA40
BD6063D3
3DF9A62F
BD1F94A0
3DB944AA
39761D4B
BD706756
BD4DEBE6
BDD0C804
3D57FB6A
BDCF1801
BCA72F19
BDD20104
3DBA3F2C
BCD9227B
BDDA35D6
3D2A1EED
BC1157C1
3DE7B5F2
3B48E93D
3CAD8970
3D38EE5E
3C5F99C4
BCB7C88E
3DC3E758
BDE0AB71
3D44FA8B
BC5439A9
3D0A90CD
BD1B6608
BC8418FF
3DA81FB1
BD09C688
3DB1FA26
3D352C67
BC80B425
3D880636
3D5F2940
3CE02646
BDC0BECA
BCC418FF
BD052A26
3D75984D
BD5D0DC2
3B9E6CE8
3D8701A4
3B6D41E2
3DCEC637
3DB8CC9A
BD6B0491
BD5DF381
BD5A4038
BD086C9B
3DF24181
BD309346
3DDB877B
BD2E5DC7
3D02575E
BDA6DDE3
3DEA8A83
3D90D604
3DB46929
BD03A190
BDA828A9
BDB89DA1
BDCFC47E
BDDC5155
BDAAF450
BD51F5CC
3D5F9AB5
BDE6130A
3D6F76CB
3DC16BF6
3DE26890
BDBBF22C
BDFCD5FA
3BFCBDC1
3DBCE670
BDD9A177
BD3E1A17
3D64063A
BDA9A92C
BDE0C5A8
3DB81444
3C96EB9F
3DD80ED0
BD320353
3DC94BBE
BDFF3C71
3C5502FC
3D7EC446
3DE3AA7A
3C86E272
3BE7C40A
3D6E1247
3DA65D2C
BDD8800F
BD0646BC
BD79E5D5
BDFAFFB0
3DCB9B16
BDBE93FD
BD7738E7
3D873168
3D565C99
BDD9DF55
BBCB1669
BD4C8E33
3D9A5ABF
3DAE4CCA
BD4C244B
3DE6E009
BD9AEEF7
BD55176F
3D5003EF
3CB1758E
BD97D772
3D7091B3
BD4E255D
BD6DF58C
BDE52B4E
3DD8C3B1
3D9254B1
3DABE589
BD928218
3DE9EA9A
BDDFEEB3
3D92169E
BD7CDF4F
BD576CCE
BD2B8E3E
3D41FA76
BDAE6B25
BC975EF7
BD9B890D
3D119E08
BDD8F606
3DCE0C9E
3CA6B0D9
3DD4538F
BBE0D52D
3D288ACE
BD3C94DC
3D21329B
BD16C178
3DC86C08
3D85ECB6
3D1CEDFD
3DC5D04C
BDFB8ED2
BDD65FD9
3CF73704
BD736D15
BC729F5A
3D301FEE
BB1D8105
3D3E68D7
3CE00086
3DE1205C
3DFCE8D9
3C1AEB89
3D3FD629
3DC51AAF
BDD3F291
3C7F9435
3D679A43
BCB30BC6
BDC408BE
3DD527E5
3D124562
3DE89B0F
3DC926D5
3D96895F
3D27D531
BCAAF6B9
BB5FA699
BDB838DC
3D2F69CB
BDFFFC54
BE17FF15
3D074CE1
3DB32A72
BDB559CF
BC8029F1
BD0F5C29
3D994C1C
3DE4406C
3A50BF20
BD0B9F3B
3C6052BC
3C189D50
BDB6FE2E
3D902C5B
3DED1F1D
BDE22CCB
BE08AF3E
3C3276E0
BDD74C4D
BDE0895D
BC895BFF
BD03CCF9
3DB076CE
3DF72A39
BD534268
3DFE6CD3
BDC30E2F
3D27D0E5
BDA0B0AF
3BA98C15
BDA398E9
B9EB0FFB
BD82599F
BD966242
BD7E3D1D
BDC49CE8
BD229EFC
BE005426
3D916781
3D23CAAB
3DA0FBB6
3DC2D50A
BC67FB26
3CB026DA
BCCF0EFC
3D9738D9
BDD79D91
3D2AEF12
3D691DB6
3C1B8252
3CB8E087
BD834191
3D2E8ED9
3DDD3133
BDD4D61B
3C6F35AD
3DD85A4F
BB3217C0
3DD1105E
3E000E6B
3DBBCE0C
BD2F4583
3D58750C
BDC6AB58
BD7483E6
3C1B5444
BD9973B2
BD9869E1
BDF1EB85
BD5C5BD1
BCADD419
BDA8D478
BC8BAA8E
BC1B1BE5
3D4CB7EF
BB9C6D49
BCEA0A60
BDDB1077
BDF75F2D
BCA31EE9
3D633920
BDD668C2
BDF7A030
3DEA886A
BCCF6A36
BDC068C1
BDF48B22
BDA8F232
BDEF42FF
BCEDC99D
3DF21145
3DAE66D8
BD2B2CBA
BDB5A50B
BD6CEEC6
3D6968AF
BD75DAC8
BD0F51E2
3DE8AC5C
3BE20D3B
3BCD827F
3D0C5650
BD1BDBFF
3DBD6A24
BDC9A06A
3DD3C9AC
3D6D1D04
3D5D8ADB
BDC521F8
BD1DE0A1
BD90C847
BDCC981C
BD07EF4D
BD92344B
BD8B8D09
3DEB380D
BDEB9E49
3DB54E03
BD5A950C
BDC7408E
BD253FA5
BCA59DB4
3DABCBF4
BC49C75F
3B897575
3D95ACA5
BBB2547C
BD943EBF
BD0FBA88
3DCCA86A
3C324D5A
3DD7C350
3D9B46A0
3DD1769B
3D73D6AC
BC42C1B1
BDF35654
3D7F3479
3DF9D777
3DFC7BCC
3D614D07
BD56C35B
BDF08EDE
3D1BA111
BDCFAE79
BD8B22C3
3D9C75ED
BCC83665
BDA7B246
3CE1DF4E
3CCE4F84
BCBE50D3
3DFB5E0F
BDB9E26C
BBFCC578
BD437246
BDDAD29A
BD748147
3D7AB467
BDC122D3
BCD1570B
BD504527
3D1CF1DE
BBEEF7C5
BD8C6188
BDF23EE2
BDCE8534
3D6211BE
3D179797
3DBC1C6E
3DCE47DC
3D449F51
BC3E0A27
BC430C5A
BD986AD3
3CA44E94
BD8E38B5
BD923AB0
3D39968F
3D7FCBFE
3D1542BD
BDEB9D3D
3BFC4AFF
BDD064ED
3DEF8727
3D229216
3DBBBE01
3BC127FE
3DA40EB8
BDCAC124
BCCE42EF
3C768604
3D6AC29C
3D75AE53
BDDC9689
3DE5C4EB
BD9C6F5F
BDB5D943
BDE63E8E
BDB8BFD0
3D29DAE0
BDE2DCF4
BD8D84D3
BDFECCC4
3DBA8163
3DAEB2EB
3D79B040
BDF672B9
3DA903DD
BD7777D1
3DAA3FE7
BDCFC3F8
3CE98F7B
3DFC8323
3D527279
BDCE807C
BDBF5EFE
BD9E4408
BCF5D463
BD3867BB
3D8D93AA
3C4C8D0C
3DBAD701
BD90D273
BDF0917D
BCF7079E
BDEC532A
3DFBB060
3D151BBB
3CB36D4B
BDF09C80
3C00C705
3DB0C408
3DD021D1
3DFFCEB8
3CD77278
BC5BE85E
3D903FB3
BE005CCD
3C982A64
BD2B38C9
3D048352
3D8A615B
BD2E50FC
BDB1F934
3D27E2B8
3DA24CC7
BDF9D6F1
3D3D2524
BDAA32B1
BDDA365D
BDD50332
3DFBE2B5
BD44592B
BCADFF4C
BDAF4E29
BD045B29
BD23C0CF
3B84F101
BDFC1ACE
BCB878ED
3D7BDA01
BD56F2F6
BC4A8FDC
BDD6F976
BD3A3C57
3D8AC0B9
3DD79FA9
BDC410B6
BCE7EACB
3DFBBADC
3CAF7CFB
BD9EC652
3C853884
BD5A0C86
3DE4430B
3DA0F6FE
3DFC7BCC
BC4C4843
3D4C9A0D
3D07C526
3DB9B9F3
3DAC7BE7
3D9D5751
3D8AA1D7
BDDB3D8E
BDF918A0
3D332A9A
3DC5729B
3DBA53AB
3BB540D5
BD133CBE
3D3682A9
3D8C1A8B
BD07FD75
3CECC98D
3C1F3AD9
3CDCD87E
3DB064ED
BC2D8F85
BDDE20CD
BDE7F3CF
3D2E721E
BC3984F1
BD8E414E
BDBD400A
3D77F96C
3D74C9A1
3DC08114
3DFC1616
BB4F1E8C
3DBF9669
3D7308BC
BB9E74F6
3C0C1039
BD25EEF8
BCF250EB
BD12DFF1
3DDE5FB7
BD0F6274
3DFB03E2
3D8863F5
BDF5D1C4
3DC60ADC
BD3018CC
BDB99C39
BDEBF983
BE00D888
BD9210F4
BD8F50AE
BE01287C
3DD54D1F
BC5B83B4
BDC48494
BD972C1C
3BC3DFFF
BDB7F14B
3C1EB0D0
BDC5961A
BDF3111F
3B2667DE
BDF1D25B
BDF16441
3C5EC8E3
3D698EBF
3D987DB3
3E04AF0C
BD79C320
3DBAE07E
BDD841AB
3DE346DC
3D66E0FB
BDC44E86
3CBEE228
BC6F0E40
3D93BA85
3DD95465
3D9A0C79
3D984DD5
3CB554E1
3DEDBD73
3DCA3E2D
BDE37260
BE0BC7F7
3DDCB685
BCD5A808
BDBF0480
3C0A8199
BD3BEE3D
BC82183E
3DBC71FE
3E04BFD3
BD845034
BE09FA55
BDD1D8A5
3D01AD2F
BD219206
3DB80BAA
3B7A1DBE
3D51FA18
BDFC6973
3DFE5D18
3BD57DB6
3C1D260B
3D84BC27
3D460095
BD8FC8D8
BDC8F3FA
BD8BC91F
3D816E0F
3ADBAB8D
3DA20012
3D97BD06
3DFD590C
3CDD53CE
3DA3B214
BDB62D33
BD3AF20F
3CB8C9AB
BDAA5A47
BD7F0472
BDBCA827
3E024E59
BC96DE9F
BD3C02B0
BD124598
BD94D120
3D0E1D2F
3DF2E1EF
BDF8B2EA
BD52AB69
3D4E0A6A
3DDE785B
3D69EDDA
3D322658
3D6D6B3D
3DC66044
BDDFE111
BDB4D1A6
BD90723E
3D4380BE
3D89D66B
BDA624EB
3BD79E22
3DC5F84D
BD1A2AEF
3DFF8445
BD8D38B3
BD8C953A
BD443010
BD6F9EF4
BDBA3FCD
BCBE3BA5
BCC635DA
3D7D9938
BDE2B841
BDDD640F
BDD2D773
BD36927E
BCF6A4A2
BDE78E9F
3E00C73B
3D81E838
BD023FC6
3BDE7E7B
BDCF2841
3D945F68
BDBE34D4
3D9B49D3
BD4E127D
3C3BE879
BDED30F0
BD217C52
BDE37AC4
BDD9B5E9
BDF373B0
BD159A4B
BD2AC8E7
3DEBE2F8
BD5B4EF6
3DF185CF
3D8AEAED
3D6EBEC5
BD8FA186
3DF40E5A
3DF713AD
BC5C0691
3C380D22
3D4A7EFA
BD7199A0
BD4CD332
3DECE896
3D5894ED
3D905A2D
3DD0D1FA
BD88B729
3C0BACDC
3D2BD38E
BDA7CBF7
3D804260
BCC15783
BDB13646
3C9EFD51
BCD8F3ED
3BB65882
3C6AE5BD
3DFB139D
3CB347F6
3D81FEA8
3D8BFB16
BC4EA00C
BB97103D
BD9A5871
3D249434
3D34BD26
BDA89268
3DB390F1
3DD37B07
3DE8D64D
3D8B7846
BCD74DFA
BDACD3FC
BDFB0D52
3DC60518
3DEA7158
BCA57936
BC35DD32
BDE47CB7
3DE534BD
BDA751E9
3D46C1F1
BDC2C0A5
BDFD3CBC
BDCEC398
3CED6198
3C7388F9
BD68A9BD
BDC5A88E
BB886138
3D8134B3
3CBDEB53
BA05B604
BD53424D
3D811E0D
3C7B6DCA
BDB8C5CA
BDF84CAD
3C8EC2DC
BD2EEF1C
BAA51EDE
3D4C418D
3D49003F
3DD4F69D
3D91D191
BD2E5A36
BD1797B1
3DC45A45
3D1FC5B3
3D6B7118
BBC71C09
BD501BF2
BDC8DBCF
3DBF795D
BDF87161
BDCAE4A3
3CB5A675
3DE2C882
3DEA05DE
BD60A054
3DFE0AC8
BC85AE96
BD2545BA
3DAB8AF1
3C1D7160
BDB1BE46
BD8D02B2
3C11E2C1
BCBB4840
3DE929AA
3DE1FEA8
3B3725F2
3D6F209A
BD4A137F
3D695AA2
BD6E87D3
3DD461B7
3D85163A
3D4D9620
3DDAC68B
3DAE8FCB
BD81610E
3DAD48E6
3CB730B9
BDF2F662
3DFA9D1F
BCAD2780
BD5C1FA1
3DBB3538
3DEFF10F
BDAD7C04
3DFE2824
BD8DFE76
3CB3BB4E
3C66304B
BD03C643
3DE259E2
3DC7824D
BDBD0AD3
3C25D653
3CAFF343
3D944B97
3CD8C239
BD8D3431
BD9E1021
3DAD17B9
BC066EC5
3D93A2B7
BDFB951C
3DBB327E
BD9A4243
3C8029BC
3D5AD2EA
BCFE35C6
3D6F330E
BD9919C7
39601FEE
BDFCC7D2
3CD7466E
3D096320
BD4B822F
3DF70E6F
BD8D5510
B95F6DB1
3DA849D9
3D3F86C9
BDCD42C4
3D8E1F05
BD138F94
3C23F96F
3DB9D8D4
BD19C7F2
3DAB08EB
BDAECD65
BD9374AF
BCB09F3A
BDFFC32F
BCDCE43C
3DB2F032
BD8B7A2A
BDD7C1BE
BDBB8504
3DC7A8F1
BD2941FE
3CAD9961
3CFD5F06
BDD05B7D
BD8CAAEE
3DD6C051
BDDC94F7
BD7E65CC
3CFBCB1D
3D80BEAF
BDBC12A0
BD61F51D
BDE00F34
BD0AD6A3
3C3B0F35
BDA3D3E5
BD2FEAFA
3D5ADB18
BCE8A322
BC37E9E7
BB353806
BDD315D7
3D91C949
3CF07ABC
3D5FB481
BDB5CC0D
3CCA6AF3
3DEE5604
BBFCEDA7
BD77CDCD
3DAA3DC1
3DC1EE32
BCEB4D56
3D1A3E8A
3C497600
BD3D640F
3CC1B0A4
3C348401
3DA4C8D7
BDD02603
BDA42876
BDEA9DE9
3A4118CB
BDCAD312
3D22987C
BBC76B64
3DB01B86
3DB050D8
3C9A9C2E
3D97BD99
3CBCF016
BC1D1301
BDEDF7A5
3D758446
3CF82865
BD5830E4
BDAEC75E
3D9984FF
BDE7D912
3DF5A5B9
BCC78027
3D092C64
BCCCAB09
BDAB9397
3DB56C94
3DF21F6D
BDB67A60
3DF5E8D5
BDA52165
BD8DF5CF
3CDDD5D4
BDA0FFE8
3DA3D677
BDF8C198
3DF929ED
BDD0F8C6
3BEF7B78
3CC910EB
3D0DE409
BDBA6041
3C4DFC78
3D3F520B
3D9AAF79
BDF9378F
BDFC1509
BD001FAB
3DCE47DC
BDB6F842
BA1C21B4
BD8F92F3
3D259D48
BDF59792
3DDF0A1C
3CDD21AF
BDED002E
BDA737A5
BDC9E5FD
3D9F3DCE
BCA0FAED
BD00186F
3CBA281A
3CC0526B
BDE83127
3D7347F6
BD5F48D0
3D627617
3DD90C91
3C4B9601
3D516C03
BD4A9677
3B9D623C
BDD2E72E
3CAD41ED
3C563FA8
BB9B63B4
BDA009CE
BDA75247
BC66919A
3D43EAC1
3BC4F99A
3DB1233E
BD76A990
3D677A12
3DD862B2
3DD6FA83
BC5BC29E
3D671766
BD7F70A9
3DDDDD2B
BC865E53
BD4D0064
3DA918BB
3D353734
3DD79D91
3D6B7DAD
3D7955A7
BDA0921E
BC183231
3D1BCA10
BDBBB037
BCAA00BA
BBB621BB
BDE409E5
BDBB7224
BDD45F9E
BC80F924
BD8E70DC
BDBDC85A
BDF32AD0
3D4028E5
3CA00193
BD916BA5
3D6215BA
BDB12D85
BD8A9550
3DAD01B3
3DB61431
BD0A21C2
3C8527BD
BDCD1E11
3DD4DDF8
BDD859C9
3D7D0B08
3DDDE15D
3D899F43
BD69DE70
3D215B80
BD58C239
3DD1FFF8
BDEA582E
3DB476BD
BD87D135
BD15B29F
3DE32442
3DA1ECD5
BD0BE8A1
BC1FE7BC
BDBFFD7C
B98577F1
BDA96E66
BC8D5B68
3DC8CBDF
3D808CE0
BC161825
3D7B45D7
BDEABB45
BDACB5E3
BDEF56EB
3D533B46
BCD7FE8F
BDBBD19D
3D913EDF
BDAC5388
BDAFE2E7
BBA6B104
BD9E3FE4
3DC67D6B
3D51C3E2
3B3BCDF7
3DD165D4
BDF55AC0
BDE8B3B3
BDD090F7
3D08A556
BDC25A40
3C20094A
3D9D88CF
3DCBDB86
BC1AD6A6
BD141AD5
BDCA33D8
BC99BB93
BC1E74C0
BD741398
BC6E3BB2
BDBA573C
BDB894DF
3DBD9C35
BD10574B
3D4D661A
3D7C37F4
BC9A4236
BD0AEC58
BC9DAFA9
BC410442
3CCEAC35
3E1E74B0
3DC06E42
3D473040
3DE813CB
BD25B7EB
3BE9B073
3C52D15E
3E02F230
BCCB3DEC
3AA3A968
BD460FFF
BDDD1CC1
BD102BAC
BD1AAE87
BE06F651
3E0F4A12
BD801175
BD9E1112
3D2A84D9
3D6E604B
BD058652
3DB70EF5
3D475204
BD845FAB
BDB19F72
BC5EE716
3CF1ED4D
3DB31162
3CBC4ED0
BD784AE5
BDEFFD1E
3E110881
BDE23422
3D0C37CC
BDF1E083
3DBBC43F
BCDA48B6
BC699D53
BD2A89FC
BB0265CB
3D6A3BC3
BC895B94
3CE5B3EF
3DBED7AC
3E03C70D
BD7EF904
BD7547FB
3D779208
BDA5374F
BD9FFA64
BDA7BECE
3D4401B8
3D6F0465
BD947FDC
BDF62E0A
3D5F3153
BDBA1B42
BD518797
3D7F1108
3C3F077D
3C8892E1
BCAE359D
3CE780E3
BCA2680A
BD58CCD0
BDAF2D65
BC9BBD2B
3E061028
3AF0E4AF
BDAA55ED
3DC56D78
BE01C044
3D2ED063
3D95B24F
BCE4052D
3D11F9FE
BCBBA1CC
3E3055FC
BC2FC33C
3DAECEC2
BDEE7147
BA42BB9E
3E1C43B3
3CB82251
BDFA1EC5
BD0761BE
3DB67077
3E21A7E3
3DBC2DE3
3DBE38DE
3AFE19A1
BD4C2664
BCA1C25D
BC91AAB8
BE017A89
3D8D60CE
BC5E08CA
BD16D1EE
BDF863BF
BDB35372
3DC629D8
3DF039EF
BD92E49C
BDDC896E
BC1226F4
3CCDD7C4
BDA1E24B
BDF629D8
BD5545AD
BBC1648F
3CB08107
BDAE17A0
BD2F66DB
BDA34E33
3DADBBAA
BD9F8D8C
BD187B8C
3D967F0B
BD3BE9D6
3D890B4F
3D8ECC9C
BDE9FE87
BD8CC49F
BD579421
BD53DBD0
3DE26AA9
BCD75B66
BCF32201
BD064833
3DC097A0
3DF5BB38
3D699C7C
BDC908E6
3C248AFA
3DFF7C67
3DD4D402
BDAAD206
BD95A485
3D9CC7DF
BDB3D103
3DB7A1C2
BDE3DBC2
BDA3C113
BD129040
3CBF8C3D
3D15FD98
3DF245B3
BD6CB45E
3CBDB354
BA5B7723
3CE3BE4B
BDD63993
3CBC3FB7
3DDB890D
3BE78E44
3DD851EC
3DE15D2D
BCAF123C
3B4A8143
3DD9F87F
BDB37B2F
3DC6A7F0
3CBF653B
3DA47C3E
BD9B7C93
3D291212
3DDEC4E7
BD1831BB
BC360576
3D8B23C2
3CC082A7
3D9FA1F1
BD149980
BD7505D1
BDA77B2C
3D775303
3D5AA88D
BDCEE9DD
3D9D1BCF
BD400CCB
3D3385D4
BCC996ED
3D5E7EA6
3DA40C5C
BDDF7836
3D683DD7
BC94CE8E
3DA316C9
3DA6BEE6
BD630985
3DD35F3D
BDAD273D
3B0F3B47
3D693F7A
3D89B838
BDB36B9D
3D86DD27
3B82CF12
3CA40DC7
3DDBADC1
BDD7D06C
BCBF47A9
BDE3E532
BC1BCCFB
BCD5B0A1
3DC20AED
3DD09742
3A07C0FF
BB44FBF3
3D482E88
BDD2ECF2
3D9B27A4
BDC6FFB4
BD3A2687
BD98334D
BC934EC7
BD562A94
BD801ED4
BD81490B
3D89D099
3D9B8EA9
3DF91255
3DCE4DA1
3A3B76D3
BD923ABD
BDB0F7FD
3C81EF59
3DB4639A
3CD56309
3D26B89C
3E010F52
BD06FC3E
BDD0D174
3D8D9811
BDD164C7
BDE4EE7C
BDAEEAB4
3D88140E
3DE50DF1
3DE6E3B4
3DE95E9E
BDE2A5E8
3DDF93FF
BD782DA4
BDA14072
BDE601BD
BDD63023
3DD74F72
BD9F3F7B
3D8827FA
3D43398B
3DAF23BF
3DB2B7FE
3B6417ED
3DFB1C86
3D9587E4
BD212B0E
BDF68273
BCB7D376
3D80B001
3C9C9598
BC8355F6
3CE484E5
3D55EFC1
3DF94856
3DB4B86E
BC8B0476
BDE4E832
3CC163E3
3DEFC71D
3CE1ED25
BC399C6E
BC560CE7
BD1EF706
3CF9393C
3D72D5FB
3BF60B0A
3D350CBD
3DBAC548
3DAAA25E
3C85DDFB
3CAAA73E
3CC7F08F
3DA2B303
3DD36827
BDF76039
BDAC18A8
BDE5CBBC
BD28BCD3
BD9D3AB1
3D56E108
3CE7F6F5
3DD3EBC0
3DB858BC
BDBBFB9C
BDEDDC62
3DDE7968
3DD24E16
3DE99E0E
3D4D60A6
BC371AB4
3D728863
BD942D49
3CAB5152
3DEAEA74
BCB4EE1E
3DBB129E
3D818853
BDA25687
BD8FDA33
BBAC677D
3DEA4980
3DFE2047
3C437D2D
BDEB039F
BDA3C6AF
BD945EFD
BD9D0551
BDFC5F7C
BDAFC76E
BDA028F2
BD3409A2
BD650DBC
3D47A312
3D9E2E11
3D9CA601
BD545232
BD1352F9
3DE67F91
BDB2D781
3C572FFD
3D6F3791
BDB636A3
BD0C438B
3D490273
3DDAEEE9
3DD11516
BDEBE6A3
3D732160
BDA937D2
BD71DF5B
3D071FFF
3DBFA666
3D00F89E
BD1BE5A4
3DF3F5B6
BD7F11C3
3D31E7F4
BD7158D3
3D947786
BD89E8DF
3CA93EBE
BCF0714C
BDF925BB
BD910195
BDDAA151
BCA0688B
BD1295CF
BD665F60
3DC2184B
3DEE557E
3D400F85
3DA15A73
3DA43C7D
3DE0913A
3DA557B6
3DED7F0F
BD9B0D5F
3DD4506A
BD6A6224
3D8510AB
BD9B124D
BD84DAE1
3DCB6AF5
3C35E6D7
3D801BE4
BDB2CAF9
BC878997
3D813371
BDB31BA9
BDB70550
BDC417CA
BDF95EE1
3D1E121F
3E025D8D
BDC2666A
3DF9799E
3D298FCC
3E12E44B
BC84CFDE
3DC7E2AB
BD4BE470
3D96C3D4
3CD8AC9F
3C9D09FC
BD033087
3BE9D241
BDC6630B
3DF02928
BD7F379E
3DAF1016
3DE1E57E
3DFED6BB
BD983F19
3D9489E0
3E041E58
3C3958E7
3D322A04
BDC2E756
BDB887A9
3DE5EBB7
3C88D4F1
3C37110E
3DD0025C
BD68E490
BBA5A66D
3D625403
3BF0A341
3D778903
3DD49E88
3D6A2EA8
3D2090EA
BE040746
3D581535
3DA14DEB
3DBE255D
BDD97247
3D9BF3BF
BC099042
BD8EC3A5
BC3AD696
3D81C674
3DD26F1E
3BCFC05D
3D7EAE77
BD8409CB
BD36001D
3D98E58F
3D8E5D69
BD100CA3
BDF0941D
BC26838D
3D4E9C2A
3DFD449A
3D2A222D
BD39670F
3B22326F
3C61DB52
BDB388DE
BDD9F44D
3D9E6114
3CEB0674
3DD2EBE6
BDA8EDA2
3DD2A5A4
BD5A0BE5
BDFF19D6
BD27AE4A
3D9F19A1
BD573EFC
BDFA4B55
BD529889
3CB7B9AB
3BF22F07
BDF85BE2
3CF8883C
BDCD67FD
BC4C9AE3
BC95AB99
3DE18BD6
BDE86402
BDA125D0
BDDC83A9
3C882FE5
3D14562E
BDB79215
3D9039FC
BCC62ABC
3D090420
3D8524DB
BC669C16
3DC9B43C
3D89F3E2
3DED70E7
3C1B62BD
3D5BD889
BDAC71D6
3D7F658B
3C838419
3D902E3E
BD9D59BB
BD36A0C1
BC81164B
3DD110E4
3D06034F
BDE4FB12
BD460E52
BBA2C262
BC803834
3D2AA8B6
BD1BBB98
3D6C08B7
BDA1C0B0
BD8E5C92
BD1DFF90
3DF7670A
BDD4DB59
3D894E35
BD8E72B2
BD04B5A7
BD19E3F2
3D242E48
3DBA7FC3
BD2955CF
3DA2F987
3CB7040E
3E2B3850
3CC5073B
BD3116F9
3CC43767
BD99C2DD
BCE7C06E
BDCE136E
3D8CA21F
3D49D3D9
BDB5FD7D
3C3C6C2C
3C5A0169
BDD197A2
3DA0F8FC
B932FF8B
BDEB0A70
3D53A091
3E086B59
BD9E5C0C
3CB9E138
3BBC8E10
3CF9FB39
3CE210CC
BD1DA166
B8289C6C
3A2272B1
3CC6E95E
BDE9F7B6
BDF11D7A
BC1BBD8B
3DB0B128
BD0991FF
BC6EB7D9
BC4E1FB3
BCB35456
BDF1116B
3CB6CB03
BC1B377E
BDDAE1CE
3C52EB5F
3D5386C6
3C510A49
BDFB34A4
3D821907
BCC0456A
3DCEC95C
BD3DCD05
BC09C195
3CAB1A60
BDA6E80E
BDB5D5A5
BDC3E5EE
3C363399
BD0B69DB
BB95371F
3D3EC71B
BD94DC23
BD1D7709
3D9DC2D9
3D95F6F0
BD417F77
BC9181D3
3D155100
3E01897A
BE02DCB1
BBBD7D24
BDBC6089
3C001381
BDFC99AF
BD853777
3D9217D3
BD8306B0
3D97B99D
3CF7F96C
3DAF7AC7
BDB95BF2
BDA48982
BD997014
BD862BD6
3BB43E0B
3DC31B9B
BBD779B9
3DDA719B
3DE302B4
BD8771A1
BCD68181
3E105F6C
3CCE201F
BDB48924
3D97EC50
BB946324
BDF4C2B5
BDDAB085
3DA42F04
BB8114E8
BD91323D
3D6F5324
3DF975F3
BCC083E9
3CA3905E
BD920627
3D47E91D
3CD70139
3D48D831
3CE5841E
3DEF16F4
BDDE2DE8
BDB1C095
BC8FF972
BD80C898
BD5D793D
3D49E21C
BB95CDC8
3D7C77B5
BD9D1E89
3DCE4E27
3D5FAE87
BC52EC36
3E039970
3DC04197
BC24E9C4
3D03B653
BDCA124B
BDB258F0
BD9DB94E
BD0A17CC
BD4C5543
BDE836EB
3D9D1BF8
3DD4FCE7
3D830AD4
BDBDB1A7
BCABB590
BCB15A4B
BDEB0100
3DD6CF85
3D0775C5
3D9CC5EF
3DD8FDE3
BC62D913
3D204F2B
3DA5A002
3DCDB835
BD353261
BB827F8C
3CDCF85E
3CE78C36
BC7EB43B
3BE1DC7E
3DF9AB6D
3D6F5CAF
3AF963AF
BD80588D
3DB52950
BC461CAF
BA630EBF
BDB4CBD4
BD7682A9
BD987F45
3E06D2ED
BD2EF20B
3BE6B7B0
3DC2BCF9
BD6F425D
BD34483C
BD8FF724
BCBDFBAE
3891F637
BD452843
BD7871CC
BD6ABDFF
3DB2A72A
BCF12282
3C883523
BC87F4F7
3DEB7FE1
3D04B8B2
3D1D3240
BD080934
BD967621
BE0B6F5D
3DDC85C2
BC83E609
3DAE4E0C
BD0F64C2
3DC199AE
3D9A0B5F
3DCC7BCC
BDA784A9
BD86DCBB
3D253792
3CAE5ABC
3CD024A6
3CC5FA4B
BCE9D876
BD8FC37F
BD8A9E39
BCD3B371
3C904E62
3DAEC439
3D9764AE
3DE7FE4C
BD4BECEE
3DC24CFC
BDED8E43
3D24250E
3DE0FA16
BCA8E567
3DEE5A36
3C0FA6A7
3D32E63C
BD29807D
3DF422CD
BDFE2A3D
3B3FD79C
BCABB4EF
3D750515
BD33D85A
3D800E1A
3DDBA7FC
BD0C7A97
3C3D7038
BD56BFCB
3D8163C8
BD8FEEA5
BDBC1E44
3AFDA689
BDD70CDD
3B36FA7E
BD8F7447
3B76CEFF
3D8EE98D
BDEA105A
3DD12FD3
3BE79D08
BCD9E3A1
BD05BD44
3DBDD5E1
BDB467E7
3DA990E6
BC92457D
BC01853B
3C3BF792
BDF4916D
3D2DD50B
3D9BCCF3
3D68E5D2
BD28DBDC
3D1ED634
BD82FB78
BDBAF3BC
3CCF64C2
BD25916F
3D82571B
BDAA7C68
BDD632C2
BD6F5863
3DF090F7
3D9036D7
BBC307BD
BD25C480
3D9469E5
BDC18952
BD7CB959
3D45A46A
3D8108C4
3DF09E13
3D596470
BD8F8A9D
BD97D6EC
BDBD6401
3D87D45A
BDE2B8C7
3CA8F8E8
3D1C7F93
BD01FD30
3D00F8EF
3B92E926
BDBCC9F8
BD9F46ED
BE008B33
3D81017A
BD1024F6
3CDD429C
BD2CABE0
BD244681
BDFC0D2C
3CAEC5B0
3B3774F7
BD39718B
3CAD68B9
3DF73A79
BD841E4A
3D845903
3C7FE0F6
3C47B825
3D9196A3
BD2943E1
3C45E04A
3CCC4843
BDA382E4
BD9A3784
3D13462E
3CD9E9EC
BCE3ED0F
BDB2B587
BDB78126
3DC67911
BD236F56
BD9F143A
BCF3860A
BDA4C364
BD9DDDF4
BDF05E1C
BBC6AC77
3DBF9F1D
BD144B11
3B14E0CD
3D9C9F58
3DFE97D0
BDAD4F8F
3CB7A65F
3D8BC805
3D979A28
3DB09DEA
3D57D10D
3D730C82
BD1626E9
3DA4E60B
3DAB6E86
BD95366B
3CBA90F6
BD8F6C5C
3CF393AB
3E15DB77
BDD76E61
BDFF85D7
BD8977AE
BC878E6A
BD9D3F41
3DD3F423
3DDFEE2D
3C294FF0
3E09AE0C
BD8A8AEE
3DB81FBF
3807E53C
BC941BE1
BDCA38EE
BC3EFD00
BD6037C9
B9F7D33E
3DC63FB5
BDA6823D
BD8EF234
BDB0D0AB
BDEA350D
BD824F58
BDAF6988
3DDCD35B
BDC33849
3D960AE9
3CF488D3
3CDE09A1
3DCE3044
3AA3C3EA
3BFA0804
3D543B71
BD83D07D
BB327508
3D04AC6D
BD100608
BDD07421
3DE3DBC2
3DA7F499
BDBD7D97
3DF0AAA8
3D6B0044
3C8D8A98
3DBF2841
BDB6F5D8
3B4F0638
3CBFF873
BD9383E3
3DF376D5
3D1685CE
3DF1A112
BDBA7ED2
BCA979E1
3D3EA705
BD74CB19
3D7DB2CE
3CB58D15
BD998B3C
BC7A2AD4
3D5E9948
BDC7FDE0
3DE29846
3E063B69
3D67BFB2
BDDBBE01
3D8F30C0
BDE16617
BDF5FC3B
3D8B7B36
3D8CAF05
3DF6C15D
3D85219B
BCB8B3DB
3D082B48
BC0C87EE
3DE8F10B
BD3DC726
BD08A15A
BDAF5DA1
3D8CE23E
3DEBD87B
BDBD9B79
BDF30165
3DF29457
BDD9B802
3CA4A5D2
BD048429
BC2AA2D6
3D37887D
BD54C4CE
3D31078F
3D11C7C3
BD29090E
3D0B3E07
3CCC7FD6
BD95F684
BDD98288
BD8AFF95
BDEAEA74
3D5B07F9
BDCD0353
BDAE1969
BCD3E9F7
3D85A010
BD2E7833
BD73BD4C
BC816B70
3B018C32
BD3FB38F
3BF6B899
3D09A1D5
BD8AC7E8
BC43D908
BDC5F3CA
3CEAABDB
BCABCD79
3D80DC4E
3D7748BC
3DE1FC09
3DF0281C
3D827E52
BA49452E
BDA1E5B3
BD9B267C
BC4981BF
3C88E582
3DB774E1
BD1DFC85
3DE7FCB9
3DA4C38C
3DC6FF13
BC1FC934
BC2269AD
BD9AAA7E
BD110A7F
BDDF0BAF
BCF4A2D5
3DF1F46F
BD3765FE
3B36AE7D
3DC77491
3D0D3AE7
3DAEDEC0
3DCBE081
3DF508F6
3D2DEAF5
BBF9A095
BDB21C1F
BB87949F
BD85D470
B97457E7
3DC9C023
BD95C323
3D6F5DA1
BE023D0C
BD697E99
3DE69510
3DB31E55
BDD17721
BDD35FC4
BCFA0763
BC7157C7
BCCE7D3C
BCE49B20
3D9E90BC
BBDF3B7A
3DC53594
3D428A39
BBB466CF
BDDA83F5
BD69708C
3CA12331
BDB5B0E4
BC2DBFC1
3CB9F98B
3DC02B26
BD93E0F3
BD9C24A9
BD473945
BDB4DEA7
3D96F106
BDC979D4
BDD375C9
BDFDD3BB
3D57601E
BD828B38
3D9B8EA9
BD6C4EC3
3D64FAA6
3D93AA0E
3CB9C879
BCF418D7
BD5D3ED5
BDCD0679
3DB7A41E
BD13D07D
BE015981
3D1B3596
3DEC026D
3DBA158B
3D439E6B
BD25E07F
3B658805
3CE43782
BD8B82A8
BCCD9ABE
BDE7D135
3CD4A904
3DF0B418
3D009E8B
BCEA12F9
BBDD5A79
BDC687B1
BD0C4700
3D9D0C8E
BDE2278D
3D1C527C
3DFD5A9F
BD267DC9
3DB1F030
BC5686F5
3D8AD70E
BD1D49D8
BD632584
BDDB035C
BD98B76C
3AA83DCC
BCA45331
BACC2A10
3D003D57
3CFECD9B
3D9132D0
3DBB30EB
BDECABC5
BDFF583A
3D1A08A5
BD2016DC
3DD24420
3DDCCEA3
3DC831A0
3D858E22
3DF44ED7
3CF6D4A8
BD420579
BD51B585
BDE9D628
3DD1B0CD
BBFF2626
3C866681
3D909361
3C570B14
BD3316AE
BD7999B4
3CD0CE4F
3D3184F8
BC8EAAF3
BC761820
3C861269
BDE995AB
BD838010
BCEF3C2E
BDCB17C1
BC021ED4
BD4C3D25
3C5A5ABF
BD2E930B
BDFCFAAD
3D01743F
3DFDB76B
3DCF4B62
BDC5C465
BCBBC35A
3DD59685
BD8AA971
3D8D0298
3D9886C5
3C29FCBE
BDA6570A
BDC0BE0E
3D248EC0
3D7C1BDA
BD82B42A
3CFAA151
BD00C283
3DB6BB20
3D80D0E0
BD4BB433
BDF86013
BDD4D6A1
BD95D9F1
3D4E7E12
3DD05C03
BDD36C59
BCDCAAFC
BCCB1324
3D886B3E
3DA66BB2
BAAE4B02
3DC7AEEB
3D05C811
3DF74E66
BD424B9F
3D5B4C21
BCDE79D3
3DE8C826
BDD4CB9F
3C809EF7
BD0382BC
3D648AA9
3DD24313
BD37D0BC
BDFF9DF5
3D9CFAD5
BD83A513
BD75728E
3D4354E9
BC55F062
3D826260
BDC52172
3B36B863
3D279372
BDD0DAE4
BB902A45
BDA0698A
3BD7520C
BD40F84E
3DF0435F
3DD628CC
BD6B8412
BCEA7C0A
3D1A1901
BD9F970A
3D17A47C
3B99BDAC
BDEE48E9
BCF59DA6
BDBD10E8
3D3222E3
3D80FB15
BDA4BDFD
BC8678C0
BDC7CBCF
BDE92AB7
3DB6C4D3
BC2C47F2
3D3365A3
BCD52348
BDD0CB29
3DDF8445
3D43ED0F
BDE95AF3
3D3DE73C
BDF3B107
3DBFB8DB
3DC68D4D
BC28FEFD
3D8D4C19
3AFAB2E4
3D5BF976
BDE6BD6F
BDE599ED
BDD9FC2B
BDA001AD
BDE87E39
3C998725
3D929663
3DF8F92B
BDCEB032
3DF9DBA9
3DD4940C
BC20615F
3C88D709
3DA97B8F
3DA24463
BCFC0387
BDDA8CDF
3DEDDD6E
BB56E0CD
BC4DA53A
BBAD72AA
3A220204
3DB80779
BDC98E03
3D9211F3
3D19D005
3D403545
3CF1A310
BDED6239
3CCC9788
BD65143C
BDD373B0
3DBC86A6
BD7B1657
BD74E139
BD5DE192
3D50BD01
3D830893
BDD71A7E
3DAF9859
3DA6F56D
BDE7AD08
3C09545D
BD2EA092
BCB1890F
3DEE1262
3D825072
3D171CCD
3CF917E4
BDC1E365
BD940670
BD976E6E
BDA7AF2E
BDE37E6F
3DC1FDFA
BDFDBB17
BDDD640F
3D539DA1
3D2CB627
BC83B9C9
3DA2C93E
3D48BD59
3DB90FF9
3C9B62FD
BC8D24E1
3DC54F1D
BD1FCAF1
3D6B76F7
3DED6452
3DF7720D
3DA00BF4
BCFDE863
BD8F39B7
3DADA80F
3DC2A1D1
BDBDF521
BDFA543F
BDCD9DFE
BD50D18F
BD5B2B4F
BD2F1405
BDA20917
3DADAD90
3C845671
BDA3D94B
BD6975CB
3D2BB4BA
3D4BD7F5
BD0BACA7
BC41D87D
3D0ADA34
3D2F785E
3D99DCB5
BC642EE9
BDFB00BD
3D539D1B
BDBAA7B7
BD077194
BBDE803E
3B0A3F8A
3DE91106
3DE48A59
BD3A629D
BAB3ED83
3D1BF940
BD9509DA
BD764EC1
3DDF162B
BDD7CE53
3DE942D5
3D2DCD2D
BD04651F
3DD8BE73
3D05B83B
BDDDFB0D
3D93D0B2
BCDF2CEC
3DDE468D
BD625BAA
3CC441E4
BE00A6FC
BDF5FCC2
BDDFF9B5
3CCA51FE
BDE73366
3C702887
3D897D72
BD3CFF14
3DAE2E46
BDA029F1
BC938FCA
3CA17EA0
3D1A714B
3C6F6BC9
BD3A2C81
BDA5C9E6
3C917F84
3D1B20D3
3C25F486
3C89AC1B
BDA761B1
3DAF0041
3D8B8009
BCD1D799
BD6E7B23
BD4E3AF6
3CB64D64
3DC053A0
3DCF177A
BDE0BE51
BD67FC69
3E07496B
3DBC2176
3CF473DB
BDF0ACC1
BD1AE819
3D6752F5
3D4DAD17
BDF8D60A
BDC44EA1
BD0A5EE4
BDE785B6
3D716D60
3D545B01
BDEC7DA2
BD604ADE
BDB108D1
3D216088
BC628672
BBA8BFFD
BD55AD7C
3D747F49
3E00BDCB
3C89C3CE
3DD3BEA9
3CFB5A49
3BFA3337
BDBA6231
3CE23C6B
3D79F234
3D071FFF
3CB3D40D
BCEB84E9
3D1ABF9F
3CAF8A9D
BDEE93E2
3DACDBBE
3D9F6230
3B715EFD
BD94F2E4
3CEB39D5
3D937494
BDFD4F9C
3DBA2D80
3DBAEAED
BDB2A701
BDEBB44E
3D3F82E8
BDEB777D
BD34B549
BD27938D
BDAB9F99
3C3E27EE
BDB59D71
BD21AF98
3D6D4CBA
BC691B4D
3DD645A2
3D4874AE
BCA3EF5E
BBA63CC0
3DEC4934
BD2D2CBF
3DB804DA
BBDB61FB
3DB8B76C
3D751937
BCA41553
BD06A012
BD56938B
BCBB3ED0
3DCB069C
BDBA332A
3CDAD249
3D1C18D0
BBDB30FE
3D6E926A
3D5AFEF4
BDE23A6D
3DE54DE8
3D9EEF6C
BDEA9824
BC8E072A
3DC38350
3DF6F6D7
3DE4302B
BD96036A
BD04712E
3D1C164C
BCBF964E
BD9D6792
BDD3A472
3DC32A06
BC4DE277
3D95CF25
3D023656
BD50792A
3DE53D21
BDF6DD27
3CD4533E
3D10F60C
3CEBC8A6
BD498B9A
3DC0B3D5
3DB019CC
BDA1DBE5
3CEE597A
BD6C8B5E
3D836750
3D504436
3D90BDBD
3DB237C0
BD3B5F1C
3C2AF2F3
3DD2C1F4
BD26C531
3C6F6BC9
BBD73241
BDEFE9B8
3DE49F51
BD954DE8
BD67409C
3D878D1A
3D2DC8AB
BDE22920
3D9745BF
BD645D42
BB852FC0
3D8C16ED
3C3E6A33
3DEEF88C
3DEAED9A
BCF9C5BF
BDD86F48
3D02C7AB
3D6E2DF6
BD0E6985
BCE22F6A
BDB2706D
BDCDB941
3C7F4F6B
3D8D632A
3D61B0F5
3C3BD7B2
BDBF533F
BD8AE254
3CE299BE
3DBB2697
BC3C0783
BC7E09F1
3C6D7F5F
BD0593A3
3CB1B478
3C7BDE32
BD0DB779
3DCF7E3D
BDF18EB9
BD181784
BD01DF33
3DEBC7B4
3DC7A398
3C985130
BDA94772
BC6E6538
BDCF53C5
3D1CF5DA
3DF2CBEA
BDF11BE7
BC8E77C8
3D748CEA
BDF52008
3DB258C8
3DA64A17
3C892395
BCB6C58F
BDF65E46
3D7AD1C3
3C401168
3D8AE7C8
3D2ECBFB
3DD92EA5
BD66A0E9
3DBE2196
3DBDE035
3C60D8F3
3DA9A522
3DD33B97
BCFCF3A6
BD07528A
BC830751
BCCCF008
BDF6BE38
BDA4E7EF
3D97C632
3D310FBD
BC610C1F
3DCE8AF8
BDC9F1A1
BCFC0F7B
BC302993
3D848EF6
BDDD2BF5
3DA95A0E
BDA10300
BD9D4DEF
3DE63C75
BD9FF35D
3DCAD455
BDEF5FD4
BD70BF35
BDED6777
BBA04A38
3D94265D
3B274B89
BD8137A3
3D347EDD
3D9A3DCF
3DDE1D21
BDBFEAB7
BD8D1103
3D821BCF
3DF42D49
3D0EE26C
3C040406
BDBF4525
BDE18506
3D592ADF
3D74D6D7
3C35C839
BDF90108
BD7D3133
BDF12B1B
BDD31B9B
3DC04EA5
3D7F3479
BD52FB85
3CABF22C
BDF4D7AE
BDEF1BAC
BD80E263
BDFD041D
BD26F7A1
BDC59868
BD8CF272
3C6CCC47
3D69D65D
3D74A30A
BDD3CBC5
BDF5F56A
BDFA48B6
3D56611B
3CDFF060
3D5EFBF4
3D14F15E
BDDD4174
BDDB19E7
BD35BBD9
BD852696
BABC2408
BCF5D3F7
BD60F93F
3DA8BEB6
BDAAE80B
3DF8854D
BDE52B4E
BCC2E522
3D9F1448
3DEC7DA2
3DBB0B6F
3D8F2D07
3DFFA094
BDD3B85F
3D8D18ED
3DE75EEA
BCB25014
BD8C432D
BDD87CE9
BDFFA3BA
3C8CE083
3DEC4C59
3D63E88D
3D78C7E3
3D01E4A7
3D546E67
3D88216C
BDB526B0
BDF94C01
3CDEC4B1
3DD7C350
3CB7BEE9
3D53B894
BD034C35
3DE98D47
BDA0C481
3D24E344
3BD1F9B2
BDB892EF
B9EA8FF0
3D6EDF2B
BDCF3908
BDFECB32
BD8F32BE
BDC4F377
BD802547
3DCA1E74
3C9A6CFE
BD932160
BCF98344
3DA3C361
3DD790FB
3A9F1E69
BB912BF7
3BCA5376
BD434D0C
BDC7C328
BDE282C7
3DF19CE0
3D849FF2
3D4F3B8D
3D25A21B
BDA3595E
3D504CEA
3CB6390D
3D307F24
BD4BD9A3
3DF861A6
3DB2397B
BA94A76C
BDBB9163
3BCA22F9
3D9DED51
3D00BCA4
3D68DBA7
3D02A28D
3D33A711
BD2A5EE4
3DC61AA4
3DF984A1
BD9A6D41
BD169B9D
BDCF29D4
3CBCC3A0
3CE10859
BDC654C9
3DC11A6F
BDE0E51D
BD9C8125
3D11FD23
BDB998B5
3DBC664D
BD7203F4
BC93FCA2
BC572805
3DD54C12
BCCDDF51
BD76B584
BD83BE23
BD615479
BD613A27
BCF7AB68
BD52E92C
BCD65FBE
3DE6E547
BDA427E3
BDC3C3A4
3DFB3E9A
BCFD2956
3DA7EA95
3DD39970
3C9D7ECC
BDE51330
BD77CD11
BDADCB22
BAAC184C
3DA646AE
3C9AA964
BD2BA31C
3D951F3F
BAE8172B
BC1ACBDE
3DDE79EE
3B03489F
3D862761
3C49CB25
3CBBC64A
3D1A29E2
BD6697E5
3D9BA7D4
3D9D3C94
3DD8D3F2
BCE701CD
3D53C819
3C8DC296
BDEACC0C
3E00E0A8
3DB43F0F
3D8FB09F
3DB6BCE8
BCC7DFC8
3CA436AC
3DDE529C
3DE78E9F
BD0E0074
3C50A74D
3D8727F8
3DD9CE07
3D60A1CC
BDDCBEE8
BDC9EAA8
3CE93518
BD29CBFC
BBC9287D
3DC11B61
3D8AD2EA
3A922AE5
3D024B4F
3D835745
BD9D06FF
BC187577
BDCC52B1
BDF5A8DF
3D56D3EC
3D9334E1
BCA35108
3D1C3738
3CCECF71
3D41F787
BDB3AC0C
BC8B4AB7
BB856570
BCFB7415
3DFACA36
BBFB94CC
BBB2759E
BDB003EF
3D6ECED0
BDC754D9
BDD400B9
BC72126C
3CB24F08
3CD62B86
3D4A84BE
3D948784
3D86FBED
3D5B7CAE
BD6C694A
3D85C2ED
BDA8F4D1
BD6C6625
BD43E532
3DDC9EED
3DE4C8BD
3DF40AAF
3D0D551D
3978050A
3D07D00E
BD49FAC0
BCD508A6
3D895D19
BDA4ECCF
BDD2C27A
3D7B0A98
BDAA4F0E
BDC79B27
BDD0CC36
BC5E40FE
3DAADDD2
3CCBE75F
BD65B3B9
BDF1F9AD
3D853F70
BCF2702A
3DAC20C8
BD9F434F
BC6C361F
BDB5B43F
3DD48909
3DCCB6E2
3D3B87CB
BD94BE4E
BD25D77B
3D3AB035
3D20BF28
BD69D0B4
BCDE1C80
3CF5DA42
3D5CA02F
BD8FA920
3DBE74B0
3C920917
3D0BB525
BDF511E0
3D017185
BD9E6596
3D2102AF
BA482367
BD9670D5
BDB30F64
3DAB5236
BA2067FB
BD2E2486
3D47EFB9
BDB6BBC1
3DF96399
BD46DE26
3C948528
BDCC68D1
BC877A7D
BDC08A41
3C73B935
BDE1187E
BDD3FF26
3DCC031B
3D64534C
3DA4AE00
BD85EF56
BDD49F95
BC833BBF
3DC5B820
3B21FE6D
3D923989
3D8618E9
3D4CC7DF
BD909EDC
3D8F8CC3
3D7ACA00
3DD70CDD
BDC5D3A7
3D123323
BCF5D356
3DAB144B
BDA978F0
3DB62604
BDCFD8F1
BDADE325
BDA37CCF
3D9CD0A1
BD395216
3D7DBAFC
3D64A8A6
BDD3764F
3D80B905
3B82DF43
BD1653AF
3DC0A669
3CFB8D3F
3C9750EA
3CA052BC
3C4F97EE
3D4B362A
BCA1AF7D
BDCFA69C
3DBBFDC2
BD7F6BA0
BE00C9DA
3D40DB78
BDC39566
BCB20C8D
BCE448EA
BDD39219
3BDD1E13
3DE92817
3D55F098
BDE4B3C4
3D609BD2
3DE615A9
3CA4ED1F
BD909918
3CAD2278
BE08548B
3DA91A18
BD06F85D
BD066722
BD8E7990
3C01CC53
3DABFA9D
3D4EF25C
BCC72D1B
3DA18182
3CAF3DA5
BDBF2544
3CCDA38C
3A935689
3DC19D8F
3CCCAF3B
BDFC2F40
BDCE0A85
3E0CAEEA
3DCF8AD2
BD56FDC3
BD62B94E
3CE0B3D5
3D60F0F6
3E04A1AD
3D709D3C
3D2CE1C6
BD7DA95E
BC175897
3D549CA5
BD9B1F83
3C8FD70E
BC5B3CD2
BDC51746
BDEAFCCE
3AF85CF3
BDC11D36
BDEE7579
BD83067A
3C93BA92
3D24C5E8
BC45B0E4
3DB2FA79
3D6B65C4
BD589035
3DD6AF8A
3D766872
3DB8631E
3D2C68C4
3DAD4CF0
BD95F8D3
BD7BE4CD
3DEB8306
3DEAA8EB
3DC8CD21
3B5759EF
BAD89AB6
3E0084E8
BD4A5FBA
BDECC144
3CAB09CF
BDADDF1C
BDD527E5
BD31D54A
BD5E5845
BDBDF5DD
3D8DBF63
3DF47F13
3D25119D
3E0A29C7
BD82AA34
3DB8FA6D
BDA84F17
3D8C4D30
BD204981
3C6FED63
3D84DF55
BDA39FC8
BDF5DD4C
BDA65EE7
3D82EB52
BD5AB218
3AE1ED1A
BD88C8B9
BD64D31E
BDAD4838
BCAF53E0
3D9E6602
3D44885B
BDF3165D
3D420CEB
3E04B44A
3CE560AD
BD5B7B1B
BD39CAC7
BD6F479C
BBB75A09
BDFDD65A
3CBA47FA
BCE1045D
3E067BE5
BDBF31B1
BCC75CEC
BE0934F0
BCAC8748
3D33D9B7
3DA4EDA6
3DDD017E
3DAEBA93
BD9E3235
3CB13C83
BCD623C3
3D2627CD
BD107DFD
3D365054
3BDFBA7B
3D213D9D
3DE98890
3DD10C2C
BDD54196
BDD404EA
BDF98D8B
BD854C3A
BD6FED63
3D22A363
BDCC76F9
BD41CBCD
3B406184
BB5AE569
BDA06325
BDB7A736
3D3780A0
3D020990
BD42DB2C
3B853D6C
BD6F8A67
BD042925
BDDD4739
BD4742B5
3E02495E
BC04ABF7
3D5A9619
3E002C91
3CC770D8
3DD1183B
BD9B2067
3A98610A
BC184444
BCFA7470
3D85BE50
3DAEBF30
BD128CCA
3DBD86D1
3B9CF168
3DBA5BA4
BD4D898B
3D7F82B2
BD59968F
3D6FD149
BD1D3317
BD6194DB
BD856E26
BDBB61AE
BD2844A8
BD82B28A
3D20B1D7
3D7DD16C
3DE4E26D
3D20AD3A
3AAA626A
BD2ACB6B
BC249B55
BD3321E6
BD9604FD
3DCDFE76
3D7E7826
3BC99A93
BD4604C7
BCB451E1
3DF76A2F
3D634FE1
BDA60FBC
BC95489C
BDB8065F
3DF87B57
3D095F09
BDBF7D23
3CD4DFC1
BDE3582A
BE01101B
BCE11417
BD84B2D2
BD3DD096
3DA50764
BD3D8531
3D872899
BD9EFFBA
3E03DD55
3D5D2D6D
BD242345
BDAF4FA1
BD54B091
BCE9AEF0
BC2FF3E4
3D7C7998
BD83415B
BDA53071
BD9C3710
3D26A56B
3CD0A88F
3DDB8D3F
BB8DFCD8
BDA00B2B
3D55A1F3
3C81F9D5
BDEBB235
3DC7BD06
3CC6D359
BD0F6995
3DC2A462
3DA87486
BCA3CF12
3D647CD2
3D9DD8D1
BDE62563
3DB35AE3
BDC5F51A
3C90CC6B
BD09A530
BCF37C64
3D27C89C
BDB74158
BDCBC3E1
3DD419E3
3DF1C7DE
BD80E700
BDDD7ECC
3DE75FF6
BE037AC4
3D56BA3C
3DF239A4
3DB25D65
BD9CFE30
3C5B8994
BD924A1A
BD9488AB
3C62E390
BD2FFC11
BDF9A848
3DFD8E86
BBF4CBEF
BCB320BF
3DF1DF76
BDD810E9
BDB7E52F
BCF554E1
3DE122FB
3C1B8725
BCEAB119
BD2C229E
BD2C5C7F
BCA326AB
BDFFB507
3DF78B37
3D219DC5
3D1C01BE
3DDC5048
3D7615D1
BCB500C8
3D61A6AE
3DDBBE88
3DD30D74
3DCC0145
3C89EDF5
3D3D1295
BDB8A131
3DA74E3D
3CC69794
3DD11277
3DDCD899
3D151358
BC0B26AF
3CE20EB3
BDF9E625
BE0C8BCA
3D646230
BCC6C079
BD90B369
3A2EBDD4
3DBFAA1F
3D8813B0
3DFF15A5
BD3EBF08
BDDAD4B2
3D6FA920
3DEE2C99
BDD48A9C
BD918AF2
BD8FDBD3
3CFD2FD7
3CE0A84C
BD57DD01
3D657BF0
BDDB4EDB
BDD579AF
3D96CFFE
BCFC96F5
BD5B0707
BD211A97
3D9719EB
3D8EFCE6
3D70039E
BC471858
3D1A1D9E
BDEAF46B
3D8CCA56
3DBC824C
BDC19829
3D080212
3CFFCBC8
BDD6D4C3
BD952CEE
BDCA1116
3E184513
BD517B02
BD212671
BDFE4FFD
3D400C95
BDCC3F8F
BD10380C
BDD5360D
BDBD074F
3CD4ED2D
3DBB5683
3D172B60
3DADC2BE
3D8E82F3
BDA2D10E
3CC7F562
3D72A305
BCCD7CF6
3DC88FAE
BDA0654B
BCDF647F
3DC87AD1
3DDA0E84
BD34DDF8
BD281883
BD45F238
3DD66278
BD818520
BD291644
3DEE3CDA
BC919D16
BC9732B7
BBF23E8C
3D85F260
BDA5F9FA
3D272DF2
3CDE7678
BCE5E5D8
3E1A20DE
BD20AF1D
3C12D75E
3DE3FE5D
BDF71F36
3DA8B3B3
BD9B88BD
BD000BD9
BDEFBA88
BCD92535
3DEE9CCB
BD99642D
3E111EC9
3DE59296
BD3EEE52
BCDE0D9D
BDCC1963
3CF06954
BCA80FB4
BD92C22A
3D27DF42
BC54A35B
3C64BBD7
3CFECBEE
3D9E5BF1
BDC4B1D3
3DCCF744
3DA10D1E
3C0F4476
BD7EF234
3D99F6D2
3CA257AE
3E071FFF
3DA674D1
3CB5C72C
BD9CB6C8
3D201F0A
BCEFC372
BC9A8B31
BDF331A1
3DC57C0B
BCC33036
BD6DF78A
BD5B1CBC
3E0808C8
3DD7CA21
BB74908B
BDA07182
3E259C06
BD47602C
3DA09B66
BC6AB0E3
BDD26528
BDD970B5
3D40F3CB
BDE26DCE
3CD9018E
3C53613C
3D8955B4
3C40222F
3B386A14
BB7E6348
BD675976
3D2D84D3
3D893053
BA072136
3DB44758
BC7A6D84
3CB69A91
BE010492
3DDA3769
BD99D071
BDF7CDCD
3D634408
3DA443C7
3BC0BE8C
BD634A88
3DD95F67
3DC36687
BBA9E4C0
3E02F838
3D49E1CB
3DAB0F50
BDF06EE3
BC7BC9A5
BDF7A2CF
BD55AD46
3B964FB8
BDAB7316
BCF77C6E
3E44063A
3CC27FA2
3E12F901
3DA23EB9
3D8116EC
3D26FC23
BD388044
3D21A2CD
BCE39566
BD07A4A5
BCA808FE
3D174597
BE03B257
3D816FD7
BD8B5830
3D1982A3
3D0ED9D2
BDEB7ED4
BDA00CBD
BBB3FFF7
BD50C4C4
BCF589F0
3DED234F
3B03BD0E
3C9AE163
BD8A4B55
BD09854F
BC676DCD
3D9BE447
3D599E6C
3D32DC2B
3D52EE6A
BD7E66BE
3D5B6333
3DA9315F
3DFB1E9F
BDC40DAC
BDB32AC2
BC3B143E
BDF6AA4C
3DA8B370
3D42B1A6
3E177AF6
BE0B4AA9
3DE4E8B8
BD11C285
3C0B834C
3CFBB5B9
BDBE9E94
3DBF6380
BDA52FDD
BC36BFB0
3DA0EAEF
BD819CB8
BDF80DC3
BC31FFC2
BDCD3C79
3DFEC13C
3C1B7D29
3B8F700A
3D0B6849
BDAB90EB
3CFF37EF
3CE0960D
BD87E6F7
BDF322F2
3DB840D4
3CD466F5
BD476CA6
BD722B2B
3B2D474B
3E086F48
BD1C065B
3D942884
BDE180D4
3D6B8D67
BDEB6FA0
3B78DE79
3D5E9B97
BC902115
BD4065EC
3E3773E2
3D572581
BB9FECF0
3BA9D9EE
3D5A7547
3E034B51
3CC95EEF
3D338B2D
3DD50B95
BD76030C
BC3A3586
3DD5054B
BD8F2636
BDFFAC1D
3D3A72DD
BD0145E6
BDF4024B
3DADFF32
3E01D324
BCA6D811
3D2640C2
BCDDF549
B70307B2
3DEC2614
BDB3E342
3DA8D36B
3E20B84A
BDDC9603
3BAFB7FF
3D92A08F
BDB5A02B
BDC2869B
BDD06BBE
3DF37868
3D6CB8FB
3CD86A5A
BD8860C2
BDC6C142
BE028D00
BCF3721D
BD5E72E7
BDDB35B1
BDAEABAF
BD01B577
3CB58842
3D2C848E
BD177278
3D224936
BB11819D
BC3267C7
BDCED45F
3DB81E11
BDC3B70F
BDB9CC17
3DFFBDF1
3DAF127F
BDCF8488
BD8AB481
BD31100E
3DCF72B4
3E04C76D
BC3BE80E
BC67C0D9
3D669596
3DEE8188
BC4E9DF3
3D871419
BC37E6F7
BDA552E3
BE05D80E
3CE4E6D5
3DA2D532
3DE604E2
3DE32FCB
BDBDE658
3D9CE698
BD735929
3C507AD7
3D91F589
BD02A404
3E294C01
BD989291
BBEEF9F3
3B317F14
BCFEFB1D
3DEC5C9A
3D825941
3C2D1D04
3E12D1F2
3C784663
3C6F58E9
3923E7F4
BDB3993A
3D241AFD
3C20EDB6
3D27E282
3D94DB09
3D8E6CFB
3CA91502
3DA37FF5
3D655128
3D387252
3DB2018A
BD83FC44
3DE6466B
BD5A4866
BDF3C03C
3D04AAF5
BDB4E93E
3E0E5860
BD2ACE40
3D7B4AFA
BDAFC987
3D2FB4A9
3DC99D2A
BDDBB1F2
3D960DB1
BDD5B2D5
BD19CBD4
3D06653F
BD77AD30
BD371D1D
3DF04146
3DCC6B48
BCCDAC26
3DCCD63D
3ABE90CA
BDE07358
3D8E320D
3DE311E8
BD75DA27
3D4D6CD0
BDCCF4A5
3E1529FE
3DBCCE0F
3DEA17B1
3DE1040C
BB5796AA
3DD9DCB5
3DD79E17
BCABA31C
BDA323E4
3D9CAAC6
BD5BE172
3DD3825E
3DBDAC0B
3CD40F4C
3D4B0136
3DCDE1A0
BD8F3295
3E0737DA
BDAA8A25
3CCE6C75
3D0F6421
BD66FB67
3DE4B76F
BCC84BC9
3DF32724
3C6F049B
3C8B70E2
BC75430E
3B966115
3C4EDCDD
3D04A9CE
BD7D4E5A
BDCD1A65
BD37BAD2
BD63920B
BD83FB02
3DF6E2EB
BDBD5271
3DE94EE4
BCDD9CC9
BDF73083
BDA6EBE2
BD8487E2
BDBC04AE
BDC43D11
BDD9CA5C
BD1D64CB
BE15BD0E
BDCADCB8
3C12C041
3CAE388D
3B18A3A5
BCCADBC6
3DB271CA
3A4E4BED
BCF993A0
BD9D0013
BCB5777B
3C416880
BC3EC538
BD49FA55
BD0CE465
3D59F5C5
3C9CC3F1
3DB5BCE6
BDB73BC9
3D71273A
BDA0E644
3D12198D
3CE8A3C3
BC71DF40
3D3D2C7C
BDC71BCE
BCA049ED
3D3B7AB0
3D8B98D5
3DE295A7
BDE81238
3DC820B0
BBC4B841
3CAE5EB8
3CBFA963
3DE1D756
BD90407D
3DC8F323
BDB681C5
BCA8FB01
BDE22681
3B348EBD
BD9FA001
BD341F72
BCC07B50
BC8ABD93
BAC2BB26
3D66BE60
3D6E676C
BDBA25B1
BBEF884E
3DB5E163
3CA9D0B4
BCC703CB
3DEC1F43
3DD008A7
3DAA8501
3D3C0E1E
BD7B4627
3D21DF84
BD31100E
BDBAE529
BDA4EDA6
3DB4E260
3CE1BC48
BDA9190B
3DAF56D0
BD2F4583
BDDCF91A
3DB667DE
BCCB0AF6
BDFD88C2
3D29AFC7
BD1BE7A2
BD8A67B3
3D4BD704
BDD91CD2
3C8F79F1
BCD0E0F9
3DB3636F
BDC25786
3DC51124
3D40E7D7
BD2D1FBE
BDC83EAE
3DEE7CD0
3DF8969A
BDB66532
3DE410B6
3D10072F
3BCC57C7
BD9885FB
3BE20AE2
BC775F48
3CC3378D
BD0649AB
BC56A9C5
3D664F04
3DBBD3D1
3C6711F2
BC9617CF
BDB7FC5B
3CB94856
3DF3E037
BD6E275B
BDF7C244
3D2EC596
BC2EE98D
BDFF1F15
3CC250DD
BD483D51
BDC7FF08
3CD9EDB2
BDCC5FCD
BDCABF91
3DF9E1F4
3DBD06E4
3D805E01
BD5C71D6
BC4F2A0A
BD9D874A
BCB7DD87
BDF14552
BD8876BA
3D298CF7
3C5D55B1
3D78A548
BC901E5B
BDD94AF5
3D8565B5
3D565790
3D803E64
3DDCDDD7
BDB3D37A
3D234C35
BDB2FCC7
BD89A459
3BD07B83
BDEBB774
BDDD8384
BCA3B43A
3CFFA278
BDCBB682
BD0473CD
BCDD4739
BDDA76D9
3DBFC72B
BD629B35
BDB5270E
3DB14FC1
BD9AF4F1
BD12C3D7
3D5FB44B
BD91074C
3D26F3DA
BD90A196
3BE8E6DF
3B2A760B
BDC8F847
BD768FA9
BB882EF9
3D11A46D
3CA18CE3
BD06D09F
BD96B823
BD87B61A
3D1141C1
3CEEB0ED
3D0A5BD9
3D98EB7C
3DD26C7F
3D9B2B5D
BC54866A
3D0EBF81
BD7F921C
3C6EE526
BDFE4D5E
BCFD7393
BD4A524F
BD3BBFCA
3CDDE086
3E015A8E
BCCF97B8
BDDBFF04
3DB5FC20
3D3FB755
BD2EC19A
3D76CDD8
B9AF4B29
3DC783B8
BD43207C
BD1A4A49
3D8946EB
3D867F33
BCDE2443
BD13E93C
BDB735C2
3DE0114D
BDB18D84
3DA7230A
3C972226
3D65FAB6
3DBE2669
BDC6247F
BC331B4B
3DE4B4D0
BD84A1D6
BDCE453D
3D9DBD73
3D7C5AAA
3E0E2A3D
BD310A2E
BCA8ECF4
3D59B6DB
BDD1B691
3D4E5E4D
3DD99568
BCDB0EAF
3D75F677
3D41DD50
BDF32DF5
3D5669CF
BD1F5382
3E020AFA
BD1DC50D
3DFAEC4A
3CF0F85B
BCAAE8AC
BDD2DA98
BD99FD7A
3D452A41
3DC248D8
3D4101BD
BB97CE53
BD9E8102
BDEBEA4F
BCFFBFD4
3D6EC6D8
3D406226
BD64A3B9
BBC9B8C6
BD8EFB1D
3D75BE93
BC3DA009
BD09A749
BD0B9255
BE048CB5
BDEC52A4
3D8555D3
BDCDD8B6
BCB9E27A
3D663AC7
BDB9C3CE
BDD8B157
BDDAB9F5
BDB68845
BC1D12E0
3DB06325
BD568FC4
BC6DC931
3DFBD513
3DFE8C48
3DE331E4
BB38C503
3DE5907E
3D04208C
3C0909DF
3DA5EC66
3D5D9664
BE02CB64
BC89F948
3DBF299E
BD6FF73F
BDAFE2BF
3D5BDA51
BD641C09
3BC99474
BD0D6E7E
BD74C7A3
3DA4CD09
BDF700CE
3DAAC3A8
3D960518
BD84FE6D
3D7018E7
3CAFCB34
3DC6F171
BDA4D2E8
3DE9C4DB
BDC0FF97
BD9543BC
3D88CDCF
3DBFD164
3DDB6AA5
BC1AE823
BDD2E83A
3DC973CD
3D58F48E
BDE0A394
3D78AEEE
3D70705B
BDB9FCBE
3D95E270
3C38AA00
BCA1DB1C
3D9D9606
BC2476D8
BD156034
BD7E4947
BD093E6D
3DEF7A0B
3D25C8E7
3D1A4D03
3CE67331
BDC5499B
3D88B91A
3CB4CCFC
BAE60C0E
BD341B5B
BD4900E0
BDB236EA
BD2105B9
BD741B90
BC3BBE88
3DFD7236
3C8BCE6A
BDDDDA8C
BD4992D6
3DB4F822
BDC467CC
3D2A384D
BD35F535
3D6C679D
3D15BA47
BD05D979
3DB76F2A
3CEE2F1D
3AC0942F
BDF18C19
BDD6D656
3CBFB44B
3DF6C0D7
BCA5B4C5
3D8346CF
3DF0C77E
BDC14A68
3BF3B381
BDDA2F06
BD537BDE
3DBB4C57
BDB719EB
3D8A9B72
3D4E3EA2
BDCC2657
BD8F36AC
3DAAE7A0
BD681868
39B2FD21
BDC7996C
BDC894A9
BDD5989E
BC373520
BDF3CCD1
3D852BFC
BD82D1AF
3D2B0EBC
3BB24A15
3D9C5F97
3D975FCE
3DA157EF
3C96BCA5
BD97A058
3D921915
3D01059F
3D6B51A3
3C5C02CB
3CC45BAF
3D0C63D6
BC250141
BD395897
BD2CFE30
BDA506A8
3D97B401
3DB9F143
BD86CCBE
3CDF7978
3DFD7CB3
BCF5F626
BDE04C06
3C483E5D
3D216617
BBAC9E6F
BD66E470
BD4D5B32
3BDD4BF6
3D978664
BD005BC0
3CB08894
BC992BB6
3DE29C78
3D8EB8D8
BD1ABDD7
3D5543CA
3D09D932
3D12B1B3
BD86C9CE
3DDA2A4E
3D91635D
BCCBD739
3DBF50FE
BDEC985F
3DB40E82
BCDAFAC3
BD7370DB
3D0BA8FB
BD47ECC9
BD596CB9
BDC962A8
3DF49ADD
BD80D215
BCCFF8D1
BBB401E5
3D6AD9FE
3DB71D1D
BCF485E4
BDCB257D
3D01842F
3CD4A721
3DF8C8EF
BD8E0AFE
3D6F2E8C
3DCFBFC6
3D73D0E8
3D763A9F
3E048627
3DAA8991
3D5F1FEB
BDED81AE
BD809396
BD14EC71
3D393922
3DA55EFF
BCC3EDCB
BCD532CD
BD60ECAA
BCC2CF53
BD05C374
3D4FF0F4
3B8F95B5
BDA3FD78
3D5073EC
3D343D04
BC05902D
3C65E2B3
3D142A8F
BD33631F
BDF06467
3D4D641C
BDFE3C10
3D6317AD
3D3452D3
3B610FD0
3DBD2D60
3DC042BE
BD95BD0E
BDDBBCF5
3D80DBAD
BCD5F2B1
3DEEFDCA
3BC0A40A
BDAA2CDF
BDB36827
3D64FC39
BCB2D7C4
3D4DAB4F
3D56535E
BD3AA568
3A885B03
3DD18DAC
3BC889B2
BDBADE9B
3C1B5998
BC8D8559
BC714A5B
BDE5B0FF
3DA72233
3D418AE5
BD89321B
3DEE6213
BCC56275
3D9BCEA0
BD4CA08D
BCE0A054
BDC1D59B
3DD313BE
3C84B10A
3DBBDDAC
BD98EB7C
3D0FC18F
3DB4A467
3C9F802E
3DAE93D4
BDB0E058
3DCD1633
3D338822
3C44955B
3D8D47A4
3D2CBD48
BD8A7C76
BB840304
BDA119CE
3C3A464D
3DE5BA6F
BDECE358
3D74A93A
BD278FC7
BD95CC6B
3C90F012
3CB1CA7D
3D9644B0
3DE8A04D
3DD20E1F
3D0CCA7E
BD9572DE
3D8A3A66
BB526D76
3DB218C4
3CFC5769
3D794B7B
3DE11772
BC14E51F
3D454DB2
3D00BF5D
3DBADA84
3DBCC137
BDC72DE4
BDCB4D71
BD85A584
BCB25A90
3DB0191D
3DC46F15
BD65BCBE
3CFB8C33
BD80F0F6
BDF2C40D
3DB94B96
3D83E8EB
3CBC5FCD
BC8365B0
3D89A522
3C8243DD
3DAD2B8A
BDD1C5C5
3C04F1A2
3DA22B61
BBAD957A
BDB7D391
BDC622FA
3D9B9105
3DA8AB1A
3DBCD0F1
BC29AA89
BDAC6BDC
3CAAEB30
3D0FCAC9
3DD6084A
3C816815
3DA2DAE9
BD2DA174
BDAED055
BC18FCF1
3DBFF30D
3D038540
3D83FED5
3DF38045
BDC3E6FA
3DD2FB1A
3DDE36D2
BDC5069A
BC66C094
3DE687F4
3DB2BB59
BD631D21
BD2DFB00
BCA23946
BD098D12
BCF82830
3E046845
3D5F5C6C
3D9A5E0D
BCFBF940
3D633F1A
3DA50FD5
3CB15F1E
3D987776
BDF18EB9
3DD45BF2
BB4FECE8
BD70A5D5
3CAE363F
3B996D24
BD5FDB4D
3C5C8A45
3CC18AAF
3D835166
BDFC1F00
3C5C99C9
3DE90471
BC99E874
BDAF6A6C
3DAEB85F
BDCF89C6
BA94F94C
3D52A107
BCE9899C
BDA887F9
BCB70FCC
BDB37F39
BDBEC3F6
BD827708
BD2B6BA4
3AEEFF7D
3CAF7B18
BD4BB73E
BC22BAF6
3D5453FA
3D6EB76E
3DD6A93F
3DFE2B49
BC4B6EFF
BDEEF45A
BC8D8087
BDF2C16E
BD0F01AB
3DD65E46
3C27DCBE
3DBD9D85
3D8AAA63
BCA573F8
3D8C314C
3E008CC5
BD390CE2
3D421CC0
BDC58E3C
BDCBAB22
BD2E6A26
3DAE7C72
BDC9A382
3D30A640
3D06D704
3D4207AD
3D7EA5F8
BDB0F7FD
BCAF3400
3D251DFC
BDD168F9
3D21DDF1
3DD595FF
BD804443
BD5C3753
BB835372
BD7EF955
BD93F848
3DF60525
BD782BDB
3CD9DA67
BC9303E9
3DEEAAF3
3DED3D86
BD5B0D88
BD6D83C7
BBA63839
BDED6D3B
3CA6106B
BDB90405
BDEBB342
3DE243DD
3D68EFE3
3CA1E66F
BD269D23
BC49EB71
BA76473C
3C2FD6F3
3D8F2AC6
3D657738
BC0C0445
3CC7B16F
BD2908BD
3DCE7A31
BCD276C5
BB943F3D
BBAF9341
3C7F35D6
3DE70542
3D56253B
3DCFF9F8
3BD7A4D8
3CF09204
3B299794
3D558D15
BD691AC6
3C967664
BDA493D6
BDC2DFC9
BDB3471F
BDD112FD
BC9D0CEC
3D2697FF
BD685AC8
3924824D
BDBC1A98
3DDD0636
BCFDEC95
BDD446FA
3CBBFC30
3D20BD95
3CC58220
BD441F49
BDB69CAA
3D43FD6B
BD83F035
3D98ED0F
BD4640A7
BDC6E33C
3DD00D5F
3D700185
BD456B7A
3DE0AAEB
3D0BF8FD
3D8E18E2
3D4B6AB2
3C65D470
BD42AED1
3D5784D2
3DE3BE66
3DD10B20
3CCF186C
BD322FC8
BA218600
BBA4F3C0
3D9944AA
3DF6640A
BD7BA8B8
BD1FFA3C
BD30290D
BDE83D36
3D4E7A4C
BD52D5FB
3DB1C4B9
BDF41D08
BD1B8AA0
BDE9E01E
BDBA7696
BDCF89C6
3D236C31
3DC2D50A
3DACE2C5
3D1186C0
3A3C5709
BCE4FC03
BD1F7D74
3D457109
3C906B52
3E1E83A1
BE0301A8
3D42B694
BD0661FF
BD7D2DA3
BC98566E
3D0CF37E
BC1B84E1
3DDFAF42
3DE348F5
BD86C8B4
3D3F43FE
3DC49731
3C4EA5EB
BDC5D33B
3DA48C49
3D6986FD
3D835D4D
3DBF7BC6
3DD25A25
3DE7FDC6
BC0A12F4
BE056085
3DE64CB6
3E0E85BA
3DE9AFE2
3E0CCC03
3DB4A4E0
BDC60880
3D8D67C8
3BAC6E5E
3C80749A
BCBCDF19
BD45B25C
BC4B124D
3DD484D7
3CF7C102
BDDCD35B
3D331C07
3CCC503B
3DDEA4EC
BCBF0315
3DC3F5EC
BC4CA199
BCF44440
BCD10038
BBABB3E3
3DD652BD
3C861C0E
3BC929D5
3DDB3A69
3CCF43D5
3D8C913E
BDB93FA2
3DC1C20C
3DF62AE5
3D814A40
3D8E755E
3DDCF80E
BCCEC8BB
BD4BD67D
3BFA1DD3
3D746BFD
3DC11AA5
BD9BE85E
3CF1B874
BDF7739F
3DCC7806
BD0B8986
BC336A25
3D89FC10
BDBFA5ED
BD5FB430
3D61C8DD
3D2AD546
3DE45996
3DB130C5
BDA0FFBF
3D12898A
3D9D8BB1
BDF45E0B
BDA4C8D7
3DA28870
BD980080
BD46F9BA
BD6D6E98
BD9DF8E7
BC8395B7
3DFB3D08
BCBB2BBB
3D672A2B
3DA77C46
BDC447DE
BD8AC33D
3C126FB9
3CB357B1
BC1671B1
BC9FDE57
BCC34E9F
3CC360A8
BC4BC4FA
3D75F189
BDF2BA9D
3DC985C8
BC2F8CB6
3DDB45F1
BD9E5131
3DF362E9
BDFE8D54
3E093815
BDF918A0
3D41DB52
3DC310CF
BCDC0B2E
BCF9310F
3DC286EB
BC9A6755
3BC42A3C
BD98A29C
3D2B399F
BD353A24
3C394028
3D33BA5D
3D94AEFF
BDE2A5E8
BD7ED238
BD63681A
3D1A55B7
3DD52FC2
BD29EF02
BDEA5F85
BDC27F94
BDCCF9E4
BD93D5BB
3D1D0C30
BBB20FC8
BD077EAF
BDEDE764
BE075FB3
BD988FD7
3BD725AC
3C883EFE
BD9FD22D
3DEEC95C
BDFC19C1
3D42381E
3DCA88FD
BCA5B383
BC5CE39B
3CEB9793
BDFDFB94
3CF0698A
BD5D3DAE
BDACAED0
3DB62DFD
3B1DA0BA
BDC0F99D
BDDA3F46
3D44BF82
3DD19371
BD6DA5DB
BD4ECE7F
3DBA412A
BDE53198
3D217DE4
BD258D58
BD3E979B
3DE59C8D
BD9057C4
BDEBEBE1
BBEF4F18
3DAA1611
3C4D6289
3DFACDE2
BDC07F31
BC0C1DD0
3DD38AC2
BD6EE668
BDB09445
BD7AA583
BD40EA76
BD9117D0
BD16ECAC
3DF089A0
BDFFB613
3DA255E6
BD333D0E
3D4F4AA6
BC32045F
3D099A2D
BD3D64B0
BCBB3CB7
3CD6517B
BDCB1F91
BD3B460C
3D4E02A7
BC556664
3DD4AA97
3DA8E722
BD1AE9E1
BB44A333
3DC6A16F
3DB1E5CE
BDD35654
3D8271E5
3DF9CE8E
3D8D48F4
3DBA79E4
BCE0CC28
3D94DC08
BDA6C051
BD95926E
3CF13A35
BC7D9415
BD895C93
3DCACD91
BDAD255A
39F7F79E
3CBA6B6C
3CF3B610
BDE13D32
BD9BECFB
3CDD5007
3CF878ED
3C628672
BCF650F5
BCCDC51A
3C96FBFB
3DA3CEA7
BD48164F
3CE36BE0
BD2C90ED
BC807DD4
3DB8D06E
BD597DEB
BDCB639E
3DFAC365
BB8F22DE
BDD96745
BD9B1374
BDAC97D9
BDA4444D
3DD66A55
BB01BF5D
3D797DEB
3CE011EE
BB001188
3D844087
3DE7381D
BCD967E6
3D8AEB23
3D14D57A
BDD7B0F7
3C954D6F
3C5D0163
3DB51266
BCE6DEC7
3C8F8C9B
3E01ED18
3DD9830E
BD8A82DB
BDE8C2E7
3D31A2DB
3D4878AA
3DA3539A
BBF02E91
BD8AB390
BB176969
3DC0077F
3CF13562
3C3587A1
BC386E71
3C276F45
BD86D712
BD26F5BE
BDE6E7E6
BD0905E8
3DDEB4A6
3D60EBD3
3DE27AEA
BC7E7D49
BB7B0BA4
3CD04669
3DF05D10
BDAD9290
3DF95358
BDFAF7D3
3D0236F7
BD3E9FFE
3DF40A28
3DB8B404
3DC79ED3
BC05401B
BDA1BD04
3DF9C066
BDC63879
BBB4FF10
3D3D0DDD
BC701D9F
BDA594AF
BD6C287D
3DA0B06C
BDA3A73A
BD1453C5
BD1687B1
3DC933A0
3DAF97FB
3DCBC82D
3D1D5EB6
3D109A82
3DF91149
BDAFBD93
3D8E5EC6
BDBEA1C7
3CD183B6
BCA0323A
BD899052
BC709BDF
3C064D77
3D86AFB2
3DFDBDB6
BD3590C1
3D07B734
BDCAFC12
BD674C75
BD0C3BAD
BC82B9EF
3DE20147
3DC03A0A
3B26BE9B
BD59C0D1
3DE6E4C1
BD99A43E
3D85BE50
BD629AE5
BDA39871
BD8824D5
3DC19249
3D8C144E
BDA23E5C
3DF4FACE
BDB96702
BCBCC873
BD6F03FA
BC2820B0
BDB3AED4
3D9CA0EB
3D046DB8
BD928D86
3DC6DA88
BB285D01
BD81046A
BD94D31E
3DD505D1
3DE1DB01
3C402EC4
3DA7C2A2
BB62CF6E
BCC3FD50
BD979E67
BDDAF859
3CED9381
BC527B62
3B9FBEA2
3DEC5D20
3D1683D0
3DB122C5
3D435AAE
BCE087CA
3C969934
3D865E7C
BDC67FAC
3D198DF6
BD1CCC8A
3DBB705C
3981C1AE
3C67F9E4
3B800305
3DF193F7
3CAA3E2D
BDC215BA
BC87D39E
3D89E859
BD180EEA
3D81D870
3DF29803
3D757548
3DDC1CE7
3D9E3AE9
BDDC4B90
3DD7C676
BDB9AF9F
3DEE2C13
3DC3DEF5
BCBB7BA1
3C9CE3D1
3C8F6AA1
3C04511D
3CD788B3
BD4FDF06
3DC6D7B3
3DA06E0C
3C1D2205
BDCD655E
BD94290A
BDF337EB
3DD5F99C
3D5D7A64
3D1774FC
BD72702A
BB8C4EAD
3D75615B
3C2713D6
BDC4335E
BD48A464
BDC7B6D6
BD89C80D
BDDE36D2
3DEF398F
3DF4341A
BD97D5FA
BD7DF996
3DA8835C
3DF72BCB
3DFD5DC4
3DD610AE
3DDF761D
3D3423BE
3D4EACF1
3DF0C910
BD279555
3CE4CA4F
3C906C29
3C9489FB
3D8AF8AA
BDC25E9A
BDA257D7
BDE51761
BDF8B503
3DF4B168
3BEF7960
3D61CC38
BBA308AE
3D0E5D0B
BDF2DCB1
3D139142
BD8062FC
3B19C767
3DBB9DD0
BE00AD04
BD9125DD
BDC53719
3D7A3CC2
3DA6CA7D
BDAB999F
BDCD141A
3DBCC50A
3DBE875A
3BC7F309
BDDC115E
3CAAE876
BC8D1D1F
BD2827D2
3DD43287
3DDC957D
3D85EB24
3D4A2F7E
BDD60F1B
3C9BC269
BB713B97
3C49C6F3
BD9796E8
BDE43F60
3D929F9D
3C5A87A0
3C387379
BD2B9347
BDF91BC5
3C8F89E1
BBFB5A69
3CFE6DC4
3BE4F812
3D1C9405
3DF94079
3B027CC7
BD83735F
BD549873
3DC4FCA4
3DF034B1
BD98E029
3D5B985D
BCA6A0B3
3CB0097D
BC0B51EE
BDD2D7F9
BDDE59F3
BDE325D5
3C0E9996
3D85C5C2
3DE5B8DC
3DFA8827
3DB43300
BD41B7C6
3C966821
BCD4731F
3DC8C2BF
BCEAF17B
3D919B0B
3DD328B7
3C9E36ED
3DBB9F7E
BD91EC41
BD89B9A2
BD4C0329
BDD18A87
3DA0AB7F
3DD2AA5C
BCAE6CC5
3CE0704D
3D91D35A
3DD44C38
BD1BCF84
BD25C811
BDC887DF
3D173CC8
BC8D11CC
BD441736
3D002A92
BDBFC1D2
3C959A66
BD15AB48
3D991220
BBC1B2D3
BDA59A4B
3D035B34
BDE5DA6A
3D9900FB
3DBFC837
3D9AD2B4
BDCE4FB9
BDA17BBE
BCA11630
3CB5F047
3C5A0A38
BCE3FDD6
3D459104
3D49FF0D
3D0995AB
3DC07563
BDC0CEAD
BCCC3CBA
BDD9FCB1
3CFE245E
3D739813
BD802EA9
3D1E0D4C
3DE1C609
BDDA500D
BD9CB6E2
3C67CD03
BCD5A65A
BD0530A7
3DB54618
BD35C1EE
BD8C689C
3DAE3B3A
3DDBEA92
3C20FDDC
3D233CB1
3CFA9B3C
3DB7626D
3DE068DC
BDD778DD
3DCD8772
BDBE7CB5
BD271477
3DC576B2
3DD8DCDB
BDAECE72
3DEBF877
BD5F6739
BCA38907
3DE096FF
BDDA0169
BDF3458D
3DA344C3
BDDA2BE0
BDCC49A0
BB4F2313
3DBF45C6
BDCF6AD7
3D3ABE78
BC6D6345
BDC95069
BDA12331
BC1271FD
BDD4DDF8
3DF0446B
BDF1ADA7
3D9F10DF
3D21BBF8
BDAED909
3DEFBB0E
BDA2A752
3D652A77
BD93D7FC
BD93991F
3D69C0C4
3D8A4A9A
3CA5A93D
BC916A20
BD5F9526
BD80BAC0
BDD59CD0
3D070253
3DCCA2F6
BDB60477
BD9F39C4
3D5BA8B8
BC93F367
BA782004
3DB0C35A
BDD584B2
3C2FB5D0
3C801712
3DD1361E
BD42061A
BD00965E
BD7772AE
BDF49B63
3C9BF6A1
3D50D2D1
3D91DC79
3DADA5CE
3DDB645A
3CE4DD9A
3DD9DC2F
BD99656F
3DCB3114
3D81B1F4
BD19760E
BD3066EB
BDCE5BC8
3D653F70
3C4FCBF0
BD235D32
BD3BE539
BD9C54D8
BCF56217
BBE216B6
3D9645E5
BD846639
BD459D13
BD4213BC
3DBCDBF4
3DC55377
3DB79563
3D867705
3DDDDD2B
BDFD3C36
3C35AF7A
3DB368FE
BD99E9A9
3B9F7C47
BDAE4DAE
BD841EA8
BD91FFB5
BC572CA2
3B94253B
3DE2B0EA
3D13816C
BD1C9D75
3D9C1949
3E339D5E
3DD8EDA2
BE0713F0
3E008D09
3DC96928
3D6C9E09
BDD4F26B
BDD66E01
3D8496E1
BD8A7943
3D152058
BDAFFAC2
BE0290AC
BC9778F8
BDB5D13D
BCE183DE
3D6CD276
3E175FF6
BB8B59E6
BB35E4A9
BCEF0A44
3DA3A91D
3D140DEF
3D5BAFF4
3C5C8EE2
BDD5F4E4
3D058EEB
BDDF0026
BDA75EB4
3E0D82FD
3DE2A800
3D10B44D
BDAC9994
3C5A93CA
3CF394ED
BD979DC6
BE05FDCE
BE05FC7E
3D9BFC4A
3DBB06A9
3D96D897
3D8DDE45
3E132B13
3D4E7990
BD221152
3D76AEE9
BE0227D0
BD37164C
BE097A68
3D6DB022
3DDADAFD
3D873366
3C98A655
3DC68A0D
BD0F27A0
3DF100A4
BD28C99D
3D6B0A04
BC139660
3DE83DBC
3D21C730
3DC1CBA5
3D189E77
3D43B2A8
3D5DB7BC
3C9309FE
3D6DB86A
BD8BC00D
3CD449CF
3CC6957B
BC960378
3D5EB9AF
3D1899F5
BD1F1737
BD22404C
3D02C3E5
3DF2E169
BD56FE64
BDB9C935
BDEAD4F6
3DC42AB7
3C0A6615
BD835314
3DAE043A
3D1C4560
3D3E2CDC
BD015387
BDD9BDC7
BDAC5A8F
BDAF5A89
BD329EEE
3D7151CC
BDDBB40B
BDF5A101
3D995ED4
BB36E631
BDA53818
3DC652E6
3CE2A28D
BCAB990B
BC410F95
BCFBAB07
BCC7D6F9
BD6E92F0
3D9195CD
BD168C19
BD00A4F1
3CB07B5D
BDC97361
BDD74E66
3D9135E8
3DE617C2
BDAF13F7
3C5F534D
3D1471DD
BDCFA15E
BD5AFA8D
BD9EAA1D
BB982F36
BD88457F
BDBEF4D3
BD954CCE
BDE89A89
BC94FFD7
BDF0B179
BDA3BD24
BD77353B
3BA6BF1C
3D86FB5A
3DF71C97
BCA58927
3BB477EC
3DD9D2BF
BC3E1EB4
3A020006
3CF85B91
BCCBE75F
3DF3A92A
BD4C24D1
3B513CF4
3B74976C
BDB116A9
BCC75198
3D8AB0AE
3DF18DAC
BDC73FFB
3DC11D5F
BCBC44F5
BC3679A4
BC379F3E
BD0CE5F7
3D427B1F
BCA4A3EF
3D194A8A
BDC09BB7
3D782ACF
3D6C6731
3D3F4037
3C37DB39
BDE2AE4B
BCE29B35
BDF45F9E
BB8A3A16
BDC2971F
BDA75727
3DCD3177
BD84E89D
3DB8B9F0
3DFC9689
3CF695F4
BB81BA6A
3D5E17E3
3D38E0A2
BCD765AD
3D8FB0F0
3D0B65DF
BD83C460
3D420528
BD0CC1E5
BD44DC8E
BD6F0AE5
3BE6C963
BCCCAA68
BDAAD7A2
BC054376
BB164D5F
3D269F21
3DDD6F11
BC5CBDDC
3DCC585B
BDCABABF
BD8B52F2
BDBA14CF
3D1CDEE3
3E01105E
BDD0A5F0
BBB68827
3DB34A2A
3D48DCB3
BD56EC91
BCD2234E
BCFC5E8B
3CB3467E
BCF61134
3E00A02C
3DCE208A
3CACC3E3
3D8566F8
BD0C5792
3C14952E
3E0DDF44
BCF474B2
BDC52157
BC24D247
BDACA36F
3DBD0C30
BDB943D4
BD8C6DB2
3D3A4632
3DF95810
3C625BAA
BC4E88FA
BDDCBF6E
3DDBE8FF
3C5A4C11
3DEB6178
BCC8DB05
3D186F48
BDB4C2C3
3DC2F86D
3CB288E9
3D0B020C
3D870E54
BC573281
BBB99F08
3DB0077F
BDAC55C9
BD9BF0C2
3DB518B1
BB42C867
BB02D9E5
BDDF2F55
BD39F44D
3DAAA7A9
3DF3269E
3D5591CD
3DA474E7
3D73CFDB
BBF6F3D2
3C1572B9
3B8DE546
3B959D20
3D2952FA
BDF0A138
3DB60E7A
BDA998D0
3D203A32
3C856092
3DCC1C03
3974D06E
BDDC13FD
BDDD8BE7
BDF16B98
BD1F2402
3CDCF38B
BD76A528
3D550EF0
BD0D5E07
BCA25743
BDA890C8
BD4F128D
3DC49FE5
BC615875
BCBEA3DF
BDD0A4E3
BA98D67B
3C8AB0FE
BDBC556B
BD141AD5
3DD6B4C8
BD83CFC1
BDE3A53C
BD724C69
3DFC304D
BCE9A225
3D29E3FF
BDB77B7C
BC52A1F9
3D96EBF0
BDF74688
BDF5104D
3D3B251F
3DDD32C6
BCF6DB29
BDB56F68
3CEE7E2D
BD826F39
BDD30AD4
3D29D31D
3BF42C37
BD8BDA6C
BD61173C
3E0D4F16
3E08244F
BDCBDA01
BDE70D20
3DC628BE
BBFFF731
3DCEF1BB
3DD40358
BA82165F
3CA1ABB7
3C8AFDC0
BD980919
3DD74D59
BDFB0FF1
3DAE7A8F
3D535598
3D62EE77
BDF16EBD
BC2C99BC
3D3B4982
BDCFDF3B
3DD6E58A
BDBBAA80
BD76A5AE
3C8D1ECC
BDCDD15F
BDC03B9D
BC2115CF
BD5BC44C
3D292161
3CBCF554
BDA48E70
BC73131D
BD17DDD8
3D35A36B
BD110236
3D82F520
3C99425C
BE07546D
3DB88C2B
BDDC182F
3DC8FC79
3D8CC34F
BD7DEE0D
3D25D1EC
3D142D64
3D88F606
3D144F5D
3D0A4DB1
BD8D3C0E
BDB10675
BDB61E4F
3B945D04
3D768EB8
3E156A38
BBC93FFA
B9D2EFF4
3D021DE7
3CD15FA4
3DF418D7
3DEF2AE0
3C949808
3D14D397
3D0C79A6
BDC08008
BCD314E5
BD11DFE1
BC6FADA2
BD25F400
BDD86983
BE051223
BDE8BC9D
BD67438B
3CD1B824
BD4E8FB0
BD839DF2
3CE0DDC6
BD4A6A01
BDA2BE2E
3DEE9B39
3D20CC79
BC1D5A99
BDCCFFA8
3D96ABEC
BDA96A6A
BD18C594
3DF5A20E
BCFDB31F
3DC82CB2
BDAAD985
BCAC38D9
BDD5757D
3DCC20E3
BD86F9FD
3DA26A9B
3DCC41DD
BD7056FB
3DD14339
B6A31315
BC3A68B2
BD74F44E
BDAF901E
3DF62D84
3D86BE96
BC07625F
3D114248
3DE46845
BC627B1F
BDA00E78
BC36749C
3DF382E4
3D46E455
BD12E43E
BCBB7BD7
3DFEB181
3DBBFE63
3D6DCD2D
3CD1D804
3D2AE9B9
BDAD3FAC
BDB8A090
BB68A2EC
BA8EC327
BD872CB0
BD45A73F
3DD54541
3D2D5EA8
3C9716D3
BDD215FD
3CCFC53A
3DAD2B04
3C369E22
BD864DF8
3D82F090
3D2E122C
BD06EF22
3C8FC067
BDF12A95
3C5070C6
BDEF53C5
3DA96554
BDE87DB3
BDEBB342
3DFF327B
3DB8BF21
BD241172
3DC65493
3DF57796
3D5DE9A5
BD67AEB6
BD89108D
BD24DB16
3CC536A1
BDA86A24
3DC1CBE8
3C68D251
BDEFA509
BC4D6A16
3DE606FB
BDA13FD1
3CD9F001
3C87694B
BCFC5AC4
3DB20EA6
BDCBD3C3
BD605DA3
BD864452
3C4029BC
BDAA47B7
3D0F1E16
3DDE19FC
3D496D82
BCBA9A9B
3C55559D
3D6F0084
3CAB847E
3DBF634A
3DC85788
B901F1DD
3DD075B4
BD1832AC
3CC562AB
BDFEF955
3D6BF983
BCEA1BFE
3DA97E56
3DAB08B5
BDC24D4D
3D9EA084
3DA3BA5D
3DCDECA2
3DA7A1C2
3DE365CB
BD5602A1
BB51C402
BD86422C
BC796E81
BCAF0D69
BDCE2110
BB8E13FF
3DD5CE9E
3D868421
3D1B634E
BDC991AF
3DE1D10B
3D73F88B
BDA3F5F9
BD10331E
3DB8B2DC
3E1B5200
3D86C0A1
3CD29FE0
BDF07FAA
3D2A931C
BD998329
BD37C930
BDC259FD
BDFE28AA
3DC817C7
3D2339DC
BDB85887
BD22EE77
3D770296
BDABFCB6
BDA6E405
3CA8B48A
BDC8FFC6
BD6E2B3C
3D75EC15
BD8FD6BD
BD9A93AF
BDCB0242
3DDB2464
3D27F456
3C3C8125
BCABC9E8
3DAE61DD
3DD63DC5
3DDB4F61
BDA71BCE
BBD5B930
BDCEB0B8
3B1CEADD
BDB04A08
3DFC8755
3E0A62AA
BD272F4F
3E10ACC1
3D7EDB3D
BD9BFA9D
BDD7835A
BD00EB17
BCADF902
BD533029
3DBB9984
BD574561
3D1A05B5
3DB16C8A
BC9B9BD2
3D83A988
BD6AD3CE
3C768AA1
BDE3E319
3CB84F67
BD8C3EED
3D3C4C16
BD83FC94
3D30EF21
3DB5589A
3D643DE8
BD6AE74F
3D258A33
3D7666C4
3DD16873
BDA31048
3D78BA26
3DEB1705
BCEEBF30
3C9462C3
3DA1C8C2
BE02B389
3DA5CD92
3DD5275F
BDB72BD9
BB6DDEEB
3D18F6A7
BCE4E4F2
BD9F195E
BDB65C8B
3DBA69A3
BD5789A4
3DE8D089
BD44D156
BC28DDDA
3D891E06
3DCA5050
BCBF9EB1
BD2562E1
BDA08BC6
3D799CBF
3D008C32
3D6CF180
3D9086A3
3DA887C4
BD5222E3
BBCA0FEF
3DCC38BE
3DC9B00A
3D016C61
3DC812CC
BCCF5F4E
BAFF911A
BBE31E88
BDCE38A8
BDE7B678
3D57EC1A
BDE3C969
BB554267
BD84D03C
3DBE0C32
BBC21C45
BD9D98F5
BDE99B6F
3D8D3474
3D52702A
BCC26210
BDE5CAB0
3C0772F1
3D682C04
3CD97EC2
3C0664E9
BDC2111D
BCB463EB
BDBA1A6B
BC98C990
BC5EB3EA
BC11DB2A
BDEB4D8C
3D9FABA4
3D8E722C
3DB74081
BD17AA91
BCB0691F
BD3FCF08
3D96DED4
BDF4067D
3BAAD704
3DA6DD5C
3DD395C4
BDD5B5FA
3DC34A1D
3D48E567
BD5D9E76
3DF700CE
3BEE8707
3CD29711
3D569644
BD4B5E88
3D8AD985
3D3B6765
BDB01E26
3CFE2C8B
BDC0BD52
BCB7FCC7
3DD33A8A
3B18A7AC
BD343435
BDD6DC1A
BC526161
BCA68647
BD915098
BDAFE111
BD9F3DB3
BD83C247
3C4E6122
3DD60419
BDD5B680
3DECABC5
3D9D5411
BC067565
3B198B2C
BD053071
3DB1AA3F
3D736298
3D3BB045
3D64998D
BCF05BE8
BD9B13FB
3CD493A0
3DFBE879
3D138D10
3BFCFAE8
BBB7331D
BD6F7030
BDA35CE2
BCF7B0DC
3C9CC609
3B0728FF
BDFD66AE
BDBCC26B
BDA75D14
BCFEF5DF
BD37353B
BDD2378B
BD5F8AC5
3DBE0F4A
3D4EE774
3DCE221D
3DBEC03D
3D9FE975
3B833681
BD990123
BD048733
3DCFADF3
3DCDEA03
3DF61BB0
BD96B92F
BBD53CDE
BCEB1191
BD95841E
BC035270
BDE75925
BC095219
BD8CEACA
3C38E44D
BCD8A512
BD67B8E1
BD4167C4
3D840513
BDAD9E84
3D49E4A0
BD1F52E1
BCDDAF08
3D3F58DB
3DB1551A
3CEB3AE1
BB8BFBF7
3DAF743A
3CBE03A6
3DF28D86
BD249195
3D401656
BD5C8FD3
3DA856BE
3D478A6E
BDD600F3
BD5B22D1
3D0BCB45
BDAA8298
3D95DF15
BD67E903
3D0E732B
BCF7DCE6
3D871667
3D2074EB
BCEE5F8F
BDB6CFD6
3D9F2918
BD059E70
3D449C47
3D8A1EC5
3DDB0575
BDE6C54C
3DBE801E
3C909727
BDB6BF37
BD8E694F
3D93202B
BD8E6652
3DDF7271
BDD7AAAC
3B2A2685
BDD7EBAF
BDAFAB11
3C6A82C0
3DC588F1
3D53D534
BD9A817E
3BB690A0
3DB38822
3DD2A737
BC14917D
3D8443FD
3CF635B2
3D912140
BD1C43B3
3D439EF1
BD1B904A
3D8F22B3
3CC63A0C
BDA91B67
BD8D12D8
3DFF9724
BC3E6A33
BDAD8475
3DEA3DF7
3D12B834
3D3C2D0D
BDABACF7
BD48E54C
3D50E46F
BDDB078E
BD6FB68C
3D1E925D
3CB6159B
BD881047
3CB62A29
3DBBD259
BCF94ED6
3DB0A676
BDA6E306
3DF692B4
3B513AC6
BDAD2517
3CC6D902
BD984F9D
BD9F3479
3DE980B2
3B0A5833
BCA6853A
BDC88E0E
BDE39ABF
3DF59DDC
BDD72FFD
3D3FAC02
BD58FB44
BD7C1FF1
3C4D9ABE
3CB8C437
BC300150
3CDDE5C4
3DE6A7F0
BCD2E408
BCCFA55A
BDF88A05
3D94375A
BDC37B58
BD076AA8
3B337A6B
3D7984A1
BCCDF414
BC6281D5
BCE8DE7B
BD2F0E91
3D1EB8F3
BDCC6E96
BC1B73EF
BD7456B4
3D4F84A3
3D17DB53
BD4F17B0
BD44C313
3DCD5F9A
BA01055F
3C48E83C
3DC23F4D
3DE9AD43
BDB2DD95
BD551D9E
3C3BE8E4
BDFD94D1
BD299E7A
3D05B8A7
3D9F379E
3DA3AAD8
BD8F6853
BD1EC85D
3D9EE7ED
BD019F8D
3DAF61AA
BDCE2EB2
3B8FE11F
3C0A12DE
3DB3C969
BD0D3DBB
BCFEB57D
BC138503
3D190D32
3D9D9DA0
BD857A43
3D188319
3DD5286B
3CA5416E
3DB9A01A
BB924A85
BCBC027A
BCEBE744
BD02E0F0
BC074A6C
BDEFE825
BC3C9979
3DF3D74D
BCDCFEDF
3DBCA7A1
BBFEC167
BC059022
BD43A5A7
3DF73861
3DB3DC3B
BDA60484
BDC069F5
3D336354
BCBE7B30
3C555D2A
BC8CBC71
3DD35EB7
3B468911
3CBA5C52
3D3B3510
3DED5E07
BCF06771
BBB07899
BDC9A0BB
3D54D6A1
3D86659D
BD7B7648
BDE8027E
3C1E0B99
BDB877D3
BDACA70D
3DAECC16
3D1BF869
3D9D954A
BA697558
3DBCE2C5
BDD31C22
BAE8721A
BCE5195F
BDE70197
BDD8FE69
3D7CDBF4
BDF0E5E6
BCECE3C4
BD356CFF
BDA37A73
3D1D92D3
3D26E455
3D793FF2
BDB407CC
BD95D399
BD030E22
3D7775EE
3DEAC53B
BA82A912
BDD0A02C
BBD55E56
BBC4FEB8
BDBD8B10
BDC6C16B
3D7D1CDC
BCB04395
3AF1C931
BCCEFAA4
3C0AB342
3D26588F
BD585928
3CD45705
3D98A58B
3DD14B9D
3D9565B5
BA090F44
BD82ECBC
3DFED395
3DC39BCC
BD78F7CE
BD3CA106
BDE05B3A
BDEA4D2B
BDA182ED
3DEBDC27
BDB9BE17
BD9E8B49
3D8A930E
3DD67F4E
3D86CC52
3D3F2E64
3D64F63F
BD3BE660
3D4A9824
3DB476B0
3CBAFA07
3C9E7D9A
3D7461ED
3D8D3276
BDD815A0
BD663AE2
3D33E590
3DE31CEB
BDBB1D93
3D52E134
3DB962C2
3D6256D7
3BF28CFB
BD41705D
BD87AAAC
BDA7EC86
3D8FA88C
BDAA00D5
BD4EC2C1
BD011B38
3B1B082F
3C85C3FA
BC670C7F
BDC3311A
BDB3201E
3DD4FB55
3C54D834
BD74E2CB
3DBC2E41
BDA31CC3
3D4EDEF6
3DA81916
3DDCB5FE
3DF7774B
BD055A47
BDEBD33D
BCADB75E
3D843B06
3D8C79CE
3D94B3FA
3DF85836
BDF06573
BDE0E27E
BDAD0968
BB3CCCA5
BD16E4CE
3DC39FF0
BDF024F6
3D9F5B88
3D592550
3D67D765
BD1815A0
3CD7EBE5
BD8A406E
BCA956A6
3D77C102
3D3919C7
BA04771E
BDE1387A
BD6B57ED
3D9A1123
BD8B6383
3D4C65D4
3C66D58D
BDFDBCA9
3D9934C8
BC005E75
BDE34DAD
BDBAA964
3DC6277C
BC58CC4A
3D4D1FD9
3CFC3E09
3D01700D
BD4319E0
3C6C9E23
3CF0B392
3DAFA920
BB964C07
BD58B934
BDBC3DE1
BDC72C6C
390DE01F
BD7BB79C
BD7DD00F
BD7FCC69
3DDBE5DA
3DF69DB6
BD3EBC9F
3D53A889
BDF06AB1
3D3655E3
BD71C26A
3D46FE8C
BDE44E0E
BDE4DFCE
3D883AB2
BDF59147
3D9B3D8E
BD9996E0
BDA4F286
3D2B4E98
3D28B008
BE008249
3D3EB2F9
BDFAD29A
BDDEB4A6
3DF676EA
3DB3FD35
BC221680
3DC70139
BB453757
3D3586B0
3DCDC098
3D7D9B01
BDF85D74
3D262F09
BB8BC55B
3D75C422
3DE1EDE1
3D05DE9C
3D2847CD
3D027957
BBDE5286
BCAF3110
BD3C2AD9
3E022B7C
3C6D959A
BD94BD77
BD1626E9
3D277A7D
BCB577E7
3DDC2A88
BDADF076
3D99830E
3DD2DBA5
3D81D862
3DFE8577
3DFD0FA6
BC4E208A
BDE6AB9B
3DA97969
BD2D87A8
BDE1F7D7
BDE16A48
BC1F7D1E
BDA53A4C
BCA4C760
3D6A3111
BDC89848
3DB024CE
BD7FE543
3DC0E6BD
BDEA7EFA
BD91CA7D
BC8DB81A
3BCBAC7C
BD9FAAB3
3D6C5C14
3DC956DC
BD7004C5
BDB21A57
3D31098D
BC2821F3
3B398547
BBCCB525
BDF84D34
3DDFBC5E
BD80E637
3DDBF594
3DD9AE92
BDE91106
BDC74894
3D780C66
BD11AE48
BD34D0A7
BD1C5297
3D6A14C1
3B67BB10
3DA469F2
3D2AD3CE
BCE472DC
3D9FD1F8
3DFC0F45
BDBFEF54
BDB19305
3D827568
BD377BB2
BC10C3D2
BD33EC7C
3D223BAF
BDA1C956
3D024159
BC42528B
3DB4AD29
3D84648C
BD4381B0
3D20F1B2
BDA4E931
BDC83B60
3D5C1E5F
BC4A75DA
3C9334C6
BDFCD91F
BDD023EA
3DCFBFC6
BD813E66
BC5A5764
3DB11CF3
3DD00DE5
BDA807BC
BD43096A
BD2941E3
3D93C3A4
3DE39BCC
3DE155D6
BDEB06C4
3DE4E26D
BDEE9F6B
BD8A87E4
BDA58497
BC8F2D65
3D9B17DC
BD6E0993
BC9E7E3B
BDBC07FB
3DC380B1
3CF7D5C5
3D25C8E7
3CEE8F60
BCBF6A43
BDFB1D0D
3DBECF2E
BD93E730
BDCE9DD8
3CF95190
3DBBC4B7
3DDA67A5
3D96674B
3D3AACBF
BD073A87
BD6189F3
3DD1159C
3D40ED30
3D7B0179
3D6BAF7C
BD0F5050
3DE6E009
3DE4D6E4
BDCFDF3B
3D2E0D3F
3DAE38DE
3D6520B6
3DEA37AC
BDB840AC
3DAD9903
3D8CE803
3DC0450C
3D86D069
3D748111
3DB18CFE
3D331734
3D935796
BDE59AFA
BDE0029F
BDF2AF9B
BD8B05FB
BC4D5370
3CDBE7F3
3DA224AB
3DE485A1
3DAC1A55
BC7C943B
BDDAE600
3CF4AEFF
3D2FD8A0
BD141C67
BAA6F0F0
BD9FE055
BDC60CE7
BDF3061C
3C710D1E
BDC48B2F
BC1C15F6
BDDA1C26
3D304817
3D9A69D9
BDA78ACC
3D8343FA
BD2DEB96
3A37F640
BB6895AB
BDB2B9AC
3C61C293
3D9E38A8
BDEB441C
BB7C1712
BDF0068E
BD87C69E
3DB94F19
BD9FC845
3DCA6988
BD6663FD
BDE76641
3D874C90
BDC294F8
BD8D3240
3CE56514
BDF207D5
BC0922FF
BDD62068
3C575B31
3D9F0373
BDB3E136
BDB2A0EC
3D3D15D5
3D1BD43C
BC46CEF1
3D84B04E
BDFE4A38
BDF5842B
BD04AA03
3D5FB811
BD77AEC3
BD92BFA6
BBED397F
3D8A68E7
BDA58106
BD5F61C5
BCFCB84D
BB8D9600
BD398882
BD4467F4
3CA4638D
3D180A33
3DE74E23
3C21F761
BD0477AF
BBEDD586
BD4BCE1A
BDFFBCE4
BDCC4787
3D813115
BDD43958
BC42627B
BDE28C37
BDBB630B
BD645133
3DF39863
BDBC01A3
BDACDB10
BDFF2778
BDBB1DE3
3DAB49EE
3D8C178E
3D96D6CF
BC271DE7
BB56BD91
3DA30220
BC892EE8
3D4191EB
BCD5ADB1
BD0597D5
3D49118C
3DA9C4DB
3DD591CD
BD8CF52C
BDC38C7C
3BB4C646
3C648E1F
BDEAF46B
BD25FC7E
3C6386B8
BDB9294C
3DDCC294
3DC752B2
BD7B98E3
3BAADACA
3C40555B
3C7C49FD
3D0D4182
BDF95E5B
3D3E1204
3D928E42
3D8D5EEB
3DB68017
BC81BFF4
3DA0281C
BA863813
3D7AF2E5
BD4AB368
3C3255BE
3DC7451E
BC3FB6CF
3D050283
BD866ACE
BD3BA5AE
BD3D6B30
