3DAF9138
3DBD259D
3D8D2AA6
BD125842
3DB88BF5
BE2BAE8A
3DF248D8
BC39C1C3
BD0BAF61
BD30C00C
BC84226F
BD8E77E3
BE2E3EF3
3D103EF8
BCA573F8
BE0C853C
BAEACDBF
3D441F14
BE0EF391
BDD73B00
BE1B7458
3D77EBCA
3D98968D
BDCE5BC8
BCA95209
3C080F6E
BDF6A1E8
BD6CBD12
3D6EBAFE
BE296313
BDB74A41
3D144E86
BDFB584B
3E34A234
BB337F74
BDB6D762
3D1AB614
3D9B3121
3D88D9A8
BBB99893
BDC2868D
BD357456
3D5D2179
BDBA8969
3D9CD73C
BE19068A
3D40902E
3E0EDE55
3DB473F6
3E44638D
3D9A8445
3DCC7193
BDFD2418
3CA366D8
3DA8A5CE
BD591AD4
3BF06975
3CB51FD2
BD5696CB
BDBFC2A9
3D62A0FA
3D122369
3DF656EF
3D8286DE
BD94A178
3D043EA4
3DCC0B3C
3C40FF39
3C83A282
3E2D0C80
3DDE0DED
BE280560
3D0A4E02
BDBFB0C8
BD4DB793
3DFF876A
BC9279B5
BD77CBCF
BB12A5DF
BD03D054
3DADEBE6
BD912FE1
3D78E285
3D277250
3D494DD7
BE3445AA
3C85916F
BE0E4756
BD82017D
BD8F596F
3E1F0996
3E535760
3CC78B7A
3E18AF81
3DCEEF1C
3D930C3F
3E438DA4
3D96F4F4
BD3911CF
BCE41EC3
3C96DC1A
3D970D12
BE12B2C0
BD23E609
BD963122
BD3B83CF
3D059825
3D0AABC0
BD1E8B71
3C4D20B0
BD8DDFE5
BDC7C393
BC4BF679
BD9F479C
BE158EA8
3B249C82
BDC04D70
3DA5EC9C
3D021AA7
3D787E97
39900BA6
3DBB1C86
3D71E8B0
BCEC485D
BD16C8EA
BD1E2F45
BE1815E4
3E30A30E
3E2F3C71
3C6B4DC1
BD2B678D
3DA6833C
BD412091
3E043C3A
3AAA67C8
3D20DBE3
3BACEA19
BD1264A1
BE0CC9EB
BDC7D98B
3BF51932
3D4E30CB
B981498E
BE3E28ED
BCA8E714
BDDBDAD7
3DD13511
BDA7B85B
BE0BF8FD
3DA7FE81
3DCD4802
3DAF43FE
3D5D91AC
3C2AD4C0
3DC0BBBF
3DB0A089
3DBE79AB
BD804BEB
3CBC28DB
BE1662FE
BC1ED030
3D5EB86D
3D93DE61
BDA85257
BCC041DA
BE0DA273
3D2BD810
BCCF77A2
BDB2CA58
3CFADA26
BE08B32D
3D69B109
BD6FBAD9
3BBAC31F
BC338426
BE176E1E
BCC6F07F
3DA12CE4
3CD4067D
BCB9F5FB
BD8548AA
3D19A898
3C5CD482
BE310B20
BAA8A1CA
3DC7ECBB
3C1EBFF4
3D76A6F1
3D63486F
BD36C559
3E41FB40
3E448B65
3C03CA2F
3C0F048A
3E0A3162
BDCA4922
3E39F773
3E3C8712
3D8E5C5C
3DDC7CD9
3B49CD3E
3D6E6264
3C076168
BD816906
3D800E43
BD743A4A
3E364F55
3DDAB218
BDF2F4CF
BDB501AD
3DCCB479
BDB5402B
3BBD921C
BC823458
BD0EF4FB
3DD20F2C
BDF1C4B9
BDA52AAC
3DC2EF76
3DD5E072
3D3F99C4
3D61E929
BDC19B83
BD4BF551
3D8ED451
3C8F2D9A
3DEFF10F
3B7848A7
3D93D054
BDB52A19
BD68A230
3CC83A61
3CD95AAF
BE13D817
3CB42536
BDB25EC2
3D1AA8F9
BCC8765C
3DF53501
BCE7616E
3CF389D0
BD87D7EB
3E415A8E
3D02C959
BD624555
3E18C7E3
3E314F05
BB6CCD48
BD963F65
3DDC8D19
3C90DB4F
BC8F6853
BE084599
3D9BB50A
39C9EFB4
3E2B3D8E
3DB5DF80
BD7E07F3
3D06AEA6
3DD9DCB5
BC60B25D
BD0EC1B4
BDEB0293
3C36E356
3D1576BF
3DD7B5AF
BCDF22DB
3DE50C5F
3B7BE391
BD6BCA39
3DF3D85A
BDF88334
3C919122
BC1D0702
BE01AB08
BE076684
BE0A4485
3E00E172
BBC4584A
BDC32732
3DACB83F
BDD46CB9
BDEDAB19
3DDE20CD
3DAD3F84
BDC98791
BDF4C986
BE034699
3DFFD71B
3D3DED1B
3C2B6E43
3CEB21B7
3D678DFE
3AE715CE
BD101BBC
3E02556D
BDBB5D89
3D86C26A
BD6AC1FB
3E0B3205
3C28F4EC
BCEE9285
3DF40A28
3C75302E
3CD967E6
BDD96D09
3DE4A8C1
3BCAB36D
3DF31A8F
BB7E5D3E
3D12F24B
BD239E1A
3E1C193B
BD388F79
BA124E43
BDD99136
BDCF3A9B
3E00196E
BD79C157
3CB565A8
3D4DF3DF
3DC9D03B
BD425E7F
3DC69B75
BDF6F6D7
3DBEAD1A
3DA7E953
3D5AC5B4
3C1D0D01
BDA93873
BD79D70C
BDF4BB5E
BC97408E
BDDB7521
BDAC026D
3C7E810F
3D1CAA40
BDC410A9
3D5685CE
3DA9FADB
BD924547
BD89C5F4
BD10C9E7
BDE32B99
3D8B8ABB
3D359055
BD37CD11
3DAD6BA9
3E11A36E
3D4E3CBF
3C89B414
3DE0C1FD
3E08D60A
BD9E40E3
3DC53A4C
3D529605
3C89DF11
BDCD3B6D
3D1DAA1A
BCCC02D8
3D0E9A47
BC857413
BE05D13D
3DB2437F
3CBDAE82
BD54CB69
3D5F10D2
3B042239
3D053CD0
3D248EDB
BDC62464
3C966095
3DEAB9B2
BB8BF91D
3DE37A3E
3D90DB78
BC3D1E6F
BD593774
3DC4C43A
3D78BC75
3D6429C6
3CD9F3C7
BDE9CE4A
BE011340
BD810328
3D14A0D7
BCECE902
3C6946EB
BDA75B81
BD531211
BD3EDD8B
BD944B46
BDAB0EAF
3D052B4E
BD96C2BA
BDC88C89
BD9424D8
3D2A3F6F
3D723034
BC1B2139
3E080BAA
3BAAEF17
BD3AD4E8
BD3CB451
3D178A10
BDEC093E
BDCEC398
3CE6B6EE
BD82DDCB
BDE1B435
BD1E024A
3D8CCB70
3D9DD11C
BD0C825A
BD5F0A1C
BCAE01D1
BD96D572
BD76D97B
BD4889C2
3DCACF67
BC8B813E
3C88ECA3
3DD7A56E
3DFAE579
BD789A10
3D503CFA
BD118F3F
3CF0BF50
3D93EF00
BD92A305
BDB06C7A
BD8D7DF5
BDAEE759
BD79D686
3DAA94C9
BDC7F8F3
BD80FFE8
BDDAF966
BCEBE2A7
BCB04AB6
BD6FCF30
BDFBE554
3CC25D3D
BE053501
3D9FD67A
3CF43450
3DFE0D67
BD4A6FFB
BD0BDD33
3E17A3DB
3DA17FE2
BD8E52EC
BD0E7254
BBBD9E71
BE195C85
BD469779
3C0F8A01
BCDA79C9
3DB979C7
BBB0D575
BD9D0353
BC961291
BE089093
3C34DE2E
BCD66B11
3DF0FBEC
BD4F321D
3DDFA7EB
BDE5A9A8
3DF79BFE
BD934D0C
BC26E6F5
BCA27F87
3D96A99D
BDF6DD27
3CCC9504
BDD908E6
3CF6F70D
3C9FEB8E
3DE71716
3DE4F5D3
BDD1A006
BD69D170
B9E433BE
BD9CEC92
BD53B752
3C0C9133
3BE4F02F
3D81600F
BCBA8212
3BB3773B
BDF5B2D5
BDE1F5BE
BDA0AB21
3DD377E2
3E09EE89
BDEEF566
BDAB60FF
BD90E919
BDAE05BF
3DAD8673
3D7B8D24
3DBF5CD7
BD2EDE8A
BD288DF3
BDE9C993
3DB99E6C
BD885348
3CEC8316
BD856B0E
3D11F007
3D9D0C8E
3D9E7170
3E047454
BD8F6BC9
BDB17E6A
3D89B18F
BE03C89F
3E009742
3D010FE5
3D6598AB
3DE6687F
BDCFAD6D
3DC2CD3A
BD339C95
BD9F3C56
3D6EDE8A
BC1AAA5B
BD4B45C9
BD331DCF
BDEA5482
BC9B80FA
BC3E69C8
BCDA4CB2
BD6D9224
BDA26062
3DCAFECC
BC3EBBFD
BD52E855
BD6588F1
3C45BBCC
3E048CB5
3CE6EE81
BDD743E9
BDD1ED9E
BCBB803E
3DE4840E
3DC0E411
3C827D1D
3B651396
3C92A986
3E0972CD
3C2D7300
BB311AC0
BDA19D31
3DFEB075
3D54D1CF
3BD99486
BD59898F
3CC9C14A
BD159F03
3C9F85D7
3D91CB62
3DACDCA2
BCEF5D50
BDC480E9
BD862208
BDEB6BF4
3DDC79B3
3D6171F0
BD2FD8A0
BDF24181
3DF6A055
3C864884
3DA35D4D
3DBD4520
3DE1BC12
3D19A4D2
BD55D371
BD9E9E28
3D9A89AC
3D0D7569
3D1F8587
3DF61F5C
3C471279
BE0425F2
3DEE7147
3D9FC7BE
3D897E7F
3D9C655C
BC9D5DDF
3D80A633
3D521236
3B8A315C
3C668499
BC85F146
BDF2E83A
BDAC0542
3CB74F57
3D1E4DFF
BE02ECAF
BB2721C2
3DB432CA
BDCD5736
BD63EC1E
3CFD2F35
3DF2C387
3D51C5E0
BDF3B646
BDAE64CD
3C6E836B
BD81E8E6
BD077F6B
BDF68167
BD0034BE
3D25A541
3D2A9D7D
BDE3F035
BD856705
BD925D07
BD94FFD7
BE083D36
3D24F609
3D848685
BDFBFF04
3D8D14AE
3D4DEB7B
BD36C7A8
3E08AF81
3DF62C77
BD5B4098
BDDC1052
3CF14D80
BD84EBDD
3D5C7E36
3DD15726
BDC463D0
3D610279
BD4F6223
BACCA0D8
3C80A06F
BDC00F77
BD83CC80
BD9042E6
3D7A21EA
BDBF7638
BDBDC94C
3D9B7699
BCA3BBC7
3DF1159C
BC83B0C4
3D8D12D8
BDDCD899
3BB25F63
BDC8A49A
BCFBE22E
3D8309E3
BE0763E5
3D90CCF2
3DD69EC3
3E05903A
BDEC28B3
3E08D046
BD4396C3
BD2D12D8
BD21DC0E
3C39D5E5
BDF9B2C4
3DD84B1B
BCD9ABD8
BD6693B3
BCA4250E
BD13A274
BD0CDB60
3DE4523F
3CA28672
3BED4568
BDAF0AF3
3D3DFAF2
3CA747D8
3D0653BC
3DF66ADB
BBBF962D
3D953254
BDF4812C
BD854676
3B87FAB6
3D68F705
BC512F32
3DF3E143
3B2BB77E
3E098C7E
3DEE8102
3D8C6775
3DDCF67B
3CAA889F
BD1A50AE
3D554E46
BD58BD30
BC739B02
BB5E4977
3BF92BA5
3D5F6018
BD4D2999
3D333A55
3E1B65AA
3AFE1748
BD83BE81
3D14C29A
BDA0C15B
3DFEA24D
3D0F88EF
BDD879C4
3E13FA2B
BD5E82BD
BB99AC64
BD63B795
3D4D01C1
3CC0749A
BD7C21D4
3CE10FB0
3E08038A
3D91814D
3DD266BA
3D8210A4
3DA56D0C
BD9AC0B9
3D88EBA4
3BBDC878
BD737E2C
3D5A88FD
BDB4D834
BDDA0382
3D072B53
3DEB50B1
BD22D05F
BD56A7AD
BE06C97E
BDE3DD55
3C783FAD
BCF796A5
BD9C3075
BC41D664
BD4C6859
3C1AC1F8
BD3D6EA6
3D2115AA
3D906EAD
3CFCCF29
3D92BBC4
3D7E3BA5
3D8E01D1
3DE1AB4B
BD0F84F3
3D4CD4C5
BD80FB3D
3D786247
3D8A7B19
3DDA786C
3DED79D1
3CD5856E
BCFAAAC1
BDC46CD4
BDF29F5A
3D51CBA5
3E03B2DD
BDF67989
3D76D4C3
BDC803C0
BD2CD713
BD361226
BE087EBF
BCDDB339
BD7C46BD
3D8F79C8
BC2A886A
BD958842
BD205052
BDBFE4F2
BE068598
3D1CEEB9
BDB2C2B0
BD0CB65C
3DCAAA48
BD013D67
BDF3E250
BD48BCD3
BDD3D189
BD69F63E
3C890AD6
BDDA0408
3CD62464
BDDE731D
BD77DB39
BE02F017
BDA0A493
BDB6B492
3BA3324A
3D9EAB0E
3DBD893B
BD74E296
BD8FDAD4
3DFA2270
3D1AF717
3DF3D641
3DAF3F60
BDFBE447
3D70F678
3DBA2D80
BD56EB69
BC8F83CC
3E07368B
3D29F872
BDE70C99
3DE39E6B
3DBE46D0
3DCD9F0A
3DB8C9D3
3DC73DC7
3D0D4E82
3D3D8A04
3D7A7D09
3D6BA4FF
BDBF03FA
BDA830BC
BD42E29E
3D2181AB
3D4747D8
3DD190D1
3E04DDB5
3E099FA1
3C9B27A4
BDC23FB8
BDA56E41
BCF6AEB3
BDEEA52F
BD556CFF
BD57D722
BDD37B07
3D05062F
BDBDBBEE
3DADA2F9
3DBBDE83
3BBBEC6A
3D1C853C
3DA097FE
3D19EDB2
3C4111AE
BDFDE8B4
3A2B246D
BD1775EE
BDC3E392
3ABB5A5F
BCB9CEC3
BDE5B531
3D39F2D5
3CCD4380
BD8E96A9
BDB16194
3DE81238
3DA205FF
3D983F19
3DFF212D
3CD379FB
3DE3B8A2
3DC75E8C
3C8C72D5
3CCD2582
BD13AFAA
BC23D4D1
BD0820B0
BDAF3C56
3E03E814
3CE10D2B
3A92A864
BD0D0389
BDF7AB32
BBE96081
3DA6EA0C
BDC90BFD
3B9E09EC
BD99374C
BD46A6AD
3DC59D71
BDAC9265
3CD484F2
BD5A11C4
3D7F4250
BC69D876
3CE89184
3DC56649
3E06C8B4
3D0BA8AB
3B3DDA6C
3D5D0A17
3D9AEFCE
3D12B204
3E0CE63A
3DDABC0E
BD24AE6B
3D463213
3D9EFC0F
BD7C1DD8
BE04B0E2
3DA75A5A
BDAA4FF3
3DEFF759
BD8BD365
3D379995
3DE047D4
BDC507EA
BD770A23
3CC97C81
BDDDE58E
3D3FD121
3D94FECA
BDBF00AC
3D83B363
BDCD184C
BD871B70
BD9C6DBF
3DBAA730
3DBA8B4C
3D41F9F0
3DAE7104
BD3CFDD2
BD6C0E7C
BD76D209
3DFBCEC8
3DFE3E29
BD675869
BDD2A38C
BAF14E0B
BD980750
BD97EA37
BCDB2CE2
BDF72713
BDC50093
3D831650
BD240C34
3DE82F94
BD608729
3D976882
3DED562A
3D00DE67
BCA57753
3CE3A7DB
BD4BE313
BD1ABE27
BD4B7DC8
3D7352C3
BE06323C
3D9F99A9
BDA5BEAE
BC8A16DA
BD09EF02
BD3A1413
3CF93724
BDEABDE4
3E0C2A88
BD45FB3C
BDB7E49B
3C92040F
3D17932F
BD9A95AD
BCA308E4
BDE08F21
BDDC0B9A
3C89FFFE
3CE87EA4
BCDAB481
3D6952E0
3DA36700
BD1437FB
BD84038D
BCFE260B
3BFB25FC
3C50FE1F
3D887626
3D246DB8
BDCE5F74
3DB72CBD
3DE43ED9
3DBB418A
3DF87486
BDBFEF03
BCF779EA
BDA2EA60
3DF3F749
BDBD64A2
3D480212
BD981A66
3D569A41
BD52B28A
BDD0A783
3D7816C8
BDD3E9A7
BE07FC76
BE023704
3CC154FF
BB1D3200
3D9C7483
3D999773
BC7BF834
3D6E2F1D
BDB8C31D
BCADBAEE
BDA423CC
BAB10A4F
3DF094A3
BD859D99
3D930510
3D4F8AD2
BC130D4E
3D2DFCC8
3D2581B5
3DB28D43
3D22C98E
BBA1BC3D
3D858121
BE015400
BD67C7FB
3DD00FFE
3DBD567A
BDDE03F7
3D91853B
3DAFCA5E
3D7B0E5E
BD706B1D
BDB8EC60
3D1195A4
3CD856D9
3D944920
3C5F7D3E
BDD73754
BCCE8244
BD8F0960
BD53EBDB
BD8819D2
3C302B41
3DC87245
3BA26D3D
BB514252
BBF7CF85
BCFFB085
BC0CFE81
3CA0341D
BCA4A8F7
BD489804
3D139BF4
3C98156B
BDFF3733
BD9CF1B6
3E080842
BBFABBDE
3BA5DDB5
3D4A927B
BD6C8960
3DDD4E90
BDC9D47A
3C7D3184
BD9EA9E7
3D41387A
BC926CEA
BE0714FD
BDEFAA47
BCF2DDA3
3B857372
BD6E85D5
3D5F6860
BDB2BF05
3DDCA5BE
3DE7ECFF
BC75FCDC
397CE13D
3D651117
3CFEA811
3D398A80
3D23FE77
3D767176
BD0AC3A8
BB74C940
3DC881D7
BD3BA46C
3DA1598F
BDF77A70
BD79A10B
3DD54003
3CC99B8A
3D5E6744
BC6351DF
3D765740
3D86C482
BDD3CCD1
3BA99997
3E02D624
BDAD03A4
BC522FE3
3D910244
BC55912C
BC96D168
3DACAF48
BD924E81
BD97F61E
3DA630D1
BBD7FC15
3DC1A28A
BE033FC8
B9E09158
BA9B42E7
3D9DED6C
3DEDFEFC
BDD5BDD7
3DE73040
BDA67034
BDBA1E74
BD9E5124
BD850AF4
3D848A4B
3D53235E
3CF118DC
3D828D1B
3DB8A3F9
BD50B666
BDB59734
3DD22425
3DD512EC
BDCFF10F
3D90BDCB
3D9DE1E3
3C8F75F4
BDB17ED6
3BCF9E8E
3AA22630
3DD41B76
BDF31EC1
BDC9397F
3CDF92D8
BD9FE0F6
3D268C41
BDC8ACAD
BDB12EAC
3D890E31
BD8F83CC
3CF50BE6
3D9FEF46
3D55EB3F
3BF45AF1
BD50A046
BD811284
3D3A78BD
3CDB6F27
3D93AC93
3E111666
3C40F30F
3C2B13AA
BCDEBFDF
3DEC1659
3D5F9089
BE02FB1A
3DCFC2EC
3D995B00
3DFC115E
3DA97212
3D855ACE
3D81A338
3DBEF325
BD525354
3D83C0DD
3DFB6E50
BD639B7B
3DA86E99
3D86C7C3
BDCC6C1F
3DC177B4
3DD2B55F
BD031254
BDF49279
BD8C0450
BE0A21A7
3D98CEE9
3DF1EA79
3DDEB207
3DBDB04A
BD348726
3CB1CC61
BDDBD8BE
BDAC73EF
3C4B98F0
3DDD5561
BD1CFB4E
3C8F5AB1
BDAC46D8
3E062281
BD754A4A
BC48A7A4
3D1BA146
3DE9613D
3D39F3E2
3DE28CBD
BDE0229A
3D8A6CAE
3DE7778E
3DFD9019
BD9BE7CA
3DE70B8D
3A3BC84B
3D99AA89
3DE703B0
3C4248E5
BDE3D578
3DDFE197
BDD2977D
3D2F1D5A
BD22B18B
3DFFAC1D
BBFFFD51
3D91C1A1
BCFFD13C
3DF2EF0B
BD993E52
BD48C7BA
3DB45FB9
3C921D6F
3DA36E21
BD87947F
BD47BF47
3D7E9DCB
3D37F173
3BBD13DD
BDDF19D6
3D2113FC
3D14EADE
3D5AD2EA
BD37FEAA
BD428BB1
3DD07853
BDB8F00C
39323CA9
BDC7DFF1
3CC270BE
3D9C769B
BDD843C4
BD506721
3D3E1976
BDC7EBF2
3DC9F087
3DB9A9E8
3BAA1801
3DE4D6E4
BDC4653A
BDED0B31
BDFB8024
BBC83E5D
3DA51838
BD33B2EB
BD66F1C1
3CFC83A9
3DB96FA8
BD8F0175
BDB04494
3DF4E4C9
BD9A1555
3C9A6897
BC213A8D
3D4789B2
3DD3C03C
BD845C86
BD931B4B
3E094574
BDB5450C
3E006FEF
BD208D23
3A819B43
BCC8D12A
3D682609
BDC96E66
BD76CE93
3D6FAD6D
3DF8EC10
BD7E7C57
3D825560
3D4B87A3
3D188A55
BBCF2705
3DC1EC92
3DA8FF5B
3D084F09
3DDC1E79
BDCC45CC
3D17B635
3DCB7D34
BDDCAAFC
BDA68C91
3DE5C033
3C212AA8
BDA6D38F
3DC9855D
BDF23D4F
BD510419
BDA538BA
BD2D1F53
BD7A9FF4
BD350713
BDC02BC7
BDA073DE
BDE89A89
BDE323BC
3D2D1E46
3CA7FE81
BD6F222C
3D1ED08B
BDB40C41
3BFCC436
3DEA5CE6
3DC4A06B
BC89023D
3D135EED
BD599E6C
BD45B318
3DE4CAD5
3DA0E729
3D8E126F
BD22FC69
3D8F757C
BDF38690
BDA1522A
3DD648C7
BDA54E53
3D9BEA9F
BD9BDD69
BD404C56
BBB81E6A
BDFEF9DB
3D44C943
BDFB0D52
3DA5346D
BD8C12AE
BDC2CC20
BC651AA1
3DCDAF4B
3D10B2D6
3DD3C793
3DAD6DB4
BD30921E
BDB1DDA0
BDBEAACB
BDD8D9B6
BC9CFB18
BD7D7683
BDE7AFA7
BDE03B3F
BD9405DC
BDCE25C8
BD528325
3D099A2D
3D703B4C
BC886B09
BD8C3520
BDDB90EB
BD96B6FC
BDEB8950
BD8F8F04
BE0681ED
BE005037
BC832EF4
3CDF0F24
3DD8F367
BD49F780
BB0A0CDF
3DEDF9BE
3DF2452C
3E0CED91
3C21F4D2
BCBE963E
BCCC6BE9
BDFB3D08
3D9D7003
3C0C4F03
3DEA6A01
3E007703
BDA215EF
3D0E8980
BDB216D4
BDA33036
3C2BAD2D
3CE2A57C
3C9F0945
BE01B196
3DD2DA98
3D6E91FF
3DD3C46E
BD3938B6
3D2811E8
BDC597EF
3DD5D2D0
BD605433
BDD0D413
3D3B38A0
3DA2F647
BDC1FB17
BDEEAC00
BDF7D8CF
BD275DDD
BCB7655C
3C2989D2
3E0737DA
BD696646
3CF7E656
3DC3FFC7
3CACF9FE
3E1900C5
BDBB35F4
3DFD156A
3C9D6C57
3DC687BF
3E0132B5
3D7FE2F4
3C8BBBF6
BD821A8C
3D8944FB
3D8FFC3A
3D994AA4
3AE58F3B
BC633128
BDE4CB5C
3C91665A
3AC0C62E
3DF5B5FA
3D3A41E5
3D4ADB25
BD78429C
BC6AB291
BDD95CC8
3D9B5584
BDDB9E8C
3D6680EE
3CEEBE59
BDD321E6
3D85E18C
BE0565C3
BDFDA1EC
BDF1DEF0
3DE5510D
BDD98E11
BDC45C79
BD457F66
3D65D272
BDBD268F
3E098351
BD0BA8C6
BDD8F92B
3CBC4886
BDAEABAF
BDB177B4
BDC2F167
3D033B6E
BDFE835E
3D37D468
3D37EA1C
3D5AF428
3DEFE154
3CE253B2
BCAA3B07
BDDC3505
BD20218E
BD08580E
BDB9FEBC
BE0A1944
3DA0DC0B
BD8A850F
3DCB3C9C
BC1C3BAB
BC86F984
3C640FDF
BC1AD127
BD46880F
3CA88ACE
3D828ACC
BC08DCBE
3E0204F3
3DB0DDAB
BCF1F439
BDECA57A
BDEB9CB7
BD0AF3AF
BD361424
3DB35689
3A00EFA1
BD902F73
3E0AC29C
BD3C7E1B
BD7D863E
3B3B773A
BDAC711A
3D4F468F
BD92CD62
BD9B4818
3D9C164C
3DD66E01
BD9B2FEC
3DF72607
3CCE8640
BCAAC4D0
3DEA3C64
3DD8A548
BB5330EA
3DE72D1B
BDB61078
3E101472
BDE8C1DB
BCD6F57A
3E06833C
BB77D38C
BE0451FC
3CE5BFAD
BDE690DE
3DEECF20
BD732EB1
3DB117DD
BD88FC35
BC8DB205
BDAF7015
BDE603D5
3DD45B6C
B9E456A4
BDC37634
3DE3DA30
BD83690B
BB441EA8
3DDC2331
3D813FDE
3E062A1B
BD2E3CA4
BD288723
3E07DDCA
3D3A63C4
3DBDF084
BDAC1D45
3DA0C34C
3DE4AE00
3D086453
3D28B165
3DA71DD9
3DD8D823
BC8CC89B
3D5FEBF9
BD26FC74
3DC89F41
3DE51761
3D3A3B9B
3DBEE569
BDF5C39C
BE08FC93
BDD3AD5C
3E010F52
BC0C1974
3E09D0A6
3D1FD60F
BDE257C9
BD9AF153
BDCA823A
BD0E0978
BD40010C
3D2E87D3
BCB770B0
BC911490
3D5D1B14
BCE870CD
BD2CB65C
BDCF3ECD
3D0252DB
BD7A1CE2
BCCF9717
BDE48063
BDBD0E63
3D48E384
BD202894
BDF3176A
3DDA7FC3
BD543343
3D85ED65
3DF05187
3C68B12F
3E023140
3CFDDF5F
BDA9F0AF
BDAF08E7
BCED7F95
BD88A421
BCA3684F
3D11D5EB
3D5AE84E
3CA0E015
BDC59876
BBA22BB9
3D1594BD
3D9937D2
BDAE7D13
3CEDD774
BD75DEA9
BD46C821
BD1BF08C
BD9559F7
BD3DE086
3DCEB789
3D8E8D11
3D0562C6
3C904634
3DC97D57
BDE18937
BDA06DE4
BCF2254C
BD27A3E9
BD7CD6D0
BC890456
BB7B6D49
BCCD702B
3B7D1F50
3D20758C
3DA21AD0
3DAF9915
BDE9E343
BDDBF6A1
BDBE37D1
3DBAA2A1
3E042F1F
3DF63BAC
3DC49823
3E011EC9
BDF2AC75
3C873ABD
BDFF0564
3D3249AF
BDFC1A48
BB4784E4
3E068555
BE0411C3
3DA769EC
3C7B733E
BD0E03CF
BE021C04
BC50CDE3
3D8A3020
3E04FD6D
3D238144
3DD1172F
BD838F94
BC27F364
BD896F72
3DA7B74F
BCD803CD
3E07FD82
3D4BA535
BDEE8640
BDB4D80C
3D899FD7
BDC74412
3E073F31
BC103496
BD8ED8EE
BBED2DEB
BDF5FEDA
BDE7429A
3814E5D6
BDA3D3AF
3DEF0E0B
3E043BF7
3DF77C89
BC33AB94
3CC2D384
3D890A78
BD59096C
BDCC0930
3C982BDB
3CB39772
BDD615EC
BDC8CEF6
3D6AA84A
BD96E463
3DC5B9E9
BC456997
3E0C3159
3CC4F0CB
3D750317
3E1102BC
3CA1437C
BDCF89C6
BDF2A51E
3D0D7A3C
BDB737F5
3CE86D72
BD7891AC
3E05A038
BDFAB8E9
3D6A9A3D
3D88F077
3DB4648C
BD301521
3D87F357
3DC4544B
3DE7D780
3D819E58
BD3C1956
3DD479D5
BD238DBF
3DFDAF8E
3D13C529
3DF29132
BD2479E2
3DAF2BFA
BD943D97
BDF394B8
3D2DFD34
3D8DD6FB
BD224BF0
3D53A513
BE0633CE
BD926931
3D096A0C
3D18003C
3D6563ED
BC8EE907
3DB1110D
3D88ECCB
3E08FA37
BC6ADF72
3DF89C5E
3DEE2B8C
3D6514C2
BB5FC31F
39A1B8CD
BD040FDF
3D8DD7AA
3DE5C1C6
BD4C0379
BD3D0727
3DDE24FF
BDA1E9BD
3D95A873
BE0A8B09
BD943E89
BE0E14BE
3CD1A6BC
BCB6555C
BDBBE122
BDB9D3E7
BE081909
BE00E5A3
3D14B7E8
3DDB2B34
BDBBCB38
BD2DCC8C
BD605667
BDFDD228
BDC51025
3C2CA8D5
3D9304C0
BD1FF8C4
BD6BCBE6
3DF612C7
BD4CEE40
3D708498
3D449144
3C8A47ED
3D546024
BDA5D9D7
3DDCE39B
BDF0ABB4
BDF8C32B
BDFAD96A
BC01AB26
3DB5F791
BC8DF9F3
3E00724B
3D95E6A2
3C9F3260
BDAE7D71
3DE6FDEB
BC73FED5
3D1A17D9
3D9854E9
BCF22623
3C41CAA6
BDF19158
3DA93C11
BDBFEBDE
3CBF9CCE
BDE91FB4
3DC45FAB
3DE20BC4
3E0C54BD
BD5A4E96
3CCFD2DC
BD0054D4
3CBA45AC
3DDC3C5C
BDB89C79
BD551845
3D811D0E
3CCD8FA0
BD18631E
BDAB7BD7
BD9E7F54
BDA7C287
3D5C6053
BD2E8C55
BD76D2E0
BACD0F93
BD9E916B
3D678FE2
BAD255CE
3D648CDD
BDDC5AC4
3E0D7E02
3CCB30B6
3D86BBDC
3C60D95F
3C36CEC9
3CE52553
3DDB81B6
BD29BE0A
3D5FC0AA
BCA71766
3D958EC3
BD59524C
3DFDCCEA
BD168471
394AA7B7
3D9294B5
3DDE4D5E
3CD1E6B2
BDD96851
3CA3B0DF
BD407648
3E0E57DA
BD819561
BDB2A62B
3DDC59B8
BD89C38B
3DD9C6B0
BD9225ED
BDEA2121
BCC20924
3CD6C4D3
3CFABB52
BB85331B
BCCA4C1F
BD899921
BBC96336
3D1B4F11
3DDDA598
3DF5B0BC
BD20683A
3DDBEC25
BD1603AD
3D8716C5
3DC2A130
3E03D103
BD7ECF13
3D16AE2D
3D8E9E79
BCD5D3DD
3D76FFDC
BDB8640F
BE0283D3
BDEFFF37
3D8385B9
3D1F8BD1
3DA5CD9F
3D9DD0BE
BDE5D420
3C8795C1
BE03BA77
3D8E2DCE
BD587E7C
BC228012
3DF9695E
3CB42968
BD45A50B
3DDAC8A3
3D541206
3E0DABE2
BDECA926
3E0F9768
BDE1DE27
BD82DAC1
BD53ABAE
BCCD29EA
3E123D92
3C50500F
3D7EB420
BD888CA4
3D8C3A36
3D4ED063
3D9E0AAD
BCBF4FA1
BD3692CF
3DEF4491
BCA9746E
3DA48BEB
3C825E14
3D803DA8
3DD8298D
BD196A85
BD756C28
3D63DA30
BB62795C
3C9CDD51
3E15D031
BDCC0478
BC0ADF21
3CCE241B
3E131CEB
3DFC3A43
BE03BA77
3DD45B6C
BD4448CF
3DD85836
3CCC0B3C
BCEB87A3
BD22A61D
39925899
3E155FBB
3D8D9BA2
BD6D28DD
3DBB36B0
BDE2363B
3DD0E022
BDAA0077
3D2FF6EE
3CBF4ACE
3DE643CC
BDB96272
BD5A2D58
3CBF320F
3D84FB04
3DCCA0F8
3DE24B34
3DB0EF3C
3DDE8577
3D30182B
3E1308FF
3E0EED03
3D9C7A2C
3E02003B
BD19C67B
BD0D0826
BD40A0BF
3D22F802
BE080779
BD9EAA7B
BDE1259A
BCC025C0
3D8906F5
3DAF9097
3D0A20B6
3C39F920
BCC4255E
BE02706D
3DE5E80C
BCBE4B2A
3DFA0BE5
BD73A2AA
BDDEE99A
BDC56A53
BD7A9FD9
3DE24EDF
BE08A116
3E09F2BB
BDD72BCB
3D87AD30
3C9A836F
3DC35562
BD5E0F14
3DF27781
3E18943E
BD1DF1EE
3E03558A
BCDB9694
3B01BFB3
BDDA5226
BDAB87A3
BD1B9B4C
3E030A0B
3D6F2CA9
BC1D889C
BDF20FB2
3DCA8694
BD990207
BDEA83B2
3DBD533A
3D7C56FE
3D938873
BB1527F0
BDF5DAAD
BDB16822
BDD2FF4C
BDC0ECC5
BB6B4F6F
3D45DAA0
BC13ECB1
BA619768
BDF1C971
3C5510D4
3DBD0A82
BC857BD5
3CE935EF
3CB9E0CC
3DDDB6E5
BDB6E214
BC056149
BD1985C8
BDCB0913
3DD621FB
BD7F9CB3
3E1094E6
3D319C3F
3AC5F441
BE01615F
BE0235F8
BB8C1207
3DCB1CF2
3CCD51C2
3DB33341
3D6BDC27
BCDEEBB3
BE0C7086
BDD57E67
BDAAE2DA
BDE33051
BD625D22
3DC269C5
BDA1B775
3D532D8A
3BC45F00
BDAEC842
3D8EC311
3CB7040E
BDB18D4E
BDBBA84D
3CD7200D
BD6FA73D
3D261F4E
BE0583E8
3B47E80C
3D834953
3DEFAB54
BCA5F55D
BC997014
3DB1AF1F
BDCF2171
BC1F9801
BDD9285B
BD4E31BC
BB073A46
BDE99956
BE00C6B5
BDF2EB5F
3DA42310
BD9E1C66
3BD80362
3DAA9110
3DD8958E
3DCA72DD
BC1B107D
3D5E71DB
BA73DEA3
3CE70F39
BC2904DC
3D9BA909
BDE779A7
BE03E575
BD3C7277
3E028F9F
3DF098D4
3C00321F
3D2A2736
BB8922A9
BDA238DA
BD9B3601
BDEAFD54
3C76EF4B
3DB24BC7
BDEE618D
3DBFB3AA
3C9A73EA
3D80E42C
BCBEBB5C
3DC5AE02
BD0E8A06
BC42CB57
3CD6EFD1
3CA32B7E
BC853E2D
3E09BCBA
BD15BD36
BD240406
BCBB733E
BDAE78FC
BE004FF4
BDD2F6E8
3D80F5A1
3D7FE2D9
3CDC2092
BDBBD231
BD604CA7
3BAE2A0A
3D7AD3C1
BD298AF9
BC5204B0
3D6FC321
BD6BCD43
BD434DAD
BCC14BFB
3CCE01EC
BB89064E
BD35F585
BDD2D01C
BE05FE11
3DE188B1
3D86B0E7
3D0C38BE
BDFC371E
3C27A560
BDE089E3
BD927469
BD57CAC2
3DF91362
3E00CF18
BCA89E4F
3DE4CB5C
BDC44186
3D1C7B2B
BD1002FD
3C8B76C1
BC2F19C9
3D932EB1
3B574272
BD76CA62
BCB545FD
3D3F5947
3D9FB481
3DD22079
BDCB50B1
3DAAACF5
BD130D08
3DB6F3F5
BE07496B
BDF6C615
BD7E6206
BCFE5EE0
BDFCCA71
BD4665FB
3D1713E3
BDECF180
BE005037
BD0ABD0D
3D7D0402
3D892A3E
BD8F30C0
BDE63411
BDFFC548
BD08C876
BDF8B71C
3C9BE030
BD91C780
BC9F097B
3DD7A9A0
3D5D87B5
BE05D639
3DF6238E
BDC640EA
BD247D22
BD55351B
3D9846E9
3D26D73A
3D6F7C24
3C108B13
3D0C575C
3D895132
BD2B4FF5
BD87FF23
3E056DE3
BDBF15F5
BCEDFFEE
BD4BC764
BC931A24
3D08FEFD
3D18DD61
BD445B44
BB7BF3D7
3DA87435
3D8FEE7D
3DC10CDB
BE008312
3D3ABDF1
BDE9D389
BDABBA48
BBBACA6C
3D666179
BB166202
BDAA9593
3D80F444
3CD63927
3C8242D0
BDFFB1E2
BDA76867
3D064BC4
BDEF1FDE
3DD487FD
BDF975F3
3BDFFAD2
BD9CE78A
3E064734
3DD754B0
BD8BB194
BDA95117
BC0165A6
3DDA1123
3DEF55DE
3E074FB5
3D34D2F6
BC01937E
BB109006
3E087400
3D091736
3D139BBE
3C91FCED
3DA97969
BDF00D5F
BDBFC6E8
3E010C6F
3D858CB7
BD992289
3DAA786C
3C1A10C3
3DD919AC
3D1D32E1
BC48C495
BD11B874
BCA39ADA
BE03C255
3DEB955F
3D29BDD4
BD2D5D9C
3E03B18E
BDE91D15
3D9A355E
BCB6CA62
BDAF1CAB
3C12B300
3CBE3341
BCF03EC2
3E06C482
BDF30D74
BD93CB9C
3E025892
3D7AE529
3E009F1F
BC4C15EE
3DECE13F
3DD630A9
3D2212CA
BD849F44
3D94F872
3C5E0BB9
BDC11C2A
BD1C1250
BCBA4CCD
BD12FCE2
BD383CD8
3E03EAB3
3C9BA395
BC842DC2
3D0D81E4
BD7ED95A
BDE1B867
3D8FCEE0
BDF0FCF8
3D83DCDC
BDE974A3
BDC83C7A
BDF52C9D
3DA1D317
3DA43039
BD32D8EB
BDDEAA2A
BD03646E
3DC8210E
3DC19E9B
BD06BDA4
3BF1F815
BDB21003
BD12BD3C
BD97627A
BD850E34
3CBF7F3C
BDB3ABF2
BD0CE556
3C282C04
BDF741D1
BD382342
BE0166E0
BD7934D5
BD8B045B
BDEF038E
3DFF15A5
BDBB4BC3
3D529FE0
3CCA60AC
BC4A3543
3CC943E1
3D075BA9
BD02253E
3E045C36
BD92575E
3D4A6803
3DF3BE23
3D9EC347
BD3DB6E5
BD7F4759
BD7AD737
BE083276
BDAD48E6
3D4D7ADD
3E0BAC71
3D8E54EA
3CE541D9
3DD86FCE
BB552308
BD4843D1
3D555A55
BD7DB106
BD5279D0
3CAEAFAB
BDFFD04A
BDE3022E
3D3B2A93
BDC4FE5F
BD2A53C6
BD68DFA3
3CE42869
3DEA22B4
BDC87379
BB8FF886
BDC10D6E
3D62201B
BDFDF43C
3DE1EBC8
3CC07BF1
3D99BBD6
BD1822D7
3E0F5947
BD9DE368
3D0F0F32
3CD84F4C
3C05CCD3
BE03471F
BD1CCB12
BBE6E654
BDD404EA
BD8A77B0
3D0C4447
BDBFF15F
3E0A1A93
3DA788CE
3E17AE58
BDDDDC1E
3DFC58AC
BB4F1DE0
3D9B011B
3D633EE4
BDC0F239
3DAD67F0
BDCB89A1
BD9FF972
BC838632
3D769985
BD609064
BD8E0FC3
3D90162D
3DC892AB
3D3DE78C
BBBC7AC5
3CE39DCA
3DE809D5
BDD1715C
BC2B91EA
BD332BA6
3C035E39
3DB1C59D
BCDFAEF2
3E0F301F
3DD19CE0
3E0D1959
BDB67B87
BC7E1C66
BD5A851C
3D2C7574
3C3985C8
BD65E4CC
3D0C23FB
3DE20BC4
BD4CAF8B
3C853FA5
3E1F82B2
3D93E9CF
3DE78290
BD8B0E5E
BCA781BA
3DCB719E
3D9CC419
3D6BD464
3DDD06BC
BBF66BD8
3D270B3C
BDAE869E
3DEE63A6
3D844ECA
3DF06D50
3D5AB33F
3D01FAC7
3D38969A
BD4DB728
BDA29358
BD74DDA8
BCF6B7B8
BDA6A41C
BDE68901
3D1524C0
BD78755D
3D7ED55E
3D5D8425
BDDB7C78
BDE37500
3DCF9F45
BE027393
BD56C920
3D3F901E
3D81F4BF
BDB50D5E
BD9AEA8F
BDADDBC1
BDCEAC00
BDB71617
BDD95358
BD065E53
BCA77ECA
3C975120
BE0EC637
3C85F03A
BDC89CAF
3CABAA73
BCCA41A2
BCE4CB26
3DCA000C
3D142BB6
3D56E2EB
3D9BF742
3DC30BFC
BDFB688C
BD64EB06
3DF342EE
BB8D7A7C
BD729B79
BDFF61AA
BE054824
3E03265B
3D2A9BEB
BD81A892
3DF9BC34
3A8A0527
3DD67CAF
3D67D0CA
3D5E042D
3D15464E
BD21D614
BDAC769B
3D29BD33
BD985066
3DE25743
BCBB6C1D
3D80A0CD
3DB04395
BD9BAB9A
BD9FC3F8
3CDFC6A5
BDF94291
3DE121EE
BE08DE2B
BD77B70C
BE062889
BD532B3B
BD0DC8FC
3CC4E1B1
3E030DFA
3DA0AB2E
BC6A817E
BD4E6447
BCC7541D
3DCB8A1A
3C486488
BCC9D211
BDD3B42D
BDAE884C
3D8CAC74
BD940E5A
BDC2C4D6
3D3CD177
3E0C193B
3D68C1F6
3D96951D
3D01FCAA
3E028028
3D719E58
BDC51DAC
BDB45F5B
BDEDAFD1
3CEC7E43
BE04CAD5
BC725298
3D62B155
3BAD6020
BDCBFD9A
BDFCBC49
3D601026
BD8F17E6
3E067408
3E0F77AF
3E07C5EF
3C6F0E40
3D59DC4A
BDB4AA7C
3D21932D
BDD36156
BD1B7846
3DD2977D
3C7231E1
3D1A23E8
3C3149BA
BCB1F90C
3B873BDE
BD796E81
BDC5D61E
3D3A1EE0
3E17F5E8
BC168157
3B964033
BD55F7D4
3C3F2686
3DCD0F62
BDD1904B
BD4FC2B6
BD3B9A75
3B924D60
BD9D03E7
3E102928
BD119843
3DD34268
3D88BBB9
3D69BE5A
BD160D1D
3C304832
3D3D6D64
BDB2D6DF
3D000905
BD637A08
BD66D09F
BDA130ED
3D6DF698
BC0642E5
3DA24470
3D990448
BDD58C09
BD4B3FB4
BDFD27C4
3CE0D37F
BD89F01C
3D565A80
BC5C9FA9
3DBFA821
3E024FEC
BCB71AB4
BD6BB2D7
BDCEAAF3
BDFFD157
3DB961F9
3DB1BDA5
BA8C9321
3D17740B
BD433A98
BD99CA69
3C897D57
3BAEBE04
3DF55369
3CBB7A5F
BDC8F6EA
BDC547FB
BC95BDA2
BDE38434
BD8DD16C
3D6A20EB
3E08D089
3D76F52A
BD8C6F95
3C8A6D41
BD0BE2C2
BDEA515D
BD60AD04
3C90748D
BC88F78B
BDFB0AB3
BDB0CE5C
BDE50269
BD738F94
BDB8A647
3D8EEC54
3CC17EF1
3E128998
3D4E41C7
3BFCD279
BD9B7897
3D9E3880
BD48997C
3D5C7516
3B8E9AF8
BC2A143B
BD8ED94C
3D5CB817
BB4C9CA6
3DE5DD90
3DC1B633
3D8B6325
3D9D0B16
BC04109B
3E047A18
BCA131DF
BD4D6726
BD7F8B9C
BDECDAF5
3D9D77E0
3E00A06F
3D1B0ACE
BD98AA00
BDF26395
BC24E3E5
3CAF8594
BDA04004
3C3F3F46
3D9215EF
3DBA9882
3D56499E
3D944971
BD7B312E
BDD60286
BDDD017E
BB4B1B47
3DAF5706
3D57115F
BC5106EE
3C858E4A
3E00318C
3D8DF15A
BD1B39C8
BD1CE889
3DCBD846
3B92B96B
BDE9E668
3D3CD93A
BDB9F15E
3DA4E7E1
3E06A1E8
BDC2169E
3DC9721F
3D83ACC8
3DCA59F6
BDA5F7E1
3C829DD5
3E028DCA
3D2623D1
3DFBC771
BDAD3C51
3C78572A
3DCFA1E4
BD8E46D0
BDB20020
BDBB2D32
BCCDF698
3D15C209
3AD44816
3D6AFDA5
3DA58BB8
BDF6598E
3DEFB656
BDB906BF
BD25152E
3DF4E65C
3CBB5DDA
3D600AE8
3C3F7F72
BD11FEB5
3D46CFC8
BDD5B036
BCC51F24
BD9EF34D
3D035A0D
BB7C6C22
3D4C395F
3C80672E
3E047885
3D48623A
3DF4B9CB
3D8D2B6F
3CF91CED
BDE05682
3DC4F766
3D23C85C
BD4C4985
BAD52FF3
BDD4F26B
BD4139F2
3CB486F0
BD076C20
3D3F3479
3D0A2CC5
BD85FA4B
3D88175B
3DE610F1
3DDE4367
3D3BB92F
3DE6C3B9
BC0F1C32
BE0382E4
BDF91AB9
3D13CE2E
3D69B7F5
3D2F0A7A
3DB86021
3D793D38
BE04CDFB
3D987585
3DAFB953
3DB5EC8E
3B234819
3B352490
BDA3E4FC
3D88905D
3D6E7777
BD5FCB92
BC3AFC55
3D6A280D
3DC210CC
3BFC0E59
3D5A8354
3DB09B9C
BD8D354A
BDD83B60
BC077311
3D87C8C4
3D8E9475
3CD66B11
BDD6CC60
3D81E32F
BCB4AD51
BDD1044F
3DD3D4AE
3D0DCBEB
BD9E2110
3D936827
3DBBD0FC
BD1C5719
BDBF2892
3E20E12F
BD879C69
BDC648E2
BD8D4753
3D57FB6A
BDE43BB4
BBC96F4A
BD4DFD34
BDE3BBC7
BE017508
3D341F8D
BCBAD8E4
3D85C15B
3E0EF805
3C5B2BA0
BD8AA250
3BC06779
3D42E126
3D8AC3B6
3DBB6E6B
BD229EFC
3DF8E7DE
BCF5568F
BCC741A8
BDF0CDC8
BDAE5DB9
3DB2A221
BDFFC43B
3DEF9442
3C158B98
BE0A4CA5
3D5A0F76
3D3B56B8
3CB688F3
3B76A96A
3CFB8C33
BDA50771
BD90485A
3C5374F2
BD079AFF
3D795B6B
BDC25B9D
3D207846
BD91D1E2
BD9C2EF0
BDDF3C71
BD11B783
BD0CB0B3
BDE46174
3DE91750
BDDDFA01
BD0F69E5
3DD8EA7D
BD54AB53
BDA7DEBC
BD892210
3E011C2A
BD90FE3A
BCA9899C
3D8539B9
BDC6A17D
3D82AA27
BD578CCA
BD237E1F
BD89E6EF
BCF6B569
BDBA9867
BDC06812
BE011E00
BD1E4B7A
3DC019A3
3DD1D4FA
3D7DB5BE
3D2B705C
3DC88F94
BDD3CAB8
3CABB15F
BDFA1DB8
3D1A1321
BD0FABF5
BD34ED7D
BDCF0414
BD520EC1
BDD817B9
BD092DC1
3DE41FEB
3DE593A3
BD5D72D8
3D95762C
3C933531
3E130121
3D661C44
BD650D35
BD8529D6
BAF36491
BDAEE569
3E08AD69
BB512B00
BDA25E72
BDF68598
BA96B9EB
BE041701
BCE3AF9D
BDA51DFC
3DDDA166
BD795E91
3CDE7E70
3C90D464
BDBDF13F
BD1DE1AD
3C1A5D6F
3D91C59D
3DF46349
3DF17B53
3DD0A5F0
3DFCEAF2
BC4E519D
BD83EC97
BDB2F421
BDB9A911
BDDC7608
BDF551D7
BDDB43D9
3C95B0A1
BCD4BD26
BC5D5CD2
3D2D1B57
3C853DF8
3DD7C782
3D7558DD
BD81A5F2
3D9116C4
BD9EF06B
BD4225E0
3DBD45A6
BC98DC04
3E0827FA
3C923699
BC63553A
BDE12514
3DC9A1FD
BDED1633
BE0E086C
3CD6BBCE
3D888143
BCC0EEA8
3B16C178
3D4E9F1A
BDF1B60B
BDF99568
BD150997
BBFA8F12
BCEB40F6
3DEA1AD6
3DAB1EC7
3D49DD13
3DDCB146
3CE66194
BDDB2C41
3DBD6F39
3CC9685F
3DF0E886
BDF4D163
BB502877
BD560774
BDCF9D2C
3D99F707
BB30320C
BC9D5510
BD8A68DA
3C7DCB07
3DEDF1E1
BD83A28F
3DE0B999
BDAD5DB7
BE07008A
3DB20EA6
BD21D5A8
BE0043A2
BDE8405B
3CA9B612
BE091F71
BC661AE7
3D040F3E
3D5547FB
3D576344
3D44A5D2
3D986F8B
BCA678DB
BDAC33B5
3DD475A3
3D264346
3E0779A7
3DA3874C
3E06BEBE
3DED2C38
BDB046AD
BD8D4471
3DE44391
3D713639
3CF03877
3DD58D9B
BD201D0C
3CB56E41
3CF0534F
BC42FABC
BE017A89
3CF8F97C
BD41153E
3D52FDB9
BC324639
3DF77425
3D59A73B
3DCC5487
3D3B9496
BDB0C7A6
3D243859
BE06A1E8
3DD8FD5D
3E00BA1F
3DDACEEE
3D7D7E46
BD01BCE9
3DCFADF3
BDD821AF
BD2528AE
BDA9E237
3CE8632B
3C89ABE6
3DD0B392
3D7594BD
3AE6F6F0
3D89D84E
BCCAF485
3D095A87
3CF41B90
BD0DAD68
BD3D5CB8
BE0C0F02
BE093F6C
3C1A62AD
BDCA11FA
BE031A09
3DCB6B10
3DB9F5AA
3D7EC497
3CAAD9C8
BD9C73C7
3D716477
3C953FCD
BD458022
3DFD1C3B
3DF4B7B3
3DB73414
BD474787
BCCE127D
3C35F80A
3C5946C3
3CF27096
BD4CF0DF
3DCDE658
3D3F87D5
3D27C038
BD3D4159
BCF28F6A
3BE1B049
3C8FA7DE
3DB03629
BD56073E
39C56AE1
BDBB021A
BD63A190
BD2E8859
3CC5D420
3D99C688
BD88D7E0
3D9844D0
BCE77D52
BDAB833C
3D2B33F6
BD518C85
3C9ACE17
3D8E0F14
3BE97072
BC7CC1F2
3D2F1272
BC472706
BDEF2410
BD62F81D
3DDE5C0C
3DF510D4
BDDF52FC
BDA98CEA
BDB02B34
3DC2D4D4
BD27A058
3DEFB54A
3CFE6A69
BB5297E8
3BA87F3B
BD5EA29D
BDBA901F
BE03E682
3DA8B2F7
BCD65C63
BDB6F877
3D05BE86
3C1971AC
3C934E26
BDBA63A9
3D400559
3C0B0542
BDA931B0
BDC2F7F5
3D11541B
3D8E717D
3CCB1F4E
3CF2E530
3D94148A
BDEA9047
BD71F637
3DC28B10
3B29CF1C
BDF1DABE
3DCACD41
3C37F67C
BDFDF6DC
BDAF4A12
3D93ED38
3C0B81FF
3DDC17A9
3D993E52
BDE117F8
BDFBE1A8
BC9332E3
3D8C5ECE
3C548A9C
3D33E179
3DCD5843
3D3DEF6A
3C831F04
3D5E58CB
3C9E349E
BE00C8CD
BCC2A4C0
3CFB1804
3D4F1CD3
BC9DF6F6
BDADC967
BDAB6D29
3D9939A8
3DBF1D67
3D8441D6
3C7A2F71
3DCC6D39
BDD59A31
BCB42EDC
3B8BBEE6
3D99ABBE
BAD06A91
3E0549B6
BD69F715
BDDE004B
BD4A2461
BD508A77
3CE65ADE
BBB99913
3DEF07C0
BB7CBBFE
3D33156C
3CEB85F5
3DE193B4
3DE09678
3DB61B02
3DCAA037
BDF5FD48
3C3C621B
BDA7B310
3D3D5C67
BDDB9842
3D7AD5BF
BDBA6FC6
BE0196D9
BD9F71A8
3DCCCE5F
BDE62ED3
BDAFDB17
BD512FB8
3DF68D76
3E066666
3C30912D
3DB71250
3D63F848
3D5DB410
BE0973DA
BDA091DB
BDFD4845
3D9853A6
3D234CBC
3B276F9B
BD3C5D64
BD39F509
BDB53FC0
BDAA138D
3D8EB77B
BD75ADE7
BD8C2898
3DD9D777
BDF3BA77
3CAB0278
BCF23AE6
BCFB1F25
BD625CB7
3B1BB1CD
3D77961F
BDA81B8D
BDDE8FF3
3D60C7DC
BDCF30A5
3D1E0FEB
3E04738A
BDB413B3
BE0AD645
3CBE9D5F
BD6BC530
BDE5479D
BE0F7F06
3C45F684
BE000B89
BD77F6B2
3BEE35A8
BE055971
BD6A33B0
3E005B7D
BDE5DAF0
3B262518
BDB102BC
BDD0196E
BDC314F3
3D869886
3D24ECEA
BD7C7A8A
BDA6002A
3BBA7343
BDF5CB79
3C7325FD
3DC1C532
BE02830A
3D8D800E
BDC2CB3C
3D8E6FF8
BCC92F89
BD2124C3
3D1F1031
BD9168EB
3D0BBBC0
BD918167
3DE7D34E
3C9AFDB2
3DD7F499
3E073FB8
BDDED95A
BDA0A435
3DF91E64
BDD72ABF
BE03D89D
BD087153
BD1DAE9C
BDC4A721
BDC53975
BD83830D
BD0DAD68
3C9191C3
3E048B22
3DBD61E8
3C84955B
3D96485C
3D9AED9A
BE06DF40
BDE76AF9
BD88BED1
3D1A6699
BDCCD63D
BDC723C6
BC6516DB
3DAD075D
BD9B8D9D
B8A393EE
BE01C1D7
BC499AE9
3CADFFB8
3D80DAD6
BD77A18D
BB909F4A
BDA0BFA1
3D47B22B
3D4F1653
BE064DC2
BDDC69F9
BD62A5B2
3DB1E273
BC5FA806
3C2EF8A6
BDFE20CD
BD9BC98A
3DF3543B
BE0BCC29
3DA23AE6
3DCA0225
3DAC234C
BD48BB0A
3D13E286
3D9F28AD
BDE430B1
3DEF0C78
3E04BA95
BD50D4EA
3DBF530A
BDC68CFD
BDCCCCCD
3E03B57C
3D406820
BD801E5B
BC8108A9
BD8F1FF9
3E14DEC2
BDCC908F
BD871477
3DAB5195
BDCF9A07
BDB6BACF
BD50A45D
3D8346A7
3CBFEDF7
3D994F85
3DE3E07A
BD9D5A41
3C4BBD6E
3DF5FEDA
3D2E0E15
BB6300C1
BDC00D1B
3E04FC61
3D0B0094
3E083CF3
3DF4D37C
3DA3F6B5
BD6C80FD
BD0E3F28
3D62A4C0
BD3C79E9
3D8FBE77
BBD7CDF2
3D2325BA
3C9B0D01
BDEFE500
3D3540BF
3D7091E9
3D8E68E4
BDBB7F83
BD0E89EC
BDF0CF5B
3C7CD6EB
3D161EA0
3C7B5866
3C614BE0
3DF1526E
3DC335AA
3E114AD3
3C864635
3CBAE148
3DAACF09
BD921866
BD950FFD
BD61E43B
3D0D3614
BD1B84DC
BDD837B5
BD35BA11
3DAFE451
3DA00813
BCBEE477
3DEADD59
3C477EAF
3BD36DFC
3D54C3C2
3D055483
3D124B0C
3D97EA60
BDCC7757
BD7A223B
3E0307AF
BD88C353
BD470BDE
BDA256E5
BC8E09AE
BDB409F3
BD9FABE7
BC438B70
3D92A19B
3E074A34
3DFACEEE
3DEFB7E9
BDC269AA
3CE97072
3D85F443
BD4E2F1D
3CE99129
3DF7E5EB
3CEEB661
3D320586
3D0CF08E
BD634A02
3DD00608
BD41AF62
3D353E05
3D9BB0B0
BDF6D2AA
BC450EFE
3BFF2FF6
3DE15769
3DB1D748
BDFAF966
BD353D9A
3DCFB54A
BDE6F0D0
3DDA26A2
3DC2DA70
3CC807D7
BE06C8B4
3D9E7B30
3D88B28C
3DA9EBB4
3C9710F3
3D223F0A
3DCBED16
3DDAE1CE
3D51314B
3CCB05ED
BD5056C5
3DFF255F
3CC69D08
3D82815D
3E084620
BBFFCEC2
BDDD3FE2
3D9107E0
BD010AC2
BC15F7AE
BE178290
BD9350C5
3CBF2D3C
3D461233
3DEE4A7B
BDAD9996
3DC31BA9
BD8B2D32
BD2A15CE
BD0D4AF2
3D0D02B2
BDC6FDEB
BE136E2F
3DA9FE79
BD7A06A7
3D1A97FC
3DFC1DF3
3E048E47
3DD3860A
3DAF946B
BD3BBDB1
BDB9618E
3D096A77
BD68BB25
BD8A66B4
3CDF72C2
BDE7B13A
3E0AF5FD
BCA0D639
BD82D3F0
3C5AFC3A
BB17C1A8
BD888AA6
BDDD2179
BCDCA878
3DF6BDB2
3E136DEC
3CB496E1
BD80C04F
3DD1EE24
BDB7D277
BD85E1DC
3DBF350C
BDDF8F47
BD10AF0F
3DF71540
BDE7C41A
BD0E4756
3DDC30D3
BC9BCBD9
BD01772E
BD80A65B
BD99BC41
BCCD12A3
3D7BF112
3C3E582A
BE01CFFF
BDC719F8
BDDC1DF3
3CFC9C69
3D714750
BE09A672
3D2DA738
BD353719
3DF34D6A
3CF17DF2
3DB69065
3C12FD28
3DCF94C8
3DD69DB6
3AC27403
3DC73BFF
BD24865D
BD22B918
BD7640B4
3B460838
3D3ADCAB
BCF77C03
3D6F0B51
3D9FB184
3DEEFE50
BCE7F03F
BDBF8302
3BAAECE9
BD9C3EED
3D235215
3E0258D6
BCC3F3AB
3CA048AB
BDCCB982
3DCE92D5
3D246017
BD90A011
BDE82F94
3D20B4C6
BD328559
BE01AB8F
BD6266E3
BD2AA484
3E0F9DF5
BDBC7FD6
BDE13123
3C515C13
BDE7607C
BDCAE777
BDC5118F
3BA12656
3E0E9036
BE034EBA
3DB578A3
BD9447F9
BD62FA6B
BDF06CCA
BD9200F7
BC97FAC9
3D24B069
3D3AE4F3
3DF0A351
BDE3E7D1
3DFEBD0A
3D0FA483
3E05903A
BC6B85F5
BD8F9E2B
3DEBCE85
BDD4538F
3DA34466
BDD9C5A4
3D0E3DB0
BDFEDBF9
3DC235D0
3DC4B140
3E0A265F
3DE0BF5D
B9D82F34
3D99B266
3E002E66
3D62B3DA
BD1641F6
BDE77BC0
BE052114
3DE73D5C
3D868EAA
3DF72607
BD04BD34
BD500DAF
BCE2E0A0
BDD6B335
BDA7ABC6
3DF87379
39AC0F93
BD4C980E
3D1E5A0E
BCE3ACAD
BE05E17E
3DB6C45A
BDCF3FD9
3DA7ECE4
3D4423E7
3DEFC9BC
BDE8F217
BD960774
3E01CDA3
BC195DB5
BD94097A
BDC5E354
BE04A1F1
BBA5DB87
BDD95FEE
3E0795B3
3C1B31D5
3E002D9D
BC817A54
BD27467B
3D35E95B
3E0F13CF
3CFAA07A
3C77376F
3DE82A56
BD97607C
BC8BA550
3DC3CB59
3DE495E1
BDCD8905
BD65F26D
3DA25E14
3DB8CBB6
3D935B4F
BD0A28C8
3D6FBDE3
BD87F555
BDBDC75B
BDA76AA8
BC853F70
BD2956A6
3E049386
BDBAB1F0
3D82E459
3C0D7EC4
3DA149EF
3C129E7E
3C44B82B
3BCAB9A2
BA5451C0
BD7BF727
3D31A991
3D790174
BD943859
BCC93E02
BD61F919
3A9FA6FA
3DEDC2B1
BD40A110
BD9BD421
BDDC1D6D
BD24482E
BDEA233A
3D2D6BC4
BD1DFAF2
3B817D99
3D72BC4B
3DDDFF3F
3C2C3C9F
BDB9D777
3E1B6630
3D57F53A
BDF675DE
3D2DE8DC
BE03BFF9
3DB29083
BDFEB52D
BDF824D5
BDD92FB2
3C0B2EA8
3E0AB29E
3DFDD873
3D811A6F
3D8BE9F1
3D90EF2E
3DB1E0B8
3D94C70F
3D16EA5D
BDDA0A52
BCF9727D
3D0B49AA
BCDE702E
BD6874AE
3D78B1F8
3D6D3481
3DF9D55E
BC4D0AE0
BB8025EB
3DBDBE7F
3BA413B1
BD80AA22
BC0B8418
BD9FDEEB
3D4D3E27
BD187C99
BDA8B447
3DB31EE9
BD4608A8
3D6D7188
3DE40208
BDCC490C
3E00B285
BD429C0C
BD876D98
3BD1B804
3DB20005
BDBF379E
3DE3419E
3C14FEA0
BDEE93E2
BDBBE23C
BDA19272
BDDF25E5
3D005957
BD90395B
BDCEB67C
3CF1C8D0
3CB86E06
3D49C9C8
BC2FB8C0
BDD27D46
BDE3A4B5
3DD50A03
BD8CF059
3DDFB374
BDD90A78
BDD9D020
3CA4978F
BCE2CB06
BD4D675C
3D0680EE
BD72E459
BDA2F1E0
3C16092C
3B3ABD00
BDC4A178
3D043D62
BCCBED74
BCD240AA
BD952363
BDC80FB4
3D854229
3DFCD0BB
3CA07D84
3D3DA405
BDF01084
BD28D251
BDAD8C02
3DA22B89
3D1D8FFE
BD016DBE
B9CB1045
3BEECD53
BDF3ACD6
3B867F4B
3D88D4FE
BC96A70B
3DDC903F
3CA41CE0
3DAF6E4D
3D4887F9
BDA6B9B6
3DC8DD7C
3D7E91F1
BDDA35D6
3DFE4799
BDA64071
3CC78565
3DEB07D1
BD6FD08D
BD9A4089
BBE0EF44
3CAA0E26
3E08A32F
3D44BF32
3D453006
BC1C4BB0
3D8861C1
BC8BBDD9
BE07A67A
BDABC06B
3CA08E80
3DEEA316
3D96F679
3DE8155D
3DDE3327
BC84AFC8
3D9E0B18
BCF96C9E
3D81B6FD
BD645092
3E10F27C
BDA8AB35
3CF0A3D7
BD5BA9C5
3D5CEBFF
BDECB6C8
BDDBBF94
BDD54FBE
3D62A546
BCC253CD
BD99401B
BDF37868
BD7B8887
3DA76641
3DF3508F
3D674F65
3D56D407
BDB82731
3C4A3543
3DEBCA53
BE083D36
BD08D790
BCB751DC
3C88EDE5
BD5D9D4F
BCD9DE63
3D7A1CC7
3E0EB28E
BCAB1A96
BC25C73A
BDD2378B
BD300383
BD4A51AD
3D702EB7
3DE1C3F0
3DAADBEF
BCB557D1
BD4F375B
3DD9ED7C
BDF08A26
BC6503FB
BC9E0D31
BDFFF36B
BCFBE2CF
3B3D8A0F
3A0B8AEC
3D13D36C
BC33863F
3CF8D965
BDED5F9A
3D8F4C39
BDA65D6F
BDFB0FF1
3CC5DF73
BDCE5365
3DD3BD9D
3D5C2997
BBB22D24
BDB03B74
3DFF0BAF
BA80B98A
BD0C570B
3D8AD114
BCDD9F83
BD9D55CC
3C7C8374
BE079AAE
3E072474
BDC92F2B
BDB8472C
3DB88D52
3D64D02F
3CB604D4
3DC61EA0
BCFE08AF
3D0BD896
BD8E37F9
BE04CCAB
3C061233
BD732B05
BDB20E12
3C808DFA
3DBA7F07
3BA266DD
3DF9E0E7
3D480339
BD8ECFC1
3D9B753C
BCFB56EE
BD87900A
BD819AC8
3CDD7AD0
3E04CB19
BD4CDF0C
BDC99865
BD90970C
BDD2FFD2
3D979852
3D8EA25A
3DE69510
BBA2104B
3D3F0FAB
3DCA6613
3E0852F8
3C7B7480
BD41617A
BD609262
3D0A52D5
3DC5FFA4
3D249C47
3DE6BA49
BD1D07E3
3DA31396
BD1B5815
3CD742DD
BC45E18C
BBE40828
3CB44913
BCD3FA1D
BD197D2F
3D9AF0A4
3DA694B2
BBBB29E2
BD329FC5
3C41B831
BE05FE54
BD8DADD3
3D40FC9A
3DCBF2B2
3DFB3BFB
BE0636B1
BDD5768A
3DD50764
BD9BAEA5
BDB1FE14
BD130A33
BD135D90
3C8EC2DC
3D444509
3DE5C78A
BD92D8A8
BDC5ABE9
3DFFCFC4
3BA11E08
3D1BC29E
3DAA6A95
3D947E2F
3D0744B3
BDA89672
3D782667
3D5434BB
3AC9198F
BDF1C10D
3DE9C454
3D37BB73
3B352089
BD5ED9C5
BD2AE6C9
BDF00714
3D4B040A
BDE854CE
3CADC1A4
BD8D4AA1
3D3D8EA1
BD9AEE63
3E10D77B
3D51D8DB
3E0369BA
3DF9A9DA
BC722D44
3D171B04
BBD3A747
BDA72AE7
3C98A57E
3C84311D
BC3772C8
3DF93EE6
3D7A4251
BD8EF92D
3DC962D0
BD1B3743
BD19ADA1
3BA18A7F
3DB23217
3DEEE7C5
3C52C2B0
3D6F6BFE
3D1744A5
3D7EC56D
3DE16590
BC8EB895
3E1B4C7F
BD9E4530
3E03E187
BD4C4751
BDC6EF9B
3D818C85
BE086D72
BC018C92
3D8970C2
BDE6EE31
3DD2DA12
BBB34ECC
3D982F51
BC919554
BBC664D4
3D0A21F8
3DC50B88
BCE38617
BDC23019
3D93F324
BD977BA5
BD813EED
3D374F8D
3CD8ACD5
3D8DBD80
3DC7EEE2
BDAAE94D
3B8FE896
BD9EDDC1
3D829C78
BCCAB566
BDC36E72
BD0BC764
BBE4A774
3B4FD7EF
3E069DF9
BDEC61D8
3D4FC7A4
BC013A5D
3D7BDD26
3D9E6602
3D46EC9E
3D1FDC8F
BD5DE269
3A10F1E6
3CB8CDDD
3D75B78D
BDAC735B
3DA3F4ED
BDC37DCE
BDD29FE0
BDA7882D
3B4AA27B
3D80ECE0
BD7D81D6
BDE686E8
3DDAE0C1
BD8B743D
3D8D6E3A
BDF655E3
BDD5243A
3D3766EF
3D225B75
3DF57F73
3D9A8D3D
3E1A7DED
BDEF0C78
BDC945B7
3DAA5E1A
BD102D90
3DF99913
BDD82D38
BBB3AE99
BD7EB471
3A90BC7B
BDA0A6EF
3DAEF376
BDF8897F
BD6BB957
BDCC2EF0
BD97F258
BDF1E18F
BCE2F66F
BD72A462
3C5B9842
BD8D4C19
3D4969F1
3C82557B
BDFACBC9
3DDA8A40
BDDD1E54
3BB56075
3D977C7B
3B367AA6
BD20DE9D
3D27DD29
BD6ED16F
BD9F8B9C
3CAC6AC2
3DB5600C
3D2DDA13
BD64D7D6
3C920A23
BDA78FB9
3D3CF447
BD9E7642
BE08B264
BCA96A92
BDA8B645
3C91EE75
3D6F02D2
BE04812C
BD05EEA7
3D31BB7F
BDF255F3
BDF0E6F3
BD249BC1
BD4DC99D
3DCC1FFF
3CB78898
3DDCEC85
BDBE245E
BCDECFCF
BD4BF2CD
3C5977D6
BD233BF5
BD2AB2AC
BD1A9D70
3E1A5764
3D5E1361
3DAFCE8F
3E06B65B
3D2866A1
BD9A1D75
3D628672
3D9580A8
3D8BBD2B
3DB07FC5
3C3B4B30
3CFB1CA1
3D145B87
BD68B9E3
BD4060C9
3CC26D2D
BC189DF1
3C7F9577
BB4237F3
BD7FF188
3DBDF358
BD200432
3DD26959
3D3D18C5
BDEA0F4D
3C89F623
3CE77814
BDFE6D59
3DEC8D5C
BC21D8B8
3DAB791D
3DBB3828
3E063C32
BDDF3CF7
BD895C93
BDCCDC87
BDBD3C1B
3D4F9493
3CCC9C91
3D879EEE
BD4E15F3
BA12B411
BCF4FD38
BD99DF11
3D8B92CE
3E00B88D
3DC7C3BC
BD726791
BD8BF983
BDD0257D
3DB8EFBB
3C9A0A6D
BE02BE06
3DFE0AC8
3D357E4C
3DCA14F7
3DCFE36D
BD6BBEB0
3BCD7B5E
3DC423F4
BDC976D7
BDD06EE3
BCA7CB8C
3CB43485
BD702FA8
3E1E3EF3
BCD2AF65
3DA8345A
3AA092DD
3D5FE1E8
3E0CBAB6
3B8A808D
3C09AA99
BDB20F47
3DDCC9EB
BD748395
BD32E169
BCFC2042
BD852F7F
BD1C2423
3DE8900C
3D8E033B
BE07D673
3DAD40C6
BCB95E25
BCF8140E
BDB159C5
BCDE2EF5
3D1A0CD7
3CB2E77E
BD14492D
BDC31AED
3DD8BF7F
BC742E3B
3C2F68A3
3D445839
3D16B061
3E0B912E
BD502024
BC6135A5
3B3251F7
BDD7A3DB
3DD4BDFD
BDCED890
BBDCC2B9
3D8450C8
BDC221AE
BDA2BEB4
BD8E1983
BD479499
3C1FADE6
3D9FC91B
3E0D184C
3D8647FE
BB2C92C6
3DA4043C
BDAA663B
3D4FBCF2
3D1861C1
BDD6EAC8
BD299088
BD9311F6
BD61D15C
BBED12A8
3DD5EBFB
BD5CCF94
BDD67C28
3DE089E3
BD9D099E
3D359C14
3E0A6656
3DA120EF
3D2CF7B0
3D982675
BD76EEDF
3DDD3D43
BDDCB46C
BDEF1ED1
BDC19165
3DEC41DD
BDD69553
3D1E33AD
BDAECA33
BDEFB092
BCEB3B17
BCED8AB2
BD76918D
BD794333
BCD61CA2
BD47E6B4
3DD51A43
3D919FA8
BD8E4E0C
BD526542
3AFFAFF9
BD438BF6
BD1B48AB
3D3B4048
BD8A39B8
BD204A73
3DC0AC7E
BD886D14
BD1A14B4
3DE99D02
3D40E553
3D930411
3E0730C6
BD80592E
BD16931F
3B9C8069
3D4CCF87
3BD2FE3F
BB11547C
BD11EE24
BDD28D00
3CCD7A06
BDF4B1EE
BDDD69D3
BC05A2B7
3DDD0742
3DB828EC
3D53DF7B
BCAEA63B
3D7D712A
BC153D1E
3D1AE869
3D1F2113
3DD62F9D
3D3BD43C
BD5B625C
3E0F138C
BDABB675
BC1D392C
3D20AF52
BD8F1539
3C2ADDFA
3DC88C6E
BDBB154A
3DC62FFB
3CDF1646
BD79D1E9
3E2C51DB
BC91FC16
BD42B735
3E00A676
BD9FA1E4
3DF0CF5B
3C9BC127
3DD2367E
BDE65300
BD72D3FD
BD9680E0
BCBA7364
BDA21038
BDE80B67
3B604FE1
BC14092C
BD48E806
3D46F51C
BDEA8438
3DB9E809
3E06BA49
BC2E840C
3DAC857F
3E10C671
3D8C0669
3E074470
3DA988E0
3DCD8FD6
BDBFD779
BDB64F47
3D9E73CC
BBA36F9C
3C9D81F1
BD98AF59
BB99EBA4
BD625270
BD5BD34B
3DC69751
BD7D0D72
BCDB31EA
3CAAF790
3E02189C
BDC7E798
3D5D93AA
3C7B253A
BDB92BA8
BDC9F69C
BD772B96
3DBB4DB4
3C850C0E
BD433341
BDDE9AF6
3DC539FC
3DEFA0D7
3D00D23D
3DE13E3E
3D90EC8F
BD294615
3D78D8FA
3DFC1A48
3D93EE44
BDACF638
3D93E044
BDADBF8C
BE02DDBE
3E0745BF
3BC1A1B6
BD2241FA
BD3461ED
BD28EDE5
BC6F70D1
BDB8E6DF
BD0AF2A2
BD1DE904
BDD1E3A8
BDE91EA8
BD820AC4
BDDC4439
BBD4E473
BD343C63
3D8E4E6A
3C67A164
3D1010BA
BCB9DA16
3DEC7EAE
BCC21300
3DD421C0
3D02E0F0
BD8D9FB9
3CCF889F
BD131CDE
BD70F444
3DF5C183
3B84B45A
3DF1EAFF
3CF57AA1
BDC52BFC
3D4A91DA
3C92B50E
BDE2BE06
BDF4F2F1
BD2167DF
3CF2B41D
BDFB6DCA
BDF78B37
BDE0E1F8
3B59E813
BC4A460A
3E02F0E1
BDE1A0CF
BD02D8F8
3D970535
3DCEBA28
3DA4F3C8
BDC66E87
BE01B110
3DA8EDCA
BDB7F5B3
BC886057
BDF82F51
BDAC3AA1
3D34CEDF
BD852E9B
3D11E281
BDFA4CE8
3DA8AC19
BDAF4858
3DF374BC
BB9EC898
BD9E2E2C
BD3A55D2
3D2947A7
BDCE514C
BD9039D4
BDFAE0C1
BCD2245A
3D82011F
3D3336DF
BD0F3BA7
BDE4E8B8
3C99245F
3DE8919F
BD5F658B
BDEC3B92
3B06F57D
BD8ECC81
3DD36BD3
3C8B8504
3BF01C07
BDDA5E35
3D03211D
3DA69FCF
3D2EBF9C
BD9A8694
3DEB8AE3
3DD5BD51
3DF32CE9
3D11E032
BC112521
BD1C83FA
BD655F35
3DAD6A59
BAE227D3
3DEA1944
BD8A1174
BC5A9DDB
BD1355E8
BD76407E
3D6AD19B
BDC297C0
3DF29025
3D32BEEA
3D80E9AD
3DDEF06B
BDF90EAA
3C13396E
BD39A4D2
BDF5FFE7
3CE63BD4
3DA7BADF
3DE40421
BE08AFC4
3DA21526
BDCBCF26
3D90073C
BE000043
BD18BFEA
BDC9265D
BCDFEC9A
BC7D9DBB
BD83AB1B
3DCC4AE2
BDDFD827
BD7242C3
3E0FF002
BD810576
BD38958E
BDE4E9C4
3DDF23CD
3DD677F7
BD0C848E
3DF68D76
3E01B047
BD8E8D61
3C30B24F
BDA4E31C
3D87A7BC
BDA99B11
3D8DE899
BD773F82
BE0301A8
3DFAC3EB
BD36E306
BD7E0879
3DD04791
3DD3E9A7
BDE82F0E
BDC9BBBB
3D5245E8
BDEC0592
BD83C750
BCD38D10
BD22447E
BDA671C7
3CD95BBC
BC340D4E
3C38BAC7
3D91F90C
BD74B422
3D8DAC5B
3DE78F26
3CDABD1B
BD98C5A1
BDB6AC57
3DEEEAEA
BCD25786
BD475A82
3D4F0648
BE0A6B51
3B6862D5
3CE1F04B
BDA929AA
BD3697D7
BD6CE3A9
3DA44EA1
3D9D467D
BC83FA96
BD591AD4
3DDAC8A3
3DB977FE
3DBF8785
BDC8E531
3D9E6F72
3DAEF998
BD933BCC
3DE9802C
3D02532C
BDCB3D08
BDE255B0
3D9BD86E
3D6119DB
3E01C21A
3DEC753E
BD6FDEEB
BDF07E17
BDFBC665
BCCF0084
BD573F9D
BD9DFC0C
3D8EEDF4
3DA5AA7F
3D46FA5B
3D9DA87A
3AD7355C
BD3F906E
BCDF9F02
3C0FB225
3D691842
BD321EB1
BDD080B6
BD272416
3DA65F1D
3D8019E6
BC91929A
3D27F3CF
BDFE8039
3D818896
3C7258E3
3D422B53
3CC26967
3CAA3C49
BD98E2FE
BDD21038
3DD32AD0
3CDD122A
BDB19BD4
BE0666AA
3DB19B26
BDE22EE4
BDD6F5CB
BA946B5C
BC74F575
3E071DA3
3E0342AB
BDA8B3E9
BDBA5BF4
BC68F87C
3D942389
BD93BD9D
BD1B38F1
BD9B56EE
3C6D5FEA
3D8AD978
3DC53D71
BBCFB763
3D8F0282
BCB19D67
3DCCB9B7
BD03EF79
BDD9F234
3BA39444
BD87008A
BD8A40E6
BD541F72
3D2B0963
3DD60631
3D893FD8
3DD762D8
BD5B6241
BCFAFCC1
3DBFAE6C
BCBABD00
3DAD6642
BE0338F8
3C719935
BD327EF3
BD12C930
3CFE9715
3C102511
3DAD6261
BCCE6EF9
3CF4146F
3DA9CC82
3D8A5269
3D2477E4
3D8DD5C6
BDA4CD67
3DF42917
BCDEC700
3DBDB403
3CC25113
3D86EE8F
3DF7A13C
BDCB7C42
3E00CDC8
3D0E4F18
BD8F4FE4
3E12CB64
BC3B9F7E
3E2BBE88
3D070F03
3D31D317
BD504486
BD5D125F
BDC404CF
BD374470
BCCC7630
BDC2B785
BD985A0C
BDC14A9E
3C45FBF8
3DA98B49
BDECFC83
BE0ADBC6
BCAD03DA
3D9121C6
3D5BBF5E
BE0E3194
BD83BAD5
3D88764E
BD74C829
BDA4F9EA
BD86ABA9
3D6F846D
3DE90ABB
BCE0EB32
BDA859F1
BBA2F8BE
3E0C200C
BDF7DE94
3DD1F0C3
BD9DC875
3DBB5B2D
BD713B26
BDC46405
BC0C212B
BDD97CC4
BE04C7B0
3D7D7053
BDDA8156
3D057067
BDB7991C
3E2568A5
BD21130B
BDE2888B
BA094177
BE0D63CC
BCB11AF5
3BB821F0
BD6B2DFC
3DD7B4A2
3CA31C2F
3DEFB6DD
3DBE2790
3DE16723
3C24E7AB
BD52E530
BDB45034
3B0A15C3
3DBF256D
BD0BD91C
3C4E54F8
3D401DAD
3D9E47DC
BC11C6F2
3D8F4286
BD7F6281
3D143908
3CC55DD8
3DDE7E20
BDCBA99C
3DD6837F
3DE3B689
BC6B7605
3DFF5A53
BD18160C
3DAC5B73
3DFDDC1E
3C9E0900
BD87A977
BDFC62A2
3DBA4E38
BE0B1AB1
BD26F27D
BD347014
BDF04A30
BE09081C
3DB12422
3DD7DF1A
BBC1C61E
3D7D4570
BDF498C4
3DA0A8C5
3C4A3A4B
3E198F1D
3E0080B6
3CCEEB8B
3DF116A9
3DDBE3C1
3D7E4C87
3E1B8E08
BDE74C90
BDED70E7
3CBFC4DC
3E0A92E6
3DAA5BA4
3CE014DE
3DDDFCA0
BD7058F9
BD8586BD
3B18EAF3
BD7C7F0C
3DCE6538
3D17B0DC
3D64A8C1
BD0E5040
3B8963AC
3CBAA4E2
BD750042
BD1F3F60
3D58EA47
3E03165D
BB315EDD
BD11FB5A
BDB13C91
3DFED289
BD3F4DD9
3BF71C57
BD9D82A0
3D3CD30A
BDD8CF3A
BCD61A53
BDAADCEE
3D706DF1
BD67B678
3A085A46
BDC321E6
BE010FD8
BD202158
3DB7CCCE
3D492E12
3DBAF2A2
3DA6D29D
BCC20F04
BDB404F8
3D025B24
3D3109C3
BDD0FCF8
3DCA653C
BD2E2527
BC918605
BDC07FC5
BDFA0F91
3DD9A06A
3D92A554
3D348147
BDFD2E94
BDD5243A
3C8AEF47
BCD59BDE
BDCD7B63
3E1443D4
3D6C9082
3D8B5C55
BD0F8884
3DACC1BD
BC523C0D
BC728050
BD1E5952
3D81C1FF
BD969E65
3DC262D9
3DEFD114
3D17F87A
3D1336DF
BCF5147F
3CA351A9
3C41E6C0
BE0355CE
BD6AA052
3D59A4ED
BCC8CF7D
3D970542
BDA8A372
BDAE87B8
BD76F2F6
BD550CF2
BD9775E0
BD11F23B
BD2A19CA
3D4D02B2
3DC12E69
3D9DAFD1
BDCAC67D
BDE6F3F5
BDA917F2
BD4C96B2
BD87CF37
BD7500E3
3D4DD484
BC99B797
BDF79FA9
3DE2AFDE
BD98FCE4
BD906291
3D58DEBE
3CCF5F19
3DF484D7
BCB537F0
BB66BB35
BD2E9D37
3D16B79D
3D13B47D
3BA1637D
BD42EF4E
BDFAB756
BDB50C1C
3B705410
BBA817B7
BE005469
BB346C2E
3C953049
BDB1876F
3DDCD573
3D967E5C
BE081A58
BDE4217D
3D697CD1
3C8A54B8
3D00A5FD
3D0E70F7
3C881B8D
3D94A516
BE086F48
3D53AFE0
BCAFA722
BE011A54
3D833EC9
BD32E4FA
3BF5A330
BDA9874D
BCC0F883
BD74850D
BD1C2606
BD9DCBD0
BDB96031
3DDD0BFA
3D588872
3B0CB88B
BD629A29
3D764262
BDDB7E91
3D0E64CD
3CC4F532
BBD21952
BD8F1745
3D9811A4
3DD168F9
3D2906BF
BDB49DBF
3D58627D
3DA8C495
3D0EA0AD
3DAA90F6
3CFBF940
3E0CA2DB
3CDB3D08
BB9BB2F9
3E0CA212
3E0C5650
3C03D582
BD7DDC8A
BDBEEFA2
BDBA5A61
BDC6FD65
BE0C9AFE
BCF86DD0
BD129274
BD376867
3DDA4617
3B9A671F
BDB759C6
BC316426
BDB02A92
BC85C217
BDE40BFE
3D626D7E
BDC3DAB6
BDB7F547
BD8F5E6A
3D9F3C7E
BE036E72
3DC09976
BDBEDF03
3D34F6ED
3D9D20BD
BD703EF8
3B8C7E3E
3E1B1898
3B924DE0
3E069D30
3DBC3281
BCC54478
3E1D7625
3D990A28
3D51E7DA
3E0762D8
3DE1205C
BD9718B6
3DA65428
3DE916CA
3D83B08F
3DD64E8B
BDAC8EE2
3CAA04EC
3D1AA20D
BD3CA1C2
3E0D434A
3E06BB13
3D672B6D
BC20B212
BDCE2435
3D1FEA4B
3DD5F677
3E167514
3E120BC4
3DCE5471
BE00F840
BDB1CDD8
BDB269D2
3CC3A7C0
BC2385AC
3DEBA626
BDFE39F7
3C77EF25
BD346CEF
BD52F322
BD83DD04
3D5FC852
BB529EC9
BC1AB8D3
BE06A93F
BD383474
3D91941F
3DA68987
BC92E911
3D385D8F
BB7DCE77
BDF3E4EF
3BB8FA9D
BB9E645A
BDE0053E
BDEC5198
3D0B9EB5
3BE92F84
BCB031C1
3E0DD5D4
BDC8CB4B
3CE0EA5B
BDB4F319
3D46FC74
3CE2C69F
3CBB213E
3D5A9DF6
3DC8F183
3B99E559
BCD93C7D
BDDD75E2
3E11E4F7
3DC2A27F
3DB11A04
3C2621D3
3DFE2A3D
3DF458CD
BD5E3FBC
3DE556D2
BE0DE1A0
3DEA6DAD
BC566CF4
3DB9EB56
BDBFA64B
BD3043B0
3DBE8201
BCBBA740
3E0A93AF
BD860F51
3D7E30BD
BB4803BA
3D6BD62D
3D85262A
BDBDD385
3D5F7744
BDB9DAED
3CC2590B
3D845507
3DD4373F
3DF76B3C
BDF05964
BDC891BA
3D21144D
3D0676C2
BD1002AD
3D98118A
BC6D4EB8
3CFF2AB8
3DD3415B
BD3D9E0B
BDF2B90A
3D9D8999
3D933EC9
3E087875
3E0F78BC
3C040898
BCC8117C
3D4CC708
3E1A4E38
BD4DBAEE
BD7B361C
3DA1E4A7
BD4CFED1
BDAB59EB
3D5EDEB3
3DB3AE83
BC6388D1
BD58BF2E
3E199AE9
BD46A1DB
BDF296F6
3D6E79FB
3C9282EF
3DB8C693
BD4E7B23
BDAEBC0B
3DB5926E
BDC762B0
BD8A7894
BD27A977
3E02378B
BC43A938
3D04191A
BDA63752
BD3FD8E3
3C9608EB
3DE5AE60
3DDDA6A4
BC0843E7
BD83A7A5
BDA4F773
BCD7F159
3DC4A01B
BD7F241D
3D81D027
BDA81840
BDCD3D86
BBB4E9C2
BC7B5E45
3D97FD90
3C8761BE
BDEDFD69
BC10FEA0
3DAD788F
3DAAC2C4
3E01FFB5
BDBAA10E
BDD4666F
BD8A0382
3E064303
3D6DE820
BDC787DC
BDEACAFF
3DD5831F
3E00F063
3DFDA405
BCE2A221
BD097C9B
3DCBBB62
3C7EAA95
3D6415DA
BD8CE3B6
BD991C31
3DA5CCF1
BCF2F3A8
BDA2B42A
3B30AA82
BDFF9B56
3C9FD18C
BC7B733E
3E0703F3
3DF5F245
3DE450AD
3BBABB68
3DED18D2
3D6E3766
BCB4EB2F
3BF811F5
BDE8DC12
3C25E5D8
BD568D76
BDF63F57
BDCB88AF
BC2E3BE8
BD2F3791
BDDDB121
BD36413A
BDCFAB54
BDEAE6C9
BD31CCE7
BD8DF407
3C86C227
3DC4D02F
BDF6D549
BDE9A240
3CE2B211
3DBBC5D1
BD218F9D
3D06C714
3DEC48AE
3D755FAE
3DF0563F
BDC2F0EE
3C80A541
3D553247
3D341D59
3DEB8E08
BD2BDACA
BD9F5F19
BDADBF7E
BDB57C18
BD35C14D
3D76F255
3D4DED0E
3E019B0B
BD96D699
BD0FAF50
BD96C2C8
BD9D5C5A
BB16A2EF
3DD1C53F
BDEC471B
BC66C88C
BDDDCE7D
BD4954F8
3E06134D
3D953360
BDCC60BF
BDDB7521
BDD00E6B
BE024F66
BDE071C5
BDE2F05A
3D908180
BDEEAFAB
BD8FA10D
3D6BE2F8
BCD93200
BCB6361D
BC7978FD
3DD3A366
BD04EAB6
BB76E478
3D35D96B
3D926A30
3DD01B00
BDACB5F1
BE04D8BA
3DDCA5BE
BCC76DE8
3D6C4A76
3DDC63AE
BD89C9F0
3E070C13
BDE8AC5C
BD403E64
3D157F23
BDB4672B
3CE514F8
BD7D3276
3DED2C38
BDEDB489
BDEB2F23
3D353353
BDCA77F3
3C7BEF65
3C758629
BDAC496A
BDA0196E
BD2E6893
BD8F7FB5
BD7BF8EF
BDC3364B
BDE21EA3
3DC9EDB2
3B824062
BDD01D19
BD6924F2
3DB202DA
BDAE8EE7
BDDE6E65
3DEB838C
3DB1A41D
3C16E844
BDDC6328
3DF059EA
BCC5A9F9
BDE86D72
3DEAA327
3CAAA8EB
3DF0AF60
3DB66C10
3D8D0BD2
BC3810E9
BDE90929
3DCF861A
3B1F99E4
BE0C4F3C
BD8217D3
3D9EAB36
3D7B1EBA
3DBA1AF1
3DD70718
BCD6D4C3
3D7F01EE
3D5A0458
3C629B6B
3D7BB4AC
3DD39863
3B0A14EC
3C07B5D7
3D45CD34
BCD3F39D
BD5D6C72
3D55F11E
BDA5186E
3DCF483D
3AD40CB2
3C3067A7
BD2FBABE
BD7AC2DF
BD88DBB4
3D92F52D
BD867E5C
3D7BEA77
3DA81A81
3C7926C8
BDDD933E
3CF0F56B
3D7F8719
BDC324D6
BC70D04D
3C996851
3D5C0D62
BDB54775
3BC2BA24
BDB0B715
BD0F8600
3DBDD50B
BD929663
3D084CD6
3DEE45C3
3D80D611
3C315578
3DA22F85
BDD508F6
3D904202
BD648B9B
3E0573A8
BDE61B6D
BDB2DAE9
BDA485BC
BD9E30E5
3D905BDB
BD9DFB5E
BC607952
3E0E8C48
3D38BD81
3DC01C6B
3D94BB5E
BC5D517F
BD6B1176
3C041421
3E012557
3D82AE3E
BD7CA7BC
BDD45CFF
BDE15F46
3D82178F
BDBD8F6A
3D80DC9F
BDCAEB30
3DFD9F4D
BD2A3AD2
BDC298CC
BAFA4E90
BD141546
BC0A8EE5
3C941348
3DC764F1
BE04F82F
BD15C57F
BE0476F3
BD986778
3DA33524
3DCB16DD
BE0155D6
BD19F1AE
3DA022DD
BD967939
3D8F78BC
3DF2452C
3D0C2898
BC4A6224
3E045C79
BCC4D303
3DE9DF11
BD095605
3BBC6B81
3E01B9B6
BDE46F15
BDBD1237
BDFE80BF
BDB5588D
BDC40AE4
BDC58B9D
BDB98237
BDC0485A
BDDE108C
BDFEC5F4
3DC017DB
3D2E19EF
3E012275
3D6A2A91
3DD8750C
3E049386
3D732E96
3C7CB69F
BDBF18D7
3DD9641F
3DB66872
3D7719A7
BD7F3EA5
BD50AFB0
BDBF1F15
BC8C9BBA
BAAFE662
BD7C7C6D
3DBB68EA
BAEE8605
3DD78F69
3CA26B2F
3E00BAE9
BB4603DB
BD8B36F3
3D95E9FD
3DE50939
BE048238
3DB1C341
3CA23798
BC8AF9F9
3E0903A7
3E045996
3DC54EF4
3DFCE63A
3CAA80A7
BCF81F97
BDCBACF7
3BBA006C
3E02C301
BB75CE4E
BCF6E280
BD59DAED
3DC219F9
3DD234EC
BD17939A
3D296016
3D9DFF75
BE031983
3C812316
3DDA31A5
BD4A2919
BDFA7222
3D974950
BD9FD157
3E03B257
BDDA43FE
3DC30DDF
BD214397
3D7F6F82
3CABB7DF
BD909A8F
BE0123C4
BD4D2DCB
3D946A78
3DFE5FB7
BDCB6AF5
3D872B2A
BC922B46
BDBDB595
3DB14B8F
3CAD007F
3E096D09
BDF5D0B7
3C87AB5B
3D672523
3CE9EBC2
3B038302
BDD3F078
3CE30B9E
BDB880B0
3E0A3726
BD011EC9
3D3DCC13
3DE8C155
BD28A901
BCFA7180
BDEE74F3
BDAE4A89
BCE57E3F
3DE4D7F1
3DD19AC8
BDF73E25
3DDBB8C3
3D884A7A
BC7A41E5
3D7635CC
BDE73CD5
BD37AFEA
BDDB1C00
3C6E0A34
BD3A583B
BDADC0B3
BD00A160
3D92BB8F
BD2EC149
BD877ADB
BBF2EC46
BD8975D8
BD99389B
3DB467A3
3C3925BB
BDC65C3B
3DF4141F
BDC14205
3DB6803F
BB066E9A
3D33FA89
3D908172
BCDB6369
3D95B963
BD88065F
3D9A0E92
BD17E961
3D95F2A3
3B722BD7
3D42E96F
BDDCCEA3
BD8DB171
BD0B8EC4
3C93F911
3DC0ED73
BD7D40B8
3C54F6D2
BB987150
3D2DFB86
3DB98260
3D72D0D8
3CE18373
BDC5E90B
3C0281B0
3D452D66
3D434331
3C3F6281
BDF9E27A
3D5CB4D7
3DF8B1DD
BD0E3D7B
3D5AD355
3DE8954A
3D4887DF
BD365775
3C2CF52C
3DF720C9
3D721195
3DD361DD
BD3A052F
BDF8E64B
BC4510AB
BD98EB97
3CA04F61
3DAAFA3C
BDD88766
3DBAA69D
BC3CBFA4
3DE7D242
BDAAEE48
3D7A8105
3DC4B465
BE01A21F
BD1445B8
3D76FA18
BE04D940
BD87273C
3D9FE627
3D5D9A95
BDAD1110
BDFE1D21
BD895DF0
BD6D67AD
BD75C996
3DA4827B
3DA6674B
BD0C9016
3D890A5D
3DC323D7
BDB99278
3DB6FEEA
BDE5425F
BDAE618D
3DBC3FC4
BDBFA5E0
3C8D60A6
3D2EF1BB
3DA87B7F
BC43F309
3D5EC080
3D9ED70B
3B05FF08
BD136D9B
BDF0BBF5
BD43004B
BD894318
BD410152
3DF6BC1F
3CC56DC8
BDC926D5
BDDBCB1D
3B293340
BD360DA3
3D89D6E4
3D438AEA
3D9C0E03
BDBC134F
3C0B77D8
BDE9D734
3DA4A658
BDFA00E2
3E08B264
3D8E557E
3E02BF98
BD877235
BDC2C011
BDBD9B01
BC1AC30F
3DB3B58A
BDB8E780
BE0E2D62
BD8DAD90
BDBC4AFC
3DDAC3EB
BD6FC159
3DD7518B
3D2A21A7
3DB7A355
3DFDCF03
BDE97072
3E160C7C
3DBF10AA
BDEECD08
BD0808FE
BD3FA5ED
BDFAC711
3DAED791
BBC38E35
BD7EA3FA
3D3DF996
3DE4F441
BD56FFF7
3DC6AD99
BCC59A74
BDBA7DED
3CD78DF1
3D7C3DEE
3B08EBF7
3DC44864
BD20F396
BD2174C5
3CF0A79D
BDC15F1E
3DB9D12D
BC030F14
BD1B1D78
BDF60200
3C44D588
BD76FEB5
3DBC5AAA
3C4A57A8
3C492726
3DCF0AE5
3DBAE693
3D7DCFBF
BD7F8551
3DEC1D2A
BCE70D20
BE0507EA
BDE5C465
BD1BB4FD
BD0DA80F
3CA04C06
BB19140E
3DE24F66
BDC732ED
3D82EF76
BD0B792B
3D730FDD
BD2FA6EC
3DF8EEAF
3C3936EE
3B1B2205
3D9CBA08
3DFE63E9
BD9A58DC
3D688CCC
3DBCCE5F
3DE1B7E1
3D221584
3BEAFD4F
BD86D7F6
BD638866
3D81EE24
3E0C06E2
BDD719F8
3DE4C9C9
3E0E0D67
3DB95041
BDE80C74
3D93D74D
BCC496D3
3E03EB7D
3CE66087
BD4F1059
3BDCA507
3CC2FB93
3DF9A62F
BE032010
BDA9FBE7
3DCFE8AB
3CBF5657
BC2AA418
3DCC9CB9
3D454DB2
BD1609C2
BDC4E3BD
BDD7F306
3D930D81
BDB78B01
BD82D624
BDF543AF
BDF381D8
3D54DAD3
BCB4E94C
3D814CD1
BDA09B81
BE030E3D
BD66E19C
3E0153BD
BDC73AD7
3DF7C5EF
BDC786DD
3DB2754E
3CA52589
BDFD48CB
BDDAE03B
BD39AC94
3D8D8D37
3DA02EC4
BDE22F6A
BCA70D20
BDA925A1
3D48358E
3DC0FF11
BDFBD8BE
BD926C71
3D8042BE
BDF9B457
3DB22178
B939EAF3
3D153F62
BC151E0A
3C10CE64
BD2F321D
BDE81C2E
BDF1AC9B
BC02325F
BDB55E36
3D989AE7
3E01FE22
3DCD3CFF
3BE9D2ED
BCFC8BA2
3D4FC2B6
3D5CAE8C
BDB931A2
3C1602C1
3DDBF940
BD5BA923
BD1F0B79
3DE177EA
3E123C00
3D56DB5E
3DB4A4FB
3C1BD137
3B5B75B2
3C080BB2
BD7B0F6B
BD45F7E1
3D828375
3CB8A34A
3CC301DD
3D22CA9B
3E0847F5
3DE7C8D2
3D75BBA4
3DB754BE
3DF15832
BDF70260
BCC15ADE
BE0226C4
3CAF3791
3DECFBFC
3DC125D0
BDF44A1F
3DB38251
BD248E8A
3D375C3D
BD3C2870
3C388FFF
BDE624DD
3D335FC4
BC9CFD31
BC5FE5AE
BDB552D6
3E04FDF4
BDCE147B
BD4EFF0C
3DECE896
3E1C17A9
BDFEE5EF
BDC0020B
3D29DCA8
3DA2BBAA
BC994DAF
BDFE21D9
BDD6F7E4
BDD35B92
3C55DBD5
BD46A302
BD1163A0
3D22825C
BDEBDB1A
BB64811E
3D2CEA44
3DBBDE5B
BD909396
BD1AAC03
BDBA4823
BCCAC5C1
3D9F4FA1
3D0A6762
3DAC8748
BDA0BCB1
3E08DE2B
BD9BF47B
BDF1D713
3DF97785
3DAECB24
3DB1995D
3BA32E02
3D0B1720
3E0DF938
3D4813CB
3DC9D841
3915E3C6
BDEC21E2
3D89836C
3D907C77
3CF43E96
BCF1A021
3D47E73A
3D9FF881
3D29354E
BAA594FA
3DE8D196
3DB0445E
3DF6366D
BD847A33
3D232DCD
BDC72ADA
BD3D85D2
BA7FCDF8
3DCBA817
3DA0544E
3AD133E5
BDA1D2FC
3D152221
BD87D4D3
3E1A6CA0
BDEDA017
3E09ACBD
BC50777C
3DA3CC58
3E0240B8
3D14954E
BCB17416
BD8BD77C
BC284ED4
3D772DC9
BE00A6B9
3CBA2270
3D4C2EC8
3D1E0A42
BD22D1BC
3E0710CB
3D1DEF85
3DD96399
BD6CC540
BDC61898
3E051B50
BD808A19
BD1B8222
3DE66DBD
BB922E2B
3D69FA55
BD77E48E
BDA48D63
BD705AF7
BDAFD4BF
3D95DF07
BDCE53EB
BBA16C8C
BDBB98A0
BE00B0AF
BD0B8DEE
3DBB09C1
3B6F2AC6
BC8B4579
3D693569
3D8B290E
3DBD8CBE
3DAE4EF0
3D331BD1
3D45FC99
BCE183DE
3D65AF6C
3D50DA0D
3E0892EF
3DF9CF14
3D8E3D38
3DFD206D
BE06D97B
BD689EA0
BD783043
3CED6C14
BDFA67A5
BDA82C47
3D52AA0C
BDFDC726
3CADD774
3C4185DC
3DA366D8
3DE85FD0
3D8A83CD
3C94FCB2
3DCE5DE1
3CE5456A
3E00C73B
BDDF609E
3BB537B0
BDA57E82
3DD82A99
BD867580
BC8A4A06
BDA69D23
3DE5796C
3DCEC311
BCB3397E
BDBA00E2
3D9B0FBB
BC81966E
BDD6F545
3C4A233A
3DD7F38C
BDA0C309
3C5EE8C4
3B9866BF
3D29DCDE
BDFED8D3
3D0AD180
3D41C044
BCB5CABD
BD0C467A
BCF72CF3
BC3F79FE
3E095422
BDBB37F2
BC276097
3C9A129B
3DC9B05B
3DD64CF9
BD670070
3C3D17B9
BD2588D6
3CC7962C
BDC0E398
BE04BF0A
3CAE8A21
3CE75793
3DAF6025
BDCFBFC6
3DA808AD
BCCF044A
3D9DD866
3DE8EAC0
3D791743
BD7B177E
3DE05EE5
3A799F24
BE0285A9
3DD53049
BD3BEFB5
3D6D24E1
BC1C3601
BDC92982
BD0C2CE4
3D758C74
3D5F8AFB
BD32900B
BC6C4751
3DDB6B2B
3DEE2B06
3DEAED9A
3DD934F0
BD65C24C
BD0A4C1F
3D8E34FC
3DB109F9
3DDD49D8
BDF7214F
3DAA1082
3E01B08A
3DCFDDA9
3D0D297E
BDDD102C
3C91F9FE
3CC13FD1
BDD5EA68
BD7989DF
BD1841E0
BDFDDCA5
3DCB0440
BBD22DE0
BD66D8B2
BD9A66C1
BC96872B
BD89F30B
3D37D615
3DA8BC31
BD29FD44
BCBFDCC5
3DFAE9AB
BDE7F4DC
BDE2730C
3DA53BD1
3CEF7B18
3CC2DBB2
BD041320
3D2BD704
3DDB4CC2
3C8C5D06
BD1A5714
BDAED719
BC91EEAA
3DD29670
3CE1342D
BD7D3CF2
BCA1F18D
BD042162
BDB2B9EF
BAC763AC
3D415718
BC2A19AF
3D5FE020
3E034656
BD9A3D48
BD0AF4A0
BDC603F0
3E074D59
BDDE8790
BDFE89A9
BCB477A1
3DD35116
3D242C4A
BD3A9252
BD798959
3D18706F
BC3DF8F4
BDF1AC15
3C787C13
BD83656D
BD81D0FE
3D9C75FA
BCF44B61
3D3DED51
3DE82060
BDA10F52
3D7F7114
BD77ED5D
3DA8CE70
3D365ECC
BD4BF18B
BDB89C00
BD69CD08
3DE7A41E
BD52C9EC
3D7E2B49
BCE27D03
3D8D82AD
3E06909B
BCD9F391
3CD599FB
BDE25BFB
BD198054
BDC68987
3D1D40D3
BD64DA75
3DF2135E
3D9159FA
3D9BB002
3DC5F1A4
3C265717
BDDDD3BB
3E08A116
BDECDC01
3DE17D28
3DAAC8A3
BDAEAB29
3DB82BC0
3D838195
3D93462E
BD107C85
BD87433B
BD1BD1B8
3D865669
3CF90EAA
3DF3D31C
BDFD627C
BCC84EEE
3DFC2A88
BD8A280D
3D169AE2
BDF1E215
BE04D2B3
BD15C3B7
BDD74688
3DFA8CDF
BAC5283E
BC8DC1BF
374B011B
3D9A7399
3D724A6B
3E071E2A
3DE5DAF0
BCEA7158
BD5B6A04
3D1F0274
BD5AA872
BB39673F
3D01C6DF
3D692289
BD9CB32A
3C97437E
3D77DD1C
BDEA58B4
BC0B60DC
3C470791
3DD9F0A2
3E0720C9
3D4A2263
3DF92210
3E0030C2
BD2D52B4
BDA2292D
3D15917D
3DDD2F1B
3CBCF51E
BCD153E5
BD85F550
BDC8C89E
BC698A07
BD581444
BDA2AC68
3DC9CE9B
3E0B4A66
3C4DF125
3DDBC5DF
BDE303C0
BDE24702
BCD81890
3D1AC6DB
BC7BD208
3D9EA217
3D6090EA
BCF72317
BD6B9FC1
BDBE547F
BD1737DA
3D4012AA
3CA7C10F
3E0940FF
3D671335
BC42E268
BCCABED6
BD975FDB
3DAC5BB6
3C5110FF
3DB1035E
3DD50870
BD09E435
3CA2E9DA
BD118C19
3D9D726C
BE0864CB
3ABA351B
3B42707D
BDBBC98A
3DBECA0A
3DD3AEEF
3D651670
BD2856B1
3E15F5F1
3D4A1009
BDF2C6AC
3D872672
BDD39863
BC5D978B
3D8D949B
BC9703BD
3DAA187A
3D42F314
3C2FB4F9
BCAA9FE7
3D46C292
BDEEC52A
BDA91072
3DB44128
BDFD566D
BDBBBD89
BD79A3FB
3CA22CE6
3DE4712E
BDCE05CD
3C74AC7A
3BDE9537
BDFA7115
BDED7CF6
BE0024B3
BD4D71D9
3C5C7185
BC987BC2
3E037154
BD6C7D37
BC480F63
3DB383D6
BDA79322
3C9B6150
3C799517
BDED373B
3D785FC3
3CC9CEEC
3D82CCC1
3C71EB6A
BD275D21
BDC7CE45
3DE31AD2
BDC4D3A4
3DB55A04
BD70B1FF
3D8A3ADF
BD75D3A7
3CBA66CE
3C7572DE
3DA61F92
BDC8E567
3D9FECA7
BE07A4A5
3DBDA829
BD349808
3C9F52E1
BDF89B52
BE0A0621
BDB49815
3DBA56D1
3D8CB726
BDD6B1A3
3DF9E7B8
3DC52FD0
BD795A5F
BDAEFD29
3D10DA43
BD743BC1
3D8A25E6
3DCEBE59
3D3E6F3C
BC6BBACF
3DF9CE8E
BDC191A8
3DCDB2F6
BDB97A90
3D941553
3C74E65C
3DC71CBF
3C260E88
BDE84F09
3D9A5CA3
BD958F71
BD3AC8F4
3D0C8E69
BC9C0B9A
3DF271BD
3E013166
BCD29670
BE059685
BDBCA0C3
3C4257FF
BD314E06
3D5BE081
3D6C57AD
BD2745F5
BCB32160
BDA3E949
BD8CC144
3DDF8B9C
BD329564
BBEC93A7
BE0383AE
3CBD85D2
BDAB6B7B
3DABB1BD
BD15D9A1
BD3FCF23
3CC33905
BC0ECE3A
3DBCC2D7
3D9EB82A
BD9C948B
BD895E25
3DEC0486
BD128FF0
BCFABC94
BDBA86F2
3DA88F79
BDB878ED
3D3DE7A7
3DE9118C
BDFBDBE4
3C8931A2
3D878DF1
BDB8363D
3CF0376B
BC5A0027
3D6223E2
BD7EB349
3C7384C7
3D81FC8F
3C769EC3
3DAE78D4
BDC04B4A
BCDFB2B8
BDEF8C65
BCBB787C
3BCC6CAB
BD7A2311
3D3DD873
BDF57F73
BD6E609B
3BA76AFE
3D7829C2
3DBA5E93
3DE4BC27
BC9B456B
3C99F0A2
39AEA4BB
BDF60FA1
3D24000A
3D717C0E
BD865C70
BD5686C0
BDE3F706
BDB7C9D1
3CACBCF7
BA8A2A10
3D3C5D2E
3D2F3FF4
BD9B3A33
3BB66F12
BCAF7828
3C31366E
BC037AEA
BCA16576
3DE4345D
3DA38152
3BBC677A
3D48BCED
3D46948A
3D8A5376
3D53D245
3CC4354F
3D8756FF
3CFC7531
3DD83947
BD6234DE
BD3497ED
3D0D8FBB
3CDAFB99
BDB07472
BDDA1C26
BD309869
3CEFB2AB
BDF95571
3D2A9E6F
3DA4096D
BDDD2524
BD7A1753
3D350332
3DA8D350
BD71F4BF
BDC60392
BDEED80A
BDFD2524
BE03C2DB
BD488575
BD950D79
BCF962C2
3D42D8F8
3DAFD8BB
BD074498
3D6CFF22
3D6D79EB
BD03CB4C
3C482B12
BB57DB74
3DAE6729
BD557802
3DA076C0
BD46D5A7
3CCC179B
3DFBE8FF
BC3C07EE
3DB16A7E
BD8D5C09
3CBBEE23
3DF671AC
3DE9D495
3DEEE0F4
BC4CBB9A
3DC3AD69
3E0D349C
BC0CEFBD
3A2DF763
BBC95F6F
3D0247BE
3C2D04B0
3CBB04EE
3D9569DA
BD442792
3D3699D5
BD9AB00D
3D206D94
BCD17E42
BD47ADDF
3DEA6EB9
3DC63E30
3DA560AD
BC8CA595
BCEA2A40
3D0E160E
BD24B267
BC7A772A
BC9E0066
3D21329B
BDFD6388
3E00D7BF
3DA9FFF1
BD643C3A
3C96EC76
BDB8E128
3BC08BF7
3D540D33
3D9330F2
3D9435D5
BD2E7310
3D4A1B77
BCF3A2FA
3D17804F
3CCBBD38
BD24F949
3DC10907
BDC69C16
3CBDEBBE
BD436A4D
BDC14C81
3DFE1112
3D44E542
3E1E48A6
3D878DD6
BD5C115E
BD719173
3D92D483
BD18354B
3B308F54
3DB50573
3D8B96AF
BD0A4980
BDC5D6E7
BC84D80C
BD2DA2EB
BDC21442
BDE17DAF
3D893823
3D37B289
3D284C6A
3DC54A3C
BDDC8EAC
3DD0B84A
BD3A5F27
3CD41602
3DB8AE5A
BD6913C0
BC13D6E2
BDC69D58
3DFAA3F0
BC25AA49
BC000325
BD46C490
BDCA0A0F
3D24CA34
BDDD7A9A
BD619561
3DC0FF1E
BCC1A94D
BC8E860A
3CD5669A
3D8F06A6
BC6D72CA
3DA3AE91
BDC0C43E
BD0308C9
3E07AFEA
BBF0811C
BC2198CC
BCCB2AD6
BCA35E09
3B8AF511
3D9EB306
3D8E0597
BD92F49A
3E19181A
BCB1E58B
3D89A5F9
3E00B956
3D9BE75F
3DACC781
BE04DBE0
BB9E3F9C
BCD62648
BDCEC9E2
3DFE48A6
BDF55CD9
3D7E24FF
3CC093D9
3DBBDEFC
BCC59E3A
3E056F76
3DD0507A
BCD9AEFE
BDD55369
BDBED80A
BC70ABCF
BD4B7BAF
3D8A0481
BD8DD815
3D520E3A
3D54B026
BD6184D0
3DF800A8
BCAD0841
3D8908F3
3E01EB85
3DDC054F
3DF250B5
BD3DF8DA
3E196638
BD8DF78A
BDD6FB09
BCC0B2E3
3DA5559D
3C5F9DF5
3D10EA18
BDCFCEFB
BD1ACEB8
3D1D050E
3D2DBA33
BD909204
BD2F114B
3B88E887
3CDABDF1
BD3C5444
3D658A4E
3D43420A
3CF77EBD
3CD3C9E1
BB0601B7
BCDB1997
BD2A3868
BD5AF4FE
BDA69AFC
BD418A94
BDEEB1C4
3DB99278
3DE17119
BDEA5050
BDC01DE2
3DF3BB84
BD2C7E43
BCABB235
3D904542
BDDD1FE6
BCA54138
3DA35258
3D86E28D
3D9B33F6
BD7E45B6
BDD2CF10
BDC81E2C
BD315FDA
BD90E09B
BD87367D
BD81B65B
3D9180AC
3D702801
3DFD0A67
BDB2AC83
BDC34B01
3DC2B112
BDB40DD4
3DF09FA5
BDADDD96
3CF246DA
3DEBDE40
3D9D2D37
BA6B6E23
3D83780A
3DD39C95
3BC85229
3D3F20C2
3DAC39F2
3C922CF3
3D111871
BD5958B1
3E156042
BD742AC5
39419E9B
3D93136E
3AEA9001
3DC41FC2
3A08C901
BDE19221
BDE1AD64
BD177E87
BC4D2766
BDE5ABC1
BDCA8819
BDC988AA
3CD66095
BDAE0455
BDB2C641
3DA67A02
BD6F9153
BDB1DE41
BC746E67
BDCF40E6
3DA64551
3D806F5C
3D9ABD00
BDD669CF
BDEFD8F1
BC3496E1
BC68FE5C
3C9F5ED5
BDFE81CB
3DCB1C0D
BC2ED931
3D9AABF6
BDCEA0FD
BDB6DC0D
BD8589C8
3CFC3EAA
3C6DBEB5
3D3B9750
BDAC897B
BCD77C53
3D3E7B4B
3DF763E5
3DFE3433
BDFBDD76
3E04DE7F
BC37B792
3D3CEB43
BDBDB85D
BD0492BC
BD5302DC
BD56D712
3DABDAA2
BD045C50
BC6E5C6A
BC050766
3C6794CF
3D85D2EB
BDB13173
BCB1B300
3D1EDFF5
BE0463D0
BD3B87E6
3D7DBD4A
3C279281
BD3369BA
BDECDC01
BD48F309
3CD791B7
3D33CFC1
3D84DBED
BDA5F07D
3DEE53EB
BDAC1807
3D3DC6A0
3D8736B3
BC9ECE8D
3E05043E
3DA62266
BD1A64D0
3D86CA04
3D9598EE
BCA2BD2F
BD88BE58
3DF28F19
3DB4C2B5
BD059642
3CD60667
3E03D2D8
3DEC9108
3DC08404
BDD2F2B6
BD9FE7EF
BE00BE0E
BD7CC873
BD9C30D3
3DA6FB3F
BDA13B5C
BD997E21
3DB66341
BE0BCC6C
3C94D1E9
BDA84506
BDCCD962
BDA47248
3D395F82
BD880B5A
BD2EFA8A
BAC4B628
3C4FFAEA
3DAF0D19
3E0364BF
3DD66CF4
3DACE5CF
BDEEE0F4
3DD65A9B
BD5EE6AB
BD37BD56
BDA6A94D
3CCB94F4
3DA77FF1
3C0AC1A5
BDE81F54
3D00370D
BDF25C3E
BE07503C
BE08609A
BC37641A
BE070BD0
3ABC48F1
BD8EC81A
BDE7AC82
3DBA0225
3CE7A4BF
3DAECE07
3D382525
3D63C4E6
3DCA3EC0
BD06347D
3E05425F
3C69C23B
BDA2EB7A
3DA1C5B8
BDDD284A
BDADC1DA
3C34B798
3D1C8323
BD1A42A1
BBFBE1A3
3D2AAFF2
3DD55715
BCBB6998
3CFA2CB7
BCD6D05C
3B8D0679
3E03DA73
BBE2C140
BE04B59A
BDBD33AA
3DAC9B69
3D4D9EBA
3D716EA2
3DC8D0A4
3CC2DCBF
BDE0956C
BC58CF3A
BE084FD3
3C967989
BD269B75
BC9E65B1
3C3B06D2
3D8B5C3A
3DE9AAA4
3D5010BA
3D41C440
BD812CAE
3DD2263E
3CF3D54F
3E06744B
BBCFE65D
3C12D2AB
BC919F9A
BDC2E283
3B564F02
BD66F80C
BD6F9676
BD2704F2
3CA1F65F
3C81BD6F
3C897595
BDF9D66B
3DC40789
3C4EBB4F
3D78B503
BDBEF871
3B370D73
3CC13FD1
3D7AF0E7
BD386445
3D0B52AF
BDECE0B9
3DF61B2A
3D97DED7
BD7D61F6
3D92CAC3
3BC1CF58
3DBE41AC
3C347A5B
BE07F62B
BDE6698C
3D3E1E64
BD933E51
3D85C42F
3D63F848
BD70588D
BC71D8F6
BCAA6F3F
3B9C12F1
BE060F1B
BDB6A9B8
3DF837B5
BDAFE289
3E059210
BDD84CAD
3DBD6289
3DA3CE06
3D309635
BD5A6140
3DCC6294
3D87F43B
BDC3FB2A
3DB018CC
BDF3CF70
3CA732AA
BE023CC9
3DD31983
BD371250
3DD08C3F
3CB954B5
BE05A6C6
3DF0520D
BD63B4DB
BD307FC5
BD85EA17
3D0DE34D
3DB2D8EB
BBC58093
BB21D72B
3DCE6FB5
BCDDE340
BDB7D963
BDD73B00
3C2341EF
3C7E1E7E
3D94BA01
3CF7C137
BC7B82C3
3C802B69
BCC8301A
3D946A1A
BDD308BC
3D674AFD
3D9B9BAA
BDD8D60A
BDCCA0A8
BDB17E93
BD7E8816
BC318182
BDF25700
3D6C63D6
3C96BA8C
3DA53204
BDD458CD
BBDD674F
BC18CB53
3DD9A416
3DA905C0
3BBA0C6B
3B4E464A
3D13AD92
BD86CC02
BDC766E2
BE03D85A
BDA1F3C0
3CD681B7
3DD8A32F
BD9225FA
BDEA7A42
3D5E3469
3D03B993
3B403235
BDB13844
BD8FF1E6
BDA81C06
3DCAB042
BD4C1F93
BCDC094B
3DD105E2
BD9F0D77
BDFBFC65
3DA27151
3DD7C02B
BBF39B58
3CFAF386
3DB97148
BD97447D
3D91CF0D
3B9B5AFA
3DBE08D7
3D90E6CB
3DFA237D
BDC856CC
3D8EEF44
BD922369
BD2442BB
BD0710E6
3D1C58E1
3DE8A47F
BD15FA08
BD5D4A5E
3DB0128F
3DF8CE2D
BE087EBF
3DB4FE6D
BDF76F6D
BDC3572B
BD2F1AD5
BDEB380D
3D2092B2
3D4C10CA
3D1464F7
BD2E69A0
BDCA2779
BD220FC0
3CE19E15
3D66BF1C
3DB148D5
3CAA3203
3DBDB750
3E041D4B
BDE94899
BD22B5BD
3DAFFE96
BDCD349C
BCEEF226
BD0B0715
3DA353DD
3D7C1179
3DF9BF59
BCBBAB07
3E0FCF3E
BE0DD378
3D30AF2A
BE037825
3B7B8EAC
3D06673D
BDEA6CA0
3D61E116
BDC282C7
3D2EA8DA
BE055821
3D91C97E
3CA0483F
3CBBD9CB
BDBAC9E6
3CCFB1EF
3CD44425
BDCD9E84
BC81824C
3CF591B2
BC297D3C
BD9BC848
3DC47779
BDB0F203
3D855971
3E07EE4E
3CB9E569
3E0C2118
3DC8E1F1
3DEC7B03
3DEDCFCC
BDAB243B
3DDCBA30
3D605DBE
3DADA1EC
3D1F0CD6
BDDE4474
BB432BB9
3D2EACF1
3D903D57
BDC4DCA9
3E11CFFF
BCE5BDCA
BD0884B9
BDB61DF2
3D80895D
BDB5EB16
3CF6918D
BDE33D6C
3D312C93
3DC8964A
3D192302
3DCF01FC
3DCD9381
3DECE78A
3D4CC9F8
BDC02455
BD7E443E
BCD4A970
3DDA554C
3DA40B27
BDD1E6CD
BDBCE281
3DEE3044
BDED18D2
BDBF4B62
3E104189
3D88DA4A
3C414DA8
BB10925F
3DC2437F
3DAFB3AA
BDB77A12
3D3F5F26
3E07D34E
3DEBAA58
3DEA9C56
BCEFE642
3CE5DC33
3CFE963E
3DA0932B
3DD07B78
BD2FC9F2
BDACE117
3D9184A8
BC7F27FE
3D229A29
3D73C7E3
BDF4E1A4
3DEE0B91
BCBF02AA
3B7A0844
3D5836A8
BD9FA7C3
3DC3DA3D
BE048063
BD927C61
3BCB0D85
BDD9146E
BD3B5200
BC8B5096
3DFB96AF
BD63F862
BCB3A28F
BDBBDD9F
3DC491F3
3DB2A8F2
BDA0AA4A
BDD6C7A8
3C958786
3D23596C
3DB02D75
BD824280
3D6BA916
BC9CC609
3C482964
BCCC206A
BDC3BBE2
3D242B73
BDB40174
3DD6D3B7
BD44750F
BD0FDA9E
BDE19EB6
3CB0270F
BC9695A3
3D9D8277
3CC83A97
BCEA4808
3D0E3807
BDC58644
3D9A1F59
3DE8E68E
BD6EA4C4
BDF7635E
BC5A8E56
3D93F25B
3DB88715
BDCC51CD
3D13E7F9
BD9C6195
BDAE9A04
3D9A7B9F
3DE89870
BD8ADDFA
3CDC40A8
BDC830A1
3D24A475
BA4A9A06
3E072BCB
3D753049
3DC159DF
3D67B586
BD10D24B
3DE1E03F
3D2568DB
3D139FBA
3D77B924
BDB26C7F
BD2C54A2
3DDAC57E
3D3514EA
3C7353B5
BD1DBFEA
BDA06581
3DBAA243
3E08AA43
3C086B9F
3D40D5E9
3DC573A8
3DDDC50D
BD27008A
BD20FE48
3E0955F8
3C9BAFF4
BD23D592
BDC2027C
BD608008
3DA4E6FD
BC818C5D
BD818B86
BD5ECF7E
BC9C220A
BD7C3B4F
BD3813BD
BDAE3B11
BC5FEDA6
BDC38675
BDEA2F49
BDE0E172
3D3A8A25
3C8D7CF6
3DE3979A
3D4AED2E
BC91FE9B
BDBA5D36
3E038327
BCF332C8
BDB01DFD
3DFD6B66
3DFE9292
3C28D93D
BDBB07B6
3DE10B63
3D0B1FEF
3C9BB9D0
BD934F25
3A16AC07
BDA4ACCB
3DE17A89
BD716E52
3D7AEA67
BC29CB40
BD38B60F
3DC69C09
BD8D7053
3DF6F438
3C6E9F1A
BD077A2D
BE061D00
BD9F43E3
3D7BCA61
3DA7CA64
BD16FBAA
BCB5A244
BE00F51B
3C2E1E20
BC314588
BC379B0C
3E02E44B
3D2E92A0
BDC0F840
BA1C9D0D
3DDE32A0
3C15D8BA
BD566C6E
BD2DA661
BDAD7FF3
3C9F59CD
BCA78B2A
BDA06383
BD8C3413
BD950E92
3DA0AB8C
3DABA1A4
3DE16830
3DC7FB0C
BDB38D7B
BDA2FA36
BDC22516
3D32D98C
3D4BA8E0
3D53FEF0
3D85C28F
BDCD0B31
BD57BEB3
3BC5FE92
3DD5592E
3DCA7C76
BE038716
BD8ADB40
3D8A6889
3DD782D4
BD7F7B76
BD828F5C
3E10DB27
3DF99568
3D5EB57D
3E1FEB8E
3E053650
BCB17A97
3D5E8DA5
3DF517A4
3DF286B6
3DC857B0
BDEBBF51
BBDC56EE
BD1B9BED
BC38F514
3BFB85C8
3D1AA02A
BDD83516
BBD854EB
3CE4F2C9
3E24CA0C
3D371D89
3C4A44C8
3DA433F2
3D5950EF
BD9065DF
BDC7273C
BDE719B5
BDADE9DB
3DAB1481
BD164536
BD443ADD
3AD5B884
BA4B294D
BD81E464
BD919399
3B7E743A
3DCF7B9E
3B213CA6
3D69DD13
3DD74A34
BD801B5E
3CCF37AB
BDD948DC
3DD1EFB7
3E00F3CB
3E0799A2
BDB7DB7C
3DF6BB99
BDD650A4
3BBDE5EA
3E08348F
BDE6CA04
3D5E8EE7
3E08D717
3DAAC53B
BD05E8FE
3D7A7C4D
3DD757D6
BDEF4E01
3C070A8B
3DA0A336
3D71526E
BE068B1A
BD9537FE
BDB3D50C
3A7A7A74
BD440548
3DCC04FE
BD9420C1
BDE8BC17
3C126C3E
3D1146AF
3A28EA9A
3D199E37
3DD0E66D
3D209E05
BD8A9733
BD5AF60B
3D31DD93
3C80FCB5
BC6A2461
BDDD1783
BD74A000
BD843237
3DC4FF1B
BDFC6F37
3DCC2FFC
3CFE1006
3D70D42E
BDC7FC83
3D99C3CE
3C72C732
BE09B62C
BDC65428
3DA66F35
3D5FA242
BDEF0AE5
3B9ECE4C
3DD5F80A
BDED905C
3E047842
BDE3033A
3D8D45C1
BDBE58D9
BC2D369A
3AFB3368
BD3DBEDD
3DC58E14
BCDDEEFE
BDCC32B6
BD82A13D
3CA1F080
BDE201CD
BDA40802
BD02DB2C
3DBF3EBF
3B349D2B
3D505964
BDD0F5A1
BDF67CAF
3DF2599F
BDA443EF
3D7F54FA
3CCFA9C1
BE08BD23
3DDA22F7
3DB1B1A3
3CE6F09A
3DC3BAF0
BDD3E814
BD08D10F
3D6F2CF9
BDFD3459
3D8F1B0B
3D3DD624
BDF09E13
3D92AC90
3C316B47
3C6C7DD8
BDA8E150
BE017614
3DF7E4DE
BD6A07A6
BBA3E085
3D89AEE3
3C367649
3D407109
3DC982B0
3DF8C5CA
3D3B37AF
3DA5BDBD
3D9D66E3
BDA9405E
BCDEB852
BC947E07
3DD72C52
3D2ECFA7
3CD6A5FF
BE03BE66
3CF317F0
BC5B65ED
3CA01FFB
3C3E5754
BD61C044
BDC7E78B
3D9920E9
3D602554
3CE86FC1
3DC3BE15
3D66C97E
BC5B375E
3DFB7282
BDBA8D4A
BD1D9521
3DDAE686
3DCA6A95
3CD58BEE
3DCBBACF
3DD6D091
BDA4F708
BDC2B3CC
BD2EEB05
BD617870
3DC2E748
3D0E70F7
3D2E9BA4
BC9B8D5A
BD84F243
BDD070FC
BD5225D2
3DAD1DB3
BD0AB0C9
3D3BEAC8
BBD39818
BC28D790
BD8D66C9
3DE218DF
BDC0DF74
3DBAD18D
3D01FBEE
3D5FB6CF
3D24E6D5
BD66ABD1
BDCCEB35
BDE76534
BE0CB2D9
3DC69446
3E039820
BD932BCF
BDDA4F01
3E0894C4
BD555227
BD9671E2
BD3D06F2
3E047885
BD4E8859
3D97D615
BE05143C
BD11A239
3D919AF0
3DA4C0C5
BBDAC055
BDCE171A
3D516731
BDEBFA8F
BDE07896
3DF75C8E
3D635C76
BD328233
BDF0342B
3DE91299
BDBCAA40
BD02A689
3D5348B2
BCD12770
BD860ECB
3D9BAF96
BDD8EDA2
3AB14258
3DAD3FC7
BDFB0EE5
BCC1BF88
BD481D8B
BD33685D
3D071624
3E10791C
3DF5C0FD
3E0F2778
3CA00A97
BDA50756
BE08754F
BD9AE4D8
3D2A12DE
3C1C6902
3DB03F20
BD224CFC
BCC4F715
BE019B4E
BC148ED8
3DE49ECB
3DC295B4
BC84B140
BBD15181
BD94AE50
3D3F6F9C
3DEDDC62
BD8FC3F8
3CCDB6D8
3C3D7EE7
BB2DD815
BD4DD9A8
3D7B82F8
BB930F92
3DCCB146
3DA0E47C
BB996C0D
3D802C9E
3D57ECD6
3D9A8339
3DB8FC0D
3D67BA8F
3DF7FD82
3DEC5975
3D8F5119
BCDB2082
3DF66384
BBEA54C8
3E0EE0F4
3BB89EC2
3D0536A1
3DB4B648
3DC52C75
BCDF406D
3DB3F093
BD269510
BDD62739
3DEACEAB
3C40D03F
3D8BE76D
3DD8AD25
3E073083
BC2C8DFE
BDB56811
3DA1B930
BD129C4F
BB84352E
3E106317
BDB41DD2
BDAA3261
BD484853
BDD22A6F
BE000970
BDC0B4AB
3C730114
3D97A2CF
BD3CB542
BCEC0867
3DA515DC
3DA0A56A
BD4E67D7
BDB8AA0E
3C8D0DD0
3DD718EC
BAF83962
BD87E5F8
BC223138
B9ED98CA
3DB7323E
3D86F446
BDDAC14C
3DEC6F7A
3D054188
BD3B8F58
3E2CF7CB
3C1A7CEE
BDC5C3C4
3E034B94
3B8B1DEB
BD8E4D50
BE04A622
3D6589AD
BD08603C
BD36F2C0
BD703F12
3D2F0861
BAF5EC81
BD80D34A
3C5D80E5
BD48BA4E
3DC752C0
3C7CA496
BD93785B
3D04AE00
3A3D0653
3AEE4BF8
BDD4F3FE
BC2FBBAF
3DC93CDA
BD795EFC
BD963AAD
BE01650A
3E117375
3CC83772
BDC092F5
BB024718
BD6BBCCD
BDD0CED5
3DC21958
3D885455
BDFB95A3
3D970641
BB671A00
3DDF01B8
3D9FB522
BD12C534
BDE2CF53
BE151BD6
3CFED593
3E16B54E
BD87F3B5
BCDB2697
3DC4963F
3DE944ED
3D890888
3D98BC82
3D51DE9F
BD985602
BDF7774B
BDA56034
3D9B4792
3D97E6DC
BC836A18
3DBCCD96
BDB4B209
BC3B8653
3DA24448
BDCDA017
3DF87161
BDD260F6
BDFD6F97
3C440F8F
BD793C11
BCC698D6
3C2E9B1E
39AFF66C
3BAB748D
3C388AF6
BDA69022
3D9F5B1D
3DB7C9F9
BD6CE704
3D4ECCB7
BD066C96
BD3CF696
BE047C31
3D214C81
BC20A2B8
3D46E837
3DE6B591
3DD0E7FF
3C85B871
BD326E98
3D89D6E4
BD944C10
3DD42EDC
3D995358
BC9430DA
BDDDFFC5
BB08D628
3B2B05D3
3DEBDB1A
3CBF484A
3D512C78
3DFABB88
3E020AB7
BD762A79
3DBC5A31
3E2203A3
BC46187E
BDCA3111
3DC080A9
3D5793D0
3DF22963
BDCEAAF3
BDC24C0B
3D80F792
3D1B4104
BCB6DB29
3D55470A
BDE07D4E
3D57D326
3D1E74B0
3C6CB3F3
BDCAA3FE
3CFBDA6C
BE07AC82
3C1F60C3
BC7ACBE4
3DE7F1B7
3DCB3878
BD9C2430
3D7783AA
3DCF57F7
BDB2571B
3DB7EF68
BDF7A5F4
BDC24E31
3DE896DD
3D932ECC
3C09F125
BD0840E1
3DC6564E
3D2FFE7B
BCB6C630
BD301C78
BD3646AE
BDAABED6
BCB94CBD
BD69ACBD
3D886B8F
3D198F89
BCF68F08
BDC5BC6D
3DA0A56A
BC22CE2B
3D48B12F
3CA39566
3DD1C3AD
3D5B90B5
BDA0B64C
3CF61134
3D99E2A2
BD1755D8
BDBCC1BD
3B530CAD
3DF38CDA
3CF21FA2
3DEC60CC
3E0B6FE3
3D5E0031
3D86F4A4
BD0DBED0
BD2E543C
3D650EAD
3D85667F
3D09C2F7
BD177CBF
BDBE3AB3
BD939DBC
BB96BDB2
3D9FE048
3DDA42F2
BBD211B0
3D538E88
3B646671
3DB10D61
3D121B05
3D3C0859
BDF04AB6
BD294050
BCD1A071
3DD95704
BD82FA94
3D1E9EBC
3CFDC3E6
BCF60A7E
3D5FE8B9
BC2ABD43
3DABF635
3C8E789E
BDF2CB64
3DBFC80F
BD5A9B8D
3C027F0B
3E0F47FA
3C99C645
BD8D0E3B
BDD34ACB
BDA1F3CE
3D822AC0
BC23AB8C
3C1310D4
3DEC0DF6
3E1AF1CC
3DE43C3A
BE055E29
3D553841
BC9765AD
3C3497B7
3DA8D493
3D82F838
BDA985FE
3CF1E124
BD20A0BF
BDB465E9
3DD049AA
3DDE29B7
3E154930
3E10691F
3DAC31DF
3E01205C
BDF84902
3D312E26
BD8AD3DC
BE0B4741
BDD9C27F
BDEE9FF1
BD00BEF2
3D187E7C
BDBAB027
BD7905C0
BCB5AF44
BD80DAD6
BDD38B48
BC9BD2C4
BDF124D1
BDECC3E3
3E0578E6
3DD045FE
3DAA9D2D
3D93BABA
BDDC3937
BDE7EBF2
3DE10518
3DBA0359
3C362988
BDBE038C
3D0D0DD0
3D845E4E
3D30AB13
BD7654BB
3DDF93FF
BDD2CBEA
BCA9A947
BB29620F
BD642777
3DA4A5DF
3DF63CB8
BD8F389D
3DFC83A9
3DCBC05D
3E162952
3BF9127B
3DA68A0D
3D61DA2B
3D453DC2
BDCD362F
3D6EF764
3D890159
3DBBD0D4
BDE7FB26
BDFE7FB2
3BC9BCCD
3D373E5B
BDBFE890
3DA83B88
3D8CF249
BD174653
3D9A1FD1
BDB23A7A
3DC35B0C
3E0B78CD
BD6C0831
3D00E446
3C768F3E
BDCECB75
BDBE6C5A
BDD3A366
3DD20C07
BDE6BCE8
3DB42AB7
BD56C955
3DC4BBC9
BDEF7985
BDB7EF5B
BD53B18E
BD24FE37
BD1825FC
3E161805
BD550580
3DABCCF3
BD4B6468
3D2019B1
3D3DAB27
3D8F0A6C
BD3366AF
BC1C997E
3C8A1DC6
3DCF0175
3C4E17BB
3D418FB8
BD6DBD73
BDF9B888
3DEC84F9
3D64AA8A
BDED9DFE
B8ACCE2A
BD35435E
3D8FFB8B
3DC6B84B
3CEA6CBB
BD9DF076
3D95F0B3
3DFF6018
BCF91A33
3DB5624D
3CFAE90A
3D7224FB
3D1D09AB
3D9043A2
3DAC0A57
BD44AC6D
BD372BE6
BD3A82E8
3DFB5E0F
3DC05972
BD75A1A2
BDCE2C99
3D4E79FB
3B062CD5
3DE62563
3DA08FB5
BD4A4C3A
BC4C6D97
3DF5EF20
BC862406
BD555F78
BD77669F
3CD8DE53
3DA03311
3DEAAF36
3DD6A93F
BBB39889
BB7CAF3E
3E01101B
3CD12B36
BBA4BA1F
BDD5336E
BD318549
BD4C2BD8
3C17608F
BCCBA94C
3D78B080
BD91CE0E
BD9E09FF
3DFD70A4
BE01769B
BD4AC937
BD8BAC49
BE098F60
BDDF0A1C
BD870FF4
BDAFD3F6
BE00678C
BDBE9630
BD4612EF
3C29EFBE
BD2C5B8E
3E02EDFE
BDB6AD7E
BDC1C53F
BDD09635
BBB7DF2A
3D0475CB
BD2C1DCB
3C8812F4
BD60B4AB
BDF8EB89
3C94B458
BD4A4DCC
BC7DD65A
BE065343
BD79B838
3D89A5A9
BDAF053C
3D55D6E7
BD344DB0
3CFD8094
3E06A594
BD78F514
3C9A412A
3DEB6178
3D95A6B8
3DEF68BE
3DE2699C
3E082279
BB583C98
BD8B99EF
3D55B905
BD9A4038
BDD355CE
3C94E3F3
BDE9B38D
BDBF043D
3DC3CE2E
3DB75E7E
3E0D6E05
BD164EDC
BD4F8310
3D40D746
BD3A3BD1
BD869EF8
BD246EC5
3DADFBBC
3DE45671
BD86C6DE
3DDB9E06
BCD9F89A
3DFA176E
BB998374
3A505F06
3D461C44
BDC1197D
BDD0B6B7
3C02D7CC
BDF76F6D
BCB8741B
3DBC1532
BDAA696E
3D307B28
3DB0B1C9
3D720155
3D1B9DD0
BDE48F11
3DC38525
BD8CD6D0
3DE79E5A
3C20B1D1
3E02C6AC
BCAB89BC
BCE8B08E
BD0B8986
3DE240B8
3D89E60B
3D71D911
BCB0DB34
BDA4A234
3D917C1C
3DF86A90
3E2EE808
BD7FD213
3D14BB94
3C75D504
BD829D91
BDAD7534
BBECA6DD
BDE7FB26
3DB21E96
BDE1E14C
3DF42BB6
3D232EBE
3E060AA6
BD49B1FB
3E0F0FE0
3DAFA4EE
BCCB952A
3D469688
BCC354B4
3D6B0C02
3DAA8933
BD1DF599
BDF0EA18
BDA7F844
3CDDDA06
3E160E52
3DC21823
3C4427E3
BD4DD200
3CBA930E
BD4294B5
3D134521
BBB4D93B
3DEFF9F8
BCB5D2B5
3D1B485B
BC87BD2E
3CFDCA30
3DBE8A2F
BCADA702
3D075254
3C5AD60F
3B6E1D54
3DCABB95
3CBD47F5
BC714DB6
3E109DD0
3D857A93
3DC098FD
3D060477
BD7A8FCE
BCD26451
BE0AAF36
3DAD1981
3DAF7AAC
BD6D4761
BD8F7879
BE085511
BC3F7AD5
BC8EBDD3
BD6DC7B9
BCED3268
BE0A9FBE
BDCFDC16
3D87BA74
BD07FD90
BDF056C5
BC34B57F
3D9838DC
BDA393AB
3C5849D9
BDC743B4
3E0AA25E
3DC35DD3
3DE22DD8
3D068AC9
BBF53FDE
3C966AA6
BD7DA979
BDB4405F
3B8FF2A7
BDE8E9B4
BCAEB33C
3E002795
3E0CD573
3D806FBA
BBD5F4D4
3D8CE380
3E0FFBCE
3D34EB7F
BC526D20
3D0139F2
3D641FEB
3C552BAB
BC6CBD98
3DF3FD0D
BD33DE39
BE04FCA4
BE0ADBC6
BE048A16
3DE754F3
3DF17C5F
3C11E5FC
BDC87BEA
3C24851B
BD048E1F
3C509D3C
3C74E1BF
BDC66509
BC2DD236
3CA9D3A4
3DA5E171
BDBBD315
BDFE9531
3DC0C6C2
3D819173
3C425F20
3D459784
BD6BB6B8
BDF5054B
3D904E8A
3DD24D0A
3C9C9F3D
3E0A9479
BDB320BF
BD2FD398
3D9DE093
BC6CB825
BD55D463
3C1B8CE4
BD7EAC93
3E0A6117
3D0AA815
BD55F9ED
3D767A60
BBB13DE6
BC47DA1F
3D09EC2D
BD73CA32
3D1C4D8E
BD44AB60
BBCC0E8C
3DD199BB
3E0569F5
BD866A7D
3C9081F9
3D150F77
BDC63165
BD67A992
3D17C3F1
3E1AA36A
BD94F35D
BDC8108B
3DC28BA3
BC0A15C3
3D8C6B13
BD9E2A4A
BD24E17C
BDB3CF2D
BCD162FF
3D780438
3D363ED1
3C51B930
3DBAE42A
BBB8AE1C
3E0131EC
3D869A69
BC8F2C23
BD4BC4FA
3D6A9B7F
3E032A8D
BCE05286
3D0FEA59
BDA7D326
BDDEB181
3CCAFDC0
BDF85272
BD4E12B3
3DD630A9
3D3A4BF6
BD49CAD5
3C0B8B84
BDD21038
BD56C574
BDF54541
3DBEFB2B
3DAF44AC
BE067946
BD982964
BD7C0A07
BD1C74FB
3C327F44
3D739EC9
BDD9DA9D
3DD7FB6A
BD64BDD5
BAC03D47
BD72A2B5
3D554D6F
BD803E8C
BDD47736
3C344C38
3DD42917
3E084DBA
3E18E92D
3DDFFF7A
BCA6490A
BD1EFBBE
BD514827
3D3294A8
BD76DF75
BC973322
BDD65669
3E09DAE0
3D952D4C
3C573A79
BDEDCB14
3DC70D12
3C8372B1
BD2AE80B
3D78CA67
BCA8DB20
3D31F688
BD31FFA7
BD62AC4D
BAABB0F3
BDA838B4
BDD97BB7
BE02D6AA
BDA8DA21
3DC3622D
3DF71088
3C3653E5
3CB18797
BD6E0E30
3DCAF519
BD8B68B4
BDDDC26E
BD0571AA
BC87116C
BDFBCFD5
3E0DA4CF
BCFED7E2
BD88B2DC
BD2CCFA2
BDE2CC2D
BE034A02
BD51C3AD
BDF1E42E
BE0799E5
3D85AB12
BA8460A2
3CC922F4
3DB1B9DF
BD3522A7
3C925BB8
BC0B08BD
BCBF7597
3DAA223B
3DE1D53D
3D2560E3
3D658652
3DF4E443
BDC27EE6
3D1979B9
BDEB07D1
BCDD8948
3CFEF9DB
3E13137B
BDCA1C9F
3DA14D2F
BD33D36C
BDCFADF3
BD2DBA68
3E161BF3
BDF5DE59
BD650B52
BD93DA58
3C584754
BD0B60BC
3DB77A63
BBDA0AA3
3DB829F8
BC6FF84B
3D8B12FC
3DE42203
3E041893
BCEAE65E
3D150A03
3DE29414
BD3DB212
BBBABE98
3DA76EF5
BBFBF809
3DD19696
BD6CDB96
BD781429
3DF3ADE2
3DEC093E
BB99505E
3DB1E4DD
BE01D649
BCE23656
BDB83332
BE070C99
3DFB634E
3CAB243B
BDCE73E7
3DC6ABDE
BBCDE28C
BCB242DE
BDECC815
BE00535D
BDDD7C2D
BD15B06B
BCDBD43C
3E01B64E
BDCD42C4
3DF0A676
BDBEBB6A
BD817855
3CAB748D
3D3B6185
3C001E1D
BD735888
3D83E377
3D973DBA
BD4BAA08
3DAA0B51
BD94DFDC
3E04AC6D
BDC80B3F
3D18ECB1
BD7A38C6
3B1B0EBA
BD95D562
BD58D6AB
BD27E359
3CCE99C1
3E10129D
BD1C6A64
3D27001F
BDA3DE39
3D641E07
BD4E67BD
3E151C19
3BC31513
BCB07838
3DC7DC52
BC0680D8
BDEDF698
BDF6B010
3DAC9801
BD9C8125
3DFC3EFB
BDA10859
3D0474DA
BDEE45C3
BD1F5F26
3DBA94AE
BD4ED931
BCBCF016
3D266773
BE01059F
BDA04FCC
BD407C0C
BDFFE32A
3CD2B112
3D2E0115
BA891CF5
3BA640DC
BD746C69
BD857753
BD83548B
3D0BBB70
3D6216AB
BDB9DC72
3E107FED
3E02BC73
3DAC2B7A
3D40CDA0
BDF15CEA
3E0341E1
BD7E0935
3CB0450C
BDD6E7A3
BDE71AC1
3D62C3CA
3D3D1E39
BD233128
BD657AE4
BD872325
3DEFAACE
3A362ED9
3DFE13B2
BDF38716
BD1C77B5
BCBF4F36
3DFB584B
BDA829D0
3D428C6D
3DDDEDF2
BD99C271
BD8AB799
BD0310F7
3DE7AA69
BDEE7F6F
3C640711
BDEC63F1
3C6F1562
3D78FAD8
3CDEB6A4
3B8A9F15
BDD53DEA
3D29C602
3DAC81E1
3C4FFAEA
BDBBE257
3D4DCCF8
BDCF0282
3D81D1BA
BB8CF3EF
BCFF401C
BDF2A27F
3D75C2E0
3D79F1AE
BD2BA641
BE077EA2
3D8DC9AA
3DC35D9D
BCF82251
BDBF2D22
BDA83E5D
3C9B526C
BCE59A8F
BD00E4E7
BD7FBD50
3DFEEDCC
3B41EF23
3E13E39F
3C8382A1
BDACEF09
3E06A9C5
3DA3C5F3
BC9CAF63
3CCAD2F8
BDA116EC
BD091750
3CD399DB
3D861573
BDF66491
3E0A3012
3CE27759
BD44320E
3C58C529
BD9BA79E
BD339233
3D9C2B7A
BD590AE4
3E019589
BDF40896
3DF3D74D
BDE2D2FE
BDF51C5C
BDFC84B6
BDF3836B
3DD61CBD
BD848388
3C6445FB
BCC5E6CA
BC9A6938
3B13B4A8
3BA62C90
3D03259F
BBCB53D1
3D7979D4
3D4E72DA
BB6FFD29
3DA3964A
BD6C3456
BD24D99E
3DD2F5DC
3D2CC5C6
BDF6440F
BD8A4C47
3D79652C
3D81A6A1
3DC03819
BDE5D8D8
BDC2B65E
BC53217B
3D971D60
3D8C287D
3CB9DA16
BDF98527
BD82A2F8
BD85E2DB
BDBFFF44
3D726CEA
3DD418D7
3D085D9D
BB3D5FF2
BCD1C15E
BD0767EE
3D06D613
3C5A8AFB
3DB1F3F6
BD5010D4
3DFA261C
BA54B8B2
BD1316FE
3D6E5182
3DB8A9E5
3DEDB489
3DBED60C
3D9F228A
3D55B4EE
BC36D2FB
BDA76450
3D8E31E4
BE055B46
3DF9389B
3D88AF31
3CF93D03
BD18C7FD
3DFD87B5
BC78DF7A
3E0E9C02
BDA73B78
3DADC2BE
3C7EF53E
3D887BD0
BC97074E
3D8FF152
3DD08E58
3D82BDC2
BA083B34
3D33142A
3C9862CD
3D7C65AC
BDE6D3FA
BE0EC2CE
3DB432F3
BCCC7D87
BDA49EB0
BCB7358C
3DFEB7CC
BCC57AFF
3DB3708B
3D9B25C1
3BE6254E
BD94097A
BCB13C83
3C1A1ED0
3D745720
3C349ED9
BCE8E63E
3DE39CD8
3CDC9E67
3DE45CBC
3D3AD0D1
BD6A6712
3D3973BF
BDAFE7D5
BD9D60A6
3C8C9C91
3DC1C483
BDD99E52
BCB83C52
BCC83D86
BD265D7D
BDE044AF
3CEC1FE4
BD843F60
3DDDFD26
BE06C11A
3DA128E7
BD8516CE
3DBE51C5
BDFE1DA8
3D9451AC
BD04E5C8
BD4774EF
3C8D19FA
3CFDE615
3DDA9867
BD819CE0
BD6D2E01
BE046BAD
BB79086A
3DAEDB07
BD2BCC6C
BD4315AF
3D48B95D
BDD9BBAE
3DF0B285
3DDDACEF
BA95AB23
BDF1FB40
3DF1B047
3E1084A5
3D1D0D57
BDC588F1
3DC556DF
3DBC74AB
3DE03AB8
BC1901A4
3E162D41
BD285122
BDBC62BD
3D9462D1
3DF8FFFC
3D97B0C1
3BC9A73E
3D6F4624
3D3EBD25
BD7D6642
3DB8567B
BC232386
3D5492CA
BDB1F736
BDBA6E76
BCE9DF98
3D99DE05
BDC2C88F
BD7D8B46
BDA50CD7
3E03E250
3CA5A8D1
3D2FC71D
BDEA2D30
BD447B90
BDF1F70E
BCACD4E0
BDAD3F69
3D0F8777
3DB20F1F
BC90C621
BE0A936C
BDF6DE33
3D6FC13E
BD9C5388
3DBBA288
3D87390F
3C8FCA0D
3DD9999A
BDD152F4
3DEDA555
3DE65D7D
3C8BFD64
BDED3CFF
BDD29889
BD72130D
BD872D28
3DEF2064
3D474320
BDFE4606
BCC828F9
3DA7E168
BCD5F7B9
BBFE5E14
3DA985C8
3D06A94D
3D700135
3DAC3C4E
BB992799
3D9C1949
BBD21185
BDA62604
3DAE3781
BD4E06BE
BD8A3876
3D40E461
3D6C035E
BCABB194
BDA96950
3D66A6C8
BDFCE4A8
3E0ABB45
BDE0AB71
BCF31932
3D806AA4
BD81F015
BC13DC2B
BC52C966
BD374CB8
BDC2F66F
BD3E86EF
3DDFD588
BDCE7254
BDA16AA6
BE032053
3CA1CA1F
3D8D9092
3DA7F6E7
BC23259F
BDC3B95E
3E004DDB
3D658A33
BC8C942D
BD0DE1F0
BDDC254A
BD806AE7
BD797445
BC398776
BDAA3500
BDAFC1B7
BD24C547
BCF944C5
3AC7CAAF
BDAED0E9
BD856283
3C7FCEED
3D932BCF
BD481685
3D50C804
3DCF33CA
BD6C9B84
3D933608
3D42AC4D
3DA0E553
BCBFACF4
BDF26B72
3D7A2687
3D6A96E2
3E15C076
3DBD9613
3D628E50
BD8AB6EB
3C039A74
BC8C0CB3
3DE1FB83
BCC3826B
BC3EA847
BDDCB4F2
3C800F85
3DF6073E
3D6B7FE1
BCEDD5C6
3DD60C7C
3DEC1E36
3DE49C2C
3D9137A3
BDE424A2
3DF64D7F
3E0AE579
3D283BF4
BD89C993
3D88D12A
3DFC9258
3CE54D97
BD8212BD
3DD9BDC7
3E0C1EBD
BD35B15D
3E0EF805
3D0AB6C3
3C737619
BDF736CE
BDB221A0
3DAB710A
BD398A4A
3DB3AA7A
3D3DB080
3D0E11C1
3C7DCB07
BDE2ACB8
3D4D612C
BDDEE243
3C8ADFC2
BDDAD5BF
3D4CE0D4
3D6AA773
BD2B26C0
3DCCAD2F
BE119FC3
BC2AD52B
3E105708
BD2E77AD
BDB5E51C
BDBB10F0
3D49B068
3DEC02F3
3D3525CC
3DA44C88
BD9FEE12
3DC14DEB
BDF50E34
3DF90F30
3E1F8CEB
BD34C56F
BD76C93A
3DDC6C98
3C3F59B2
3DD10A9A
BD7B2A93
BC92A58A
BD181B80
3C31C64C
BE08487C
3D317EE3
3CA0942A
BD4AAC61
BAF7EA32
BDBC584E
BCD2BA17
3D84B4A8
BC854D11
BDEC3DAB
BB529E73
BCF1E04D
BD2F4EF3
3DCAA0CB
BDA43B64
3D3BF239
BDE2645E
3DD7A249
BD88127B
3DC6D026
3D296173
3C58FDC8
3DD32592
3DB09F8A
BCD4C371
3DC74305
3C585F3D
3BC56DF3
BD4B2208
3C6BF155
3D826BA8
3E060C39
3D3EF269
3DC6E654
3D452107
3E0C2EBA
3DEE2542
3D15CDAD
BC92F322
3CB422E8
3B96F941
3D8CB8C6
3E0348B2
BDB1C4B9
BD5B2505
BD3C5A74
BD091F2E
BDD21145
BD11E7DA
3DC39998
BDC3B81B
3D3B89C9
BD1EF574
BDC73A0E
BDB92924
BCA38F87
BD684D5C
BC714B31
3D21D53D
3E1D4520
3E0D2C7C
3E061F5C
3CD1EF81
BD50B10D
BDF93B3A
BD9E7C14
3D2CA95C
3BEB7F15
BD0DE6A8
3D1A3063
3D975A17
3D969EEB
3DCD0B31
BDD5CD92
3C958D30
3887442C
3E0378AB
BD07CBF7
3D90DA5E
3DC495B9
BD9545E2
BDDDCE7D
BDA8DA8D
BC93111F
BDA81A4B
B9BE776C
3D859CC2
BE04C2B5
3C79EE03
BDFEBC84
3D3B1092
BD82D624
BBE9A1F0
BE136695
3CF3D36C
3B04A618
3DFD14E4
3DC0DA79
BD988B04
BD8A062E
BD8E5DE1
3D10AD47
3DC811CD
BDFF4129
BC1778A2
BD679AAE
BDE0E411
BD4003FC
BE047065
3C0447B8
3DDB4EDB
395F68DC
BD5286EB
BCD379FB
3B261CE0
3DCF5BA3
3DB61CBD
3C85FBC3
BD05E3A4
BDB0D61F
3DE1DC94
BD75A3D6
BE059CD0
BD436113
3BBD3250
BC99AC0E
3DB0C62E
3D530C4C
BCD0B84A
3D5FCFC4
3D846746
BDC9F509
3E02CB21
3E008249
3D6FC62C
BD89BB78
BBD547DB
BDF527E5
BD60A0F5
BD49618E
3D06EC4E
BDBB5B7E
BE086FCE
3A08667D
3D0C1186
3D987161
BDCFC265
BDB8F9CC
BDE67275
BDA0376B
3D704486
3D221CA5
3E06C871
3E01D191
3E025CC4
BDFCAEA7
3D77DB03
3DBB466A
3DBB0136
BD8B0CCC
BCE4176C
3E1A94FF
3D8CE373
BCA07D18
BD6E63C1
3DFFA5D3
3DF7A4E8
3DDED070
BDB77F86
3D6CE124
39D263B2
BD265FE6
3D7584CD
3D01650A
3DBDA570
3D32F7A4
BE006184
3C3DC345
3DDE01DE
BDFA5764
BD323430
3D7514EA
3E055A3A
3D8C324B
BDA9F49E
3E108356
3DC3F898
BC165C02
3DBA2CC5
3DA9BCFD
3DA15542
3E019829
3D8B21AA
3D00EAFC
3E13F855
BD9340BA
3D9257D7
3D9B54D5
BD20C324
3CB7CBE9
3D27EE76
3D38A0E1
BDC57852
BCDE58B1
BDC036A1
BDF2B55F
BD875B8F
3DEF5D35
BD942FC0
BD474E73
BDB4FC6E
3D8EE10F
3D61CBB2
3E382ECB
BD445946
3DB71FA2
BD86B972
BDCD87F9
3B03F873
3E02224F
BD01CBE8
BD0B6D1C
BD29AB45
3CF6E321
3DF73D19
3CC63645
3CF7E5EB
3B0804F2
3DE53869
BD28D3C9
3DC7D681
BE039863
BC9226A9
3C33B752
BDD2074F
3D874320
3D1C85F8
BDF98959
3CBC3F4B
BD5A76F4
BC97A38B
3D151EAB
BDDEFC7A
3D0A9F96
BDF31DB4
BDFD1E54
BCB3354C
BDBC59AB
BDBFA6C4
BD9B8F73
BCC8F67E
BE0A1B5C
BB3DDB42
BB5A6592
3DA56961
3D57FB84
BD83A018
BDCA1A86
BD56697E
BDE291FB
3CE11EFF
3DC33AE8
3D970BC3
3DFFC3B5
BD916A71
BDFEC67A
3CADF6B3
BDBD9B5F
BD2B809C
BE0F0026
3D5CDE93
BD2163E3
3D1345A8
3DEB9021
BD5E78E2
BD54FA7E
3D8D7D54
3CA5A7C5
BC56C864
BD95E991
3CB250B5
3D297397
3C84EEB2
3D9ABB88
BD925C16
BCD04B07
BE0184C2
3D6F5EC8
BDF8F041
BD20E015
3DC3DF10
BD8960C4
BCAE359D
BB9DAF68
3D360052
3DFB29A2
3C85EEF8
3DD5E7C9
3D1DF620
3DDE681B
3D97E97B
B90C8FC6
3DDB7E0B
3C953338
BDA1669D
BDDA4F87
3D6BA8E0
BDB38EF3
3D8E4664
3D71791F
BD4D8CE6
BD74D2DB
BDAD3CFF
BCE67D78
3DAD1160
3D6FE494
3C7FE08B
BDFBF056
BDFAABCD
BCF93972
3D7F7BAB
3DF240FB
3E02D384
3D626AF9
3D924DEE
BD904909
3D8375E4
BD7C66EE
3997AFBD
3C21E187
3E22413E
3DF783E0
3DA5F352
3D676930
BCD42CA8
3BAF393E
BE00B2C8
BDA1D4C4
BD0A1222
3C0DE3E4
3CBA5B7B
BDA0CB87
3D951D91
3D8A445C
BD8EA97C
3DF7A893
3D931D06
3D1E23D7
BD5C0874
3DB6276F
BD7EE873
3C314156
BD4B6757
3DA408B1
3D87C5AC
3D78F458
3E08C6D6
BC29874D
BD1335ED
BD2700F6
BC8E9A62
BDB49ADD
3E034B0E
BC9D8C02
BDE7DFE3
BD77144E
3DF13837
3D942401
BDD66517
3E049D39
BD508FEB
3BBBAC69
BE0752DB
BD915FDA
3D908D31
BC2DFC27
BD8E98F8
BDC99CF5
BC99BB5D
3E0580C3
3CA301F8
3AB7B086
3D97CFA2
3DA32E89
BD9E84FE
BDBE086C
3D9AA2AE
3DA6E844
BC348F54
BDBB0E36
BD62CA65
3D0A4350
3DA2612C
BD559C14
3DC1886E
3D8C3D40
BD3A6BBC
3CAEC75E
3DE45BAF
BCDE2F60
3C6D6203
3D1CF51E
BD9C7AB2
3D891794
BD826A23
3DB7B93F
BDE3AA7A
3BFEDCAA
BD731A8F
3CC0EB83
BC76FB09
3DFB75A7
3E301084
BDC7D20C
BDC7F702
BDC8CE20
BE07607C
B996152B
BE04ECEA
BCBD116E
BD576394
BE13F141
3B5B9E4C
BB8F0948
3DC1BFD9
3A2913E0
BDD8C198
BE027525
BCB1CD6D
BD7083C1
3D3A9684
BDFE9EA1
3DFDD65A
3B379400
BD98C876
3C15E7DE
BD46490A
3DFFA97E
3DFD87B5
3D869A91
3C4604C7
3D2E987F
3DEBAA58
BE05158C
3C2996D2
BD32864A
BDB98CCF
3DCEE526
3D8BE879
3C656B29
BD2778D0
BD203E49
BBDF454A
BCEAFBC2
3DCC5EA6
BDEE33F0
3DE658C5
3D81F927
3CC2AF07
BDF0A1BE
3D8F7462
BC9F4540
3D9CE648
3C832D47
3CB9A4D2
3C9DE1C8
BD55E5B0
BD91277D
3C0E8681
BCE69AD4
3DD2367E
3D49D297
3E1805E6
BDD455A8
BDAB153D
3DE469D7
BD9C57AD
3E06ACEB
3D561291
BCE29EFC
BDDEE1BD
3D84D4A3
BD67EAE6
3CFE8AEB
BCC4FA3B
3CCB27E7
3DDF5E85
BD9B79B1
BDBF2CC4
3D5493F1
3E0B4F61
BE025786
3CCA5A2C
3DE7B678
3DF90C91
BD3BB293
3CB55C6E
3D5918BB
BB72C402
3E094467
3D8DC161
3D02A257
3CDD2FBC
3C2F364E
BDE6BE7B
3DC83DFF
BDF272C9
3D2C8960
BC1ADE53
3DC9B944
BBCB9428
3B4A323E
3D0F6A87
3BAB58C9
3DECC708
3E0867F1
3DE76F2A
3C36E499
3DF702E6
BDF16441
BD3115ED
3D1BCA7C
BCE971E9
3D680F63
3E12C882
BDD3AEEF
BE073797
BBC137D9
BDC65A22
BDDA3550
BDCCE571
3DCB579D
3E106467
BE0AD18D
BE049A56
BD2BC622
BDB61E93
BDEBD018
BD818E5B
BD010427
3CD5F062
BDAD8A3A
BD64FA70
3CE69779
3D80BBF5
BDC9EB06
3DFEB852
BDEDCF46
3C6DBC31
BD9AF5AD
3CB84B6B
3C3345A8
BD42C817
3C90FD13
3D6EE7DF
3DA20F54
BDBC04F1
BDE08851
3E00D499
BE0846E9
3DA99ECA
3E0CF356
BCBF1265
3E060525
3E13A9B0
3D1CA85D
BD5FBCC9
3E06B1E6
BDF32724
3DB602FF
BD6CC7FA
3DB8D427
BDF4D8BA
BD846837
BD960723
3D99EA7F
BD383D0E
3D0F3FA4
3DDD4AE4
3E08BF3C
3D3E1D57
3DB97E8C
BD3827AA
3CA85B33
3DFBAE47
3D74B0AC
3DC8997C
3E08090B
BC546979
3CA22666
3D43D619
BD9B098C
3CA512DF
BCE72284
3D96BFB0
3C848EDB
3E0A847B
BC757F73
3E16B8FA
BD5B5972
3DADDEF3
3CEC093E
3CFA01B9
3DFE8DDA
3D55F22A
BD703679
3DD760BF
BDDE5083
BDA877D3
3E1D2913
3C240DFC
3B0AB4CF
BC448352
BD474C25
3DDF969E
BDD2E83A
3D917A6E
3D38F25A
BD9EF30A
BE09B520
3DF51DEF
BC571880
BDE9FF93
3D57288B
3D40AF02
BD427EE6
3DB77A55
BE00B242
3C429BF1
BDD7AF64
BDAE6688
3DC0AA3C
BDED80A1
BD634473
3D6C6569
3D09854F
BC75B523
BC2A77A3
BD860759
BE032F01
BDBC0443
3E0FBA45
BD895209
3D1B375E
3CFDAFF9
3D383409
BDFACE68
BCFBC82D
BDED20B0
BCFD9E26
3D07C1CB
3DB8BBEE
3DBFB649
3DBDA19C
3AF47F6E
BC4DA108
3D917177
3E111A11
3DAC15C5
BC898AC3
3CA453D2
3CFBC573
3E054541
3E02391D
3E0FC0D3
BDFCF13D
3DC34613
3C79BA00
3C8B0C38
BCDEB929
3A871B93
3D390B85
3DB4A566
BB974887
BE01E8A3
BDA63701
3DF2B66B
3E0BEFD0
BDD552E3
BDD12E41
BB88544D
3E0B0F6B
3E09CD81
3D2A3726
3E010BA6
3DE1CEF2
3D01193A
BE012C28
BDECAE64
3CA30701
3DBDD8C3
3DE492BC
3CE20EE9
BD8BA4D7
3E0A4B99
3DC8A1B7
3E04CC68
BDDB1316
3B86D8A2
3C9FFD61
3C35C25A
3D530DDF
BDFCA6CA
BDBB842D
BD344DE5
3D3ADDD2
3D9EDEC0
BCA32C1F
3D6B2A1B
3E093EE6
BDB33BB2
BCAB44BD
3DE5EFE9
3DC0F7BA
3D6DA2EB
BCCCBC71
3D993060
3D81C440
BD4D8E0D
BD2D63CC
BDEB60F2
BC30A5BA
BD562A79
BDA24D17
3C5A638E
3D81970F
3E0380CB
BDA4DF2D
BDB31A31
3B86DC68
3E13A5C2
3D65729B
3D1E4382
3D9AEDCF
BC70011A
3D2FF774
3DFF876A
BC5A88E3
3C6BAADE
BDF5D3DD
3DAF36BA
3B11A605
3DD0DF9C
BDA16279
BDE773E2
3B0A3AAC
3D4C5CB5
BDBEEA3B
BD8D3EE3
BDD45522
3D5BB2AE
3DA516B3
BD8FDFB4
BDB55FC9
3A977A30
3C42C3CA
BD0AE303
3DAA454E
3E169058
3DB74F8D
3B987AB6
BD7BB187
3DAD78EC
BDC4F4C7
3D4D018B
BD837776
3DD340D5
BBC3A3C4
3D6ED2CC
3BFD5ED0
3D5EBD90
3DC0B98C
3D6898F6
BDC1AD9A
3D961E35
3D825B4C
3C1D3FE2
BE0A860E
BD87C7C5
BDAE801E
BD3B61BB
3D0F2B31
BD8E6008
3D768471
BDF085F5
3D1264A1
BCD76618
BD751358
3D8E29EC
3DC8906A
BD584612
BD20E5D9
BB6737B2
3D1C47FF
3DCDEA03
BDDE1B09
3D229F4C
3CD584CD
BAC32788
BCD651B1
BDEE7B3E
3B8B5F2F
BDECEC42
3DD3C925
3DB89A38
3CC18937
BDC698FE
BD2CA489
BD9DB3DB
BBE61573
BD0BC657
3D67A12F
3E0D2C38
3DBBBDCC
BA6F9082
BDD6F08D
BD243F95
3C729182
BCBE9318
3D8530EA
3DD05426
BDDA2164
BDEA64C3
BD0A0B37
BD80FCA8
BD51E230
3D69C073
3E119C17
3E04534C
3DDE9292
3DF1FD59
BDBB3553
BDA92875
BDACB2CC
BDDCA4B1
3D9AEDB5
3E01D4FA
BDDBB624
3D975021
BD9EB456
3CFB6CF3
3DCF3908
3DBEE342
BC9EEC1F
3D37C4E3
3D158065
BC4F7589
3E075819
BCFCEFAA
3DD5653D
BDD1D367
BE02235B
3D6CC342
BBDDD589
BD2F3E61
3CFD9DBB
BDE7607C
BDBF4319
3E1F50A0
3C9EB7B1
BCBC4A9F
3CD90F9B
BD25FA80
BC4DF91D
3D70B84A
3D9864B1
BDCC1235
BE06A551
BD9FDD8E
3DC2ACAB
3CB57BAD
3CEE1120
3D3099E1
3C969828
BDEEF673
3D029B50
3DBFAC7B
3D6FC76E
3DDD3565
3D9811A4
BD816FFF
3CAAC322
3D8C8F32
BC808B76
3CC5DED2
3DAA7059
BC33E3C8
BDBDF069
3E0EF848
3D8F073A
BB7D69A3
3C5DB8AD
BD26A07E
BDE52BD4
3D49627F
3D4C2EAD
3DC6C0CA
3DC91EC2
BDB32724
3DEAD795
3DF39757
3D5C89D9
BDFCFD4C
3DCB460C
BD829762
BD8308D6
BCC57697
3DA07E17
BCE1B8ED
BC9D4E5A
3CA1D898
3DEAE85C
BC831203
3E055C53
3E0462C3
3DF73D19
3D8AA129
3D237246
3D0D175B
BD06ABD1
3DE03819
3DE714FD
BD34C3A7
BDF7EED4
BD32B75D
3C0FAC3B
3DE13986
3D8D0488
BCF2F449
BDAF7F06
3D3F930E
3DD7E4DE
BCD36E72
BDADA174
3D31834B
3D796B91
BCE3F7C1
3D31E47F
BD2FF3E4
BDBA6EAC
3DAB0F5D
3DB855A4
BD5A856D
BCDB2017
3D2109B6
BDC65684
BDC54145
3D954A07
3DDB8DC5
3DBE997E
BD9BEC82
3E0C4439
3DA1F71B
3E0ABA38
3D14F286
3DEB6523
BAADBF15
3D08CD2E
BCA27327
BCB94028
BDD4F50A
BD41B84C
3D9FA143
BCE3FB52
BDF518B1
BD0944D3
BB4A0AFC
3D69AE34
3B6D97C9
BD051853
3D8FFB55
3B6E4C23
BD530602
BBDD5789
3DCBE6B1
3D592A08
BDAF5A6E
BDD9FA98
3DFE425B
3D830B68
3DEC0F88
3E03BF2F
BD363E9B
BDE490A3
BD86AB15
3D4F364E
3E076684
BCCFC357
BD37F18E
BDD4940C
BC470C2E
BDA2EC44
BDA4C2DD
BD93FB52
3CBC58AC
BC9F8EDC
3D7CFC90
BDAF31BF
BDCF8A4C
BDAC0D11
3D7FB415
3D072614
3D3E31AF
BC0C7148
3CE46BF0
BDFC63AE
3D8ACAF2
3D60704D
BC87E09F
BCF4370A
3B985FC8
BDDD872F
3E0C7864
3CFCB883
3D4F0323
3D623AA3
3DBA374E
BC13EE3F
BD93FED5
3DA61A61
BDB84B50
BBA1D28E
BCC85031
3E0B7C78
3D8FCA43
BE05F352
3D0417A2
3DDF4342
BDEB295F
3D777ADB
BB9FA146
BCEE2BC2
BDA54295
3DE1D218
3DC1CB1E
3D61B923
3D6812BE
BCA33087
3DEBFFCE
BD9047E1
BBE6F03A
BDD84DBA
BB8A74B9
BE08DEF4
3D083EFE
BDE2B27D
3DC887B6
BC18DC70
BE03BF2F
BDD15DF6
BDB2570D
3DBA7F4A
BE03B363
BD395AAF
BE000432
3DDE2BD0
BDF6BC1F
3DC7C9C3
3D1BE356
3DF1DD5D
BCDA5516
3CEB4B07
3E07496B
3D04EDF6
3DF77F28
BD1C16ED
3DE2E01A
3D968BBB
BD79AC0E
3DE007DD
3D6D7010
3D927E0F
BD290181
BCC33285
3DADA6BF
3DBF6CAD
BD9FB53D
BDD9053A
BDB21195
BDA50962
3E0DDA49
3E10C1B9
3DF2E0E3
3DFE5754
BD367C94
3DEEAE19
3D52A8AF
3DBE31AF
BD519DED
BDAC8034
BDF820A3
3E110907
3D87B8FC
3D2EFC01
3DB2EF69
3D6A2AE1
BD255DD8
3E0AB10C
3E0AE819
BCAEEF6C
3DC14984
3E06C7EB
3C690FF9
BCBBF940
3C4CB9ED
3D8D8B1E
3DA34F5B
BCCEFBE7
3CF46603
BDB60822
3DF001D6
BD24FA56
BDAEE2F2
BD7DAD90
BD89A4C4
BC89840D
BD9D45F7
BDDF1173
BE054C12
3D32E459
3D9994EF
BD38075E
3C3AC48D
3D7ACABC
BDCA8CA9
3C68BD59
3E0E3F36
BA4E1DE3
3DC716D3
BCDCA47B
BC6D97B3
3C827419
3DDDEDF2
BD971038
3C642AB7
BD0CDB10
3DEB7803
3DE96EDF
BD76EBF0
BDC6AC2F
3C054691
BDF608D1
3CCADD3E
BB2C2E9D
BDB26CC2
BD21CF78
BCB13B77
BDB62D41
BDF79F23
3BDFE23E
3D06BCB3
BD4A4808
3D09609C
BDED9C6B
BCA28C1C
3DD0BE0E
3DC4E03A
BDFA55D2
3DC13829
BE038BCE
3DE05B3A
3DBAB0C9
BD3085A4
3D335D0A
BDD2D235
3DB46ABB
BBEEC42E
3DF7ACC5
3D9EAAF3
3C2022D5
3DA2C6E2
3DE82060
3DF68F8E
BD3A732E
3DA525B1
3C0724E2
BD9DAE74
BDA4F5FC
BCFAB721
BDB436EF
3E040182
3D9C4F49
BCC28D43
BDEEAB7A
3C07B312
3DC8F54A
BD1BF529
BD3347C1
BDEBE836
3D9BF112
BDED24E1
3E0563ED
BDF79FA9
BBCFB55F
BC929AD8
3DFC7EF1
3DAFB309
BDEC5B8E
BD73C8F0
BD974404
3D43603D
3D02BA90
BCDBB568
BD157024
3DD86EC1
3DDCF894
3DD00A39
3D3E7678
3DFC853C
BD968B4F
BDEE5EEE
BDA20DCF
BD8511C5
3DD3AF75
3AFF4240
3DBE2CE9
BD8583F6
3D919DDF
BDF4AC2A
BD3329DE
3D35054B
3E11CEAF
3DDEE02A
3D9FA631
3DDA2DF9
3DA09C80
BD9C75C5
3D6839DB
BD1DBDD1
3DA02646
3DF759EF
3C49E6D4
3CE4BBD7
3DF43E10
3E04FB12
3E074FF8
BD107995
BCD76E7C
3A3759C0
3E075105
3CB288B4
BE0CF1C3
BDB21E6E
3CB792A9
3DA1F213
BC9C5495
3DFABB02
3D03DECD
3D3C871F
BCA84DFD
3D1C0C70
BCBAE792
3E080D80
3C1D6DCF
BD90EF7F
BC313E66
3E0D2DCB
BD028B96
BD9449E9
3CA124DE
BD4B34B2
3D899C03
3D93E913
BDD8B503
BD1CE366
BD734DBB
3DABDD41
BDB7942E
BBE9C81B
BC994622
BD169893
BD0C13F0
BDEC460F
3DD3964A
BD3F50AE
BD7EE690
3DD824D5
BDFF8099
BDD9BAA1
3CC75A67
BD90FE98
3DF52546
3D43425A
BDB49830
BCC51EEE
3DEE6FB5
3DEDF58C
3CBD12B0
BCAAC5DC
3DF616F8
BD5AF691
3DDF1C76
3D83C8E2
BD9D5F71
3CF841FB
3DCE4C0E
BD5F421A
3CFEBE4C
3D9426FE
BDEFEA3E
3CEC0FF4
BD6C18DD
BC85E735
BD8404B5
BDA82FAF
BDE3632C
3C5750B4
3C315F89
3D8CDCBD
BDEEC52A
3D846357
BD5349A4
BDE1083E
BDA54CDB
BDAECA40
BE0E6B40
BD829C85
BD5562D3
BDA1E944
BDF934F0
BD7F6505
3D7C6B05
3DE027D9
3DB39ABF
3D27C709
BD899DB0
BCBC76A9
3DA7D341
3DCD1F1D
3D9DF1E1
BD124928
BDFC0F45
BD4E775C
3D841C24
3D8831D5
3D861515
BC14EEF0
3C043234
3D05195F
BD6DB007
BDA9E4C8
BCCDB1CF
3D60BF5D
BDA259AC
3D654A07
3D0ABADA
BB328980
BE0C115E
BE02C7B9
BD5B6D7A
3D4034BE
BD358CC5
3CED4AF2
3C350027
3DB33094
BB873C4A
3D2A9B9A
BDA275FC
BDB5F428
3E0ADA34
B983CB40
BDC72C44
3DD503B8
BD909254
3CE9DD49
BDB21D1E
BE0611BA
BDAF890A
3DAA676F
BBB8FA48
3D093533
3E04228A
3DC6BE96
BD7D73FF
3833EF86
BD3E1057
BD5305CC
BDFF2453
BD0922A4
3D07710E
3CB73267
3D507025
3D42BC08
3DF8548B
3DD5896A
3DFB8CB9
BD75EDF9
BDD6E71D
3D92A2D0
3C507208
BDD36502
3DBF596F
3D7D7C12
BDC01C1A
3D9FEB8E
3DD52A84
BD99B0C6
BDB9AF69
3DD57A35
BDD715C6
BAC8CBB6
3C11D4D4
BD906F84
BDB35951
BDFF3D7D
3C5535BC
3D97E897
BD6D2659
3DC7F173
3C0D832B
3D455C2B
3DDD4845
3DA4614B
3D5EC156
3DDA450B
3D9E8DCD
BDAABF41
BBF269EA
BE015D2D
BC22040C
BC5F1FB6
BDD968D7
3B3B9E51
BCB52836
3D5B9D4A
3DD9BFDF
BD09A134
BD9CAFF7
3DE45FE1
3DF1C2A0
3D688B1F
3E08E64B
BDF32CE9
3CBEC60E
BC5FA8DD
BCFE315E
BC9744C0
BDEF8940
3D9BCF84
BD99A3C5
3D352D59
3DCE2B06
BB9E10A2
BDB326C6
3DB264F2
3D454BEA
3D8DBF8C
BDE3A96D
BD90AA72
3E00F777
3D983615
3E06759B
3D9CC0E6
3D2CCCCD
BDD21683
3DFA5A04
3E059536
3D988E1C
BCBF9F88
3CC9572C
3E0996FB
BD4A0430
3DB46C41
3D88A33D
3DD8AFC4
BD032519
3C540B1A
3C840F24
3DEFC0D3
3DE3E426
BD3949CE
BC83C339
BDC18670
3DB68EFB
BD7D9140
3D050A2B
BCEFC47E
BD187288
3CE7C577
3C635753
BCE8E6DF
3DD21DDA
3DB408BE
3D69BEC6
BDC44567
BDBC8084
BD301CFE
3D4F3CCF
BCE342FB
BDE0F451
3D0A0F4D
3DE04C06
3DC79281
3DDA5E35
3DFE8AB5
3DD12557
3CDB72ED
3D9095E5
3DC39559
3DA4B018
BC67197F
BE04DF48
BB9CE366
BDBF6838
3CB623A8
3B87789A
BCDE812A
BD229663
B91E87F4
BD9EC984
BD4945FA
3DD0B0F2
3D19B3D0
BCA977FE
3D1DC9E0
3C3D859D
3C80CA60
3D4BD6E9
3DC71E1C
BD8B2C0B
BD3B65D2
BD9E7CD0
3DC4C7A3
BDDA7B91
BD9D0869
3D6A3395
BCA4D8C8
3DC43A21
BCBA9FD9
BD433A47
BDD591CD
3D2542B0
3DCB697D
3DF1EEAA
3D9480DB
BDF5DA27
3CAB6BF4
3D834169
BDF2E408
BD397F48
BD7FEAEC
BCB18472
3D37768F
BDC7193C
3DD3176A
3DD17CE5
3CE92FDA
BE0630EC
BDC07B78
BC793C2C
3D6EC601
BDB30F14
3970A2FC
BD91BCC1
3D48C536
3C2E4954
BDB29B35
BDF73E25
3D7E4367
BE09C6F3
3CE78DAE
3DE0420F
3DD8B934
BD1A61FC
BDD98FA3
BDCD538B
BDF99AA6
3DB3112C
3DFC358B
3DB6995C
BC9C2E6A
3DF9BED3
3D25BBCC
3D54EC20
BD40D024
BDE13CAC
BDD99E52
3DC94947
BDF205BC
3D2A1852
BCBD43F8
3DCF8E7E
BD4C7E43
BE05CD92
BD55B325
BCA11523
3D977C03
BD72DB1F
BD2213F1
3DD72B45
3D275D72
3E011234
BD08914E
BCA458A5
BE052503
3DFEB8D8
BDCC555E
BCAF4858
BD2C05C8
BDF9E9D1
BCE8632B
BC052B99
3DBAF3F2
3D0455D0
3D2CAE2E
3D68A896
BBE64920
3CBDD914
BE0B9D80
BDD94FAD
3DFC6C98
3DE84B5E
3D01495C
BCECABC5
3D6C83B7
3DED0BB7
3DF72607
BD869919
BDA52CFB
BE062175
BDF3F6C2
BD013AC8
3C950409
BDF3B6CC
3DB3A87C
BDFA5A8A
3D8C494F
3DF9AB6D
BC045C30
BCCFA15E
3DE3B1D1
3B598C4E
3DC2F449
3D9E368F
3D5867D6
BDA5317D
3CC3BED1
BC5C4220
3D42701D
BD8ECA4E
BDB6E895
B9CD88B4
BC8378C6
BDE46067
3E07357E
3CE7A08E
3BF9CDCC
BC0EB5FB
BCC03072
3D5B7DD5
3B860DE1
BDEF8E7E
BDA3C049
BD80F9C5
3B32F104
3DCFF10F
3D28707C
BD520CC3
3D9B2901
BD56244A
BDEB73D2
BD7322A2
BDE8B439
BD91EB35
3D830305
3D4F7DED
3D17B9E0
3D96FE9A
BDFA5B10
BC9D13D7
BCDD2A7E
3DBC1DCB
3CAE275B
BDF1001D
BDE2F48C
BCEA8006
BE05A7D2
3C9DEC7A
3D7DA024
3DCAF1E6
BC8663FD
3D019455
3CA25164
3DEEFAA4
3D8E047D
3D84DF55
3D7FBC28
BDFD89CE
3D072DBC
3C953F98
BD28CB4B
BE0723AB
BDAF96D4
BC529C85
3D991F99
3B957E01
3DDB39E2
3D1BB2E4
BD8E453D
3D8DBE7F
BCFDBFB4
3E0C254A
BDBE1B23
3D5F6EC6
BD904E47
3D3EB852
3DCED02D
3C112908
3DF9DA16
BDF90D17
3DFA0A52
BD5591B2
BD1D11F4
BDB219EB
3CAAE7D5
BDD5C854
3D5F1646
BD830073
3DB47A18
BDF870DA
BDD6AA4C
BD1EC7D7
BB0AE6CE
BDE3CEA7
BDD6427C
3DCF3882
3C3D9F9E
3DF498C4
BCCC12FE
BCC0A5E2
BDD9FB1E
3D885950
BACA89A7
BDC16286
BBD15736
3DECA46E
3DDA6B51
BD5A818C
3D27D912
BDCB1DAE
3DE3EC89
3DDC7E6B
3D8422BF
3DCD4B27
BDBE1544
3D260E88
3CE87D2C
BB81203C
BDE5015C
BD947794
3DC959E6
3CD07A6C
BD461CCA
BD960002
3D94042E
BD58C95A
BC7B58D1
BDD6AC64
BDFC3A43
3D7A00FD
3D8C65AC
3E039DA1
BE055971
3D864DF8
BD5BFC80
3CC37103
BDF5896A
BDAF5085
BDCE1262
3E006855
3DF651B1
3DD6FB8F
BD1CC477
3D429AAF
3E03E037
3DC198E4
3D95CF9D
BD12B402
BDC67225
3C420C14
3CC4A79A
3DC74FD0
3C720C21
3D14A482
3DB31FE8
BDE24895
3D3BB0E6
BD8EC403
BDA5D3A7
BC5EDEB3
BE0773E2
3DA7F986
BD8B4098
3DE771C9
3E08316A
3DD9BAA1
3C19C0D1
BDE5D0FA
BDDDEBD9
3DE56E69
3A5A1B84
BDEFBCA1
BCFF0C50
BDEB07D1
BCB144E7
BD5C824C
BE03CEEA
BDCE9E5E
BDAD3B88
3DC562FB
3D33CE2E
BBF11E66
3CA9CCB8
BDE66FD6
3DADCEE8
BD3EBB27
BD6C80AC
BD3411B5
BCFA6704
3DC62AD7
BE04FACE
BD78784C
BA4DF00D
3D97A2CF
3DD50EBB
BD80E644
BD6E5F09
3DD633CE
BD40F7E2
BD94BA1C
398235A5
BD5CE90F
BDFF1D82
3D3141A7
3CFF0B0D
3CCBE836
BC82A9C9
BD2F40B0
BDAAE1B3
BDDD5779
BDF398E9
3D491E8D
BD1BF650
3DB9A898
3B7A4886
3E008787
3DA48A16
3D3E64DA
BD70BBA5
BD94505C
BDF9042E
BD6B2746
3D5601AF
3D9B26B2
3DD512EC
3D526817
BDBB5D54
BC448210
BDA695D9
3CCD3DA0
BD951A79
3D4142F6
BD114629
BBB4CEBF
3D0AAFA1
3D07DF78
BDD3397E
BD8DE192
3C167A40
BC693187
3D740AAF
3DC8B637
3DB87B72
BD816AB4
BDFB5393
3D5248A2
3CC0EAE2
3D6231B9
3D45A0BE
BDBE62EA
3DA41264
BC82070C
BCE52AC7
3DE9A2C6
3D519AFD
BD93E6D2
3D737FDA
3E07B6BB
BC5D4FD2
3AB9D422
BD7D9811
BDC3389A
BDBF9DB2
BD30D6B2
BBAC0D24
BDB28749
BDCCB7AC
BD8A5000
3D8E2110
BCCD9F90
BDE6E8F3
3D4DA646
3E06AF8A
3CAB7A01
BD62A404
3D2C21AC
3DCB4500
3DCBCFD5
3DF89481
BD61FC09
3D54E16E
3DAEA1FC
BD5DB6CA
3DC6B046
3DACDEAE
BD828416
BC2786C2
3DE3CA75
BCF0E4DA
3D925461
BCD003B9
BD73C204
BD9EC03D
3D654B13
3CC7D2C8
BC3664AB
3DF96180
3CFE4F26
BCBCA27D
BDA405C1
BDE6A551
3DA73124
3DC5CB51
BC338426
BD835DE1
3D79BBE3
3DA17B7B
BCBC8DF0
BD8866A1
BDA518F4
BD9C7714
3D2B6D1C
BD8C31B7
3BE37012
3DF39B02
3D9B4A59
BD42D36A
BE00F7FD
3DB26825
BDF81062
3DCE08F2
3D84525A
BD4B772D
3D93F8CE
BA77FA08
3D312140
BDD974E6
3D3AD8AF
3DF22D95
BCFAE727
3C4C5CD0
BBBB5E65
BC7D6E55
3E0C1765
BD2F07F6
BDA9DA31
3C4683DD
BD42B18B
3DCCC1CA
BDA4EA30
3CB6E610
3DD87486
3DE2D949
3CD158EE
3CD345F8
3DE4BA0F
BC15BBE9
BD54F2F1
BCCA0430
BCC53F70
BD80A958
BE08D541
3DFB9B67
3DAA1413
BCC5EDB5
3D981139
BC8165FC
3DA88971
BDF7A2CF
BD18B4E8
3CE3B8A2
BD2143E8
BDF66A55
3D335BAD
BDA77B62
3DD0C4DF
BD2E53EB
BDDD8A55
3D7952D2
BE04CF4A
3DE8B32D
BD121251
3D86CFBB
3C17B0A1
3CA94D36
3B605F26
BDD8487C
3DB99CDA
3D88E4E1
BDF4FF86
BD5CC6C5
BC02C33E
3D8B8158
BD89B1AA
3DF6BF44
3CC89855
BDC40B0D
BCA730FC
3D63D3AF
BD0D869C
BD6F31E7
3E042D8C
BB4B364A
BCF14DEB
BDCA5DAF
BDB26BF8
3CAF0A7A
3DFA682B
3DED4A1B
3DE01041
3C99E0B2
3DBA3784
BD29E003
BCF3A5B4
BAF0D99C
3E1A9FBE
3D98E094
3D3849D9
BD03C2E8
3DBB4162
BDEBAA58
3DFC896E
BDF3C819
3E125205
3DD11383
3D8FD7FF
BCA122FB
3CA56DAE
BD64F36A
3C2C8381
BD303588
BD7DBDEC
3A08FDC0
3E026070
3D282B98
BCB3BF4A
3D42438C
BE09BE90
BDDDFA01
3E0184C2
3E0E4756
3DC405E9
3D16B046
3DACBB14
3C892B58
BD33180B
3C7129A3
3D416B1F
3DCFF6D3
BD7E2D2D
3DA7A08E
BD4AE460
3DADE185
BDEA8438
BDBCC6D3
3DE10300
BD9D1C2D
3D2E1247
BDBEFA2C
BD6A6F90
BDF4AEC9
BDE2003B
BDE387DF
3E0B4FA5
3E066A12
3DA88AC1
3C489BE6
3CAA96E2
BE0A5A04
BDC619A5
3D85D9BC
3D782002
3DEC4D66
3D12B12D
BD8CC096
BD638378
BDAE0A77
3DB3E1CA
3E1750C2
3E051DEF
BDB6A452
BDDAB192
3DFFD695
3E0D7E89
3E0287C2
3D873117
BDA5F139
3DCE2EB2
BC88231A
3E083772
BD04568C
BE018266
BD8B331F
3DA54F45
3DA8F798
3DBAA68F
BD274A27
BDFF5409
BD0A0DA0
BD3C7F0C
3DA97212
3CC967BD
3D6B946E
BD048D63
3D01376D
3E0601BD
BDDBF0DC
BC997FCE
BDCDB270
3DE2A1B6
3D0A6A1C
3BBB76FA
BDBBB4EF
3D775F62
3E0AE536
BD9EABA2
3DB51D9E
BD121A7F
3E062C34
BD176F53
3CC5A419
3DF8B8AE
3E02CE46
BD51CD88
BDF88766
3CA54386
3D35AE1D
3DFF51F0
BDA7ACC5
BD8F6040
BDA816BA
BDA5290C
3D937E6F
BD5DDC8A
3D9DA562
3D5F0A87
3CFFA278
3DF13F07
3DCB9156
3DDCC187
BDB37F61
BC26FD9B
3D11EFD2
BD0F9A57
BDA32519
3DD2FB1A
3D8FE005
3E00B88D
3D5F2F3B
BD5489E0
3DB40B27
BDB565EB
BCD71052
BDAB396A
3D99D17D
3D81EC34
BD6E6A41
3E0D0BB7
BBEF6EA3
BDEF89C6
BC08979E
BDF68BE3
BD265097
BD21A3A4
BDB8948F
BE0170D6
3C8E5273
3D2C4645
3C901480
3DEB1E5C
BD21412E
3E00B567
BE05BAB2
3D7BF834
BDB3478B
BDF4549B
BDFC59B8
BDE068DC
3D066EAF
3C2512DF
BD60D167
BD85CA6D
BC93DFE7
BC976435
BBE6A4E5
BD533EA1
BDC9686C
BDDDE58E
BD4F3578
BCAE7A67
3DEF190D
BCE227A8
BD931650
3E0841EE
3C837A73
BC8B5060
BCCE7D06
BDA845F7
3C9DA6A4
BCB3E06D
BD7231AB
BDF1F1D0
BC65E679
BD971E6D
BE07E8CD
BD19C5A4
3CF11F27
BDE390C9
3D37DF6A
3DA33468
3DDD4E09
3DF15619
3DD5E0F8
3D0DF8E7
BD345A60
BBCB1425
BDD03C08
3DD7F067
3D81C7B6
BD07C9DE
BDAD8C88
BC9303E9
BD7D60E9
3E02D235
3CDAE163
3DBF0414
3B4E0054
BD5601CA
BDC752B2
3DD8A97A
3E10489D
BCF6FF71
3DC34557
BD3D523B
BC5B7A7A
BE063950
3DF269E0
3DB83F4F
3DB0860F
3D751505
3CC82964
BD4EA0C8
BD9475BE
BD66EA35
3C7C313E
3D05D5E8
BDBA697B
BDA5A11C
BD1297B2
3C1B2494
3C756FEF
3D89F5AA
3D719A0C
