BE3FBEBA
3D9917A1
BD006997
BD1F15F5
BCB9420B
BC5D88DD
BE071434
BDCC8465
BDCC2847
BD092832
BDD6B335
BE57867F
BD95A8D1
3AAC6071
3D39468E
BDC841C6
BE551373
3E10E1B5
BD96B823
3BC177C5
3E2A426C
BDD44029
BD79C7A2
BDD94EA0
3E6C942D
3E238B05
BE07D999
3D2F6380
3E21C21A
BE0C115E
BE396AF0
BE452264
BD57F1FA
BE0FF2A1
3D2461FA
BD9BA004
3E291687
3E69157B
3DF01217
3C69CC4C
3E2D284A
BE318CA0
BD227880
3E30ED3E
3D535D75
3D8FB97C
3E97965B
BDC4E7B9
3CCEA367
BD5698E4
BD3150C0
3E1ED0B3
3DA0A4FE
BD834D85
3D860433
BE752B0A
BD342DB4
3E32DA12
3E2827FA
3DAB8554
BE2F398F
BDCE4085
3E7485E4
BE014403
BD1BABF8
3E4AE148
BC0E1AE0
BDC427FD
3DC87CA6
BE0E3E6C
3E366341
BDA1CA12
3D685554
BDABD091
BE769121
BE7ABB02
BE1DA900
3DA37642
BB28AF36
3CDBA50D
BCA3B7CB
BE0D44DD
BE143D8A
3D557CEF
3E4C5F39
3A9B1194
3C927E1C
3DC1522A
BDAF37C6
BD5B6E35
BDD7774B
BE2A209B
3E08AEFB
3D2DEABF
3D927ADC
3E7C23FB
3C0434CE
BC82E558
3E9D73C9
3D810724
BE2EF6B6
BE72BA17
3E020104
3E682A99
BD3296A6
BE847A18
3E8D0742
BE068A93
BE56D43D
3E835654
3D080121
3CADDA64
3E1FAF86
BBA516BB
BC89E3AF
BE08FBCA
BE4EDC7F
BC252264
BDACC822
BE0F1E8E
BD97F0E0
3D91683D
3E7C36DB
3D1A4BF6
BDA1D756
3DAA5391
BD536F63
BDE4DB9C
BCC60F0E
BBA9EDBA
BD4EC8F1
BE0123C4
3DFFC32F
BDF9C066
BD9EDE7D
3D6B6559
BD0F6E17
BE0EAC86
BC98E036
BD8F6A1B
3DAB84C1
BD3E434D
3DB50409
3D9BA352
3D8FDB24
3D213FB6
3D8D4159
3CF3B031
3E007208
3DBD711D
3DD65F52
BD86AFA5
BC79181A
3D7F6612
BE10DE8F
3E0F3B64
3CE8F191
BDA7F52C
BDD82E45
BD5187E8
3DCCA164
BDFFA2AD
BD9527D8
3DAA09DA
3C8C5401
BDBAB54B
3DF79746
3D421E53
3D8DB199
3D8B352B
3B420D00
3C8D28A8
BD21B450
3DDDDB98
3D44EA9B
BDF3F749
3DFD5886
3D340EE0
BD934FD3
BC755DE6
3D85EC30
BBCF7182
3BF0AD3C
3DBE7302
BDA3799D
3C03DF08
3E063BEF
3DAD89F7
3D7E5281
BD48AF16
3DC76A9B
BBCCCF3C
3D61F9F0
BD3DF0AC
3AEAC962
BD3B7084
BC29CE30
3DA61ADA
BD54C67B
3B8DB25B
3DEFE500
3DF5CFAB
3D52466E
3C22D7DC
BC47706C
BD833B54
BAD8CF0F
BC82FA1B
3E2472C1
BD69CC17
BDF0403A
3D5FA34E
3DB807C9
BCDAC28F
3D56078E
3DF609DD
BC806474
BCC34BE5
BCD857B0
BC7548ED
BDFC7475
BD11BB13
3E32513B
BDACC1CA
BC9F9BDC
3CEC3365
BD02DCDA
BC72F7DA
BD6B2116
BD0924D7
3D916441
BDE43809
3DB71F36
3D911673
3D32C56A
BDAF7B76
3DE5CC42
3DE0B45B
BCAFF8B6
BDFA597D
3D975679
BDBC4C3F
BD8BEF65
3D947F7E
3DF6E1DF
BDCE92D5
3C2B2DAB
BDBDE574
3D50838B
BDE79CC7
BD8204E5
BC089FF7
3E14F8F9
3E3E1262
BCC207E2
BC84520A
BCD66DCB
3CA66341
3DCF9B99
BD2587E4
3D9377E2
BDABCB2A
3DB25CEC
BD65CE76
3E07D029
BDCD04E6
3D5A79AE
BDEC3116
BDBE737B
3DAEA415
3D6C328E
BB6A71CE
3C93F3D3
BD07A596
3D6F393E
3DD9E386
BDA019BE
3BB763AF
3B996DE5
3DF0C133
3BE8A69D
BE43C105
3D08FE91
BDBAA484
BD20F451
3D5BFFF6
BDBC6816
BD9D2524
BD8716E0
3CAFE6AD
3DBB0094
3D95817F
3DA53239
BE08B47C
BDAF0282
3CBB91DC
BD2A47D2
3DB6CF4F
3DA714EF
3E13860A
BDCE27E1
3DC68456
BDD3F317
3CD9B2C4
3BEFB4C4
3DC970A7
3DCAE0A7
3CA610A0
BBD9B3FB
3D5017A5
BCEA5721
3D9BBD45
3BF537FB
BDD1A21F
3E25C9E6
3D7CCC6F
3D502420
BD88482B
3DAFE055
BD3D2A98
BDC6BD39
BDDBADC1
BDA5465B
BDEDB9C7
3C53FE19
3DEFBCA1
BDC171AD
3DD5CBFF
3E0A5A8A
BCCD0064
BDE32A8D
BD868131
BCC6928C
3DD3D103
3D0EF856
BE00F4D8
3DC85CAB
BDE02EA9
3BA1A988
3D8CCACF
BD97378A
BD83E3D5
BD663F7F
BDA5B69B
3E30E5E6
3DBF7B33
BD511D7A
BD2F1B0B
BDC3D54F
BD8BB40B
3E015F89
BD66BD89
BD0A2878
BB479657
3E8552C1
3DD5B9A6
BD273025
3DC8A19D
3CD5F535
3BDC0A82
3D32A503
3D72353C
3E3F41AF
BE1A3876
BD963498
BD82CB3C
3D8CB817
BD02C70A
BD8049C4
BDAED4CA
BE1B43D9
BD6CB1F5
3DA164D5
BDAB75DD
BD41CE87
3DBE7E8B
3BA1F924
3AE311B3
BCD77964
3D936E57
BD8AB06B
3C9E745F
BDD714BA
3D2E5AF2
BCB7F42D
3C1D2DEE
BC0E8F3A
3DE68017
3DB9A06A
BDA19F07
BCD5D1F9
BCEAF435
BD9E00ED
BD31A021
BE47F5A5
3D9C881E
3DD21683
BD979E9D
BD29978E
3CD65D3A
3D5FD263
3C88E333
BE26AA8F
BCD47AE1
BDFFFF7A
BE150ACC
3DA9CEC3
BDE09247
BDA23191
BE46EEB7
BCD51BF1
BC85ACB2
3CF64B4B
BDB70DCE
3DC9A580
3DE9ADC9
3DD97EDC
393C613C
BDA2986E
BDD6323C
3BDD3276
3E46EFC3
3E1D67FD
3CCAC9F3
3E6948DC
3E0DFC5D
BD1E0107
BC0C74CE
BDF42785
3DCC8FAB
3DAEBEE0
3DD46801
BDDB64E0
3DC8A215
3DCA7829
BD9470A8
3D96D506
BCC031EA
BE04317B
BDA298E7
3C86B44F
3CC01E69
3D8485C9
BCA7AFA7
3D499880
BE3BFBDF
3DD7DE94
BE374FF8
BD55493D
3C89BACA
BCF68639
BCB8E58F
BD231D3B
BD96119F
3D538294
BD5E2E54
BBEA254D
3D0CCE2A
BDA15301
BBDFF259
3E01E18F
BDB45176
BD699001
3CF4FE0F
3E04202E
BCAAC7BF
3CE11A97
BD37A94F
3C645D0C
3CCC8D0C
BE060568
BD8DF00B
3D5C1971
BD61A6AE
3DD185CF
3D981C13
3D0C9DB8
BE0809D5
BD080496
3CB0097D
BD4A370B
3D20DE82
BD48B4A5
3E1962D0
BD1515A6
3D9BD076
3C8382A1
3D8D58E4
BD0F2E21
BE0CE076
BD93DBD0
3D8FC61E
3D8566B4
BC6B1F33
BCE2B71A
3DE0370D
3B443AD8
BDC8D6B9
3D8C2CE4
BE1B8562
3E10DE4C
BD920840
BBB03740
BD785F72
3E09D2BF
3D71AA4C
BD735B77
3D9A63C4
BD04879F
BDC28340
BDD96A6A
3D8D1CDC
3D524EB7
3E055D5F
3DDC6B8B
3DFD7BA6
BD8156AD
BDB51BAE
BDAE0B0B
3DA55DF3
3DA5652F
BD3224AB
BBC07EA0
BD3B1A1D
3D739B53
BB4F6604
BE0D0742
BDB97C58
3D8E7488
3CF881F2
3D9C2AE6
BE0E63E9
3CFE1B59
3BE77C91
3B391A68
3DA8893B
3C6AF252
BD96F877
BD930D4B
BD0E6589
BDB269E0
BDA46CB9
BD8317AD
3DC001FE
3C1513CE
3C94B4C3
3CFA0CD7
BDA73EB9
3DC2B55F
3D2425AF
BD29C993
BCEE4268
BB3972FE
3C825D3D
BA0468B0
BD0584F5
BC6C56D6
3E0702E6
BD8E89F9
BD616342
BDE16F00
BC3A1901
BDE07CC8
BD8539EE
B7DA1A93
BD5CDE5D
BE00DA1B
3BE2FFD5
3D8D47BF
3D523125
BCFBDFAA
BE04BD77
BDAC1D1C
BD9321F3
BDAAE60D
BBFF1EC4
BD0B9601
BCEAEEF7
3B33DFEC
3D67C328
BDBDEBD9
BB5A27D4
BC1CCECE
BD0F24B1
3D8264FF
BA5F4E04
3C2CB1A4
3D2CA4D9
BD76CBA4
BD8DD5FC
3DFA7222
3D57C4FE
BDCF9874
BD2632EA
3BDB2428
3DA0B6ED
BD5A8F48
3C6C9E23
BD646DB8
BD34E0B2
3E34F1A2
BD417FC7
BD509529
BCFFF294
3CE4CDAA
BBF12B3B
BBD41A1E
3BAD6818
BD899228
3D8D1097
3E010236
3E38F3AA
BDCC5CA8
BDDC9C4E
BDBB3D81
3DEDD50B
3D4F57F7
3DED99CC
3D8E5471
BDFD75E2
BDA093F4
BC9BBEA2
3CEAFF1D
3DECE896
BD037586
BD8327E0
BCFF41CA
BD9D64F3
3DB2EFAC
3DC9B548
3D178558
3D860243
3D6811B2
3D1DDE52
3DC806AF
BDD9E386
BDFCA4B1
BD0BAC71
3C185866
3DC54C05
BDC80D15
3DE6FF7E
BDB26EC0
BDBC7369
BDAAC63A
3D5DCC7F
3DD05AF7
BD014CD1
BD59454B
BD5AB82D
3D4C7899
BD7F7F3C
BDA9879E
3D39CC24
BD85CBCA
3CECE902
3D688BC0
BCF4AEC9
3D6D19C4
3D04FB98
BCDF7404
3D1B50D9
BA8CD896
3B0D035E
3D9EA2AB
BD24F2FF
3D420C65
BE019A41
BD80D7B1
BDE95E9E
3C208795
3D8C9A0D
BB55EA58
BD27971E
3CC40D40
BE04B018
BDCA0A02
BC19B78C
BD9A506B
3DB0F932
BE296399
3CF126E9
3E0691A7
3D8CE97B
BD97D4B8
3E2BDAD7
BDF00E6B
BE0004FB
BD10B631
3D828142
3E03ECCC
BD3A6F68
3C62AFF9
BD6D5CE0
3DA4C1A9
3DB79A50
3DC9399A
BD4BFFE9
3E1E160E
BDD831F0
BDFE4D5E
BE09E450
3D86D1EE
BB93A3F7
BD4B1E5C
BD3B645A
BDF0F063
BD96451C
BDB8CF98
3E2A01EF
3D0F7C5A
3DE60A20
3E21897A
BDE786C2
BD860477
BC0B9ABE
BD98A7DA
BDA2C41A
3D60F8B9
BD54767A
3D1E2F2B
BDFAC1D3
3DCF31B1
BD56B335
3C36AF54
BAA04D12
BAA4C648
BD9FDB24
3C1F38EB
3DD9BD40
BD45AD54
BD868307
BDE488C6
BD87D234
3B287B5F
BD78FDE3
BDFA8156
BBB6AF54
3E086727
3E154824
3DC18F82
BDD53155
3CE48627
BD4EB844
3D403728
BDCF29D4
3E32D8C3
BC3A0408
3D41124F
3E36876E
BD06CAF5
3D5A4F1C
3DA93B2D
BC34D41D
BCA72218
BD1575B3
3B7B51F0
3D440944
BE4D666B
BE079A6B
3CC58835
BD7F22C0
3D8BDFC5
BDED7F0F
3CF25F99
BD87BCF8
3D560088
3D1EB837
3CBC6C98
BD505C39
3D58DE38
3DC28D79
BDAB006C
3D7AB233
3DE60C39
3D7D34C4
3DB4ECF7
3DD6605F
3CFDAE82
BCF5E2A5
3DB9B9CB
BD941B9E
3E24CF07
BDC89713
BC25E5D8
BD98ADE1
BD14373F
3D131DEA
BDDDED6C
3E1DCE7D
BC71F3CE
3D5662C8
3C4D99E7
3E159BC3
3D604E39
BE077143
BC8ADB25
3D6B54FE
3D5BC390
3DC43B56
3DC5B3FC
BE0B4070
BCA0CFB9
BD7B3779
3DC62612
BE0D3C36
BDC90697
3C3F019E
BE1E0EB6
3DDC2092
BCF7F0D2
3B769924
3DA8056D
BC4ADAF0
3D2FD058
BCD08158
3D277F1B
3E0FA2AD
BD9F13C1
BE138152
3DA7EB01
BD8B0433
3E1125DD
3BF6CB38
3E04256C
3D09FB11
BD7CE274
3DA51BD6
BC019EFC
3D8E5845
3A8026DF
3D84D21F
BD8981E7
BD511369
BD8F255F
3DA74DE0
BD92C882
BDA35D25
3D9240E0
3DE95D0B
BE0B5DCC
3D96457A
3CC824C7
3DA1919B
3DC89B01
BDFB0B39
BDB57C9F
3E08405B
BDB54287
3DAB9A90
3C2BDDD4
3D2D9CA1
3E0062D4
3D75574A
3D8621FB
3D901084
BE00E3CE
BCCE4BF3
BDCEB4EA
3D60C44B
3DE54930
3C9C8069
BE00B30B
3D7C37DA
3DDE9531
3CB96547
BCAEC86A
BDBD377E
3D745F18
BDE4DFCE
BE1ADD9C
3D688E0E
3DCD9AD8
BDC88880
BD8FCC26
3C7782EE
3D986E71
BE438152
BDBE7203
BCFE216E
3DBEDBA8
BD39AE42
3D38D20E
BDA3F9B2
BDDDF6DC
3E07685A
BD47942E
3D9ED0CE
BDC57D68
BE042B73
3D821FF3
3D555DE6
3E064B66
BDFB035C
3DBDBAEE
3D0FE8FC
3DAB728F
BDD5A07B
BDCFA616
BDC6D125
BD3BC93A
BCE25B09
3D77B869
3C259917
3CB58D81
BD9B5E2A
3D845DF0
3D436CB7
BDDFB2EE
BCB43237
BC5A610A
3DD41206
BDF9AD00
BD75083A
3D613108
3D177384
BD11A686
BBC653A1
3DC4B2FB
BD8B1EAD
BC8650E7
BDB52D3E
3D9661BC
BD99B8BE
3DE8943E
3D1076F6
3D4355C0
BDAD0636
BD88377F
BD5C3FEC
3D87DA04
BB0A34CD
BBD02430
3D81CDF3
3CE474BF
BCF57AA1
BD1402EC
BD76E463
BDBB599B
3D69C348
BDC76443
3DDE939F
3E3AA2E4
3D0596AD
BDC9D162
BDFE3865
3D69A530
BDF588E3
3DAC26CF
BD814B5A
3B848CD8
BC457845
3CC8EBCC
BD566582
BDE10060
3B8C49E5
3D0FB5B5
3D1778C3
BC6883E2
BDCBA2D9
BD84866A
3C9F63A8
3E2430F5
BD97A5D9
3D907A6C
3CE66C10
BD8FA1A1
3DA832C7
3DB28416
BC193DFF
BDE203E6
BDEDCB9B
BD9F1752
3D272BD9
BCA90C69
BDF98FA3
3C1182FF
3D13F34D
BDBC5388
3C182D69
3CA088A1
3D55D986
3D153891
3D5F0CD6
BD7B8801
BE0B29E5
BDBC7E28
BBB14E97
3D23623B
BC4DE856
3DC719B5
3E210ECB
3D2D1882
3DA37103
BE3EE30D
3E22FBA0
BDB1AC8E
3E397FA6
3DFF572E
BD628F5C
BD59047E
BD72E078
3D9723B8
3DFC0011
3C4E1969
3B2757C8
3D93EE87
BC4FF93D
3B93B5EA
BDE0F12C
BDEF2F98
BD4DE3D3
3DD70AC4
BB8763F7
3D50A046
3C8F4E87
3DE30E3D
BD2546C7
BD8497C5
3D4D33C5
BCD83658
BD86B4F0
3DCD22C9
BCAD28F8
3E036A40
3D38F910
3D8994D4
3C7D82E3
BC7D50F9
3DBC41B5
3CC7E897
3C48D3AE
BD95961A
BE0A31E8
BD437677
BD0FD596
3D9A2ED0
3DAA870D
BD4ABEBB
3DB22B46
BD1E14D9
BD755674
3B4952F0
3C28481E
BD087B14
3D969FB4
3DDC0B13
BDAEE675
3DE1871E
3D07E6EA
BCE9C7E5
BDAE0412
3DAF9493
BD9BE7BD
3DC4B861
3D51D855
BDC465DB
3DCD20B0
BD6CF03E
3D1B4B9B
BD13B7A3
3C4541BE
BC840259
BD13FC51
3BA1F761
BD37358C
BE0E65BF
BE5ADB40
BDECEDD5
BDC94B53
BD8D2582
3C53DFE7
3D658A69
3D20BAA6
BE078BBD
BDB8D5AC
3D99AD50
3CEF26CA
BD23091A
3D43FA61
3D596836
3DB44B1E
3E0EECC0
3DE6A4CA
BC9573D0
BBB9F381
3D80F26E
3DD0AD47
BD95C2ED
BAB79F13
3D72A38C
3DE7BC3C
BDA1499F
BDDCF56F
3DAF2D57
3D3F7114
3CCCE29C
3D1BD4C2
3D8A7B33
BCDCB070
BD31D8DB
BDBE45DE
3D21BCCE
3E413D75
3D63448E
3C8BCF77
BD4915A3
3E02BF55
3D893569
3D7C7FE3
BD47E125
3D177E1C
BDDE2A3D
3DAC198C
BD800D94
BD82E4FA
3D12E6C2
3C0C6859
BCC4AFFE
BDAD0587
3D80143D
3E221922
3CEEB3DD
BE50C8CD
3DB79D91
BDED7C70
3E1C3C5C
BDDB890D
3DA9C4DB
BD588EA2
3D4CF836
BDE2E2B9
BD8979EF
3DADE7DD
3DCD1C7E
3AF1E205
BCEE6B83
3D0F780D
BD93217B
3D11F48A
3D71F688
3C41D73B
3E26FA40
3D295117
3BC112C5
BDAEF000
BD955A8B
3CE2717A
3E33D146
3DF00EF1
3D893419
BBAAA3D8
BDCEAC00
3D56848C
3DB355C0
3CC9964C
BD885A34
3DA5A6C6
BD2574EA
3D8427C8
BE0551D7
BCC7E903
BD994DFF
BD4C1029
3C8B7B5E
3D1229E9
BD97D772
BDAD8F1A
3CD9C355
BCB0BDA3
BD7206C8
3DBBEBEF
3BC7AD28
BCD02E81
3D6DCE3A
3D614F8B
BE11AD21
BCD9E980
BD96089B
BD00846F
3DD924AF
3DA6A6F1
3DF04B3C
3DD762D8
3D017998
BAC0FE8D
BC6A2B17
BD1BE4E8
3E00C6B5
3E0E6CD3
3E23AD9F
3D4D6B23
3E4173FB
B9E370FE
BDED7B63
3E1E9574
BE145027
BCE689D8
BD88C968
3DBC1E29
BDFEA2D3
3DF9AF19
3BEBF689
BCC3BB76
3D101415
3D80D2F9
BE09CC75
BD0DBF05
3DB57D90
3DD87400
BCAFFA2E
3D076783
3C7996C5
3C7CEB79
BD8BAE11
3CE29846
BC243CF6
3DAE6E65
BDB0895D
3B5A4A64
BD62A943
3CFF7023
BD8749FE
3DDFD8AE
3D475198
BCC95A1C
3D2C7F1A
BDD199BB
3BF77EE8
BDEE1049
3DEE392E
3D8FB514
BCDB16A7
BD322A54
3DD652BD
3DDD8ADB
BD012996
3DB715C6
3BBAFF1A
3D6ECE9A
3D542D9A
3E1CC8DE
3DDCDD51
BC92205E
BDBD8D29
BD480D15
3C8D83E2
BD1DC93F
3DBC0CC1
3E090A78
3B9D7775
3DAFC420
3CC0321F
3C77B6F1
3DABD8E7
3DE88F86
BE0ADFF8
3D102DFB
BE067275
BD91BA57
BE13F962
BBE09AE0
3C9DDC54
BE0FD545
3E0EB0FB
3DA3F390
3D545AE6
BBED19F4
BB4B94E9
3E077681
BDCA45EF
BC712572
3D3CBA4B
3DC83714
BD8FB2D3
3C2202BF
3D4E6F2F
3DBC9DB8
BD173465
BCA3BDE0
BC50203E
3B58CC5F
BDA8EAC0
3DBF6F67
BCE1D67F
3D4962B5
3E02B1B3
BD1EE690
BD9AEFE8
3BA79DFF
3D962E68
3CEDACE1
3E0C3A00
3B966B11
BD94CF73
3DB7333D
3DB22FA0
3D26A0B3
3D1C774A
BDB01762
3DA055C6
3CDDC543
BBEB65BF
BBACF7B0
BDEE03B4
BDB82FA2
BE0B01C9
3D5EC629
BDE6F827
BDC16F6C
BDE3ED0F
BDC30BFC
3CBC1E94
3D04E0A5
3E35C2D2
3E0DFBD7
BDD33EBC
3E0A4C62
BDADBC16
BDAA74A6
BC225D8D
BD91844A
3DEB5782
3DA3A422
3DC295EA
3D4D6C4A
3E2664D4
BDA7B070
BE056085
3BD7B7E2
3D7D892D
3AF330E5
BC97AA76
3C1E9C43
3D8AB8CE
BD3D97C0
BD1F9AB5
3DD96B76
BD6105EF
BDC847C0
BDD5D4E9
3DB848DA
3D45AACF
BDF95B36
BD4172E2
BC4E6CE0
3D0A0F18
BD083375
BD001076
3DAE8379
BDB85313
3D1F28BA
BD7CE3B6
BD155A1F
3DB73A5F
BCA1A389
3D1B7FD3
3E360392
BD662838
BCFF5409
BDF16A8C
BDC26BC3
BDABFB23
3D2399CE
BE1A6B94
BC8A6E18
BD8A7752
3DD6DE33
3C4D2E87
BD25AA7F
BE1CB5BB
3DD529FE
BDC92296
BE11E215
3DEB5A21
BDA32F1C
BDB99FA1
3D123989
BAB0CD93
3E3258D6
B9679E2C
3E69ED7C
BD0E49BF
BD8EBD75
3DC3F3C5
BDBBC19F
3D6C8B44
BD888575
3DC23DC8
3E0EAC86
3D39EC3A
3D0B957A
BC2972C0
3E0E3A3B
BE01AB4B
3CD73281
BD950515
BE0E1E71
BDE710CB
3DADD89B
BD96292A
BDC8785A
BDA86DC2
3DDE9C88
BDB31AAA
BE2045FE
BB952556
BDC80750
BC5829F8
BD342C8D
BD9306CB
BD856A53
BB22E299
3D444341
3DC5A972
BDFF9831
BDAB2D40
3DE72B88
3D63E568
BD5809AC
BD512019
3CD62896
3C85E552
3D31701A
BC9993F0
3BC0B1E1
3DDE1438
3DCC126A
3DB7C94A
BD14D834
BD8AB5DE
BC7E8B20
BD6AA377
BD29A59B
3CF4472F
BD761DE4
BD26A9D3
BDD8A19D
3D9C6958
3DDA9110
3C867B0F
3D96129E
3C6ACFED
BD8F7FC2
BBC61AEC
3C5C44A4
BD052EDE
3DBBB63F
BDA185DC
BCFB02D6
3D97DFF1
3D5E0B84
3DEE7F6F
3E31F688
B9DCF677
BDA059F8
BDD41AEF
3DD99568
BD5C5BEC
3D0A1A00
BD6870E8
3D83F73B
3D9EF325
3D42D34F
3D85842B
BD9C2D28
BDC7C59F
BCAB441C
BE023C43
BB4CCF26
3D883325
3D23884B
3AC38F8C
3E155582
BC04C003
BDAAAEA2
3DD700CE
3E21CC53
BDA809E2
BD797262
3D73D02C
BDC9E6FC
BB7C60B9
3B46E684
BD1984BC
3DBC1674
BD3654D6
BD1E0C0A
BDA25C8E
BDC2C7B9
3D9C61D8
BB10A1A3
BC9F142D
BD85ACC0
BCE2BF48
BD6275E1
3C47636C
BD99D056
3DB7872E
3E1033E8
BCE0F9E0
BD1557B6
3DF08D4C
BD613E59
3DD53501
3D0D2FE4
3E063D3E
3DA559CF
3DE34092
BD2167DF
BDD1FDDF
3D8DFAE5
3DCA8453
BC923E91
BDAF67BF
BDE0D802
3D805293
3E0940FF
BD8FF873
BD409643
3DD5D56F
3DF9D2BF
BDA415A4
3DBC3D9E
3DC5E3CD
3E11A3F4
3D3E4A03
3C5870DA
BC6AAE5F
3DA73076
BDC60088
BA09A2B4
BE396745
BCD47065
BCC92E47
BD832D8A
BDD5B78D
3D15BD6C
BD907DEF
3C37AEC3
BDC4FD1D
BD0079D8
3DA780C8
3D90C6C2
3CE89D0D
BB135A65
3D0FB7E9
3D720A3E
3DD8A6DB
3DB499D0
3E06A50D
BCB4666F
3C3383BB
BDB580DE
3C71CE79
BC73618C
3D88C0A6
BDD9231C
BC0FC011
BD7AF138
BDCAA872
BE0C768E
3DC467A3
3C51C4EF
BDE6E2A8
BDEE86C6
3D23B7E6
3DAC42F7
BC81CB47
BD05724B
BC9C7CD9
3D5F3C8C
3DD568E8
BDFCCD10
3D13CB09
3D69998C
BDCA2BD3
3E0256BD
3D217119
3D34B209
3D40C15B
3E0BDF8F
BD2E4BBD
3DBC7318
3DA1EB85
BE09E1F4
BDDF8A8F
BE08AE75
3DF2EF91
3D7A975B
BDE8B546
BDF8383B
3DECD20B
BD43810F
3D5EC842
BD9122C5
BDA451EF
3CC2C75B
BDBB3B5A
BDF57929
3DDC86CF
BDDD54DA
BDF5E0F8
3CE62AD7
BBD75221
BCCB0A1F
3D98E6DF
BC68F3DF
3E1A1BE3
3B7427B0
BD1AD2B4
3D9CC0F3
3D924B41
BDE096FF
3D283955
3DCD24E1
BDD01D19
BD5E84A0
BD4F6B0D
3DA29810
3D2F108F
3D822524
3B5EEEB8
BD65FE47
3D8C961E
BD7BB949
3CC05BA5
BDB91057
3DCE09FF
BDD7AA26
3D50B15E
3D7AE020
BDB41122
3B891568
BD26F588
3D17B685
BB2BF20C
BD21A18B
3D43A7C0
3D382E95
3C7BF6F1
BDCA1215
3DBD4CAD
3D5A0FE1
BD41C00E
3DBD387D
BE0E8AB5
3C482B7D
3BA92BF3
BC9DB18C
3CDD4C77
BC896B4E
3DC0DF66
BDEA78AF
3DD9B77C
BBD59965
3E0C5D64
3D612747
BD359B3D
3B8B7757
BCBC6618
3CB906E7
BCD3A315
BDBA87D6
3D23A612
3DE5DFA8
BC7679DA
BDEBCCF3
BD125D65
3DC5D32E
3DA813F3
BDC08BE1
BD79414F
3DBE637D
BD641F2F
BDC6B328
BC4250DD
3DF46BAD
3DC7FF9B
3D312613
3A990C2B
BDAA124B
3CB0545C
3DACC774
3DC07739
BC1D60F9
BCDFB140
3C83AA7A
3CB00EF1
3D131917
BDC33630
BCE55EFF
BD8CCA2E
BD90EC67
3DF583A5
BC85A485
3D91862D
3B0019EC
3DE41A26
3D173CC8
BD8D2CA4
3E3079E6
BC81527B
BD978565
3D1402B7
BB10B81F
3E13FD50
BD90D8A3
BDAF3B14
BD9AEB8E
3D01432C
BDEEFAA4
3DB8B0F9
BE03E4AC
3E01DF76
BCEAEA24
3E08B9FE
BDFD5022
3D824887
3C3A1463
BC05473D
3D8825C6
3DB5D943
BCBEEF29
3DAC2309
BD035753
BDAA331D
BD952D23
BDF1E9F2
3D8F0BAF
BD32F109
BDA391C8
3D181D63
3D34B209
BD23F7F7
BDF46E4C
BC275E7E
3D511E6B
3CFC36B2
BDC08015
BD871914
BCA1E95F
3D235CAC
BDBD413F
BCB9C9BB
BCA59E1F
3E17BAED
BDE2C6EF
BDE93965
BD9DCBF9
3DB7BF62
BDCC5917
BD3FBE41
BD5AA3F0
BBBC955D
BDD8CB08
3DCBC68D
BC6B40C1
BDB18648
BC458C67
3DA058C3
BDC09B4B
3D1C8613
3CF6AD71
BD97B3CB
3E234A88
3D51F8F1
3C95FEDA
BD653DA7
BDBA84CC
3E1541D9
3DDEA78B
BDCF6599
3D1F719A
BD1C6195
3D65EF63
3DA65E39
3D3BAF89
3D680248
3CF5A2E5
BD0FCD83
BCA0AF38
3C22B7B0
3D801F9D
BDDB024F
BDC8ED01
BDDF45E1
BDE1D10B
BC9D165C
3C95F5A0
3D9D4896
3DE4E725
BDB8ECF4
BC7994AC
BD068AAE
3D406F5C
3D22B7A0
BCF0B53F
3D7CD29F
BCBD4068
BE000581
BD83D435
3DB3D5E3
3DFB2AAE
3C462D0B
BD662223
BE2265F1
3D96C043
BD9F22C0
BDEC2481
BD96625D
3DFBA0A5
BA823F0A
3DC3CB09
BDCDAE3E
3D4C3C19
BDA47212
3DF2A173
3D83AD9F
3DF39B02
BDD85B5B
3D9569CC
3B154475
3DCEEA64
3DFB9E8C
BDFE7D13
BD64EAD1
3DD2FBA0
BD36352B
3E248D3B
3C506939
3DEAD0C4
BD8E48B3
3CD5DC40
3CC8103A
BCAEF0AE
3D931198
BD4B03D5
3DCC1DD8
BDD18091
BD461A46
3D910A3C
3D95B368
BDA0149B
3D676EA4
BDB5F824
3D8EB8D8
3D5DFBE4
BDDC2FC7
3D459261
3D55BB89
BCAC98E5
3E2199BB
3BDB0636
BD7DF7CD
BD273D26
BDEE1587
3CDA3DCF
BD710B20
3DD693C0
3CFCBFA4
3BB8C168
BD559238
BDA77044
3DA372CC
3C9F87F0
3D9149D4
BDD90D17
3E111D36
3CBC10BD
BDD0BD01
3E11FAFD
3BD417DA
BDA5ABDC
3D96B60A
3DB4D9FC
3DADBA91
BDD2FBA0
BDA8AA6B
3E0E6213
BB408EFC
BDB1EAAE
3DD70825
BDA22C45
3DAD7236
BDEA39C5
BDB74ED1
BD9D8178
3C1DA7FC
3D411B53
BD926289
3D64C6D9
3DA32E02
3D1E3921
BD820A09
BDD8CDA7
3DA41299
BDE39607
BCC2B628
3D54310F
3D776252
3DB8F5DD
3E331DB4
BD2EEB70
BDCDCB14
BDAFEFBF
3DAD3911
3D498677
3E005815
BDF970B5
3D526E62
3CAF80C1
BDEED1BF
BDADDE6D
BDBB5632
BDBAD60F
3DD69985
BD500531
BDB18BFF
BD69EF6D
3DEC764B
BDF5F56A
3D4D7EF4
3DB6A2E7
3DB49518
3C830F49
3D760433
3DC631D0
3D6A1BE3
3DD3586D
3D0042B0
BCC8B57B
3DBB3E8D
3CAFF922
BE32DA12
BD92A77A
3AFAEC9B
3DA60A13
3CE7616E
3D27CCCE
3D509056
BD9190C4
BD57B9FB
BB93E941
BC105273
3C92B50E
BD47CCCE
3D7776C5
BCF8839F
3D406028
3CE69CB7
3D8F9442
3D2A9103
BD8F096D
3DD804DA
3DEC82E0
BCB95EC6
3E11CEF2
3D8F473E
BD302D5A
3E1D972D
BD96C9F6
BC969497
3C310774
BCCAB19F
BE0EB95E
3D362A29
BE0A7760
3C0B1A9B
BD471F29
BD8212AF
BD9BAA73
BD8CEED4
B9D142FE
BB7794CD
3D547EC2
3D59801F
3DB28672
3C9A1306
3DC864CB
3CF77CA4
3DEE05CD
3E213A0C
BDFFC19C
BCE64402
3CD493D6
3DBFDDD1
BDDD1245
BCA50E78
3C5A1372
3D2C0EE7
3DD5E52A
BD271243
BD44EC99
3CBFC009
BDA990CB
3C43DE11
3E0927D4
BDF1C001
BD509600
3D4B3FB4
BD8B2860
3D72391D
3DCCFE15
3E135222
3E1A6E76
3DAD6B8E
3DC6D140
3D478184
BDC54386
BABA3977
3D5ADF14
BDAD0303
3DBE389A
BBFAFD4C
3E066278
3E18FFB9
BC0721DD
3CE6000F
3DBFF716
BD972E27
3D47701C
BDC0FAA9
BCDD755C
3D2765D5
3D104C2E
BD9B02A0
3C850375
3C8C2324
3D59E386
3D9BB9B5
3DA355A5
3E28CF3A
BCD44384
BCE63D16
39386FEB
3DB132DE
BCA5A328
3DD6C9C1
BDDAC57E
BD5D59AD
3DB7C60A
3DCD130E
BB60EFEF
BD8909A1
BD9D084F
BD8DBFA6
3D20688B
3D3A086F
BD46C0AF
3A924D1F
3D07B932
BDAA68E7
3C85CFB8
BBF51C0C
3E019115
BD9F6CD5
3D467911
3DD39192
BC3784D2
BDF12989
BDD65882
3DE72A7C
BC1C9827
3B690DCB
BD847CFA
3D323A2A
3E2CA8E3
BDAF9930
BDDCC426
3E52C7B9
3E01E929
3DCB5709
BDBE027F
3D904EA5
BD78EACD
3E018DAC
BDBC368A
3DDC6F37
3D7E6850
3D81F787
3D9F1C40
3D9E122C
BE16772D
3DF09E13
BC47BEDB
BDDF455A
BDE301A8
3E00ECB7
BB275091
BD0AD271
3D2B00CA
BD63F573
3DE5ABC1
BCDAB3AB
3CADFC5D
BCA15B2F
3CC9F72F
3DBF213B
BDA9406B
BD962ACA
BD753D64
BD5F2B74
3D9A692A
BC85886B
BDCF8F8A
BDE6C11A
BDF93144
BDA883FD
BD925CEC
3D6744CE
3DC7B876
3DA04428
BD8786D0
BBC5BC8D
3CD2F357
BD3F06A6
3D5E9C1D
BDC893D3
BDDDBB9D
BB4749AB
3DAF2410
3DB334E1
BDFC914B
BC31CD6D
3CE08C9D
BDD6A594
3DC47D73
3CBC62F2
BD19DDDD
BC29761B
3DC638D7
3E1449DC
BDA7C335
3DF629D8
BDF21577
BD7BAC99
3D3269E0
3D05521A
3DAB3751
3DA0092D
BDF60A63
3DD07076
3DDCE5B4
3DB07FAA
3DFF9DF5
BE1F1AA0
BA2BD2C6
3DAE99B4
BDB5EE3C
3D0A3D20
3E007BFE
BDE56EF0
BD99E54F
BE04F6E0
3D9EA14E
3C8FD454
3B89118C
3CA07449
BD54C173
BC931B9B
BDF6262D
BD803D9B
BD666A12
BD038759
BD2684CF
3D487387
BCB8008D
3DDCDF6A
3D3365F3
3DB07D4E
3CF8A273
3DFBE76D
3E2F3D3A
3D8C36A5
BD97FF23
3DECCEE6
BDAC0BEA
BB962114
3DD5019F
3CBDD3D6
BD5F559B
3C9E13B2
3DBC792D
BC7A08DB
3D4F4FC9
BC093E62
BDD52546
BD910972
BC36A17D
BC1D4890
BD1F61E0
BC85BC6D
BE2DA661
BDE9E450
3D2C471B
BC29C058
3D1469FF
BD406515
BDB829EB
BDAFC05A
3DD44CBE
BDEDC3BD
BD8B7374
BCD635CC
BCE8EB11
BDB02597
BCEB0B11
3C5D7236
3C03D37F
BD2425FF
BD6B1D85
3C2CF165
3D379365
BCB76AD0
BC99D346
BE016CA4
BCCA0DD6
3E29984A
BD84D105
3DC70B65
BE153FC0
3D7BB2C9
3D0144F4
BDCEFA1E
BC8C868C
BCA32569
3D224F4B
3D0A1801
BE03D46B
3C25F98F
BC8EA367
BDFA4E7B
3DDAE0C1
3D21ABB7
BDF67CAF
3D18B538
BC57AD66
BE185511
BDAC031B
3D2D42F9
BDE5857B
BDF80CB7
3DC4FA63
3DB4C6BF
BD8D6013
BDE3BFF9
3DDBC4D2
3D99973E
3DD733A9
BD92199B
3CE7EB36
3E3152B1
3C3984F1
3B7AC62F
3D269256
3DA8D519
3DC5B88C
BD83C12D
BD9E924F
BBACA53A
BDF0F1F5
BD26E7B0
3C2C8316
3D98C80B
BD45AAB4
3D59D7E3
BDF56B87
3DDEA24D
3C3F7C82
3D43FE27
3DC85023
3DD8A19D
BDF80991
BD0FC032
BD9580C3
BC62E5A8
BE101798
BDB5EFA6
BDAC366F
3E2E7579
BDAAB3B8
3E158149
3DBC85D0
BDA0CF91
3D0AE3F4
3E0D1DCD
3D472A7C
BDF0A02C
BD653975
BE04373F
3E161E0C
BD2CCE0F
3D57D8EA
3D4299BE
3D2310DC
3D205E44
3D9269AA
BDD7BB73
3D7D750B
3E120C4A
BBCD14DC
BDEA7F80
BCE84C4F
BDC3D45E
BBE5AA94
BDD4C87A
3DD4BA52
BD929457
3E0F5CAF
3D8C02E6
3BC43712
3C8A1E67
3D11AC65
3CEEA8C0
3CDDE127
BC1F7673
BCA7F512
BDEDECA2
BD0AF003
3DE3FAB1
3DE311E8
3D3BB65A
BDC612E2
3D15B1FE
BDC4F3E3
BD4AFFBE
3D4D8C45
3C40F8EF
3CF0FB80
BD399857
BD3C91EC
BD87B353
3CDAA4FD
BDA4497E
3C1834B5
BDE33B54
BC800574
3CAA4F95
3C983947
BDEA1C69
3E1564B6
3DC5AB3B
3DAEB951
3E1D6E48
BDC442F0
BE0969A1
3D828998
3D73C4BE
3D1A7405
3E011BE7
3D0BD662
BDD8444A
3D264D21
BDBA5F6A
BDF721D5
BDC6F021
BD571C47
BE0C5A81
BD876FA3
BDAD0D14
3DB94050
BDF9C62A
3C12B3A1
3DB49101
3DA9B3B6
3DC2CE03
3BCDE86B
3D67E847
3DB66D45
3BE15067
3DABFF04
BDDAEFF6
BDF80B24
3DBE03F7
3DAA5FC8
BC5A3642
BDCC4DA9
BD832915
3DDD6302
BCC9B9BD
3E0BBCB2
BDAC15E0
3A88BF01
BDF170D6
3D8E6751
3D6E45C3
BDB9434D
3E2E65BF
BD7865BD
3D6A19AF
3C61D1AC
3D71B54F
3DCB6277
BD5292FA
3D01F553
3E1A6A87
3E0313BE
BD99DAE0
3E329F9D
3DA6DA7A
3D18156B
BDC05AC1
3DD1D68C
BDCA39B8
3DCE75FF
BD462E83
3D43B90D
BDB16CE8
3CF9CA26
BDC3DE7C
BDE52CE0
BD6F350C
3E08DD1E
3D2DD525
BD72CC20
BBF85F8D
3D8D6B4B
3DFB1C00
BDE40746
3D9E9D01
BDA4605A
BCDB0971
BC777B62
3DA384BA
BDB36A5B
3CED7336
BD50EB90
BD8EB413
3C905151
3DB95DC7
BD396801
3DB053AD
3DB8D145
B94EAB05
3DDCA42B
3D6D3AB1
BDBE7E12
BD47B8E1
3DAF8AFB
BDB296DB
BD9C03AF
3C991E4A
3C40E030
BD601091
BDBB9339
BDEE9468
3D4B0B47
3D3C031B
BD33A762
BE0849CB
3D8D18E0
3D5A13A7
3DDABD1B
3DB3A076
3BE2F974
BD1E4A89
BE2BE5DA
3C891BD3
3D570062
3DF2A38C
BDD80A18
BDA7FBD5
BDE087CA
BCC8FE0B
BC737B22
3CEC7326
BD1CCC39
3DD0F51B
3D6F70B6
BE08348F
BE092642
3D34567F
3E087A4A
BD5310E9
BD764891
3D432B99
3D31233E
BD5CB41B
BD27A48A
BCE2FDC6
3D77934A
3DEB0FAE
BD2475B1
BDCABA46
3DBBEDED
BDB1238E
BD29CFF8
3D9960C4
3CF2F952
BD941BE1
3C828D0E
3C8450FD
3E08E25D
3DB2F853
BB80FEC3
BD3F0FAB
3D83CCC4
BD9FB6F7
3DB2230B
3D826677
3C6A7CE1
3CFAD950
3D2CEEE1
3D9C6C70
BCB8CB8E
BD205774
3DD68F8E
3D2785D1
3CAB55B9
3DA68B5D
BD15649C
BDEF21F7
BDDABC0E
3D403636
3D61CC53
3E11D799
BE0D82BA
3D1B7953
3D415062
BD3D874A
BDD4F15E
3DBF5BCB
BBA85A52
BDCCA65F
3D73FD28
3D9554EE
3DAE27E1
BDA93FAF
3DF7542A
BE32F901
BC57EDFE
3C8E496F
3DC64396
BC6F9625
3DA76973
3CB61E35
3D847489
BD9DD591
3DB30DC4
3D2FF3C9
3CEB822F
BC207F3C
BDA7D89A
3DFCC294
3D848CC2
BDE3486F
BD96D71F
3D22D095
BD16C8CF
3D3F1463
BDB29025
BDAFE7AC
BD8BF727
3D3BB40B
BD52B55F
3D55D47E
BD6379ED
3D88EB03
3D9F54DF
3A3FB16D
3D58EC10
BD8545AD
BC1EE325
BDDEE02A
3DE5CFEE
3DE5C91D
3D133044
3D3991A1
3E1C7150
BC544780
BD86A198
BCD7C584
BDB07D76
3DE1ADEB
BDA226DF
3DFCFE58
3D4A1F3E
3CC35265
BC824265
BD0A855F
BD32DAB3
BDAE3C46
B9F43365
3DB6F0DD
BD9F1DD2
3D983E50
3D7A8E8C
BC0E2ED7
3D9373B0
BD91C3F0
BDE6A551
3D495D92
BD599583
BDAC68D1
3D9C18EB
3E10AB71
BCE0EAC7
3D6D9B94
3E0CF95D
3E232229
BE1AB64A
3CC1D01A
3D1441D6
3BFBA2A3
BC5CF752
3D176344
3C702B77
3E0E8F6D
3CB65AD0
BE202BC7
3DA57D5B
3BC3FB98
3C434DC8
BDA2B2A5
3D18061C
3BA78BA0
3E0A93AF
3E229B6B
3DC147FF
BD5BEA41
3D55E61B
3DAE3BF5
BD8A9004
BCBB0C10
BCFFCC9F
BDB4EA73
BD757009
3C7EA8E8
3D5A4724
39C7EB80
BDBEC6BD
BD49B15A
BD810A13
3DEF66A5
3D154379
BD788100
3E1CCD10
BB225EE5
BD0753CC
3CCB77CE
3D140083
BDA09A9D
3DDCEFAA
BD839142
3D94BC85
BC92076A
BE07296F
3C1C19F2
3DABADF6
3D9C9EFA
3DD645A2
3D8DA321
3DF8305E
BD870F6E
3D1EC0B5
BD122806
3DA74462
3E0D5A18
3D58ECB1
BC6D5787
3D8071C5
BDD19BD4
3CB042BE
3CB5F011
BE12656B
BDA484D7
3D41C68F
3DE0DF59
BD1750B4
BE0F54D2
3DDE5322
BC32AF14
BDB204CA
BE0E7925
BC66135A
3E0D82BA
3E024B34
3C871492
BD3DCC2E
3DCB8123
BD64A871
3DE8626F
3E196A6A
3DA3F756
BDE36E2F
3CBE8CCE
3E020C4A
3D36994F
BC12BB8F
BDE5D8D8
BCFBCF4F
BCA16DD9
3CA9C0C4
BD144369
BDEE67D7
BDDF03D1
BD96CE28
BD2AF84C
BC8BC8F6
BC036FAC
BC2C14C6
BC80119E
BD9C002C
BD9030F8
BD9DA28D
BDEDBAD4
3C6F2918
BDA7C16D
3CDFC598
3DF0563F
3D9BAADE
3D4343B7
3D35493D
3CD578A3
BDB770D8
3DDF9D6F
BD33A8BF
3DADCE62
3D9B9120
3CC0EA0B
BDFF2885
3DD3DA73
BDE49FD8
BC194C77
3C32FE5A
BB4B493F
3DB1B981
BB765A3A
BD0FE154
BD860F87
BD85BC1C
3BACD6E3
3D4E7020
3DED783E
BD1BE030
BD8E2DC0
BD29BB85
BD7BFCB6
3CE54E38
BD19245F
3CA5FE2C
BD8FB4C4
BD07C73F
3D447779
3DC7F3DD
BCE7FC33
BCFD6DB4
BD8CD241
3DB3BEA9
BD29A6DD
3D05B74A
BD855948
3D7AFD11
3D6B3C3E
BD5AC223
BDC41348
BD08CFB2
BDF5E6BC
3E0A8A40
BD870D8B
3D023381
BDD5FFE7
BD06BB56
3CB537F0
BBC91C3E
BD64BE76
BD09B4D0
BD489763
3DF378EE
3DB0D0C5
BDD36934
BCA7491A
BC82CD04
BCC00F4F
BC318CD5
BDE58DDE
BDBC5429
3D18E1FF
3E11FE65
BDDC05D5
BD5D1BB5
3DB5EBC5
BCE921CD
BCBF77AF
BD44185E
BDB089FE
3D650AE7
3CEA47D2
3DF783E0
3DCC1DE6
BCF2279A
BCD105E2
BCA68F16
BCAA3487
3D924C0B
BDE2BE8C
BD9693DB
BDE28CBD
BC89498B
3CE599B8
3D568D0A
BD3EF269
3DB1D077
3DA92005
3DD48F54
BD9E392E
3C5DA273
3DC0E4E7
3DC7977C
3D8CE4D0
BB5A0215
BE0AA609
BD7CBE62
BD8FD22D
BC573A0E
BD95C648
3D91DF9E
BC777440
3E0B356E
3C9B7572
3D97E3D2
3D7D8384
BDF0ECB7
3A5C8B17
3E074D16
BC924D75
3DF2567A
BDD64495
BC13D9E7
3DE3254E
BDCE79AB
BDC1FCD2
BCE10965
3E0D3CBC
3D6FBBCA
3CF48D05
3D58DE53
BD2B6772
3D7A10D3
BDAA49A8
BD8D61CD
3D88D980
BD7B733E
BCD47CFA
3D74F052
3DBF16A4
3D9A6839
BC18063C
3ACBDD39
BDA27B1F
3B82A287
BDDBA238
3E01843C
3BBA4348
BE0AB7DC
BDEAB713
3DD7D9DC
BDA205BC
3DA62995
BDB0A138
BD51B732
BD0B1898
BDF533F4
3C81A65E
BDCFB00C
3C9B24EA
BE07AFEA
3DEDF7A5
3D2B3BEE
3C121A6A
BDD1E109
BDF9D3CC
3DABD09E
3DCF95D5
3E1DC487
3DB9C3A6
3DD46A1A
3DB8607F
BD1B6B2B
BD6B31C2
BD0A6A6D
BDA70A30
3D973D26
3DAD84AB
3C7A4830
BD502B91
BDE3486F
BE188659
3A737FAE
3D0BE23C
3DD9E0E7
BC8699E3
BDDC8861
BE002DE0
3DB21A8C
3DC0DA43
BDFB43D9
BD1CAFE9
3DCFB97C
3D3F63C3
3D1DE4ED
BD23FE0C
BD6EAC86
BD6B0186
BDBA9791
BDCADEDE
3C5F9237
3DF3C925
3DD97BB7
BD80918B
3E22BCB6
3DAE9814
3D1B32A6
BD805AB4
BD864679
BDA8684F
3DD2788E
3D6A3360
3DA0696F
3DDA56DE
BDA4AC95
BC79562D
BC955242
BDB88B04
3DA32BEA
3DF62D84
3D187450
BC5C43CE
3C4DB0F8
3B7D7B40
3CAB60D7
BDE9DE05
3D07B07E
BD5B3545
3E030A91
3DB6BD2B
3DC552E3
BC681DF7
3B2D99AC
BD2D3191
3D9B129E
BD761E35
BDF0281C
3E0ED528
BE093EE6
BDB7D391
3CF40556
3C928EE3
BD4E5D25
3D68864C
3DD1B930
3BB97CE4
BD479BA0
3DC6BA3C
3DC78CF2
BC64A028
3D09CCB8
3D67E73A
3D5DBE8D
3C3AA6C5
3CD73B1B
BDAB2499
BDCB59B5
BD173937
3E01EF74
BC97BA31
3E1EE84B
3C1E9333
3CE4B4B5
3DFC5932
3D6628D9
3AD3B676
3D8AA525
BDE5082D
BDE58EEB
3D9121D4
BD429B50
3DBE10CF
BDCDD93C
3D15ACDB
3E108E9B
3D94C829
3D45F3B0
BDFE353F
BDA82E37
BDE6FD65
BD58C5FF
BCCDA357
BE28DEB1
3C2A3C7F
BDF9EF0F
BDA9A324
BBADFF2C
BD3942E2
BD37C5EF
BDC83E6B
3D906078
3D91F312
BDF0DCFD
BDFA365D
BDB82D61
BDA007A8
3DE64990
BD2AEFCE
3E0E3476
3D378898
3BA382FC
BD9712F1
3DAB2C0B
3DD91EEB
3DFBA882
3C08BA23
BDD694CD
BDD1F601
BD87C7FB
BDDB163C
3D88888D
3DED1E97
3D1C0428
BD0C43C0
BB3EB90E
BD57D559
3CE71E1C
3DFBBCF5
3DF42678
3D9F6901
3E02F33D
3D25E4E7
3DD94185
3CFC4886
3DE672FC
BD9063EE
BD6ACC77
3CE7616E
BBC7A358
BDA9DD49
BC97B020
BCC098AC
3D337345
3DA19059
3CEA7696
BE4E9D0F
BDE57FB7
3DC0C580
BC4DB52A
3D87D3AC
3D44717F
BDC37055
3D447347
BD979E82
3C83C014
BD84C80E
BE127568
3D26A40E
3D83DAB6
3D91815A
BD1C9D24
3D61FAAC
3DE1ED5B
3D485158
BAA349C7
BD9E6398
3DF0F7BA
BDCFFB8B
BD936C4C
3DDC2DAE
BD2E20A5
3E0E0653
BD13C884
3DF4F82F
BDA679B2
BD3E7642
BDCEF34D
3D508879
BDA6D118
BDF1758E
3CAE4A96
3DE15A08
BDAA2E7F
3CF2349B
BD141DA9
BDB1E1C5
BDD11F92
BDB34FE1
BD65F400
BB80449E
BCC5E65E
BCC0CA2A
3D88CDC2
BD51E67D
3D4145E6
BDE2A5E8
3CD8636E
3DD75C07
3CEC1095
BD53C742
BD009105
BC9E6E15
BD90ADCD
3E0AD081
BC950B60
BDF14CA9
BDDA3C21
3D5DE9DB
3D9DF7DB
BD937345
BDDDB09A
3D40663C
3DF1F9AD
BCC75E63
BD8E45C3
3DF49BE9
3DD6CE79
3DBF2933
3D8D8E86
3CAC90B7
3C431741
BD8B04C6
3D069835
BD062A1B
3DC68CC7
3D3B778A
BDEF483D
3C16CC35
3BC06D43
BDA3576E
3CF2869B
BDC71B7D
BC56A2A4
BD986785
3D8EFE50
3DD3647C
BD261BF3
3E31E604
BDF29ED4
BDC3D435
BD86EBD5
3DA6168D
3DA10518
3D0D6EE9
3D84FC89
BD4C2DD6
3CF408E6
3DA0D357
BD7FF2AF
3C970B4A
3DF10CB3
3B3700DE
3DD12D34
BDAE2FCC
39E722F6
3D3A90F6
BDA00680
BD338F94
3C8285B7
BD5D721C
3D82AC5A
3C4800B5
3DB9DCB5
BD921CF6
BDEE69F0
BD638830
BCCFCF81
BDDB0920
3B79370E
BDB25D65
BD617134
BC9AA426
BC61DB52
BABB6DD5
BE015B14
3D87FC4E
BC425E49
3E3DF4C3
BDCB97A1
BDD461B7
BD051076
BB1B42BC
3DE04F2B
3DEA9824
3D833234
3D8A158B
3D774363
BD0E7BDF
BBED0425
3D71296E
BD59C539
BD2AE22C
BE05D52C
3D08294A
3D8E2A22
BDD4E1A4
BD7B0D6D
3D790FB6
BCD24943
3D027D53
3DB0B722
3DACD043
BDCDF7A5
3D8B9270
3D4A2EF8
BC0E9748
BDB3596C
BD9057C4
BA55B952
3C42BA24
BD0525F5
BC6B781E
3D490710
BD3F99DE
BD832E46
3DBBE589
3C556A2A
3D7EFCB0
3DC51F31
BD91545E
BDF400B9
BD620685
BDCC0300
BD551C27
BD277B8A
BC2F9229
BD170B9A
BD8C00F5
BD1E448F
BDD213E4
3DFD249E
3D503AAB
BE01B9FA
BB2F1603
BD446F9C
3DE0BED7
3D8D8E6B
BD74FE95
BDE57D18
3C8073C3
BDF90646
3D8CAD8D
BD35D6CC
3DE0B45B
BDF020C5
BDDDB878
3D824222
BCABF918
3C45535C
BDDABFBA
3B80483A
3DA00ACD
3DCEA63B
BBA01472
BD475B59
BD86951D
BC72F2D1
3B86942E
BDA6BAB5
3C05C613
3C918599
3DD03105
BDC0CB5F
3D7029C9
BD53C834
3DAE63C1
BCE58D58
3D43CD14
BDC48528
BCEB7CBB
BDC16815
BCB761CC
3E0CF8D7
BDADD690
BDC2C301
3D59576F
3DA914F5
3DC5D2A8
BA42C3BD
3DE493C9
BD4A9966
3DBB3B68
BC7767AB
3D0FEB15
BBDAEE38
BD37FB6A
BC8CBEF5
BD61C4C6
3D0741DE
BD0D759F
BDAD3375
3B29CEF1
3DCC92D0
3D828028
3C52B397
BDB4B82B
3DB30C3F
BCF40C0C
BDCC2FE1
3CFC4D23
3E057D9E
3D45F669
3D976874
BCF70733
BCF8A95F
BD071716
BDD9EA57
BD2A9E04
BCB66C38
3D89E526
3CFCE3B6
3C9F802E
BDB31F62
BDE4C61E
3D95CB1B
3CD3E418
3CADC6AD
BD0B1EC7
BDE541D9
3CDAC182
3C893096
BBE49D63
BDDB6DCA
BD73E98C
3E00D23D
BD8A8F8B
3BBFBD2F
3AAFD342
BD44CFA8
3DEFA8B5
BD4DE92C
3C86F47B
3CE8B927
3DC8F43D
3DBDDC97
BDE0EE8D
BCEEEFA2
BD55AAA7
BDA3BAF0
BCC75819
3DCEA8DA
3C30E941
BD9DC111
BBFB9D04
3DDD5BAB
BD1C9C69
3C3C0138
3A6A5E36
BC1FEB17
BDC271A2
3C82E33F
3CB51662
3D334BD7
BB93E072
3E019EF9
BDC46FA9
BDBBA1B2
BDCAD355
BD4920F6
BE01450F
BD9F13B4
3DA8B398
BD4F2F2D
BDBAFC55
BD82397B
3E0F7660
39E65150
3DFAD29A
3D655BA4
3C100729
BDB690D1
BD16CB53
3D04B084
BD40FA81
3E26EA42
BDB9742A
BA202264
BCE21C55
3DD46AA1
BC9352F9
3D04687A
3DDCA212
BD3B93DA
BD2A4C1F
3DE87097
BDAB6C02
3DA1F66D
3DC45E4E
3D8EDEA5
BCD0847D
3D7BC8E9
BDAF5665
BC25A1E6
3DBB6C88
BDC0F0B3
BDE846A6
3E1959A3
BD99656F
BB24494B
BD2993AD
3DAEC94F
BD1C6AD0
3C82602D
3D039BCC
BCE55E94
3D23CE56
3DDF7BE1
BC5CCB48
3D5A3EDB
BD9E2FCC
BCCD97CE
BBEFDF8C
BCFD09AB
BD47AE2F
BC868DEE
BD80FE62
3E0CB2D9
BDEE64B2
3AC96C1A
3DF12663
3D1BFC15
3D289225
3D8DBD8E
3D6E23CA
3CE6BDDA
BC815D63
BCE472DC
BD8FEECE
BD2662A0
3D886DA8
3D7920E9
BC5D575F
3D4DC825
3C3FB953
3D89F6A9
3D128FF0
3C4EB1A9
3DDF583A
BDF8E970
BD3EA0F0
3D959005
BCD6D05C
BE05A5B9
3D138C8A
3D049815
3C803438
BDB238CD
BD53BF9B
3D89CCC5
BD82DEF2
BCD50FFD
3E019696
BDAB76B4
3D1B575A
BC42CC2D
BD2ABC51
3CDF41AF
BE0F383F
BD9FBCAE
3D7EF630
3CB9152A
BC919589
BD7BF650
3DD97B31
3DC3477D
3D55E9E2
3DD76EE7
BDB58411
3D806E78
3BD446FF
3BCD9926
BC0115BF
BDA2E6C2
BE168944
3DA20FC0
3DC0F74F
3CAB3FB4
BD47DCD9
BC85157E
BC6A648D
3C43D7C6
3DA54AD0
3DA396DE
BDAEF4C5
BDB427E3
BD1CEFC5
BD4BF693
3DDC7369
BD626245
BD7BA2D9
3CC8DECC
BB35B300
BDEC53B1
BDA2F556
3DC0DF9C
3CC4C8F2
3E11248D
BBC4F2F9
3E22B5A2
3E727632
3AD54FD3
3C11297E
3E668230
3DA1F1C2
3E34A87E
3D085C5A
3D45D08F
BDB9875B
3D8D482A
BDCD6D3B
BD6AD9E3
BD85CE33
BDCAF783
BE203B82
3D6E60D1
BDE30B9E
3D0EBDEE
BC57A3C0
3DC36596
3C606749
3D744094
BD6E1D14
3C86F4B1
BDB60972
BC9E0F14
BCEEBB34
BC8CB627
BDBC0534
BD77AE72
BDC94284
3DA07380
3DE789E7
BDE70A81
BDDDC7AC
3DEEB3DD
BDA31056
BDD99CBF
BDE1804E
BDF782D4
BDBA7737
BDAA8A68
3C817C01
BDC082CF
3DB5EB59
BD3F9D1F
BE083A11
3D10000D
3E0F6E3F
3D2C8A88
BCC94C44
3B21B9CF
3CC225AA
3C1CD4ED
3E297FE9
3D0A0B01
3DD2E48F
BD967A96
3E49DECE
3DA245B3
BC634A52
3C3B7CAE
BD57DE79
BD324745
BDDB4E55
BBF51658
3DAA7A5D
BDF0795F
BE07A0B6
BC12B463
BC8D49CA
BDE5E3DA
3D140322
3DBB90F8
BDCE0A85
BDE53112
BD32A38C
3D02F167
BE01D430
3D4FEFCD
3E1CF3DC
BCFD131B
3DB86E3B
3E1A5B96
BCDEA324
BDD6B54E
BD2F767B
3D29B449
3D8D6063
3DF7D73D
BD951EAB
BD5980F5
BDAEB3B5
BD9434F1
3E1CFAAD
3D74BE4E
3DBBF6D7
BB89C800
3C627327
3C31FEEB
BE0F8F8A
3D06BC98
BD5D3092
BDD22C02
BD90C085
3DFFB9BF
3D9A6AE5
BD7903DD
3D894CA2
BBAD2EE2
3B05B3B4
BA828F78
BD29A2E1
3C9B4CF8
BC0E8CE1
BCAC2664
3D39D8EF
3D83A14D
BC826139
3D45D0C5
BBF08A6C
3DB68AC9
3D8D5C24
BD983871
3C51A21F
3D779604
BCC9BACA
3C70FB15
BC3277B7
BCA28A6F
BE0D4307
3E264BEC
3D1E63B3
3CB30EEB
BE3A2270
BE09DA16
3D25A089
BCB3C311
3C12BBA4
BD4064AA
BB2DDDF4
BD32DB54
BDC29E68
BDB31310
BD1C6B3B
3BCF384C
3CDDABAD
3C5689E5
BDFA8827
3DAC7ACD
3D7676B5
3D2313B1
BD3E1346
3DF44DCB
BCA38F51
3DBEC51D
BB6301ED
3E20B49E
BB9D14B9
BD20877A
3DB4845F
BD49EC2D
3DAE988C
BD864587
BDA9C4B2
3DEC6A3C
3C6F530A
BE173FFB
3D1D95DD
BD4516F6
3E02502F
3D8C2AA3
3DAB2A78
3D851330
BE27D5AA
BDAAE785
3DFB5526
3C78F5B5
BE053501
3D84C801
3C02B3EF
3E048840
3DED8F50
BD09E8ED
BDA379FB
BE0AC259
3D12A950
3D9C70E4
3D97867F
3D8336B6
BD428AF5
3CBAA1BC
3DE3F812
3D5299B0
3DB681B7
3DD8DAC2
3D201960
3D035B6A
BCDB5591
3E0090B4
3D7B41F5
3DE71AC1
BCB526F4
BDD5C7CE
3D8C49A0
3DD63561
BDDE7104
3D34F82F
3D3AD213
BDC04F96
3C213381
BCEF58E9
BDF04578
3CAB6D01
BD6FCEFB
3E0B08DD
3C78A6DB
BDB6C7DD
BB815179
3E35E0F8
3D3A8694
BDA14057
BDC27AB4
3D9949C0
BDBAE361
397D0354
BCDBB88D
BB66A38E
BC959E62
BCDE419F
3DFF77AF
3DC4AE6B
3D7435FD
BDA6FF56
3D67E2B8
3C904DF6
3D998D70
3E262281
BDC2F52D
BC9C948B
3DDDACEF
BD2FFCE8
BD09176B
3CF3BB18
BD5C1814
BD7AD47D
3D613B4F
BDF688BE
3C8D5370
BD86EEDF
3DF648C7
3D33BE8E
BE09BC77
BC366F93
BD19AE0C
BD5FF101
3D19911B
BDB5BA11
BD33746C
BC921038
BCDF40A3
3D655E5E
3DB9B1FB
BD891007
BE0679CC
3D5C8DD5
3DF47736
BD8298DA
3DB12381
BDED3954
3DE8754F
3DC86120
3CC41AE2
BCD3FE19
3D8DB552
3DEEBD4D
BD46556A
BD726A4B
3C004CB7
BDF2B1B3
BD007124
3DC8D2F3
3D8FE8FC
3D3261B2
BCD24760
BD021D46
3D215A58
3D85406F
3D3FF010
BD123DF0
3D588BE8
3DFCBCCF
3E0FD545
3CF52FC2
BDA32F5F
BCFBBCA4
BB967CDA
3DB4399B
BD3F49A7
3DC4A820
BD4C1E01
3D86D5EB
3DC82101
3D78622C
BE0619DB
BD565B3C
3DE32A8D
BC17E5FB
BD7CB2BE
BC42E191
BCC25F8C
BD95B2FD
3DD780BB
BD41E86D
BDB0E67A
3D393922
3D6CF059
BCC41FEB
BDCE1F7D
BD180453
3DF3D641
BDB18AAF
BD76F778
BD7D82AD
3B4864B3
3CAA92E6
3DFDB09A
BDBC9CE1
3DB34E5C
3A7F099C
BDCC6D7C
BCC17F5C
BDD551D7
BDEE0D24
BCC7EB1B
BD668124
BDA66722
BC9D359B
3DDAA476
BD3AAE87
3D8C4F64
BCA3FF4E
3CCAE99E
3D940EB8
BD03FB37
3CE5AFF3
3B85E1AC
BD8A294F
BCC12A6D
BDDBE33B
3CD2D880
3D891D73
BD39BB28
BC9E6794
BCEB0A70
3DB613FB
BDD5714C
3CBD6F62
BDCFD439
3CDBE7BD
3CE051AF
3CD942C7
BD387450
BB442D41
3C842D8C
BD4997DF
BC93F25B
3D502E9C
BC1A9FB4
BDB680E0
BD72AE8E
BDCC29E7
BD25DABB
3CE705C9
BDF7329C
3CA5402B
BDD99FE4
3DDBADC1
3C21DB72
BDE2E0A0
BE37D5ED
3E76E760
BD8578A3
3E02EF91
3E57B528
3DBCEBA1
3CA995FB
BD272B38
BE070111
BC28EA04
3D157761
3D3620B9
BDBA2786
BE1FD695
3E157082
BCC44E0E
BC883233
BC42897D
BE1E681B
BE055608
3DB1D5EB
3E117D28
BD96BA72
BE04F441
BDB5D181
3D583FAD
3E20E0A8
BC3180AC
BD25A55B
3DD5D3DD
BBDE8F42
3D61C2FE
BD9B87BE
3E40D280
BD98B439
3E268F08
3E2BF22C
3DEE3044
BDDE85FD
BDEFEBD1
3DC198CA
BD9652F3
BCC90AD6
BE12A561
3DF50B95
3DDE8683
3CD15527
BD694C44
BDDC63AE
BDE548AA
BD2FA06C
3D13FE19
3D6AC49A
3D426FB1
3CA87930
3E377293
3D89B9F3
BD95A350
3E667382
3E038C97
BDAA6557
BE2071C5
3D427DA4
3E55668C
3DC295A7
3D23ED7B
BD48D7FB
BDE8EE6C
BBB158D3
BCD2EFC7
BE1F42FF
BDD4A904
3E0F28C8
3D0B6376
3E061D86
BCFE9135
3DAF4631
3C0A8D02
BD05EBB7
BD3F1CC6
3D8A7081
BCCA492F
BDD53A3F
BE11E796
BD7B64FB
BDBCC236
3D5D73C9
3DC05BB3
BD667713
BE045671
BDD61D43
3D97A5B1
3DBE4A53
BDB61DFF
BDEA411C
BD29DEA6
BC8DB347
BD906375
3DDB8130
3D1A444F
3CAC4B4D
BD2BD846
BDB200A6
3D80629E
3D1B791D
BDB5CA87
BD1F0041
3DF361DD
BA36FB10
3DA5709D
3CF226F9
3DACC1BD
3DCBA5A0
3BAF763A
3C5792F9
3D52F6E8
3DB86105
3D21705D
3C945415
BD489763
3CE2B7F1
3D769D15
3D67B3F4
BDCD106F
BD4845B4
3DA25694
BD6B4A31
3C8FFE0F
3CD6C6EC
3CDF4F51
3E0F416C
3D34C04C
BDEA77A3
BDFEC99F
3E177EA2
BD7C248E
BD3F1CFC
BD144BE7
3D3F023F
BC4C4121
BD49BC77
3DCEEE0F
BE0537E3
3D3E3C61
BCA1BA2F
BC4C6965
3B72DF5B
BD823209
3CC720F1
BD09365A
BCE959CB
3D8131F9
3CE5AE45
BD7C896E
BB958F89
BDB57A5E
3D74D89F
BD205D38
BD920FCD
BD14AB02
3D5D9267
3D1463B5
3C6683C3
3D35B0D7
BDB20005
3DBC7425
3D161332
3D8EB0AA
BC2B4239
BDA4C58A
3C887A8D
BCE5488F
3D9BAD8B
3C06080D
BD9983E5
BC6A747E
3DBED3B0
BD940D40
3DE87EBF
3CEAC2B7
BD7ACC4F
BD64EDDB
BCD916F3
BDFA9C99
BD7DE53E
BC2D12F3
3D0CFF07
BD2B3F99
3D62910A
3DCCE3DE
3E26772D
BD914A17
BCCCBA8E
BC3238CD
BDCADB33
3C7F5621
3D789E0C
3DC03C30
3D5E4078
BD1FCD0A
3C334E0B
BDCE7B3E
BD52AA27
BE15AFF3
3DE9D841
3D14A6B6
3C3CF1F9
3DB4F82F
3DBFAC10
BB3A384B
3E01AF3A
BBFF69C3
BD7692B4
BD36F75E
BDAF077D
BDF1BAC3
3E255B8A
3D5F9BC2
BDA13C4E
BDD825E1
3D84C6BF
BD6652E6
BCF15395
3DE068DC
BDD3C57A
3DD84A0E
3C9F563C
3DEC2D6B
BD58131C
BDE5B9E9
BDCF11B6
3D6025DB
BE04C7B0
3D02816A
3DCAF74D
BC73A655
3D19826D
BDA2814F
3D448677
BC0056FD
BDF5D24A
BD3D136C
3E1E6D16
3C82C400
3E0E44B7
3E14B407
3DECCFF2
BC9AB5F9
BDF8A86D
BD2ED40E
BD9FCD75
3D38E24F
BDAB3934
BDB71A3B
3C385E81
3DA62B93
BBE54AF3
BC9F96D4
BD51F007
BD948E70
BDCBC20B
BDA86247
BDDBB6AA
BDB05D45
3BB0B3FD
3DAEF820
BDDAE819
3DC64F1F
3D99160E
3B6830AB
3D5F6A94
BD7BA0A5
BDD27FE5
BDD79C84
BDC39FAD
BCCF553D
3D3F8AC5
3DBD7F1C
BDADF889
3D15FAA9
BD0F5CE5
3D9FFE2A
3DE61A61
3D8B52CA
BD48ABBB
BD942A9D
BC99DA31
3DF09310
BDB4ED2D
BE003F70
BDBE5F4C
3DC7BE3A
3E0502EF
BD973711
BC773E90
BD0BB69D
3D9773F0
BDDEE99A
3DB4AB46
3D1A70DF
3CF4733A
BC66C028
3C902A4F
3DBDF3DF
3E1F05A7
3DDC5BD1
3DC221D6
BD85C1FC
BD92EA96
3D8C134F
BD13BB84
BDD1E29B
3D1FA2AD
3BFDD94A
BD791B75
3D1EECDB
3D9794A7
3A4CFE20
3C15832A
BD009C58
BD4EDF46
BDA894A9
3DCDEA03
3D065930
BD51402F
BDD1654D
BDF1D14E
BD0DFC42
3DF19C5A
3D3C939A
3DBC83DF
BDDBBA56
BE06E1DF
3D641A77
3D6888D0
BE0744B3
BDB97D65
3D4F39DF
BCFC5C72
BDC67EE2
BDCC68B7
BD9B5419
BDB25EF8
3DD4E768
3DE99BF6
BD818182
BD210E02
BDB1CDCB
BC0A637B
3DAF2E13
BD83732A
3D8A0755
BE009FA5
BDD42BB6
BC086DE3
BE0181E0
3D4C5CD0
BD2A4AC2
3D966476
BE00A809
BAC3D501
3DE1059F
BD49B8E6
3D9974CC
BDCBF239
3D9EF269
BD719081
3E09E40D
3D2DFC0C
3DE630EC
3DBFF45C
3D8FFCE8
BDE256BD
BDC395DF
BDAD97DB
BD14F3E3
3C9132F8
BCC4CC4D
BDCD4D40
3D582774
3CBAA68F
3D0463C2
BE019BD4
3C9A7F73
3DA62802
BCC9FF5D
BC4709AA
3C890456
BD6EB4B4
3DA6B6EE
3D3A4E2A
3DC2CCA6
BD919653
BE181BEB
3C3345A8
BDCE5259
3D04E436
3C2A927B
3D8DC0C0
BDD592DA
BD86C2AD
3DD38A3B
3DDEAFEE
3DDEFB6E
BDB6BB48
3B7873F0
BC0473EE
3D205FBC
BD7D7AD0
3DC26C2E
BB950520
3D51FF8C
BDE408D9
3D9F609E
3DA962D0
3E0FA227
BDAB5038
BC2C2DF1
3D760BF6
BDF22AF5
BCF46CB9
BD96DE0B
3DA80892
3DBA9B4A
3AC62A9C
3D275C80
BD96F9AC
3D2E642C
BDED99CC
3D992161
3D2CF4F6
3D7FF690
3C923557
3D7D14AE
BCDEBBE3
BCBF6FED
BCC89B7A
3BAEE0BE
3D8BE257
BD6C74EE
3D96714E
3D839219
BDB4CA27
3D94275C
3DF8C3B1
3D7DD7ED
BE0C3DAB
BBDAF0A7
BB37B2DF
3E0ABD5E
BD3107E0
3C664402
3D760C11
BDBE01F9
BDE7429A
BDF362E9
BDAC01D9
3D8E0B4E
3E0FD71B
BE059A31
BD07ECE4
3E0F227D
BDF96851
3DB85B91
BDEEDFE7
3D1A6E0B
BD93155E
BC45EEF8
BD861B38
BDA33376
BD91692F
3D835E24
3D2F0E0B
BC71ECAC
3D4129B1
BD4F7A41
3C68378C
BD9A1F4B
BDA64BFA
3DBCDE85
BDB0970C
BC02F5F4
3E13B4F6
BB6BB4EF
3D9F894D
3C822CCB
3DF3764F
BDAD1725
BB109031
3C495330
BBBEB609
3DCDB9C7
3CA5C704
3DB71FAF
BDFF4773
3D1AC8A3
3C1D83EA
3E115B9A
3D71D9E7
3DA7130C
3CCFC7F4
3D79B025
BDDA5B10
BDC6E28D
BC736F63
BDF72DE4
BDE09FE8
3C5215E2
BD63760C
3D54AB1D
BCC6CAF5
BDE93D10
BDEA22B4
3E0EE6FB
3E050764
BDF40032
39E08657
BD34103D
3DFB9064
3D88BB25
3CBD7577
3BABD0D4
BCAC7E43
3D8B0B1E
3D907DE2
BD3A3063
3D31EDD4
BDCF2E06
3CC21152
3C96FE49
BBD4F692
BCCDA85F
3D3F6901
BDD96B76
3C030B2D
BDA63729
3D425601
3E00BF1A
BE203EA7
3CE4D892
BD3F583A
3DDEEFE5
3DFC1C61
3C2A1075
BDFB78CD
3D930249
BDD09396
BB95CF1F
BDEEFCBD
BDBC1CD9
3D500856
BD9531A6
BD7BD97A
3E01B21C
3D77D98B
3C81036B
BD5714EF
BCF93F1C
BD458FF7
BDD57364
3D0FE07E
3DACD6EB
BD9AA59E
BDA6CD44
3E2631B6
3DF8AC19
3CD955A7
BCB18040
3DA7F829
BE2BD662
BD87C577
BD83A0AC
BDD65D3A
3D283E28
3E011F0C
3E180D3D
3DA74B9E
3D94B33E
3DDC0EBF
3DA662AD
BDD6BB13
3DE347E9
3E058213
3D1D3119
BB8E2140
3D85D795
3D177623
B9D1119A
3BF7B873
BD27FD25
BD5FA6FA
3E28CA82
BDF8AFC4
BC978F9E
BE5F2F12
BDB83340
BD72551D
3DB0E461
3C891878
3D28B1D0
BE00A287
BD7FDD15
BD96C425
BD6F010A
BB8EE8FC
BC337289
BD0A578D
3E14A98B
BD8481DA
3D3E4332
3E028134
3C5BAF53
BCBA6ACA
BDADBB4C
BDF05D10
3DE93B7E
BD61198B
3CA08EB6
3DB842AA
3E08E79B
BD732089
BCFE9963
3D84B7DB
3D64C130
3B487753
3E099F1B
BD7D65BC
BD78D59F
3DE0E304
3E0D0892
BD3B9E8C
BDCC9C18
BE087F88
3D076301
BD973D69
BBB904D9
BC878BB0
3B9090B1
BDC8BA5C
3D067A38
BDCDDCE8
3DD74795
3DFB39E2
3D8608B6
BE08943E
3C68DB8C
3E29181A
3D0DD484
3C1E4A38
3DA673E0
3E38D10F
BD0F8E2D
BD86D6B4
BD8042B0
3DF41637
BDA8FB0E
3DB85F3D
BC055926
3BE93462
BD363B0B
BDC0483F
BDCB9C23
3C5B4388
BD371393
3E17E8CD
3D61AE3B
BC825B8F
BCFD611F
BCBBCCCA
3D86BAC2
3D587923
BAF4C336
3CF42CC3
3D9BDEEE
3D090888
BCCF8DA7
BDB27A99
3DBD0F12
BD481436
BD849716
3C1FAD90
BD86C53E
3D19817C
BCB0F719
BCEE6A77
3DF17721
3E04D76B
3C83D5E3
3DDBE7F3
BD6EEF1C
BD747700
BD62DD2A
BC8FB2FB
3D960C97
BD2A59DB
BB92F0DE
3E20F388
3E088E7A
BD4CFDAA
3E08D64D
3D2BADE9
3CA305F4
BDAA5F77
3D10E5E6
BDA77425
3E12B6AE
BC85EE21
BD9D26D2
3E05AD54
BD8CA933
BCC1219E
3DB0C799
3DB8E857
BE047C31
3DA9B82A
BD316D60
3D0CA636
3CC35082
BE031AD2
3DBA053C
BD722516
BD6DA5A5
BD0E3674
BCC60964
3AEB173B
BDDBDDFD
3CE57895
3DC8003C
3D7DEE5D
3D6D3141
BC178A35
3D876A2F
BDE49236
3CD220FF
3D1BFA67
3DEF4CF5
3BAE8524
3D5F10D2
3D62BB4C
BD8F60D3
3E1FDBD3
39A7E808
BCA64361
BA9C4C51
BB8086E4
3DA21958
3D8CF843
BD9AAF51
BDF6E936
3D92A04B
BD9DB12E
BD4A43D6
3D8B7CF1
3D9E17BB
3D868D76
BDC87592
3CAEC46E
3DD30D74
3D94D588
3DF31C22
3E088659
BDBB7F75
3BD4F728
BD261B88
BDA0E256
BD71933B
BBE41680
3C05DBCD
3D827FF2
3D935D83
3E007421
3D027525
3D8CFE23
3D807FED
BDA712A1
BE05D788
3D419B76
BCB2AE73
BC7D5DFA
BC5841E0
3E160136
3D3353EA
3D8360C3
3DC066DE
BD5F6CFD
BE03048A
3D957B85
BD5374A2
3D78CCB5
BD8A6282
3D302420
BDE7AFA7
BC8E8DCD
BDD7C6FC
3D3E3052
3CC3E278
3DA8F8F5
3D77FA93
3D5D4D68
3C84C597
3D808589
BD27F689
BBB36E01
3D40F30F
BD8B4253
3E033EBC
3D254336
BB391BC0
3D3B5CB3
3DE48A59
BDC174FA
BC823DFE
3D75AD10
BD4B2FFA
3C6D72CA
BDAF7312
BDB396DE
3D110B8B
3D85BD79
BD35AE53
BD100BCC
BDAC7277
BD4BD3C3
3DA2C930
3D675FDB
3D1E4DFF
3CC549EC
3DF13511
BD84702F
3CA7B0B4
3D8629B0
BCE19EEC
BDE96AAD
3D9974CC
BD165A9B
3D7FB1C7
BDD52C17
BCE37C06
BBCF8DDD
BBED1E66
3DD53BD1
3E007AAF
3DD8D046
3D4D2EA2
BDB6C681
3DAEBA6B
BC94F631
3CC1977A
3DBCF320
3DABE498
3DDC7AC0
3C8F37E1
BD06BC2C
BDD08894
BD8061C8
3DE687F4
3DAC8902
3D1F61C5
3D50C946
3D927250
3DAAC746
BCAD6E98
3D133AF6
3DA7FDFB
3D0C6FCB
3D489C00
BDE27E0F
BD419A34
3DC83CBD
BBED43FB
BDB60EBD
3D0C9C76
BCB6639F
BE0594AF
BD12C6E2
BDE60914
BDB053AD
3D68AE0A
BD8EB43B
3A2E46FB
BCECCC7C
BDF07FAA
BD1CC3BB
3CFEEB63
3D97962C
3DB6495B
BC064859
3DDA4ACF
3D01A7A0
3D0D1AD0
BD7FBCE4
BE06A162
BD71985E
3D96AFA5
3CF685CE
BDE45671
3CD7E88A
BD0B85DB
BDB567DC
BD7EF2EF
BDB6CEA1
BCD506F8
3D8B1FB9
3C5FD5BE
BDFA5871
BCF9558C
3D1C7658
BC5DA273
BD71093D
BDF8A7E7
BDFFA765
3BA4DE06
BE08F2E0
BDAB6D29
BD8FAD2A
3C9EE533
3D6CFD24
3B9E8918
BD1102F2
BC341BFC
BC04B5FD
3D967BA2
3E12B346
BCA5598C
BDEBFB16
BCB7A589
BD7A6069
3C549F95
BE0D551D
3D846215
BDD49F0E
3DD61E4F
BC08DCA8
BDD9DB23
BDDE353F
BD36FAB9
BD7FF914
BC8E2054
BCD5C59A
BD85A434
BD605144
BD9AF9B6
BC97045E
BCD60052
BD9D72BD
3D8FB0AD
BE038B8B
BD9F4EF3
3DCD8C2A
BDDDFB94
3BEFC8E6
3CDD1AF9
BDF73EAB
3E0D40EE
BD2D4604
3B8C1BD8
3E296F22
BDA854A5
BD33A4A8
3E30DA1B
BB0BE379
BD62C64E
BD4163FE
3DC6ED24
BD6A58CF
BDDEF0F1
3DC47D66
3CA1EAD7
3B268B1A
BD8B0E36
3CA1F121
BDDDFA01
3DCF9011
3DB2F0EE
BDC648E2
3D907DE2
3C372317
3DDD9903
3AA0FB38
BE0D1D8A
BD35DD17
BD06063F
3D497A32
BD1E5EAB
3D2D8051
BD964AC5
3AC582D7
BD636FF7
3DC1BADE
3DDCC3A0
3D75A244
BD283C95
3DC0EF9A
3C2A4CDB
3D1B8CEF
BD33EA99
3D29D8AC
BD88A7DA
BD4C0D3A
BB84F2D9
3E00FF97
3D4C4172
BE1495E1
BDA16ED8
3D22F797
BDD0E992
BDB95F32
BDF6F651
3CBA4E7B
BCF60B1F
BD2ABD79
BCCDCE8A
3DA008C1
BD425BC5
3DA87138
BDAFA6EC
BD0D400A
3C0C4741
BD323506
3DA96399
BD111D29
3DC1EE9D
3DEEA290
BD93F06A
BDC2FBFE
BD574A4F
3D3B9644
3DF66949
3E101C93
BE02E233
3D830828
3D11EEFB
BDC73B35
3DFADAFD
3D5BA55D
BC98C84E
BD90D39A
3DC2834D
BDC4AEE4
BD852E58
3D9A41B0
3DC4EF7B
BD3D9BA2
3DEDC098
3D12C11D
3D55219B
3BF39E9E
BD6B1E41
3CBFDC24
BCF041B1
3DF2E59B
3D20E5BE
3D50FEC0
BDF5421C
3D4BA07D
3BBCE0F1
3DB4D21F
BD9EB0ED
BCAA2E72
BDC4AC01
3DE8E92D
BD8CBD3B
3D2B1176
3DE3DDDB
BE1980F5
BDAD4F66
3D299C7C
BD898EB2
BDA320A4
3CA3C389
3D314339
BE063950
BE14A72F
3D172E85
BCF787F7
BDE6CE36
3CB6DEB9
3DE85CAB
3DA3F8CE
3D9E8295
3CD7BC14
BDCAB9CD
BD202108
BC722E1B
3D091F49
BDECE9A3
3CB225B7
BDF96F22
BDE4EC63
3E192C8C
BE09984A
BDAC5AAA
BC1D16BC
BDF59924
3DE63411
3DD02364
BE04F7EC
3C9412DC
BDC68E32
3CCA010B
BD3B2F4B
3CD63AD5
3D5B4EC0
3DE57C91
3DA29739
BD33865A
BE12ACFB
3CA6556A
3E072B02
3D5CF33B
BC4D4888
BD9B7217
BDFE5F31
BCE90943
3D8F4E5F
BDBF3A80
3CDC948B
3E06A444
BC6095D7
3E01897A
BD3766EF
3C47DB61
BCF83D28
BD2345EB
BC907563
BD9A40F4
3D3D8440
BDAB7A88
BD8C78C2
BC91F8F1
3D391149
BE096C83
BB317558
BE003C8E
3BF43AFB
3DA311CE
BD5D6E3A
BDB8C198
3D51631A
BDCD6345
3DFCBBC3
BCBED6A0
3D8F3EBF
BC18FCFC
BD9D05CA
BCACE53B
3D1FF492
3CA8657A
3D5A92D9
3DB52B25
BDCB239A
3D65EF7E
BBFC0864
BE00728F
BD88676A
BD79AACC
3DA2B3B1
3D9E5F16
3D6C0542
3DF4A340
BC0BA0DE
3D2BB7C4
B9244C14
3DC88CBF
3D91BEB2
3E0827FA
BD11471A
BE1149C7
3DB0AA4A
3D12C676
BDEF6CF0
3D2457B3
BD6CD77F
BD8772D6
3D049144
3DEC80C7
BD4F18A2
BD817B2A
BB75057B
BD87D417
BDB3B3A7
BDAE8BB4
BCAA927B
BD19D61A
BDE2FAD7
3DC6396B
3C4D198E
3D9135E8
3C9CAEC2
3D8196D9
BDD01D19
3DBAB1D5
3C6D1A4A
3DDCF1C3
BC3A97AC
BD189DA1
3D8A6041
3D14B86E
3DCA11A9
BDA1092F
3DAE53A8
3CB6639F
3DD34F83
BDB5F35F
3D99D75C
3D6275FC
BD83F1D5
BD9C0740
3BAFA620
3DFC7F78
BD3A921D
3E0B09A6
BBC1D1F2
BD8A2F64
3D2E9C10
3DB7B45F
3CE83B88
BDB2F174
3DBB7EB9
BBD7F824
BDA09B30
BD9294D0
3D0E5D5B
3D8E83C9
3D0A5142
BD4530A7
3C713F07
BDB3CDD0
BD468738
BD228185
3CD43287
3D2AE6AE
3DCC7948
3D3EBCEF
3D87F4E9
3DE8B7E5
3D9018BF
3C1B35FC
BB0FDCAC
3DE12945
BDA305BF
BADF6988
3CA94A7C
3D666B04
39B9EBE3
3C815428
3D88B8A1
3D2209AB
BD4F7E58
3E129308
3DC61DF2
3DF92F2B
3E3F255F
BDC701A4
BDCBD6A6
BDA865CA
BAD4969B
3C0AB769
3E2E646F
BD3C8A5F
3D26D521
3D841A69
3E0D87F9
3D42C7C6
BDD369BA
3C56B6C6
3DCD9AD8
BC95E5B0
BD807D0B
BE03404F
BC903CFA
3D8BE9E3
3D3F831D
3DD79BFE
3DD09D06
BDA57CAC
BD91AA67
BE0BA40E
BDD740C4
BDC278D1
BCFF50AE
BD847FCF
BE2E6F72
3A642DF9
3D5C64D5
BDC747A2
3D86913C
3DC34798
3DBB4B07
3D637E6F
BE10E7BC
BC1F1B2E
3D554B21
3D6A25BE
BD04EB21
BD8F67B2
3E27A919
3D152023
3DB44B7C
3BB5EB9F
3DA996FB
BDD7E23F
3E15186E
BDC89F26
3CC25C66
BDCF1FDE
3D9A4A06
BD91CB11
3DD39EAE
3D6685F6
3D8785C3
BD9F9BC2
3B251D5B
3D67BBEC
3DE6887B
BD658601
3E4B191E
3E1A9542
BE010ADD
BCF37685
BAD5D910
3E01D1D4
3CF2EC87
3D9BD5CF
BD95F6BA
BD56E9A1
BD600A47
BD6B1BD8
3DCA56D1
BD42A059
3E0576CD
BDE1AAC5
3D44691B
3DBC3BA0
BE11DC51
BD6FD41E
3DE50721
3D5E911A
BDDFFF7A
3D11C6ED
BDB80F20
3D351CAD
3DAFF11C
3CD5EA17
3C8B29CA
3E06455F
3BD1EB45
3D21F62A
3D898535
BDF85F07
BD63E8DE
3D10D0B8
3DECFF22
3E233F42
BE21F3E9
BBB082BF
3DA1F2EA
3DCF1349
3C2D53F6
BD673274
BDA19412
BDD5E9E2
3CFD0A82
3D6E2882
3CE79A0D
BD916C03
3E053198
3986B965
BCCB1D35
3DBA80B5
3DC189A3
3D15E03C
3CBCD0D6
BDC3D16E
3D6CC723
BE0ECC81
3D5B6E86
BD265097
BD9CFEB6
BD70EB75
3D42B02E
3DEBD2B7
BAC28271
3C50034E
3DCDFDF0
BC8436C6
3D86B6C6
BDD80CB7
3DB7AEA8
3B6273D3
BCDD3169
BBB06085
3E0274E2
BDCD801B
3D926344
BCC0159A
3CF8A2DF
3CA08C32
3C23E7D1
BDA3CB23
3DC257C9
BCF4D311
3D9B808F
3DE6E86C
3C7FD31F
3D70644C
3DADE9CE
3D75C4F9
3DC44FA0
3DA0FEE9
BDD9DB23
BD8F350C
BC84EA80
BC5DDE6D
BE123A6D
3D886841
BD8792C4
3C7F31A4
BDF32D6F
BDD3E250
BDBA722F
3DC5D603
BD84240F
BD674AAD
3D4F0C78
3D851421
3D5891E2
3D884231
BD7734EB
BCCB923A
BD0A3909
BE0023A7
3DCDFE76
3D68AAE4
3D1D79A8
BD718A51
3CEF1638
3C4704A1
3E07B45F
3D8BE9FE
3DC6F397
BDDCAF2D
3CF1C250
3E069F8C
3DCC6C55
3DE7AC82
3C901E26
3C48D12A
3D8FDAE1
BD62224F
BD02A95D
3B350EC0
3D84177A
3DC9802C
BE01D81F
BC0B5533
3D5BE7D8
BDD4562E
3D09295A
3CB01DD5
BD0E6F7F
3DC11383
3C117E37
3C91413B
BDADB496
BD37234D
3D2911F7
3D91A9E1
3D07F3B5
3DE0F451
BD048EF6
3D00ABC2
BDF01EAC
3DDEC786
3D72B600
BCABA890
BB46C8A7
3DC45DBB
BD5F28F0
BDC77EE5
3CC0035B
3D91B110
BBD5E57A
3D019BE1
3DA9AAA4
BD37621C
3D8DFBBC
3DE110A1
3C8C6CF6
BCE4B9F4
BDA6440F
BE0BC340
BDE63F14
BDF31013
BC9BE09C
BD289A6E
BC988D60
3E0DD54E
3D1D0EEA
3DDC4C9D
BD88591A
3D9F3C71
BE02E33F
3DFB76B4
3DDA732E
3E0B649D
BD13023B
3D83BD3F
3DF8E53F
BD96C5DF
3BBB8A9B
BC819B0B
3D57FB34
3E048F97
3DDFF79D
BD9DFC4F
3B4E746D
3BCD0D0F
BDABDCC8
BDD8F9B1
3C37189B
BD03F3AB
BDCFE586
BDA4212D
BD1FFD61
3E2AC81D
BE0BF402
BCE44EFF
3D6A1979
3D096081
3DBA3917
BCD9ECDB
BDBCC9C2
3CBADB33
BCE278D1
BDB4EC3B
BDA15E47
BCC8E1F1
3C953DEA
BDBB8A35
BD732D54
BD4172C7
3E416EBD
3C12AA9D
BDF1172F
BC4F6ED3
3D283F34
3D0C2507
3B942F22
3BEB930C
3D8B67F8
3D63E6C5
3CCB3C74
3A1FD58D
3E218223
BC89C2C2
BD8DB5F3
3D9D58A1
BDD6E04C
BDE9FBE7
3C068D4D
3CF2C79E
BCE2566C
3DE995AB
3DAFEA59
BCF1BF60
3868C8AC
3D8A88E3
3D99548D
3C40C2D3
BC62A57C
BD39B3D0
BC946E82
3DB61B60
BD812839
BD9EDF11
3DCED2CC
3D893F51
BDAD8963
3E264A9D
3CDDCEB3
3DDB0575
BDDC4E2F
BCEE7741
BD8AD3E9
BD580779
3E0DDA06
3DFE8709
BDF3E0BD
BE0438D2
BDC49D46
BDE50508
3E358D9B
BDC84BA1
BDAF7638
3DD1BB49
BD8F073A
BDA727B4
3C295853
3DA86298
3D25ABF7
BDCA9054
BD31B641
BCC04B4A
3D4C9900
3DC08356
3CB89E42
BDF6848C
3DB1B1F4
3D34D2F6
3DF73D19
3DC596BB
BDB9231C
3B095F3A
BAD1BA72
3D3D1981
3D984A44
3D35B0A1
3CECFB40
BCAFBB0E
3E100C95
3D3E28E0
BDBE88AA
3D1CE28F
3D3E468D
3D415260
BE12B884
BDD0BE0E
BB46FB27
3DA4A467
3CF9FB39
BDA42A74
3D368E17
3DF9AC79
BE0A68F5
BDECAEEA
BDA2637A
3D59B52D
BC4FD4BF
3D3FD51D
BCE6475D
BDB26F7C
3CE811CD
BDFE9F27
BAE0B2B3
BDAC2C43
BDDAA92E
BE1B0AF6
3E2897A6
BD921B71
BCF7531E
3DDB3D08
BD27098F
3E302A78
3DF4812C
BC6D216C
3D1C7227
3D319CFB
BCFF58DB
BD18FC35
3DDF85D7
3DA22369
3D0CB51A
BB949CF0
BD8E9B61
BD8455F8
BE11B8AA
3C11CC91
3E239475
3D82A928
BE406FEF
3CDE2B64
BDAABF77
3AC76D11
BB716E17
BD89EA7F
3DD077CD
3D93DA07
3D9E2F89
3CF1BAF9
3DB01FFB
BD57ECBB
BBAF4E21
3D8B90C2
3DB01EFC
BD8D8C88
3E1DFB50
3E49A805
3D741E9B
3E0651B1
3E52E3C5
3E01E18F
BD83992D
3D93F91E
3DE14728
3CEE1445
BD82E53D
BE0BA0A5
3D4CF81B
3DDC3F81
BD694C7A
BDB22516
3C6E250C
3D66986B
BE2C332F
3DFB6C37
3DB2C7D3
3DA25453
BDD2367E
BD47C41A
3CF98BA7
BDA07A1B
3E0EFFE3
3D3278A9
BDB5FFE7
3CB9AFBA
BDC5A21B
3C9A7A6A
3BDA66E9
3DF634DB
BD9A142E
3E81D3ED
BDAB34DA
BD18AE68
3D7932BC
3DEBDE40
BE25D031
3D83C27D
BCFEEB98
3C918C4F
BD3A687C
3E0552A0
BBDA7329
3DC31628
BE1EAC86
3D1D7E2B
3D336354
BB35CBD4
3E18FEAC
BC9B4B4B
3D911340
BCE0D81D
3CB7EDE3
BE3161E5
BD684366
3D2C6CF6
3DEA2A0B
3DC9EBA7
3C1DE3B6
3DF51CE3
BD7A9C13
3E5053A0
3DEABDE4
3E2689CA
3D45C8B2
BB758984
BD8AD14A
BD364FCE
BD9C2AD9
BCA2D79B
3D2A8600
BC2A9A73
BD067E4F
3D8D533A
3CAFE2E7
BC9C74AB
BD165B71
BCCCD63D
BDFE5E24
BDAB9B09
3DC76D11
BD046CAC
BCB10DBF
3DDEAAB0
3E095704
BDCC6907
3E0FC760
BE30EC31
3E27E910
3DA5BA6F
3C5909F2
3B87C7E0
BD4BD648
3CB98054
3E2629D8
BC3E5AAF
3D06E928
3D657307
BD2734DD
BDE2D278
3D9441C9
3DCAED49
3CA04981
BDA5B615
3E004B3C
BC51AD72
BB541DA4
3DB82716
3D43821B
BD0924D7
3D25F37A
BC93C361
3D8C692F
3BABDB10
BDF25892
3D216A13
BDA8B7CA
BDD86445
3C181A48
BD3CFD31
3B06BD1E
BDDA2E7F
BD6F8E2D
BDBB3687
3D58C437
BD86B78F
BD1CC8A8
3D84E351
3D90CFFC
3BB04807
3D011417
3D938F5F
3B9E1163
BDF76BC2
3DED44DD
3CF5C5B5
BDAB843B
BCF9B604
BCA94B89
BC2197AA
3C476153
BDCDE54B
BE09A6B5
3D211B1E
3BB01531
BDA751CE
3D95A541
BD85501C
BDDC2331
3D4ED642
3C4315FF
3D4FC5DB
BDD288CE
3D839F34
BDC68796
BCC27880
BC574561
BDCD80A1
BD63D9DF
BD127F44
BDCB416F
BD6E0E81
BDCE9681
3DB3537F
3E323AB0
BD7D3184
3DF2A066
BC823D92
3CF7EA88
BD60DA86
BD9F5E42
3DDCF3DC
3D0AA2A1
BD8BB433
3E1A176E
3CC3283E
BE07674D
3DB62A5E
BD6BB682
BD9F889F
BE1CA212
BDA38144
3D7FF7D2
3DFCB2D9
3DBE32F1
BD7213C9
3DD43394
BDAC4985
BCCEF4C5
BBDF1EDF
3D02453A
3D99534B
BD80D5E9
BCB0D6CD
3B5AC70B
3D075F8B
BD58B695
3D85EB09
3D5A11FA
BD66E3CF
BD7783C5
3A853509
3DD0E886
BD0E5040
3D18AE17
BD3AD29A
3AC026CC
BDC860A7
3D94672B
3CA62B0D
3DC09AED
BB87D349
3DAF0457
3CF063E0
3B1E0CC6
3D3874A1
3C9B7465
BD92433C
BD697BC5
BD641F7F
BC442FDB
3AC23092
3D5FFC8A
BD538ED8
3DA2A5E8
BD59AACC
BD9CC02A
3DCBE09C
3D141312
3D4643B1
3E2DDB55
BE0178F7
BD34440A
3D96996A
3D980121
BD497F3A
BC1E4419
BDA65329
3D90C73B
3E183CB0
BD94F8F9
BD24EFD9
BE0F3F96
3DB219B6
BDFB3FA7
3DD655E3
3D9C9E4C
BCBBD960
BDB6A967
3CD697F2
3E0DB164
3D4B4594
3E0129CC
BE05E311
3D845F25
3CD146E5
3DBF9160
BDCCF52C
BD6CB103
3DD6B1A3
BD8F7E58
BD89BF82
3D9F1DED
3D198C48
3E05ED4A
BD97A38B
BD4BD190
BD0C046B
3D14ADF2
3D147695
BD9F8ECE
3D902D24
3DA0FEF6
3D72B12D
BD972DF2
3D69241B
3DBB0D5F
BD56CE0D
3DF0C459
BD807C19
3D09B7DA
3DA12232
BD33EC97
BDAFB87D
BD2E5365
BD1DC37A
3DCEA6C2
3D66187E
BCEF3B21
BB945D9B
3D362739
3CB9488C
BC895224
3DB3AE9E
3DA6A7C7
BD260D96
BDB2C26D
BD16AA81
BC271D10
BD58BC5A
3DAD2766
BDBFAFAE
3DF0DCFD
BCE97A82
BD9F8FCD
3DCED677
BE01F4B2
3D70E312
3DB07AA2
BD21A5D8
BCA0EDEC
3D3938D1
BDB12811
BD88F996
3D29FEF2
3C89F948
BD07E6B4
BCEEEA99
BDD1D14E
3DEBE6A3
3DCC9887
3DCFC2EC
3DA4B9D9
3E1810E9
BCCA402B
3DA8496D
3DC3D0A5
BD4EE540
BDC2EEAD
BD33627E
BCAF79A0
3C2195C7
BD726344
3D8F7213
BD4806E5
3D671B62
BC5DC253
BDBBB327
3DD35EB7
3DAD1C13
BD309BFA
BD9E1BED
BDCF7E3D
3CE6362A
3BE828F4
3DDEF06B
3D1E85AC
3DB62FC5
3DF48C2E
3D783D43
BE3686A5
BD2DA3A7
3CCC2EE2
BBF830A9
3C967ACB
3DDA7222
BDDE3DA3
BD9EEDF4
BE013E3E
BCF236B4
BE1038E3
BBAD2324
BD805B7D
BD9134E9
BD92B877
3E095076
3DBDB354
BE030553
BDC4A11A
3DBDAE16
3C789AB1
3D359A16
3DEF1C32
BE2A93AF
BCD61D43
BDABAAB6
BDEEBAAE
BD863E4B
BD23A9A3
3DA564F9
3C528A7C
BD25251E
BDE19F3C
3D5F9B71
BBA41879
BDBC694A
BD223F0A
3C450848
BDA98AB6
BDB81436
BCEF0506
3C8110D7
3D9FC611
BAA4CBFD
3CFDB67A
BDA3D493
BE0005C4
BDE662BB
3D3CD721
BDA31818
BDF43FA3
BDCDB50F
3DB75120
BD8CE8BF
BD52669F
3CE5CB36
3DEC8712
3DD1C4B9
3CD158B8
3CD53338
3E135372
BDED306A
3D0AD927
BD7DAAF1
BC4D5878
BBC94E7E
392E3192
3D8B5B7E
3E2D56F3
BC80778A
BDF81C71
3E161D00
3D389268
3E11D6D0
3DBE77AD
3D1BCFF0
BD767F18
BCFB0F35
3DDC3CE2
BDF125DD
BD4F2D14
3CDBE828
3CF4A665
BC9AEAD2
3D2D8920
3D97F4B4
3D88A662
BDF2C9D1
BD32169E
3D84434E
BD4E9DD8
BB31DA58
3BE8A7CA
BDA5A5AC
3DB5113F
BC8BFC58
3CE3A76F
3CBB13D2
3C15AB83
3D555A8B
BD75B813
3DC36779
BDAB8610
3E070111
3D7A831E
3D804238
3C13C23F
BE02F3C3
BC35894F
3DE9C5E7
BE0C343B
BD04D354
3DE98245
3DCD04E6
BB3758F2
3CC9F440
BDE985F0
BCE4BF68
3CDBEA41
3AAC5761
3DA07E90
3E374645
3B0C10C5
BD2EF1D6
BE07FA5D
3DC8F140
BD92F66F
3C477A7D
BCA749BB
3D636CB7
BDEEDDCE
3D3E058A
BDBE18F0
BE030A4E
BCFE0371
3CAA13D0
3C98050F
BA454D49
3D842CB5
3C824555
3DFB61BB
BD7BD4C2
3E0DF267
BCAD2A05
BDC15D70
BE42E169
3C0D6DC7
3D696448
3CFE2138
38976A14
3D1ACDC7
BDDA1661
BCF40124
BD7177DD
3DE8B652
BD5A7DFB
BE02C94B
BD2BF1F6
3C1EA938
3D6B4883
BCBF554B
BDB4FA05
3DB04C71
BD2F2171
3D9F5382
BD7CF4B3
BD741ED1
BD044468
3DA296B3
3D2DEF0C
3D4849CB
BDA24A35
3D91981B
BDCC8F4D
BC0DBD78
BD825072
BD873896
BDE83C29
3BCE85CA
BDA61DF2
BD38FF76
3DCA152D
3DF9C411
3D9CCA3B
3DAAE727
3DAE2196
3CFB271D
3E1330D7
BD3CD559
BDEBF8FD
BDA01BA1
3D7B2AAE
3D168D5B
3E0E49F5
BD429C5D
3E3008A7
BD356FEF
BB87DCEE
BDBD3D28
3E08FDA0
BD4CDB45
3E05729B
BD170ADF
3DAFAA98
3DDE7642
3DE78F26
BD9ACFE0
3DACFFF8
3DEF6406
3D5896EB
3E082BE9
BDE10BE9
3BAEFF72
3D5BE96B
BDBD1FA3
3DD1D606
3D841DC4
BD1CF8AF
3CB2DFBC
BDF1DB44
BD94B224
BCEDD5C6
3D326004
3D13DD7D
3C89FDB0
BDF9FECA
BDCE7925
BDA0F932
3DC7BE8B
BD12B310
3DB2FC0B
3D1C32D1
BDBFBF40
BCD762F3
3D518FAA
3D7B5195
3C1E7CB8
3D72D2D6
BDF9695E
3CC12FAB
BAA9A4D5
3CE2E903
3D920D06
3CAF3BF8
3DB1282C
BD96B279
BE048F97
BDF0D499
3CCD22FE
3D09C90C
3E150C1C
BD9830A1
3DB72EF1
3D338010
3C966ED7
BD37C4C8
BCBF2E49
BDF6CC60
BB8CDB5B
3DE48627
3DE5E460
3CA6D191
BD87ECAE
3D4DF018
BD9CA7FF
3D7C1E94
3D8B8214
3D83443D
3E02FE82
BDB30985
BC16E763
3D9AF9F9
BDF0E4DA
BD7D6EF6
3E03732A
3C08A47F
BDD74688
3D0BAA8E
BD0C8026
BDC4BB6B
BD92AC17
BDEAEFB3
3D33A86E
3D6CA0C3
3DAC07EE
3D4B371B
BD892A15
3BBBA2D9
3C872416
3E0191DE
BBB57191
3DBFE063
3D98C678
BD8FFD89
3DE5796C
3C06CC58
3DEEA4A9
BD1FA044
3D1506F8
3D63D7AB
BCCFACE6
3CE2CAD0
BCCD2EBD
3C0F33BA
BC388D0F
3DB39C01
BD3B7F68
BD904E7C
3E0BFE7E
BDDE59F3
3DC95E33
3DC2839E
3DA1F4F5
BD05FEE8
3C9E5FD2
3DFCC07B
BD88E1AE
BD35F296
3DD5AA71
3E0019B1
3CE0A01E
BD7302C1
BDA5F0E8
3D9455C3
BDFB738E
BD1A58C1
BD9BF9AB
3DAB8B0B
3E040BBB
BD78C056
3DA4B3DF
3B1B6247
3D8B48FC
BB952719
3DD2367E
BD74A8CF
3D555EF2
BD0994B9
BCCA02EE
BE0AA7DF
BDD9B77C
3B8367D4
BDC3BF2F
3DF2189C
3CE8D21C
BD5B9496
BD9F53B8
BD4C6137
BD895358
BCC4FADC
BDC08561
BDF4B2FB
BD19051F
BCB1FA18
BD46B9DE
3D00F396
3DB79174
BDC4CDE0
3CD4FB3A
3C6DDDBF
BDB5B622
BDDCB35F
BD69BD9E
B96663D5
3D8641CE
3D31287C
BD8F010A
3DC1D52F
BE105B3A
3D2B6A62
3DCC838F
BD8853DC
3C6D1E11
BC36530E
BCC3CA24
BDCCFAF0
3DF3721D
3CAD1329
3DC34367
3DA631C3
3D866044
3B9E838E
BE195033
BD2A8BE0
3C45890C
BD609551
3D4C5990
BE05EBB7
3CA77CB1
BC88EF93
3D6AA418
BD8A5F4F
3E012E84
BC8F68F4
3DF77D95
BC867F76
3DCF2064
3E12BA17
BCBDDB98
3E04C09C
3CACBD63
3C9D55E7
3E1739B0
3D77D73D
BD1A5185
3DE7F801
3D524979
BDD7A3DB
BD42D7B6
BB28B13A
3D2887DF
BC7207F0
3D0D9F75
BD4C6519
3DC6EBF0
BCF6A289
3DE32A8D
BE2611BA
3C6F2C08
BD5392BA
BDB53C80
BD8BAEF5
BD05204B
BD081E7D
BD89766C
3CADFEAB
BC60AF6D
3E0DF86E
3E0299D9
BDB62571
3DD466F5
BDCDE5D2
3E0053A0
BDB7A256
BDA38880
BDC17E78
3DFB6567
3DCD5C74
BDB1DA10
3CD2D773
3D2646D6
BDCD9C6B
3DACDADA
3C63CB81
BD3A5607
3E10CE4F
BD1B6D0E
BD86BD97
BE0837B5
3D8F400F
BD5D95C2
3CF38FAF
3D791311
BDC9E1CB
3C30A5BA
3C834B0E
3D47AF3C
3DF7414A
3CD6323C
3DF73FB8
BDFEC99F
3D7A3EDB
3D839CA2
BD948048
3E090082
3D04A0E4
3C65AF87
3DA3254E
3DDBADC1
BC6C2F69
BDBD74FE
BDB74688
3D8FA1F1
BDA2933D
3D5ED593
BDA8B66D
3E3ACCD5
3E0BDCAD
BDEB9885
3DFEA91E
3D19B61F
BBE78723
BDBA9D05
3CF0A07C
BD8A0A88
BCCE7975
BD86B7D2
3D867D42
BD22523A
BDE57321
3D2DCB9B
3C03655A
BDAEE36B
BAADF16A
3D985DE0
BBB657EB
3D3A30E9
B9F1D839
BDC5F94C
BDA3D7FC
3D05DE81
BDC6FC74
3DCBE015
BD29FE6C
BD8E6305
3E17D0AF
3D8F1597
BC7F993D
3BFA0A32
3E135654
BCEBDA44
BDA147AE
BD8F3436
BE04A98B
3D54870B
3CC17FFD
3DF9D12D
BA3B0162
BD6BB7A9
3E0EE02A
BD9AC358
3D32D6ED
BD80CCC9
3DF3CD57
3D506035
3D1ED055
3CACE754
3DAAA9B5
3CDE8775
BD608653
3D26E7B0
3C820487
BE059296
BDE58A33
BD150E34
3C826B80
3DE3F5F9
3D151373
BDA35159
3C3AC7E8
BDA5E1EA
3DB03991
BDCC0C70
BD206805
3DCBAA66
BD9E3773
BCB695BE
BC73B13D
BC6BB484
3CAD4EEE
3B1201A0
3E0C7B89
3D09B76F
3DA804E7
BDB02D09
BC4E1389
BC3B05FB
3DC9A68D
BCF96ABB
BD6BCC01
BCF6F5CB
BDA6ABA9
BDC781E2
3CC2194A
BDBE61F8
BD5A9791
BD631D71
3DEE160E
BDA48B22
3D011E0D
BC66CE00
3D80DE8F
BD411615
3CA00BA4
3DD9F3C7
BD671766
BCFBC35A
BB03EB87
BD420111
3DD01084
BCE857A2
BDF7279A
BE32D5E0
3D8D3D93
BDFB5B70
BC2B4528
BE0B4AED
BD844A55
3DF0EBAB
BDB53501
BBE9FF78
3DC5D399
BDF0BF1A
BE27824D
3DAA5269
3D235448
3CC90D90
BDC3B7CB
3D7F8211
BC30AD47
BC7BDE9E
BD6AF5FD
BD9ED98F
BB8D5E62
BD5416D9
BDB6BB3B
BC8AE2B2
BCAA8E7F
3C0867E3
3D0E8C05
BAB0ACB1
BD63E68F
BCB9F1C9
BD1549DE
BDD19371
BD293A71
BD2338EA
BDCC8AB0
BE3266FD
3DA67E6A
3DC9DDDD
3DD02F73
BDEAE968
3C4C6FB0
BDC121B9
3D784C27
3D9531CE
BD50D0EE
BD16308E
BDB78FEF
3D9746D9
BD6C4172
3CDDE69B
BD823D92
BDCB4063
BD27FC83
3DB320E7
3C3EACE4
BDC9086D
3D25A93D
3E448733
3D8EFCB0
BD8A9B57
BDD3311A
BE09A3D3
BDE84620
3BDA64A5
3DD5C63B
3DCA7504
3DDA6373
3BFB7CCE
3BBC2B95
3E212019
3D1F1AFE
3DD9E16D
3D9B7D5C
BE00B6B7
BCE020D2
3D760CE7
BB5D4C21
BD91D6EA
BD486397
3DA4EE11
BC822C96
3DBAEDF8
3BA3BAC5
3E088A48
BD1D03E7
3DC067C2
3E02C55D
BDEACB86
BC4A5086
3D114CFA
BCFA43FE
BE15D91B
3C87188E
3C6C1CF4
3CCFA483
BB04EC0E
BD908539
BE219B91
3CD7EB0E
BD8D27B6
3DC352EB
3DBFC987
BCC0E71B
3BDB0097
BC0709BF
3DBF1B33
BD428276
3D5EE782
3CCB3C3E
3E31E4B4
3DC17332
BD900269
BD9D5F9A
BCC4D07F
3DBC679D
3D53DB14
BDBC18C2
3D65E354
3DA37429
3DD17614
BD90E7FF
3D490B5C
BDD20210
3D1F0E9E
3DBB4A81
BC19BCE0
3CA1CB97
3D5A42D7
BD1B3601
BD18B2B4
BD97787F
BD7605E1
BD819AF0
BE2486F0
3D03FEE3
BB5D29E7
3DB0AAEB
BDA92791
BDDE121F
BB37BA41
BDBF50AE
3DAFED99
3CD9ECDB
BE039325
BCF38C54
BC18CBFF
3CF93C2C
BDC8C932
BD2C78CF
3D50EED0
BC847687
3DB541BE
3CC3E20D
3D8BA387
BD40F7E2
3D9DAE24
3D8575A6
BD8B4A8F
3D8F760F
3CE912B3
BC8CA3B2
3C0F5BB3
3E0B7069
BD92546E
B9C32D81
3C8015CF
3DC9CD66
BDAD2E7A
3D788B97
3D85EB67
BC217571
3D8B9D72
3C928863
3C1920AE
3D874023
3D4F596F
3DA5E064
3C94E1A4
BD91CB47
BE017870
3E0CB103
BD36C468
3CC45B44
3B1968C7
BD6BEC17
BD0A70ED
BD2B88CA
3B363B66
3B8BEF22
3DF740C4
BD3AAA20
BC88022D
BC6F0DD5
3E1F7404
BD60AF02
BD7D3C87
BDB88674
3D7E61EB
3DA09E20
BD48B86B
3DE4B5DD
BDE0FCB5
3DD75537
3BD2766F
BDA255B0
BE001EAC
3DB90EE0
3DC28CD8
BD60AB56
3D6384F0
BDBFDEC3
3C70E61C
3C06E7F1
3DEB9FDC
BD1880B0
3BECA280
BD018739
BC8FE7D5
3DE4B902
3DD2AA5C
3D3E8FBD
3DDEFA61
3DC8C642
BDA495FC
3CBE817B
BE01EEAA
3C2589FD
3D8E41E2
3D68799C
3CE0BFFF
BD6E9087
3DD55369
BDBFF5E2
3CC61A61
BDEE3AC1
BCF3339F
BDF3C686
3D3C1250
BCA4E0F5
3C9C57F0
BD8C283A
3DC983CA
BDBE82F3
3D57B833
BDFA12B6
BDA3D3D8
3D440B27
3D38FABE
3DFC64BB
BD8FA476
3CC50FD5
3E19EC2D
BD0F3C99
3DA8ACAD
BDB91700
3E13F9A5
3E0DC2F4
BD70DB85
3DDEF417
3CD01018
3D5B2DEE
3D31FA69
BBA71DA6
3DD07F24
3D32E515
3C7368AD
3CEF994B
3D42E6B5
3DA27294
BDB0AB64
3D587A65
BD9ED21D
3D7EC7F2
3DBD14D6
3E0D9C28
3DB7D63E
3DA0C2FC
BDE5A3E4
BCF75EA6
BDCE9C45
3D9F393E
BC921AB5
3D949C8A
BDAA34CA
3D964628
BE021533
3D24B8CC
BB8E820E
3D72FE3F
BD82B40F
3D8178CE
3CB9393C
3DDA2835
BDE1565C
3D26E887
BD88740D
3CBF93FF
3D667D93
3E093187
3C1A108D
3DF9EB64
3CB73CAD
BDEABA38
3CC1F96A
BDCB89E4
3E0530CF
3D734125
BDACD25C
3DC8910B
BC9E86D4
BD5FCC4E
3D756126
BD1CC34F
BE31DDE3
3DDA5B96
3DDC7FFE
3DFF1A5D
3D50568F
3D3E9A8A
BD1CF503
3DF6030C
3D7D09C6
BD5310CF
3DE06078
3D7C6A64
BD0B2A35
BD9833D3
3D76CA62
BD424F15
BDCD06FF
3D6281D5
BDDB9064
3D9E6404
BE0D9557
3D1913CD
3DD22E1B
BE29C5A4
3D8BDB0D
3C9EDB8D
3DDAD9F1
3BC609BA
3DD198AF
3D117DBC
BDA2C329
3DAA3E7D
3DCFD114
3D331D64
BD4F0033
BD94E0B2
BD80CFD4
BCB449B4
BD945F76
3A0CF137
BD8D3F26
BBAD759A
BB4F8EF4
BDB3FFAC
BD9276AB
BCD0E0F9
3D052030
BD133490
BD5C5719
BDC338B4
BDB2F611
3B9B1F96
BE112FD3
BB1D19D7
3DA7AB0A
3DA264E5
3D0BEF3C
3D1B5089
BD33B900
3DE4FC1E
BC610DCC
3DE39B45
BD68BA84
BD9003E1
BE08CA82
3E14B72C
BDCD86EC
3C170946
3CC99286
3C2A3FDA
3DC0A493
3E215BDD
3DFFBDF1
BC0AD34D
BD8D1C3B
BD6379ED
3CB2693F
3D9C3F59
BD92FB27
3D8D46F6
BC91BD2C
BDED25EE
3DCB5229
3DD4DBE0
BDC5687D
3D561F5C
3D7233A9
BD3C33DD
3D276626
3C8310C1
BE1D512F
3DB2C4D6
3DBFA1A1
BD41DA45
3DDDB121
BC97EA37
BE12E83A
BD4078E7
3DA04245
BD332C7D
BDEDC65C
BCC0AFBE
3DE726D0
BD851E4D
3CA555C5
3B9E050E
BD8B446C
BDD9DBA9
BDF98A65
3D223748
BDD336DF
3DA2C585
3D32CAA8
3DFA7EB7
3CC7F562
BD37FC5B
BD49331A
BC9DC253
BDE31B58
BE06E58A
3D62B3A4
39B21C95
BD8309AD
BD2C1440
3C2A8941
3D7621FB
BD42F43C
BCFB3E2F
3D11AE7E
3DD00DE5
3D0EBC76
3D9830D6
3DDD1D47
BD3F077D
BD8A7399
3DE3BABA
3D50C34C
BC52C02C
BD194A54
3D990BE3
3D9567F7
BDCA45E2
BDED01C1
BB47749E
BD1302F7
BC87F456
3D97A09B
3CDC4398
3DF9335D
3C731C57
BCDD10E8
BBC194F6
3D4A157D
BDCAC216
BD9D2C7C
3C35921E
BD915238
BBFD4769
3DE440F2
BD9C4F7F
3DB8DC62
3D9E10C2
BDACC2F2
3D86A5C9
3E0D6CF8
3D40E299
3D19F2D5
BC38B04B
3DE6F933
BC4BF6E4
3D358C3E
3DAE8F60
BD3AF0CD
BDB4AC88
BCCB0C6E
3CDB0143
BD5CEB0D
BD83AE5B
3D941404
3A22687E
3D4378FC
BD9C87CE
BD740B50
BCB00150
3C71758E
3DFC579F
BD718209
3D5765C8
BD605FF2
BDB81D12
3C22E156
3CAE0A34
3DE75A32
3D188ED8
3E3021D1
3C348E12
BC5B9DB6
3D8F0E83
BD284DE2
BD9ABE5D
BC97D4D3
BD478BB0
BDE7EE91
3DF60419
BD9E3A20
BDA4D80C
BC917B88
3DDB291C
BD5D14AE
BDBF3288
3E123E5C
3DD24AF1
BC741652
BDEDF04E
3DAA90A5
BD8093E7
BC7EE2CA
BD6E561F
3BD58025
BDD7E133
3DA548C5
BDA4DC4B
BDBFC1FA
3E184D34
BD67EF9E
3D642AB7
BDEB87BE
3D82B1A6
3D347A0B
BC9D1C05
3DE74AFD
3DE7021D
3CBABBF3
3DD97DD0
BDED25EE
BDEFFEB0
BDABD6E9
3C279BBB
BDE15012
BCD23C43
BC8532DA
BDAA8247
BD639820
BDF15A4B
3D86C3D4
3D97263D
BD8E5D76
BBB857B5
3D321B8B
3D5BFBFA
3C951901
3DAC9661
BCB54775
BDB6B8DF
BC68D618
3D9C0585
3DB5BCA3
BD39AFBA
BDD2ABEF
BCCDF125
3E05742E
BD193F1C
BDDAE579
3DDF7A4E
3E34C09C
3DB0FCC2
3DF0B631
3DD0142F
3DADE431
3E0AB96F
BD8968BD
3E0F1306
3C5A1D17
3D115A4B
BDB26890
BDB86CD1
BDF296F6
BD3731C5
BDA69EC3
3B440EB8
BD1A52FD
BE00C34C
3CC609D0
3C8B0E87
BD84DE99
3D0B6051
3DE64990
BD75DDB8
3DA1A6D7
BDC5DDAA
BD7BF198
BD9609EA
BDA7B198
BCF4A73C
BDFD9C28
BD0DD01D
3D5E46F8
BDCF3A15
3DB22C6D
3CE64833
BD91C7EC
3D1A7FC3
BD9F4DCB
3DF35C9E
3CE45E4E
BDA7BD21
3D5A61C6
BDE820E6
BC619E15
BDE23290
BDF7B4A2
3DF5AEA3
3BB3ADED
BA7D07E4
3B87568B
3DD07E9E
BDC012C5
3E098288
3D206119
3D24C795
BD31B20F
BD100581
BCFFBF33
3D22FF23
3DF0EC31
BDBFA78D
BCC96610
BE01FFB5
BD315451
3D0B26C0
3DB5A17A
3C8DB5CB
BE2DA0E0
BDECFBFC
BD4FAC7B
BD619688
3DC8F62E
BDF1CF35
BDFBADC1
3D4677E9
3DD708AB
3D658BFB
3CC21CDB
BC7CF51E
3C408D8F
BD365003
BD383F5C
3DF44242
3E31B110
BCFDE1AD
3D9C235A
BCB88F5E
BCC98EBF
3D56D3EC
3DD9BC34
3DBA1B6A
BE0D716D
3D93BE73
BD2A32F4
BD95BB61
BC68A281
3D03C120
BDF5EBFB
3DE1B8ED
3D4AB799
3DA8A1FB
BC2F6DAC
BCDBEF7F
BD61D33F
3D3EB024
3DA2F5CE
BD654D62
3D92982B
BD4C21FD
3D2FC0D3
BE0A7D67
BD9BF437
BDF01190
BDE326E1
3D0A78CA
BDA32D11
BD97F1A9
BE0579AF
3DC0659B
3D43CB4C
BDF56EAD
3C432874
BDF77293
3CAB8D4D
3DCCB5A0
BDDB1077
3DFAB53D
3AEF8B13
BD54983D
BDD503B8
BDB31983
3D905568
3C10F9E3
BDCBB540
3E4CC6C5
BDD8A97A
3E23E682
3D31D855
3D82A059
3CC022D0
3C92C31B
3B528D2B
BD307EEE
BCD40612
BDB81F2B
3D5B2D4D
3DDC1DF3
3E09ACBD
BC0B4D05
3D3AF966
BDF5DD4C
BE04801F
BE19FE00
3E168273
BE0BF76A
BC4B592F
BDC36DF9
BD3D6E20
BDF68406
3C2E825F
3DDC6003
BD196023
BD18C0DC
3E39641F
3DD87C63
BDE667F9
3D5A4CE8
3DADE8CF
BE05A5B9
3DA6FD07
BD55C996
3DF7878B
BDABEC75
3D73969B
BC8747F3
BDFA365D
BAAF0EA1
BE226202
BC9FB1AC
BD6F8254
BCFF5ABF
BD2C1A8B
3DBE9A70
BE3D987C
BDAE9913
3E29988D
BCAF24B1
3D843BC1
BDAD99BF
3E14D37C
3CF54C12
BB81A405
BD1C7FAD
3D865046
BDFB224B
BCCD26FA
BD0FE18A
3D7BDABC
3D4C9E3E
3D0425AF
BDDAFFB0
3DF060BB
BC80ABC2
3DC5C9E6
BD70D845
3CAC71AE
BD9B60BC
3D956D1A
3E0CFA27
BC165679
BE234DAD
3E0696A2
BD7A40BE
3C68815E
3DC24DE0
BE2317AD
BE01847F
BCAD7152
BE16CC60
BD2EE088
BE00FF11
BDC8C65D
BE1924AF
BD00F741
3C9964C0
3DEA0A96
3D8B9A75
BDDA871A
3CDABE92
3BC0955C
3DC46D9E
BD93ADD5
3DCE33F0
BC52A7D8
3DDAAEF3
BD517416
3DC5E1A6
BC9E9C02
3E0BC01A
3CAE7FA5
3DDB22D1
3D51C128
3DBF3A58
BD870CC2
3B1E7521
3CCBE363
BD200ACD
BA622546
3CEB074A
3BA2345D
BD611127
BDB806AF
BD2F1689
3DC34EFD
BE0B92C0
BDA5FBDD
3DB4FBF6
3D4EB3A7
BB165DD0
BDD3404F
3D5BC0D6
B9F56AA6
BD06EA85
BE1B7996
BD8922F4
3E0AE254
BE046349
BDB137F4
BD988A55
3D5E5E90
BD16735A
BDE4BE40
BDBB7209
3DEDED29
3D0C16C4
BE02D55A
BDAE6F8C
BE08904F
3D0E1587
3D025A83
BD1DCDDC
BD76DEB9
3DE4FD2A
BD20B674
3D914885
3D13B7A3
3D79346A
BD76291C
BD6455EB
BC47B31D
BD801CFE
3D5A658C
3D6C5868
3D167324
BDD8AC19
BE290F30
3C7DD731
3DB8C1CE
3D922D51
3D0AB6DD
3C4F37E1
BC6B0963
3C830BEE
BBC565D0
BD8F8402
BC7AD8E4
3E05D24A
3DAC32D1
BDAFF709
3DC67085
BD716426
BDCEB463
3DF2BDC2
BB2795DC
3D96F2E9
BD4AF145
3E2FC9BC
BDC38569
BD37AD9C
BDA573A8
3BB4D057
3DBA7A1A
3DC73E68
BD8508B3
3BE9674D
3D2E8B49
BD3E5AFF
BDF12A95
3DC1C6ED
3DD758E2
3DB0D032
3CCA8A9D
BD475925
BDC2DD1D
BD404D7D
BD9DDBF6
BC9F75B1
3DDE01DE
3C8F5AE7
BC91BCF7
3DA1E09D
3DB546D4
3D4D3034
3D305568
3DD52C9D
BDD9F905
3D39AEC8
3DBC0A9B
3D99B131
BD7E9D0F
BE05A7D2
BD3F3FCC
BCB0C4FA
3DF7670A
3C4274F0
3DA6719F
3DFEE88E
BD0A5615
BCF5CC6B
BDA75013
3DE3D89D
3C11E114
3D93D832
BDCFC58B
BC39E4FE
BD823D0C
BD8B0029
3DC354F7
3E4E3088
BD87913F
3CFE8973
BD02DEA2
3DAC1E94
BD533C02
3C1E558B
BBB754D6
3DC0D852
BCCA7E08
BD0AEFB3
BD2174FA
BDAF6D9E
BCD5BEAE
3CF9FF6B
3D208886
BD96D275
BDF50225
3D32536F
BDDAA92E
BC9866C9
3DDDDD2B
BD05BA04
BD5DF3B6
BD66DC43
BDBA4FD8
BD7FF980
3D75EC4B
BD6D64D8
3DC318C7
BB90ACB6
BC3BF7FE
BD463EDE
3DEC83ED
3DA837B5
BE000C52
3C16ED01
3D929AD8
3BD83AD5
BC20469C
3E0B2357
3D41DA60
BD56BA3C
BDA77857
3D7D300C
3D2BC8F6
3DD7D30B
BD55C407
BD51A254
3ABFEB68
BD7CC00F
BDAD5850
BDE630EC
BD1ACE9E
3CC2EDF1
BD75435E
3D0194DB
BDC94424
BD3F676F
BC865478
BDB229B3
3E08F191
BD6F4E37
BD179599
BDEB6A62
3D661218
BCCDF87C
BBE7F9A4
3DB4592B
3E2147F1
3C20D0E6
3CA5EFE9
3D9C9AFE
BDE5204B
3DB8646D
BDA0C085
BD8E8061
BD345BA2
3D9E7FB2
BCA38E45
BD8822F2
BD7F191B
BDDB9B67
BD325B82
BC810B99
3D8FAD6D
3DAC27A6
BD3C18D0
BDBAAE52
3D0B417D
BAA1ED7B
BE16B873
BCFE97EB
BDAC8077
3C920EF6
BDEE6FB5
BCFDB7F1
3D122FAD
BAE8ACD2
BC42EE92
3CC33000
3D2AB1F0
3D71AE99
BDBAD47D
3CA48FCD
3DBEFD6C
3D807083
BD21088E
BD8979EF
BDE1C8A8
BCF6AD3B
3E03293D
3D96560B
BD5BD8F4
BDCC7432
BC6A875D
BC042A26
BC1E8C48
3D6C3FA9
3DBFDE57
BD42215D
3DFA63FA
BD8CB55D
BD50DC0B
3DE6CDAF
3DD15AD1
BDC7DE94
3C7C99AF
3C817EF1
3D98EAF6
3BCD33BA
BCA8C6FE
3D5C0AA8
BE098C3B
3B03550A
3DCF30A5
3DE239E7
BD7E4459
BDF06141
BD905BE8
BDDA3012
BD941CC5
BDA2F4F8
BC9610AE
3E07032A
3D91B07C
BDCE019B
3E5925FF
3E22D278
3D9045FE
BD947969
BD19A35A
3E0AF46B
BD40F909
3D31AD57
3DA53F8A
BDCD7519
3DA2631C
BD425A18
3C7421A5
BC6D19DF
BC3A1A43
BDA3DAEB
3DC1B300
3C9AE12D
3DB22D7A
BE09628D
3CFF35A0
BDA9D0EA
3DF8958E
BD46CC37
BCDC9B0C
BE0B645A
BE1E2EB2
3DAA326E
3C8A771D
BD93AC1A
3CADF7F5
3E0D5DC4
3E04F82F
3E70A4A0
3CB726DE
BD2AD399
3E359F6F
BE2FFC98
3D007CE3
3DB6403B
3E22A993
3D068CAC
3D0D72CA
BCF7FAAE
BDA0FC57
B9EDC8B5
BBD7138D
BD173CC8
BDC0E015
BBFDF05B
BDA869AC
3DCA9C3B
3BBAE707
3CE5CFD3
3BE11457
BD8B82D0
BCA40711
BD22F90E
BD1FC6DA
BDE21EA3
BC96DBAF
BC186359
3D975AC5
BD85885D
BD76803F
3DB9A027
BD76A437
BDEA48F9
3E1BC83B
BCDA3B15
3D49D7D5
BDD78466
3DDBDC6A
BDC33E00
BDD14552
3D6FE3A3
3DD275EF
BDE95A6C
3CC7721A
3C8608F9
3D979D40
3DE204F3
3C143CEE
3CAC1D2A
BD42298B
BD1698FE
3B3D1B29
BE026528
BE0D1FA3
3CD2CE39
3D824463
BD160B3A
3D8710CB
BDFBFBDF
3DCF544C
BDFDCA4B
BD99840D
BC6DA9BC
3CF58A5B
BD43695C
BC94F194
3D2D4D76
BDE1BE2B
3D7C3FB7
BC0DCE09
3CC037C9
BC700FC8
3D3AA6AA
3C9DA4C1
3CBC27CE
BD1422CD
BD93AC0C
BCED43D0
3C8EAF90
BB0B9017
BC0A94C4
3D418C42
3D7AB30A
BC834DC8
3DBCF8A1
BDF32D6F
BDA41D3E
3D6D28A8
BC8F6D5B
3E0A27AF
3D54ABA4
BD1F5459
3DE56FFC
3DE8BEB6
3DDAE46D
3DD6CF85
BC3E3631
3D9DBC4B
3E5BAF53
BE1C1B97
BD0EB0B8
3CF14014
BDE2E903
3D0117A8
BDA1631A
3D286071
3D5418A1
3CB93CCD
3B9FE624
3D0F74E8
3C83A96D
3DB38D53
BDE68C26
BD450D6B
3D8D8D87
3DC0FFA5
3DC6016C
3DE0DAA1
3B06A41F
3C524470
BD9B9793
3D5B77F6
BD432930
BCBBA9C5
3DE6F04A
3E14BCAE
3D640B93
BD3E2F7B
BD98C071
BDAB4F47
3DE8EDE5
BDDC4B0A
3D390B85
BD461665
BDC9454B
3DE76641
3B4C19F4
3D8DA562
3D68533B
BDE476F3
3D7871CC
3DD3825E
3D86970E
3DBDEDBC
3DA4AE93
BE0617C2
BC9CCED8
3CCBDB00
BE03061C
3D8F0D19
3DF99CBF
3E318CA0
3DF0B30B
BCFAE437
3DC33A55
3CDB7CC9
BD426E6F
3D80F246
BDE30D30
3DCC9448
BC94B8F5
3D853990
3D6D6452
BD36CC45
BD9B88BD
3D8733B6
3D382CE8
3DB60A7E
BDDD5992
3DD708AB
3D8CA014
3DDCC533
BD4381B0
BD5E5D18
BC54A142
3DE21965
3DDC19C1
3D303460
BD54E916
3DABC39D
3BF30281
3CD90EFA
3DD0446B
BD80499C
BDF1A3B1
BDD0A3D7
BD2AF287
BDE10731
BD12DFF1
BD187344
3D6F0465
3D18519B
3DAF0414
BD97070B
BCCAB88B
BD696D31
3C32C8AA
BD286E64
3D01B288
BCFEB116
3BD9103D
3D165D8A
3DFC87DB
BDB9B556
3D14ED62
3DBF9FD8
3DEC74B8
3E11A826
3E2455A8
BD8D2E5F
3DA77DE6
BDB08348
3D88E7DE
BCEEE98D
3D0C9B4F
3DAF4319
3D2C35E9
3D5F5474
3D0C584E
BD9D7DB2
3DF16B98
BCCC7086
3D5DBB4C
BE07503C
BDCD2B2C
3C5FBE41
BD56328C
3E0C8649
BDD3C3E7
3E2E6C4C
3DA8D577
BD7A7C68
3A3652C0
3DFC19C1
3D516B12
BD283D00
BDCD1394
3D9A9CCF
BCF2408F
3BED0CF4
BD13D783
BDA5B4B8
BDED690A
3C9CBAB6
3DF01D19
3DBE91C9
3D4ED07D
BD835943
BC782D38
BD3EA953
3DEED3D8
BD0590B3
BDACA263
BDC39ABF
BA28B9AE
BBB90113
3DF50F41
BDE6AA8F
BC9C585B
BDAFDB3F
BE029281
3D708539
3D7C6958
3E01697F
3CB42CC3
3D98E4B8
3DA8E4FC
BDAB0B03
3DD93E60
BD8B1FD4
BDE0218E
BD594A54
3E113F8E
BDCA5086
3DA58CAA
3DEA2DB6
B9F31B49
3E0C2DAE
3DEE392E
BDBB2951
3D4EB6CD
3DEE275B
3D668266
BCA08221
3D8B7514
3CBECE72
BD91FE4A
BD81EF31
BC21F080
BDA2FC84
BDD6F5CB
BD713562
3DEFA7A8
BDBC9D0A
3DB60DBE
BD6E2D1F
BC98C3B1
BD33B5A5
BC11667A
BD744B2B
BCB826B8
3DDD0204
3DC8AD76
3D3B093B
3E3A426C
3DC045AE
BD81E86D
BCCC7630
BD52C31B
BD652F7F
BDA59A3E
3B414F96
BD3C1B1E
BDD5CB79
3D55B234
BD0AC307
3D1BA1CC
BD111ED7
3D8CD5B7
3D95402B
3D13E06D
3BFEF95A
3DED8666
3DAED7D4
3DD7DE0D
BD1F8445
BCF75B81
3D93496E
BC5CF9D6
3E035D25
BD46198A
BCFDF960
3D83379B
BDA260C0
3CA9102F
3D1F99F9
BDAE1651
3C931F2C
3B9821CA
BDA9482E
BC890273
3DC339B3
BD121632
BCF32485
3C2C0DA5
3D19A1C7
BCB287A7
3CD76252
3D0A855F
3C84D8AD
3DB587D7
BC2932FF
3E060286
3CEE4522
BC9B402D
BD6041BF
3C83F44C
3DD647BB
3BDFD959
3DB4ED48
3D5DE0D6
3D0911DD
BDAC8C28
BDB39F27
3DD85F07
BD806721
BCE3ECA4
BCD875AD
BE04A9CE
3D677483
3DFA00E2
3DE556D2
BDADAB27
BD6B7CBB
BC930022
3DA5B34E
3D41EE67
BD5D2ACE
3C936D30
3BF593EB
BDE5985B
3DBDCB58
3DB64460
BDB25984
3DD4E65C
BD7AFDE8
3C57ED92
3CAF1DFB
3D50D1C5
BDC9746E
BDB6DDFD
3DDFB1E2
BC72DD6D
BBBD4672
3DAB4197
3C3F75CC
3DE187A5
3DCFF10F
3BBFA4F1
3DD112FD
3C406C01
3D12B600
3D71F28C
BD618A79
BBB355C3
BDB98394
3DC668DD
3E017CE5
BDBE39CF
BDB8CC07
BC88CB15
3D3544BB
BC885AAD
3D12DFBC
BD7C2B5F
3CFE6886
BB8C1CD9
BDFFB1E2
3D8240D2
3D226784
3D95AC62
BC8C2C5E
BDEFB54A
3C9D58D6
3C15F082
BDD3F962
BD57ACE0
BD5209B8
3CEE0F3D
BDB7A249
3D5C1631
3DF81D7E
3DE44B6F
BDBC593F
3DCF5A96
3DAC2799
BDFB6ED6
BDC9D869
BD96E0FB
3DBECB3F
BDBA9FD9
BCE264E5
BD7E702E
BDF104D5
BDACBD05
3D145E0B
3D16A487
BDC73CAD
B9FDE68F
3DBDACE1
3D4D4C84
BDE4028E
3DE26CC2
3DF0CE4F
BDEE3E6C
BD92BB23
BCC0936E
BC8B2DC6
3DE4D552
3D7E0066
BD6FAA7D
BDB6EB9F
3E26C765
3D9C4E8D
3DB91A4E
3E00563F
3D8D2EBD
BC37C3BC
3DB44D5F
3DBE2146
BDC178F7
BCAFF632
BDA72FD5
3D87E092
3D94489A
3DB01704
3E075C07
3D9EF24E
3CF17E93
BD7CC294
BD1EA7C1
BE07E0F0
3DB4464B
BD978BCB
3D8D541E
3DE3C105
3DF89614
3D82CB21
3D7885B8
3D76FB3F
BDFC32EC
BD79D03B
BD04D7D6
3DC1154C
3DF5275F
3E01B973
BD38BCAA
BDE96702
3D930249
3CA5280D
BD129F75
BD509DDD
3DA28CCA
3D55A584
BDB459BF
BD4181E0
3D4E82E5
3E0C0874
3DFA4CE8
BDF43BF7
BDBF737E
3D674CAB
3D393200
3DA416D9
3D631A9C
3CCE53EB
3DC4A63D
3E01FD59
BDCDC098
3DFA3A8E
BDC12B94
3D809635
3DB906BF
BCD24C69
BDC2898A
3CE26A23
BC773D4E
3C275AB8
BC3E227A
3D028B2A
BDB3C255
3DC8AE9D
BD126AEC
3DD8140E
BD3D0727
3D758CDF
BC1E54F5
BCEAD81B
BC79C695
3D174887
3DF1233E
BDF1AB8F
BCB05C54
3DF83C6D
BC910B8B
BDB4CEC4
3D98EE51
3CA797BF
BCE1074C
BD01B684
BD426875
3D075B74
3DA887DF
3DB7551C
BDBC7150
BC5D6C57
3DD1B36C
3CE606FB
BDA18945
3994A92B
BD99EC12
3E29A416
BD8CCA71
3DC1E413
3D8ACB5D
3CE5EF48
BBA96E79
BE00079A
BDD44780
BDD6DEB9
BE08CD64
BD3A16B2
3DDD0D8D
BDF9E94B
BDA41E9B
BDDCAA76
BB57D43D
BD4117A8
3DC94F92
3D8BBB55
BDF2E7B4
3DA1E8BE
3E0E3971
BD64955B
BC3724C5
BDACA8BB
3C82CD3A
3C8F6B0D
3C884259
3DE431BE
BA86DF2D
3DA0FD56
3DB36D30
BDAB4A31
BDB3CE64
BCBC5B30
3DBA3BF9
BDD7E0AC
BCF2D78E
3D910AA7
BDA9B8CC
3DCF9A07
BD0E2F53
BD8DDC62
3CD6EAFE
3E1461FA
3AA64B84
3D3DC883
3DB3529B
BDBD8F35
3CFD5C82
BC120591
BD9AEA5A
BD5F3DCE
BDAD84D3
3D0D288D
BCDC7369
BD58F43D
BDE01CD6
BCD36AE1
BD510ACF
BDDC32EC
3E094D94
BA95F9A7
3DB1F835
3D184033
BC1B87A6
3E23D5BB
BD669BFB
BD5E36ED
3DAC3A00
3DBBB194
3C0395EC
BD756B37
3DA79EAA
BD775FCE
3E08E8EA
BD8496AB
BDDE5D9E
3C176EE7
3D73D79E
3D8F0EC6
3E1207D5
BD999AE9
3C28E6A9
3C528BBE
3C3DBF7E
BDF117B5
3CA0100B
BD19DA16
BCAD04B0
3D6A3A30
BDFDE8B4
BD7CC3A0
BDE00000
BD19F21A
3DAA0656
3DBD3B2A
BCC0A1E6
3E37FCB9
3DBA6084
3DF0F16F
BDD1D14E
BD897BDF
BC8B00E5
3C810DE7
3B8009E6
3E29C51E
3D43B23C
BD1CBFBF
BDC2660C
3C33D3D8
3DC932D7
3DB590C1
3E1D3A1D
3D8C9265
BC8EF277
BB48363A
3D3334E1
3E0568E8
BC6DF4D0
3C42E98A
BE02F512
BCF088C9
BD56FB09
BAFF1AFE
BD15C7CE
3D959D7E
3DCF733B
3DF1172F
3DB50A6E
3DDFE6D6
3C215459
BD949576
3D45BEA1
3E05119D
BDDB6241
BCAB4451
BE085DB7
3E274645
BDC3B2A8
3E236D65
3D30C133
3DF3FF26
3D9BAE04
BD9C5536
3D5A18CB
3DB88D0F
BE25857B
BD237ADF
3D6CEE0A
3C837A73
BD36C905
3CE4FA56
BDCE6C09
3DCFF8EC
BDB2F0EE
3D92F710
BE390603
BD82BCDE
3D088773
BD9247A3
3CC27815
BD30F5F2
3D9B169A
BDBA2A83
BDCEA39C
3E173040
3DF1EA79
BC746746
BE0C4546
3D9792A9
BD406622
3D933391
BBBB9BE2
BD12074F
3E44F484
3C8DE92C
3DA4D47B
BDBC976D
BD98481E
BD6954A8
BDD0A56A
BD9AFF38
BE2C304D
3DA6323C
3D8786EA
BDCB3080
BD4FBDC8
BD56F687
3D4DFE5B
3CD0441B
3C7D2ACE
BD33A472
BD52AD9D
BE2740C4
3DA51E17
BD9DF4DE
BCC79555
3DF3471F
3D74E153
3CF1CF1B
3DBE38A8
BD558695
3CE65244
3E17BE98
BDC37451
BDCC7821
BD0D0A75
BE038FBD
BD6655D5
3D15A5EF
3CD1D6C2
3D1D4896
3CF5C2C5
3D35D9A1
BDEEB357
BDA2680A
BD8EB7F4
3CEA4045
3DAADCD3
BCC42F3A
3D43481E
3DF7C244
3D3F2FF6
BD8CDB60
3B98544A
3DE2FE82
3CA3117D
3D8CF48B
BC87E465
3EA54C12
BDC501F0
BDC0FA16
3E3C3937
BDA7DA62
3DD2439A
3D4BE404
3D2A1979
3E0AA9B5
3D979131
3C244C7B
3D324181
BE000150
BD944B03
3D568B5D
BC284ED4
BD8C24D1
BDD6F007
BD034316
3D72DDD9
3D97B94D
BC3B7F32
3E11FF2E
3DA09A31
BDF97F63
BDB5EBD2
BD84AEF1
BD3F00FC
BE14523F
3C30C8F6
BC02F0C0
BDF5BB38
3DCD4C34
BB03DEC7
BDD99DCB
BD8C5DB4
BDD910C3
BDF2A1F9
BDEAFC48
BBBFDA36
3C17E6BC
BD39B548
3D9AF640
3D4892C6
BE00FD7E
BD3C0AF9
3DE79B35
3CA1F6CB
BE0CD24E
3CDC24FA
3D4AE74F
BDF42D49
3D322B61
BD34826E
3DF845DD
3AB346BF
BE50DCBA
3E178423
3E1E3971
BD99C4F5
3D75A858
BDE7C06E
3C21C29D
BD98B6BE
BCA4609D
3D98F755
3E0FCD25
3DD8E8EA
3CCDD35D
BC976288
BCDEDA4B
3CDA3E3A
BDE65E89
BB9E9887
3CADA844
BD8DF7B2
BDA634F6
BD675991
3DBEDCCF
3DC4B3B6
3C00F6A0
3B71F7AA
BDAD3F84
BD5480A6
3BE01CF6
3D2D2532
BD6F5573
3E1373F3
BD24D2E8
BC2128BA
BD91C433
BC2D292E
3D8DEE1A
BCA57109
BD4A35C9
3B631665
BD6144D9
3D8475E6
3DCFFC98
3D6CC002
3DA7550E
BCCCD530
3D1D40D3
BE085165
3D7389EB
3DA877C6
BDA700A5
BD085AAD
BDC006A9
3C88292F
3DE584F5
3CA6743E
BB846DF9
BC453A31
BD1104D5
3D4E732B
3D73D8E0
3A516F6B
BC9AFA57
BD107BE4
BD3BFA82
BDB7B345
BDEB723F
3D39CA26
3DDDB09A
BD0DAD32
BDE687F4
3D9A092B
BD67269B
3CF822BC
3D8B6F78
3CD9161C
3E1C3A00
3D135AA0
BE1682F9
BDE4B125
3DDAA8A8
BCA7296F
3DBA8F2D
3CCC95DB
BD1D81F1
BC9B7861
BDD5D91B
3D730B90
3B98F42D
BDE5F4A1
BD6BF3DA
BC9962DD
BCC9A749
3DAC887C
BC8D9D77
3DB39BE6
3C833DD8
BCEEAE34
3E340EE0
3E8BBC0A
3DC5728E
BDCCD291
3C299A99
3D1F8F98
BD6B4D05
3E027B2D
BC945F68
3E127568
3B990EF0
BC73915D
BD769A91
BCB806A2
BD0F97EE
BDCD44DD
3DD19158
3D1CFEDF
BDB2C94B
3C7B74EB
3C5FA2FE
BD4BB0BE
BDF89CE5
3DE8FB87
3D32205E
3AB20246
3DE6E19C
3CC70436
3E0E94AB
3E4816F0
BD25F882
BE02DECA
3DD4FF00
BD9C4A4E
3D99ECCE
3D2D4929
3D3D611F
3D0D8E43
BD8DE086
3B8CAD78
3CDEC3A5
BC15A71C
3DE068DC
3DA14A25
3CA7602C
BCE20D06
BC465691
BD9DE284
BC01C3BA
BDA8CF47
BB8C9D72
3DCA55FA
BD211B38
3E3AA68F
3C2C0E7C
BCFE3880
3C3AC421
3D9C9E3E
3D7FC2C3
BCA4EA30
3C94D544
3B3E17A8
3C8AF9C4
BE069CAA
3D0F98C5
BD636885
BC17E2A0
BD975E7E
BDF024F6
BC8DA09D
BD69388E
3DF9146E
BD8BBE37
BDA99BCD
BDBDC74E
BDDBEE3D
3CF136A4
3D82C16E
3DF29995
BD6EA4A9
3DCA870D
BC49E592
3D1315D7
3E02BBED
BD423209
BDFC579F
3D01BDF6
3E032E7B
3DDB530D
3D0337F9
3E1646AE
3CC09D49
3DDB4CC2
3CCCF180
3E60BD88
BDD8FABE
3CCCDE6B
BC80D8D8
BD8E987F
3E087B14
3C9E73F4
3E0FF8A9
BDB6D613
BD8A7AF0
3DE9AB2A
BDFC2763
3DAA6910
BD3B5F01
3DA09E99
BD214255
3C656331
BDC041BF
BD46C516
BE19B1FB
3DEF9DB2
3D82BBED
3CFE751B
3DAB41DB
BE026677
3DA7319D
3E05D207
BE095F24
3C48D2D8
BDB2E77E
3C0C298F
3AB78B9D
BDFB38D6
3D826D12
3DFE1C15
3E202E23
3D237550
3CF93EE6
3E063BEF
3DF1C326
3CF04E47
BD499327
BD747AAC
BD972035
BE14A5DF
3D7C06AC
3D0EA7CE
BCEFC2D1
3DBF1D67
BDB4F708
3E082DBE
BCF9C1F8
3CF24994
3CC2B013
BD86BB13
BE0D3C36
3D39905F
3DEFDC9C
3E0A4B99
3CE0D34A
3C8F14DB
3C239404
3D198B21
3D74F78E
3D863729
3DB663D5
3B24D913
3AA827FD
3C3857CB
BBA3C785
3D5CC243
BD2C20A0
3CA70A9B
BDB040C0
3DBA69E6
3CA5C699
3DEB9C30
3DC65A8D
3DA4EA30
BDDC347F
3CC4E93E
BE486C22
BD073AF2
BE1EE30D
3E281301
3D86F04A
3E493FF2
3DFD04A3
3DB349D9
BD66D53C
3E1F8402
BB91E459
3E189481
BD9967B0
BCB2AC25
3DDCD78C
3DC1F700
BCD7AEA8
3DDC26DD
BDA54AB5
BE00EED0
3D9C2D28
BC1AD0FC
BDCBC3C6
BDC5C25A
3D406474
3D668EE0
BCFFC4A7
3DC98F7B
3E107B78
BDA8F06A
3D98F19E
3DC0BFBB
3D012BFF
3E0858FF
3E2B573F
3DC72DC9
3E468CEF
BD08DD39
BD821541
3E0CEEE1
3CB8CEE9
BD067657
3BA410C1
3E018E75
3E1ED784
BC978A96
3B4C30C6
3D8DE79A
BDA831BB
3E1BF61B
BD057E3F
3E1B6391
BD4523F6
3C2E6D66
3DC2A22F
BCE9AD0D
3D35766F
BD9AE32B
3B653727
3C354923
3E014728
3D0077F5
3B692F59
3C42D20D
BD0E58A3
3CF8023A
3B885046
3DE2E01A
BD83A026
BDCF0F9D
BDDBBCF5
BE1F08CC
3DCA5E1A
BC71A346
BE076C8B
3E39FBA4
3E02D59D
3DD6E47E
BCD307E5
3DB09C07
3DB8D541
3E66F3B2
BCCE2054
3D82A62B
3DB330F2
3E03BDE0
BDC799AF
3DD213E4
3B5B8F07
BD9C67FB
BD9671FD
3CC51DE2
BDB6CF35
3DC2F91C
3C6D1618
3D8405DC
3D7DB51D
BDF94F27
BDF0C77E
3D9DD0D9
BE1A3098
BDD00043
BC83F62F
3DA1FF06
3E088DB0
BDF66623
BDCA0C50
3DA4D7AE
3C90511B
3D9C37B1
BE2BB16C
BCDA7745
BCCB8499
BD80EB68
BDF1DDE3
BD4179B2
3D0EAC1B
3DA8423E
3D7CF320
BB1B3276
3D2DA321
3D0A0E92
3C2AE303
3D2A5340
BE017050
3DD5158C
3DD69E3D
BD6FB473
3C14F69D
BD39BA6C
3D93095D
BDA006A9
BD7518CC
BDC1DE19
3D232C55
BDD27914
BDCD91EF
BC2A652E
BDD84988
BDE63737
3C3369BA
BDEA50D7
BDDB6998
3B76A107
BD8DC8E1
3DBC7C0F
BCD032B3
3E6DA87A
BDD2B23A
3CF35C4E
3DA491BD
3DC70C2E
3DD02D5A
BD47EF9E
3DEF05A7
BC0C763B
BD879FFA
3E0C6D1E
BCBE1B8F
3D8D47DA
BCEDC890
3DFCBBC3
BCDFFC8A
BD6AFCCE
BD0C2B01
3D0C1100
3D2CAC9C
BDAEC786
3DE4E26D
3DCD2999
3BD22A5A
3E195A29
3CC43A57
BD939F4F
3BA4F2FF
3D0016C1
3D8C1999
BD69401B
BDAA8D07
BD00A669
3C5218D2
BBC8FA04
3DDBDD76
BE4D86EC
3DCA30C1
3CEBF262
BCAC7D37
3E2AB10C
3B8691AA
BA2568D2
BD7C5429
BE1892EF
BDFB517A
BDB4B6A6
3C7B168C
BD35D788
BDE476F3
BCBD2A98
BCED8A11
3C83E8C3
3D875E49
3E1DEE35
3D7A5C37
3CCFE40E
BDE4C597
BE0FE75C
BC5D8EBC
BDC51711
BD16B782
BC45091F
3DFBBB62
3CA6BEE6
BE0C5EF6
3D49C729
3D873AF2
BE095BFF
3E11E4F7
3C950119
3D5669CF
3D326791
BC024F30
3B9A50FA
BD63CC73
BD99B68A
3D0DAEAA
3E2832FD
3E124F66
BD5DC974
BCE07B35
3DA38C8A
BC26D9F4
3E0188B1
BD2E6122
3DC9416A
3E1E071C
BDD3F4AA
BDD4CEC4
3D663B69
3D4F0E76
BDF77186
BE0C9470
BE015161
BD856671
3B9065BE
BDC85EFA
BCCD80F2
BC822C96
BD9BE470
3DCDC3BD
3D9E1AE0
3D5E4BE6
3DB0B956
3D2DE6C3
BCC3335B
BD3E8FBD
3E8965B2
BE3FE75C
BD45D745
BD4B3CAA
3DEC5B08
3D5FEA9C
BB2C1674
3CA68EE0
3D1952ED
BE072863
3D6E4D6B
BDCAAF1B
3DC5E95B
BDD40E5A
BE0F85D7
3D91F2EA
BE2A5E78
BD90D5B3
BD80EAAC
BDA9C553
BDB0753B
3D4BD15A
3DC3CE99
BC92655D
3D960D45
3E1E353F
BD14B68B
BD96D71F
BDD3910C
3D00D8A3
3D54BD0C
3E11DA7B
BDDB3637
3D29543D
3E21F0C3
3DE0AB71
BD9A2AFC
BDD8F25A
BDA11CF3
BD92997B
3DC26F1E
BD1CDEE3
BDDB1C00
BE0732DF
3E666F0D
3DF2FE3F
3B6DBBB0
3DD82DBE
3E2C02F3
BE010F95
BD454C55
BE173BC9
BD4810F6
BDB9AB1C
BD4E0E15
BCCA492F
BC5744F6
BD9F53AB
3D8B62C7
3D6FE65D
BCDAD539
BD6D1816
3DA61515
BDE990F3
39056AEC
BAAEC982
3E12F05A
BD0B5D46
3DEDBBE0
3D2E7D3C
BDEC9FB6
3C98CC14
BD86B25F
BD0F9C8B
3A9D7445
BE39FCB1
BCEB016B
3DDC9A35
BC72B021
BD87F86D
BCE6FE3C
BD1DA2DE
BC92754E
BE00E6B0
BE0EF45A
BDD670A0
BDA8C36E
BBE40C84
3D0AF1E6
BD88C543
3DA113FC
3D4F492E
3E2AEF70
BD2B4005
3D14B4F9
3D263752
BD93BCC6
BDABBF6C
3DBBA387
BD2D398A
BD7D1B7F
3D8BCB96
BDEDD0D9
BE31CDA3
BD0FC18F
BD4AF9A9
3E097460
BD216052
3D249419
3C3B29A2
BD809148
3CAF12A8
BD9CC243
BDE53E2D
3B375394
3D8DA116
3D21B2BD
BDF4EE39
BD33FAF4
3C7D028A
BD422468
3DBD6C14
BDE06FAC
BDF8FCD6
BDA982E6
3D1D9D85
3DB00DE5
BB69AA7E
3D617622
3D94F3E3
BC7519F3
BD770C3B
3BB425CC
BDEEBF66
BCE6C6DE
BD56E9D7
BD78ABC8
BCE73853
3C203C40
BDE60781
BD295D92
3C80276D
3D58ADFC
BC34B14D
BD8CAB9D
BE1B0BBF
3D96CA1F
3DBF43F0
BDF69F49
BDFAB218
BD7257BC
3D968ED3
3D62F406
BD3495EF
3D993D46
3E14C3C2
BD19B23E
BD20337C
BD20222F
BD3BC58E
BD9B1FE1
3BB89837
BE2F401C
3E1316E3
3CA60334
BD40B2FE
BC4F1C32
BD97B1CD
BDA423B1
3CFA8FE9
BD67D68E
BD3A8E3C
3D9391D5
BC708539
3D2134B3
3B573CBD
3CD61EF1
BDB5F7EF
BCAF8A31
BE20068E
3DDFF92F
BC9F8495
BD9290FC
BDB5AA13
3E037EB3
3DA38D7B
BDB2235B
3D90D075
BCE7C145
BDA7F852
3D9A8CA9
BDF2C062
3DCAA426
BE046349
BD419363
BDAED210
3DAA1BD5
3DC8854D
BD911765
BE001C0D
3DC71095
BD9D7C47
BCC88250
3D1376BA
BD20758C
BDC3042C
3DDE5083
3D7D19B7
3DCC7C7B
3DA86AD3
BDD0DE09
3DEBF013
BDAFCCE2
3D8D141A
3D9107D2
3D4BBB55
3D6DD84B
3C1C19C7
3B904141
BC20EAFC
BB992A48
3DE365CB
3E02D01C
BD015C06
BCA506B5
BDB03148
3E132592
BC73F240
BD0B9021
3DCD6020
BD7C6DF5
3D1CFDB7
3E126FE7
3B06BB1B
3D32490E
BB5E66D3
BB619D69
B9DFEB96
3E22C237
BD9BE015
3D8BC4AA
BDF311A5
3D70E403
BD656DE3
3C70E9E3
3DC7C6B9
BDB4C986
BCA5A9A8
3D9672B9
3DE51A00
3D951E25
BC9B6912
3D7AB050
BDA996C5
BD5C2911
BCECEB50
3DA8DFD8
BC8F71C3
BDBD7C3A
3D63C1C1
3D6F4A20
BD9BB9A7
3C9987C6
3DB29506
BB9D5261
3D83DDC0
3BA793C3
BD567E41
BDE703B0
BD276295
3C91FB0A
3D450A10
3C2113B6
BD8288CE
3CC1DE27
BE01CC96
3DBE20DA
3D9F2EC2
BDFFB82C
3DEC2F83
BC336B67
3DB89FD4
BC3EF721
3E1A2EC3
BDA11714
3CA6CCF3
BD14D057
BD1BB060
BD6555AA
BDD13B5C
3DB9736F
3E0B03E2
BD1FD3DB
BE221038
BDBF41CA
BDC89954
BCF95704
BDA4587D
BBBA26ED
BD9EAC50
BA8803C5
BDEFB6DD
3E00296B
BD2E4B52
BDE51655
3D4B3CC5
3DE02108
BDAC4A4E
3E0819D2
BD2BE52B
BD458022
BCE22B6E
3E03604A
3DD2DA12
3DC3EFAE
3DC36885
BDB95A6C
3D3219C3
3D9EC3A5
BDB30E9B
3CFA559C
3DD275EF
BCB37436
BCFFE924
3D53825E
BDB0F30F
BD666128
BC8036F2
3D0616B5
BD1B4932
BDC1AC80
BDAFD66D
BE0DBA4D
BD42D05F
BD893B98
BD024B19
BDEA6DAD
BDFF2BAA
BDE50C5F
BDF4BE83
3DBD556E
3D407449
3CBAB573
BD214941
3D1B3A69
3B0E91D4
BDA0B707
3E149907
BD569299
3CF9DDA7
3D7A219A
BD474A27
BCB95C0C
BDCA3B07
3DA61DD7
BDBE6B5B
BD2E0653
BDF30058
3D501FD3
BD9924AF
BC6587AF
3DBA6E4E
3E08D930
3DD1D25B
BD894559
3D5FA9CF
BD94C7A3
BD9B8598
3E176C05
BDAC0196
BDDE731D
3DB20F6F
3DD52978
BC32B991
BD2B91B4
BD3C4403
3DD87831
BD8580B6
3D285DB7
3DAE9616
BD150580
BDA50416
3D7E84F1
3DA96EFA
3C7F653B
BD2AD9FE
BDA2693F
BC959741
3E18409E
3DAEEE88
3E2325D5
3D7699BA
3DBB030B
BC0484DF
3DE89119
3DD7F067
3DDFD1DD
BCE5F197
BD8958CC
3D8511ED
3D2C2812
3E14AB1D
3DFD9019
3DD07076
BC5F8A3F
BD85F6AD
BD92992A
BC988ED8
3CE91C59
3E0FC2EC
3DB44CA3
BE08F9F4
3B9A3D43
BDA4FD53
BE2DC444
BD0CF272
BD1457A6
BB87D8A7
3C4B5A06
3E08E193
BDA9203A
3DAEFC0F
3C4F7AFD
3D1A5E6B
3D7CD665
3CF3CF05
3BB1ECA2
BD8A7C0A
3DC1896D
3D222920
BD084A51
3DA9F814
BDD12DBA
3D9DEFC8
3DBB039F
3C8351C4
BD9AD76C
BC598CCF
BD57A0D1
3CC4AEF1
3CAE37B6
3DAC0DC0
BDEBD018
BDAE40AD
3C72EDC9
3D91F08E
3DCEB570
3CE40B42
3C263660
BCE7111C
3DA56FD4
3DC76BA7
BD5CB487
3D83E11B
3CB154D7
BD0C35CE
BD90E75E
BE0654D6
BD042818
3D98CB66
3B35CA27
BD4A87E4
BDF870DA
3DE9CE4A
3DF1ADA7
3C8A47ED
3E210774
BD42E847
3DDFD588
3D780F05
3D7D9069
3DCD1288
BCD0D96C
3BD16E5D
3DAE2C48
BDCE4EAD
3DDAD29A
BDE0D994
BD84217D
BCFC4E9B
BC1A5C8D
3D7EECF5
BB1E8338
3D862AE5
3D81E24B
3DC65C8B
BD1BB31A
3DF502AC
3D529C85
BD1763CA
3D7ACE9E
BBD5C23F
3DE89225
3D871CB2
3DD1E53B
BDD9BAA1
BDF698FE
BC6D6BA9
3E153650
3CFE1148
3D8AE12D
3C815F7C
3D94ED04
BB457540
3DCBEF65
3D094665
3CFA7511
3E2AA7DF
BD227ECB
3DAC8B5E
3DE27F1B
3CCBDCE3
BD1F539D
BDB51556
BDACA248
BD993C1F
3D782200
3B421D71
3DA96B69
BD7878ED
BD54BF5A
BD0F19C9
3DEE02A7
BD035D32
3DA8B2A7
BB29C912
3DB26296
3DC5FDF6
3B2864E4
BDCBCD94
BD325629
3DA02EB7
3C45BF27
3CFAFE38
BDE2F8BE
BCD28142
3BCEF5DC
BDB724AA
3C0C2238
3C472FD5
3D82FF4C
BD97C31B
3D4F0EC6
3DA0CA60
3CC4874E
BC551281
3D829B50
BD25DB0B
3B405C51
3C782E7A
BDAC2AE6
BC91339A
3D9F2BE0
3D58151A
3E08D930
3CA79A79
3D488250
BA86B998
BE057CD4
3DB304CD
3CD03CC4
3DAED5A1
BDA5F7B9
BCF0079A
3D1C0CF7
3D37378A
BE09096C
BD43B206
BE01CC96
3E10CB6C
3D9529C8
BD9774B9
3D818CFE
BC5CF5A4
39EB1447
BDCC382A
BE140182
BD9BBB1F
BD258794
3C7E4C36
BDADEC1C
3CDE6652
3DCE23AF
3D3BD472
3DC88A05
3CB6EE09
3D4FDEEB
BD1BEC3F
BD66B1B0
BB843544
3DDD71B0
BD378466
3C91E937
BD36EB34
BC5DF797
3DF4A4D3
BD6AE2E8
BD613F65
3D0895D1
BD1BCC95
3B101DF0
3DABE688
BE07D4E1
BD97A985
3CFD343E
BD0234C3
BDBB3AB9
BD68ABD6
3D9A79C9
BCCA1DFC
BD7B418A
3DEE2F38
BE023209
BD0CDDE4
BC8BD91C
BDC44A7D
3DA80FDC
3D10EBFB
BD19DA31
3BF39A57
BCED31C7
BDA2C11D
BDE8DDA5
BD13127C
BDCFD114
3DA1A4A3
BD965DB2
3DA59A3E
BDB50375
3D665442
3DC9790B
BD9FFBDC
BD6DCB2F
BD0B0B97
BD83608D
BCE73A01
3DA77469
3D828771
3E020FB2
3D68684F
BDC5D173
3CF84C78
3D2DA4CF
3D19B711
BDF7E4DE
3DBD5A9F
BCAF2049
3DBE9369
3DA2F8CB
BD3FBB1C
BD219C68
BD21B8ED
BD999DE6
BDCE23AF
3E1C3A43
3C2E48E9
BD863F72
3DCF56EB
BC4FD164
BCD18670
BD595018
3DF2C1F4
3B426697
3C63CF48
BD9A500D
3D846D0A
3DE2DE01
BDD46456
3E0193F7
BD93548B
3D3EE02A
BDC43E2B
3A12371C
3DD50225
BDDCDAB2
BD8961B6
3DC8A9A2
BDF91AB9
BDB0EDEC
3D9B3AAC
3B41FE12
BD4D1DDB
BD213B4F
3DE8C79F
BDA1D0FE
BBD56CEF
3DD7867F
3D905A56
3DECB31C
BCCA8819
3D4E3E1C
3DE6F71A
3DC9E4FE
BD03C9B9
3D9BA103
3DB4E351
3DECF9E4
3DA8B8A1
BD013463
BDA837B5
3DD08BB9
BD8D4F16
3DC16624
BCDE4530
3DE4638D
3DC7F85F
BC562902
BC0B4C85
3C845996
BD7AE819
BD1D7C98
BDB98A8E
BC90E2DC
3C12241A
BCA82E52
3DAEA408
BDAAB0C9
3D84B373
BDEFEB4A
3DA60B8A
BC920297
BDC0AD11
BD059719
BD7433AF
BD3F5382
3CA9CCB8
BE0B2B34
BD3E2DCE
BDADAAE3
BDC77FBC
BD11EF4B
BDB0D4C2
3DC7344A
3DDA7F3D
BDB5D3B4
BD8163C8
3BA80AE1
3C3F4D88
BDA8B9AD
3D3AB96F
BC8144A4
BD54F052
3DBC67FB
BE078C00
3D372D94
3C24E1CC
3CD3D2E6
3D713DC5
BD3D0C65
BDB315FF
BDBBA329
3D6532A5
BD8F0C0C
BD742678
BDDC2CA1
3CA63AFD
BD876D98
BDBFB92B
BBBD0849
3B9CA2A3
BE000863
3E02C0A5
BDA104E3
3DA810E9
3D206FFD
BDD8DC55
BDAF4293
BB5FC624
3DA065D1
BD6CCA99
BD930886
3DA87F53
3DA80EB5
BDB3978C
BD97DC2A
BD17CE89
BC6D1831
BD1D2235
3DC41DC4
3D37759D
3C209247
BD9F1894
3D2CD05D
BDDFF477
BDC7D5AA
3D59F956
BDF2A412
3BCE3496
3E1CA46E
BDCC7C45
BD09AA1D
BCC05A99
BE116D6E
3DC6A61A
3DBE2B2F
BB4D7412
BDDF3C71
3D095366
BD19285B
BCAB946E
BBDEBD50
BCCBB392
3BC09AA5
3CCE2817
BBF4C8EA
3DA41CE0
BCDF4723
3DFACC4F
3BF35A2A
3C000DE2
BDA646F1
BCD9DCB5
BDA198E4
3BFC28C5
3DD49492
BD85F6BA
BC95E6F2
BCD0E0C3
3DC188A4
3D5A82CE
3DBD75C7
3D55BAB2
BD232782
3D25C38E
BCA5C480
3B44C313
3DBE8717
BCE68C91
3DC1787E
3D0C9F15
BDD7F1FA
BD12A1C3
BD3AD51E
BDBAB820
3D481A81
BC412564
3D6186CE
3DEB47C7
3D173018
3D4A004F
3CF0534F
3D4839A5
BD5E190B
BD7C6003
3DAB010D
3DD7EB29
BD831063
3D546E4C
BD935F66
BD0AE07E
3DE64D3C
3D40D4DC
3DEC7A7D
BCDE57A4
BD01FCE0
BDDF6018
3DCB218F
3D38B5A4
3D1B7E0B
3C968F59
3D379512
3D753C8D
BD85FF1E
3DAB09DC
3B7A76D4
3DEFCDEE
BDE52D66
3CABDF82
BDB99A2D
BDF8F68C
3DAC3D91
3E266730
BDD879C4
3C4C590A
BC3E1361
3CC39871
3D230066
39550E54
BD7A8AE1
BDE69AD4
BDC9B14C
3E0F62B7
3D944948
3DAA2D80
BBF5A26E
BC50500F
BDC3388C
3C0A8CE1
3D0A0B01
BE1BFCEB
BD4CBB14
3E516766
BD044D37
3D4A5B03
3D63170C
3D911856
BE794680
3DA4086E
BD674B84
3DA08F72
3D4B4162
BDBA331D
BD99BE5A
BD883CBD
3E0832BA
3B8623DB
B9CA149D
BDFCE182
BD8D6F54
3DA607D2
BE5771C9
3E2C0A4A
BDB3702D
BD714461
3D9F8A09
BD8B3022
BCFF7A9F
BD11EC41
BDAFE444
3CEBEC82
3C8446EC
BE138AC2
3DD5FC3B
3DAD7569
BCA3BEEC
BD652370
3E05B079
3D70606B
BC8EDA59
BD7242F9
BDDAB96F
3D03EFFF
3CCD90E2
3D7D9A2A
BDF4D61B
3DD70A3D
3DDC6DA4
3C1BBD60
3E24F3BA
3DF6E829
BD9BC078
BD8F723C
BCC90598
BCA860DD
3D6DFDD5
BC93B3DC
3CBB3347
BBC2BD7F
3E375F2D
3D9ABD5E
3DFA0F0A
3D8BE894
3C49F8DD
BD25E38A
3D603346
3D3FAC38
3D6EF409
BDA37B14
3D2D29CF
BDC28E42
BCF02059
3D81A5D8
3D924661
3D12B056
BDAD7145
3DDD76EE
3E4CEFED
3DABE653
BDD72043
3D54D778
3D1B9F63
BC0E7A36
BD496356
BE2AE8E2
3A9B6EDC
3C296FD0
3D8D8722
BC681FA4
3BB89862
3DA705AE
BDB12041
3DE8ADEF
3DF5BA2C
396AB2D6
BDCD2674
BE174320
3C09A403
BB926BE8
3D378AB1
BC6EB62C
3C6FEE3A
3DCE69F0
BD3469FF
BCFBAC13
3DA608C3
BD48F5A8
BD18CD21
BD063F2F
BBB6351B
BDA0C04F
BDCCB817
3E035654
3E0598E1
BD1D4555
3D69885A
3CF840EF
3C5453AA
BDC3179F
3C67F760
BDE582DC
3DAE7437
BCD46801
BD48D0DA
BDC4AADA
BD6B9D3D
BDE55971
BC9B59F9
3DD08DD2
BD33325C
BDF98202
3C3FBDF1
3C84D303
3D8DC289
3E05275F
3CDE3A12
3D310724
BD6584DA
BCBFD99F
3E01E18F
BDB499F8
BB7DE5C9
3DC0BAC0
BE011B1E
3BADAFA6
3C05A836
3CB92012
BDAFD2A6
BE005C46
3DA78C36
BD0D4F08
BD92BE71
B9E19CB5
3D30743C
3D710E10
BC21FFA4
3DD9E16D
3D4913A5
BDAD9430
3DA4D70D
3DC509CD
3DB5B185
3DA332AD
3E01D649
3DB39C88
BD6A91DA
3B1D4825
3C2566C2
BC8F2A75
BE377BC0
BD0F1ABB
3D4212E5
BB8C8AE8
BDEB1E5C
BDDB8AA0
3DBB0D7A
3DC0F22B
BC17A93F
3C4DB453
BCDB7897
3B730820
BC514B4C
3D0291FB
3E415E39
3D524C4E
BDD9BCBA
3DDBDF8F
BD948C9A
BDB17390
3D8378FC
3DD252CE
BD17CD97
BCD6D8BF
BD71AAD3
BDB49137
3E0C2D28
3E068C26
BE157FFA
BDAEDAFA
3D66CA8A
3E08C3F4
3BCFC6FD
BDDC4977
3D70633F
3D1B837F
3D70DEE0
BDE21640
BDF607C4
BC8AA6B8
BD3DA43B
3D3E7AC5
BDAA25CB
3D0F411B
3C6C962B
3DE1DDA0
3DA3609A
BCD69DD1
B9963B49
BB37FDDE
3DC20198
BDFFAB97
3E121D54
BDBF643C
3D903BE0
3DA1ECAC
BDE16BDB
BB6CC134
3D70D2B6
BBDC711A
BD0EA565
3D5B8E16
BE1DEF41
3D6C7EE4
BD385E9C
BD9728B3
3D957F81
3DABCB88
BD7D0834
BE11322F
BE1877AB
3DC2D92E
3D8D4D25
3D07C724
3D758B17
3D962556
BCCA1166
3E1105E2
BE023A2A
BE067946
BC703298
3DC38BE9
BDDE9EA1
3D110485
BD18AA00
3DCE5CD5
3CD2C20F
BDB05BB3
BD8FE1F5
3CDF0C6A
3E5F383F
BDFC5BD1
BD0C4B9E
3DA56BF3
3DAD0CD1
BE37E910
3DC99DCB
3D298EBF
3E30852B
3D88D152
3D2549EC
3E03D9EC
BBA18BAB
3D99136F
3C4D76AB
3DE2C908
BD9DAE74
3DB0D1AA
BDEE770C
BCF14B31
BE156799
BD276102
3CB5E08D
BCD206FE
3D878F84
BDB63843
BDCD5305
BC1BF204
BD8C1E79
3E3CD4AA
BCC56316
BD8B1522
3D145C28
3C83C4E6
BD80A4AE
3DBE1339
BD91C5AB
BD942CF9
3D6D14F1
BE0BBDBE
BC392C71
BC79562D
BDBEF998
BD75D80E
3D85C572
BCE67AF4
BE294531
BDA4B86E
BD1C67E0
3DF5E41D
3DA444FC
BC6A05C3
3D146DE1
3D22AC9E
BD6DFEFC
BD87938D
BC0E7CC5
3BFD9684
BBF76B1C
BD5D18FB
BD75178A
BCE71949
BDBDA710
3CA3B0AA
3DC92AD1
3C955857
BDC45649
BD98E227
BD147E07
3DB19B69
3E141398
BE0032DB
3D5180AC
BD86471A
3DA17D5E
BD01BC7E
BDFD40EE
3E0B40F6
BC95970B
3D25D95E
BE13EA2D
BC7770E5
3BB012ED
3DE18C5D
BD7362CE
BD61C044
BD4753CC
BD1D38C0
3DD7E23F
3CCB394F
3C3FD065
3DFD2E94
BDF418D7
BC9F1031
3DB0AADE
3CA23D77
BD53D097
BD96E4B3
3D44E01F
3C58508F
BC07B810
3D68BB90
3D085BD4
BDFAB325
3DBB5101
BCB9A35A
BD02F4F8
3D91CF1B
3DA6800A
3D60B8F8
BD4AD6A3
3D7235C2
BD33C5B0
3CD4ADA2
BDE788DB
BDEFD5CB
BE01C64C
3DB1366E
BDAA171D
BDC3789E
BDFC768E
BDC61F26
BD956D50
BDB8A86D
BDBD9E4E
BDDB738E
BC08AEF0
3CD22998
3C0F4AB6
BDEF89C6
3C35D9D7
BD2F4228
BD23EFE4
BD8E8E89
3DCBFF98
3D66AA08
BD69F0E5
3E00FF97
BDC67AE6
3D718B78
3DAA1EB7
3B8786DD
3D9CF96B
BCE902F9
3D33DC8C
BDE0E9D5
3D924D4D
BD739ACD
BD51DF40
BD94E202
3DF271BD
3E1EFD00
BDAF4476
BDE58F71
3D8C5A59
3D4D8C2A
BD1CC7D2
3D473A01
BDCD30F0
BD9ACB0D
3D93F33F
BCF7CD2C
BCEB0242
BD5A7EB7
BDA47A4E
3DE56042
BD76758D
BCE2368C
BDBE5208
BD781C21
3DBFDBB8
BBDB2BE0
BD03CDB5
BD956B0E
BDA7547B
3E0319C6
3D9E354D
BDA23CC9
BD2C6492
3C42C93E
3E1C282C
BACEE1A5
3DD55369
3D5B242E
BCD0F627
3C9F5C1C
BDEE64B2
BD7AED57
3E19FE00
BDA6144C
3E0B7308
BDDCDA2B
3DE72086
3D0A431A
BDE383AE
3D37DFF1
BD89538E
BDFBFC65
BDBC948B
BBE41655
3CC12F75
3D0B5AC2
3D4CE3C4
BDF249E4
BDF4C661
BD0518BE
BCD7829E
3C93C397
3CA063EE
BDBC7C1D
3E00995B
3DD32618
3CFC91EC
3DD826EE
3DBDAB27
BC4646A1
BD950F19
3DF4FC61
3BA7C66E
BDC7AC3F
3DA1C9A7
3D312323
BDBB781E
3DBA50FF
BD0BD53B
3D1D3FE2
3A64F64B
BE154B49
BDC69CC5
3BACFDFA
3DB0A8B7
3DBC7D6C
3C8921E8
BDB8E0CA
3DC05EBD
BE270F7C
3DC5C091
BD1928FC
3D01D283
BDC81868
3C62AEB6
BC3EA480
3DE6CEBC
3DA3D677
BC6F5D1B
3BA46EB5
3D2765D5
3DCD5F9A
3DF47497
BDCC580B
3D2B3786
BDDEE808
3DD5A188
BDCFEA3E
3E28850A
BDFE4BCB
BD5ABCCA
3C50AAA8
3D8375FF
3D18DCC0
3DE43138
BDD06467
BD0E449C
BC59E336
3CF67E41
3DE763A2
B99EAC0E
3D1E776A
BDCC3109
3DB866BC
BE03BD9D
BD9D54CD
BD4FBB44
3DA3067A
BD7F73B3
BD5D2001
3D85F5FE
3D1A4F87
BBED975D
BD759F54
3DCF4CF5
BE08CB8E
3DA6CB96
BDD7928E
BD3CFBD4
BDEFD08D
3CCB4726
3D732A64
BC62F23E
BD5A65F8
3E00C997
BDACCE6D
BDBEDD8B
3BE0E9BA
3DE4F00F
BD90F198
3D97315A
3D9B6EC9
3D9BB92F
BCBC353A
3D9DA8B0
3E12849D
BD5C304D
BE0F6988
BB7046A4
BD884C35
3E030B18
3DDC358B
BDAC9994
BDD7D8CF
BD419BC7
3D8D2A55
3E09CAE2
3D198FBE
BCC19DC5
3DE6F827
BD68F9D9
3DB649C6
3DA2BB08
3DDACDE2
3D677BC0
BDAE9ACD
BCF5AE02
3DBE65A4
BDF9D020
BDF22D95
3DCD3416
BD4D7DCD
3CB86460
3DE388EC
BD23E3D5
3D69755F
3CB2D49E
BCD41744
3D939F92
BD7A9B57
3DE30878
3CCBF8FD
3CF8B1F8
BBE83BFF
BDEEB0B8
3DFB23DD
3D786A3F
3DFC022A
3D28997C
BDBC8671
3D8E1552
3DD05AF7
BDAFD8F1
3D3CDEC8
3D72DC61
BD80792A
BD96D168
3D88D089
BDD2F3C3
3AE899B2
3D41124F
3D26CA39
BDEA4C1F
BDE76102
BDF5A5B9
3DAA9C3B
3DC3A71F
3CA6D846
BE062AE5
BD4B3736
3E057860
3E265732
3E21C2E3
3DAD0A9D
BD96A452
BD510E10
3D4C7F35
BD7F67DA
BDFDFA87
BD5D1DCD
3DEFBEBA
3DAA83BF
BD086A17
BD2D6B73
BD88853F
BBE2C359
BC065D3C
BD8D8F0C
3D9C570B
BD8E647D
BD405BC0
3DE1E68A
BD3E5789
BDAFC405
BE0F3A9B
3D9171C8
BDC80D22
3D86380E
3D8B5FF3
3D7077E8
BCA84F3F
3D63727B
BDC3D16E
BD946AD6
3E00EFDD
3D234DAD
BD03F1FD
BDCC6AA7
3D871540
3DBA63B7
3DFE3088
3E23EB3A
3C432F2A
BD2D6AB7
BCA64F1F
3DAC773C
BCE74B9E
3CBF0457
BDB92D99
BDC5E46E
3D9E6A4E
BD8A80C2
BD3510B9
3DAFE890
BDE4A72F
3DEEBDD3
3AB0CC91
3C280BB8
BDE05037
BDB8AB93
3D85A17A
3DDB7AE5
3DB0624E
3D155292
3D152ED1
3D208B5B
3DF4CA92
BC86E66E
3C135694
BDCA13C2
3E15CD92
BD83707D
3CE69601
BBB30FCD
BDE43A21
3E234092
3D2D4604
3DF57ABC
BDAF4E29
BDBBFA17
3D06E115
BCA3EA55
BDA2D227
3DB5C209
3D34EF60
BDB9325E
3D74889E
3B9409E3
3C9705A0
3E213DB8
3E1CAAB9
BD99F234
3DE3810F
BD44D31E
3DC85701
3D63A308
BDB2E771
BDB0CF18
BCDA104C
BDCA59E9
3DAAB48F
BD7669EA
BD16E24A
BDFCAC8E
3DB808A0
BD7E3921
BD17C8FA
3DF46349
BDF60200
BD4C89E7
BD4ADED1
3DDB4A23
BDCE2FBE
3E12E169
BBF6E173
BD8069CD
BD4308AE
BD888723
3BA53EA9
BC039DAF
BC2FAAE8
3C84A871
BDF54D1F
BD119030
BCBDF0C7
BCA9E3C9
3DD232D3
3DB3AD9F
3C14A8E4
3D1BFA82
3E020FB2
3D464819
BCA96371
3D852C82
BD2D9E19
BDC3D16E
3DA68B5D
3D8CCCA5
3DE3A3A9
BDA5321E
BDDE08AF
BD415F46
3DE63F14
3C397A75
BCD17431
3DFDD8F9
3C4E4FEF
BD8AAD60
BC9C516F
3C366227
BDCB437B
3D86B74C
BD2341B9
BE0BDE40
BD4C8D27
3D057A0D
3E03E8DE
BDF668C2
3D588C1E
BDE99525
3E0AC2DF
BDBBA486
3D7B3510
3D96C4EE
3CBF5D79
BD107274
BDD04B3C
3DBDBEB5
BC3AC8BE
BDA295A7
3E024D0A
3DFFBEFD
3D05DBC7
3D7BC53E
3DC55285
BD458D58
BDE2ACB8
3D9019A3
3CD34FD3
BDAE5662
BDEB0E1B
BDC5B5ED
BD7088FF
3DBFDA33
3DB7F3EA
3E1AD8E4
BDAE8E89
3D78AA1B
BD4E577C
3D881535
BDB7B741
3DE3254E
3DDE646F
3DD832FD
3DAB173B
BDF7707A
BCE92161
BDDFFF7A
3CEDB362
3E1042D9
3D4F92CA
3BE7488F
3D8C481A
3E02749F
3E186C22
BC3CD35B
3CC1490B
3DB63BAC
3DB3299B
3D8F9930
BD15AED9
BD4630EC
3D8E05CD
BDAD8AE8
3DB54EDA
3C013EEF
BD92DA98
BD443D97
BD63F664
3BA1BFAE
3CE49002
3CBC3BF0
3CEE02A7
BD5B2951
3D17C046
3DBF3A9B
3DDAAF79
BD8508A6
3D048769
BDCE2B06
3D0D24AC
3D8FBE5C
3D2CC540
BCF601E5
BA964ADB
BC61DBBD
BD7F842A
BDBFFE88
BDAEA87D
3C434A6D
BAC02A27
BB2FF8D7
BC9D3459
BD9F5B02
BD6538D4
3D1476B0
BC866250
3DA78225
BD7ABC0E
3DD2EBE6
3C8A0CFF
BCCA1D5B
3DCD7CF6
BDB436D4
BE0C0A4A
BC4B22A9
3DBF2694
BD1D6B15
BDAA9916
3DCAF74D
3C01E0F6
BCDD6F7D
BD197AAB
BE05147F
BD976E2B
3DBD43EB
BD6585B1
BD8B88E5
3C9092F5
BDCC788C
BCAFC703
3D5E37F9
3DBBA70B
3DF63023
3E130DB7
BE0F4CF5
3D9170C9
3CA143B2
3DCF722E
BD9CDC0F
3C52B834
BD1847A5
BD26937D
3C842162
BE06D480
BD625347
BC6F785E
BC518605
BCB2239E
3D258489
BD38AAF2
3D7640CF
BD8B3BE1
BDA914BF
3D00F635
BCE7715E
3D455A2D
BDACB238
BD51B6E2
3DA201A5
BD8580D0
3D408744
BD636B5A
3DE324C8
3D729599
BDA6133F
BDED98BF
BD1F9D6F
BD33CDA8
3E163B25
3DAC249C
BD875496
3CBF2C9B
3CFD413F
BDDDDA8C
3E05681F
3D172B60
3DC0CBD8
3C85E7A1
BCC62E4D
BDC1DC36
3D9DC1CD
BDEFB54A
3D15F5D6
3D8248CA
3CB0CB7A
3DEB06C4
BDD914F5
3DD8665E
3BBFAA0F
3B52D8AA
3E0BCDFF
BDAABC51
3BCDF6AE
3DBBFFCE
3D232010
BC49264F
BD899228
BD7238B2
3DE705C9
3BD41A5E
BA118009
BC8C2720
BDEEF5ED
3C30D230
3C057E2F
BD3EC36F
3D5CCF79
3E15803D
BDBC1FFF
3DAE68F1
3D2E89D1
BBADE66D
BC055B1E
BE045283
BDE81DC1
BCAD6883
BCAB74F9
3CE8AB50
BC827CB2
3CDC5CF8
BD503A75
BD1B9303
BDFBCCAF
3D2F524E
3DB6B74C
BDAF9831
3DDB1D0D
3DC37AD1
3CE71624
3DF3D966
3D74AEAE
BD41D7F7
BCB6FE9A
3C8AD4A5
3E0B86F4
3DC53049
3DBC5B4B
3CF6427C
BC8DAB84
BDA169DD
3CF96E81
3D45F110
3E05171E
BD819CC6
BDE0BB2C
3D768F8E
BC684995
BD22CF38
BDB80835
BCCCBC3C
BD6C74EE
3D3811BF
3CA620C6
3DBF3DC0
BC21965D
BDB18E68
3CEF177A
BD78A3D0
BDC288F7
3DE3B257
3E0A9931
BDBEB555
3CD764D6
3DE2C882
BD2BB89B
3C5720E4
3CBFD5A3
3DBBDF31
3CE95D5C
3DEE4862
3DA28848
BD34AF19
BDD23140
BD955E44
BDBADE65
3D3A2885
3C97FD17
3DC2032A
BD9BA161
3CD96DFB
3D29032F
3CB6FE2E
BD86D10A
3BBB7AEB
3D84237B
BC161927
3D08497B
3E0ECE9A
BCBF4A99
3BCC1501
3C98EA12
3C826535
3D5ED5C9
BDD9DDC2
3DA3368E
3E1F6B5D
3DE979E1
BDFF687B
BD301A5F
BC16009D
3CAF46AA
BDC57936
BC9FAA55
3D60CFEF
3DADEA6F
BDFD206D
BD5CE6A6
BBACF267
BD5A22C1
3DD6A726
BDBDBFA6
BD85AB20
3D991149
3D3276FB
3DCFBE34
BC85C82B
3D82AAF0
3E221640
B9CEFBAF
3D40E589
3CC4284E
BDC20B4B
BD1981CC
3D3ED70B
3CF2B819
BDDBEEC4
3E062D41
BDB282FD
BD5D7618
BD06B30D
3DBEC66C
3E27314D
3DC17756
3DE004B8
BC3C6FF3
BD26135A
BDEF9097
BE053437
BE052589
3D4FBA88
BAD5C5F0
BD30FA8F
3DC06D94
3D88DF95
BD828F5C
3D54C3C2
BC9031DC
3C7B3B0A
3D9DE24E
BD19A0A0
BDBBEE8E
3D2CC1CA
3D9F8C58
BD3B837F
BE21C6D2
3DE45B29
3D603B59
BE069403
3A298D58
3D1E4FC7
BD1F147D
3DF13943
BBB2FA28
3DA1F9AD
3D800806
BD2F8D21
BDC462A8
3D951025
BDE60807
BDF21EE6
3D83D252
BDA970CF
BDC27144
BD9C550D
3DB42353
BD302BE2
3DC3BC4D
BDD41312
3E054435
3DD6C0D7
BDF6F4BF
BDF60C7C
3A405F4E
3D91D4EC
BD93473A
BDA94DAF
BBF85668
3D87F796
BDA2F124
3C2EBDEE
BC94F73E
3E58E714
BC6A3593
3B4C69A6
BBB20952
3C425072
3C9ED111
BDD2A737
BCE7CB56
3D50B8B5
3B295046
BD3A62D2
3DD8AA86
BD8FAD01
BCD3FCD7
BDAE3575
3D859020
BE046DC6
3D80EE80
3E00EBAB
BD8255CB
3CC36FF7
3D16D4C3
3DEC1D2A
BAC305FA
BDA28093
BE24959E
BCD320DA
BDBE0CB8
BDD698FE
BCFB5617
BE055758
3E03647C
3DEFBD27
3DC1783B
BDDB3312
BD7B1C86
3E280A9E
BC933D95
3E01259A
3DFCA8E3
3DBF3527
BD4F1638
BDF90215
3D3C815B
3C5E013D
3D7B1763
3D727FE5
3B06BFF8
399FDE57
3D6DC154
3DC4E2BE
3DC9808A
BDAAE353
BB45EFE4
3E1254A4
BE07B0B4
3BB5EE24
BD305D2A
BD4AD57C
BD976F45
BAFCEDA7
3D23A78A
3D3EDD20
