BDB07BE4
3E855EF2
3E01BF38
BE5A73F7
BD91C532
3BDA0504
3E1DD15F
BBDD9AA5
3D16B4AD
BE544D87
3DA3A183
BE3A4C62
3DBB1FD4
BE306EE3
BE44AEC9
3E60F302
BE416A48
3E33FC87
3D1A74C1
3CC931D8
3D75435E
3BBDBB21
BDCBCE1A
3EC15337
BE0FACA3
3E8816CE
3EF4792D
3DE32B13
BE833E14
BE1724B7
3E447F56
3E544CBE
BC983B60
BE14DE7F
3DA032A5
BE3477BC
3DCCD185
3E46540D
38A21C1F
3D14AAE8
3E3BBADC
3D2AE551
3E028B6E
3E933E79
BDE6BDF5
3E6E2CDC
3A908015
BED15422
BE1A02FB
3D3DB080
BE5605AB
3DE05FF2
BC05686A
3D2A985A
3E8D9D34
3E1D2807
3A14435D
3D9C0732
BE2FDC9C
3DD912DC
3E29BFDF
3E05A2D7
3C0C9DDE
3E91EE89
3DE215BA
3D08D8B7
BE48023A
BE453B08
BD8E9B6F
3DDBB2FF
BCCB53F1
BE4EDE12
3D60DD90
BE00D62C
BE870931
3E0748A1
3E66377A
BE9549B6
BC4C2FEF
BE577BC0
BC8674C4
3D0FFC98
3DA39417
3DB7AA76
3BA8F17B
BDA6D7CE
3E333B10
BE5A6CA0
3E4EEA64
3D5C705E
3E929995
BD0B0094
3E5663C7
BD80531A
BE4E835E
BE46F47B
BE5BC83B
BE59DA59
BE045415
3E45CFAB
BE7B71FC
3E68CE2D
3E825ACD
3D290EB7
3CB3FF76
BCAEA748
BD0979C7
3E3A04D1
BE8349BF
3CE96D82
3D6400C6
BDDD2FA1
3E00B4E1
BC733CA3
BCB367A1
3D75C6A6
3E08F0C7
3E0DCF46
3E121D54
3D437D7E
BE4AD081
BD61D04F
3C88A91C
3E2D5411
3E63D817
BD02FB5D
BE634DF0
BD362231
3C7006F9
BE1DE1E3
BE1A18BD
3DBCF18D
BE37EF5B
BE3D816B
BD964402
3E46A162
BDBE2DDB
BCF889B4
BDD1CFBC
3DC23A95
3DEC16DF
BDFB152F
BD252D4C
BE15E918
BDB58DF9
3E61DE6A
3DEE568A
3E04CB19
BE27E953
3D6EE378
3EC4903F
BE04FE37
BD4585B1
BE2BF338
BE3BEB18
BE395315
3E404A30
BE61F927
BDF588E3
3DB0EF2E
BDBB08DD
BCF31C22
BD9B7359
3DE5BC02
BE07AC82
3EC270F4
BD31F7AF
BE12235B
BE17BF62
3D09C3E9
BD8524C0
BDC52213
3D7517F5
BDC614D2
BD6E7975
BE077425
BD42F86D
3E194680
3E46B485
3DD94962
3B606F41
3DC02D4C
3EDA469D
BA42C526
BE779852
BE125397
BD9A4D97
BD18F606
3D822A8A
3DB81C13
3EA1C609
3DB567DC
BDFDAAD6
3DDBA1B2
BD37B437
BE29FD7A
3E1B599B
BCE8B4C0
BE084F09
3E1B8CFC
BD2E505B
BD5AFE03
BE577E5F
BD969F3C
BDC9AF9F
BE556F33
3C3DFE68
BE2020C5
3EB5D56F
BD694C7A
3C819348
3E9A07D5
3D5F1788
BEA183B6
BE37E282
3E1C675A
BE7D972D
3DDA7FC3
3D46F212
BE588CE7
BE22BE8C
BE0BACB4
BD609DEA
3DA49FAF
BDCF7447
3EB6CC81
BD23EA05
BE9AA088
BE277F6B
BE6EF73C
BD98D089
3D634E84
3D99741D
BDED690A
BD948909
BE6E12E8
BE251B93
BE89B175
3EEA0AD9
BE3F398F
3CBE4947
BE48B934
BE6EC80C
3E9177EA
BC783318
3D3983AF
3A35C84E
3E2FF434
3D95EF70
BE533509
3E26C9C1
BE2A871A
BE9013A9
3C433722
BD98E88C
3E16DE76
3E637974
3E04C3C2
3DEFAEFF
BE35D4E9
BDC0749A
BE447E07
BEAE034F
3EC5AFF3
3D86BF01
3ED646F1
BE34BAD8
3E9CFCE7
BD7D3B7A
3D02DF0D
BE070E2C
BD4D7EF4
3E3C1DB0
3EA4054F
BD89EB49
BD237494
BE28609A
BC2AED14
3D5A90C0
3C9C85A7
BE4CE63A
BE385D31
3CF65F6D
BE868A93
3D6FE2B1
3DF6ED67
BBCD1014
3EA88A48
BCBE5C26
3E2FD9FD
3E21BA3D
3DB14793
BE502B41
BE736E2F
3E3F4F0E
BE5A9110
BEB47C74
3E8B764F
3E0ADABA
BE2C81D4
3D32BDF8
3DFEDD8B
BE5B1423
3D81E406
BDD8F041
BDB8E036
3C4B196E
BE26F9BA
BE1E008F
3DFF9B56
BCB430BF
3E1B6849
3DEFDC9C
BDAAA759
BE020104
3BC93E62
3DCE568A
BE1866A1
BD977001
3D72E83A
BD21DD6B
3E518B50
BE11E322
3E63DAF9
BC821C3A
BC5AF229
BCF999B4
BE278573
BE315C21
3CA28424
3D832709
3E7ABC94
BE2AF577
3E0888B5
3E0EFFE3
3D8986AC
3D827EE6
3E876252
3D3191C3
3DD260F6
3D081A15
BE3F0D41
BE67E77D
BB13AE9E
3E2DEF41
BDE09B30
BE1AD96A
BE156367
BD1EA811
3D912549
BE584663
BE235FC4
3E47F738
BE1360D0
3DC0CD42
3E219FC3
3E2BB4D5
3D532881
BE504923
BE55000D
BE2E3EF3
3DE48CF8
3C385D3F
3D1C7623
3E171327
3E0DBB5A
BD96006D
BD20D2C4
BE4EA4EC
BE413059
3E9BDBE4
3E8919AC
BE33B5BF
3E19CC75
3DAC03BC
BEAB825E
3CB61B0F
3E847E28
3E82702A
BE1EF523
BDE7A312
BBCAA1CF
3F19C098
BE932F01
3EA453B1
3E2E2EB2
BE455001
BDA0D994
BE4CB9AA
BCAC70D7
3E4D206D
3EFEB39A
BCA1088E
BE025FA6
3E78E758
3E1595BC
BEC3F26F
BD31DCD7
BD096158
BE6E2153
BBD7BB93
BE329670
BE395DD5
BDF33A8A
BE5587D7
BE4B0BBF
3E09FD7A
3EC0A5CE
3E14C4CE
3DBAF3BC
BE1F06F7
3EDEC1E3
3E2D7236
BEC604E2
3EC226A2
BEFD4520
BEDC86F0
3E821E1D
3C74439F
BE9A5EBB
BC87DB97
3D94826E
3D7A19F2
BE038F7A
3E8AD0C4
BE84B9CB
3C216058
BA738D2B
3E5C2763
3DB584DA
3E842481
3DB85320
BE988590
BE935D68
3DC236EA
3EE7E3D2
3EFD81AE
BE165669
BEA4E26D
BE963B8A
BE9123C4
3E9D859D
3E515055
3DEE221D
3CD366AF
BE9C0F67
3E86D741
3D3C565D
BE1A44C8
3DAAE8C7
3E33992D
BBC8866C
3DB8EEE4
3DC9CEB6
BD892048
3DC10F6D
BD8AA79C
BCFF26BC
BDAE6893
BCD71FD7
3DD10774
3EDFB99D
3DE9FCF4
BE7F0CBB
3E110E02
BE992E1F
3EB91CB0
BCE52D16
BCC790EE
BE69A8CE
3DA0125A
3E24AD36
3E6C3F3E
BEB6B830
3EAF67B2
3E8649B2
BEC21EE6
3E6FBA88
BE8E90DE
BDF5147F
3C31EB35
3D75B49D
3E114EC2
BD8F2B16
BE4FDDA9
3DCEA423
BDE0C73B
3E6718A8
3DB5161F
BDCF9B13
3DD5831F
BE93E7D1
3DAC4E2F
BE4FB3FA
BE84F54D
3CF7E804
3C737619
3E8975F3
3C390067
3CDE0C90
BCAB8F30
3E77BFA5
BE8C86F0
3E2ADE22
BDCC94A6
3D938B48
BD64241C
3BA5346D
3D9DE2C7
BE1B4AA9
BDD63E4B
BCDE3327
3E06DACB
BE2E4C51
3D5097AD
3E66AA8F
3DF0AAA8
3D7885B8
BDB13A27
3C1DB283
BE2BD76F
BE5A6CA0
B986D2A0
3C16606A
3D0D0B66
BE02ED35
BD08F87C
3E23779F
3DA2B0EA
3E1E94EE
3E2C4D23
BE4264A1
3E4FD6D8
3CECBFB1
BCA06C87
3E246738
3E147C31
BD4C3C4E
BD4B3985
BE5DE3FC
BD87C569
BC1619F3
3DDC7C52
BCC8D41A
3CE7D8C2
3E4B430F
BDA55F78
3E4569B1
3E52EC6C
3D71BE03
3E3D80A1
BDA2CF7B
BE5778DD
3D842529
BD9F024C
3EA27AC8
BD0E444C
3C80E2E9
3DAE4F9F
3D264686
3D3300DE
3D9FFEB0
BDFA56DE
BE21BB8C
BD8804A4
BD8D3812
3E3753A4
3E706749
BDE331E4
3A9EF1C8
3E5ADF2F
3EB12D99
BE2B634E
3E74B09F
3DE1615F
BE41E03F
3E6CDC01
BC92ED0D
BCDDE417
3C186801
BD962033
BE0C2DAE
3DAF6D26
3D51600F
3E444135
BD3DA6DA
3C36EEAA
3E5ED677
BDDC9E67
3D0FE8C6
3E49B025
BE0B5E0F
BE9ECE36
3E1C5C14
BC599532
BE4607C4
3E5BFAD3
3ECFE458
BE388766
BE7B8738
BE704B7F
BE228998
3E33910C
3EA03B82
BDEC4DEC
BDB5B721
BE6C4AC7
BE310625
BDDFB268
3E189CA2
BDA84AA2
3E2ED5AE
3DBB1374
BE6CBCCF
3DA850C4
3E06A1A5
BE909B74
3D9AFD04
3DCCB08A
BDC1CFC9
BE9D12CB
BDD4812C
3E39B845
3E864756
BCF1692F
3E1BC59C
BD9FA40A
3CFB74EB
3E9132D7
BE81F70E
BE57967D
BE51AA82
3E1D3416
3EC0FC0D
3E64FA48
BED21BA0
3D5C867E
BE156B87
3E8ACD18
BE8184E4
BD95506C
3E35BEE4
BE235C5B
3E2AF8DF
BE002AFE
BE509A67
3E3AF534
3D9BC9B2
3D5D1824
BE069164
3E60D280
BDBECCB7
BE3851A8
3E1DC7AC
BE094291
3C3BFF1F
BDD20297
3E5A7935
BC9820BE
BD6C0D6F
BE69F517
3D05A2BC
3E7077CD
3DD54328
BE6EACC9
3E22E3C5
3E826741
BE930293
BDA9E768
BE35F3D8
BE01858C
3E013511
3EA2E233
BE313123
BDF3E2D6
3DAFC1DF
BC894417
BCC734A8
3E36E654
3AE354CF
3D87E78B
3E045D42
3D668B85
3E66D7A5
3E26733F
3E0E83A1
BE8BEB18
BD3351B7
3E9D53EF
BDE14057
3D7EC878
3D2AB474
BC082985
3D74F540
3E01D4B7
BE5A936C
3D052D31
3E380735
3E026139
BC4980E8
BE4DD8F9
BEB04D55
3E197397
BD337202
3DFBD406
BDA4B960
3ED73A36
3A9186D1
3DA7779B
BE360A20
3E33FE5D
3E7BF488
3D9CA3A5
3EA1F8E4
3DF0F51B
BE0C73AC
BD6C7D51
BD0AB34D
3E2D33D3
BDA28AF5
3DF0C997
BCDE37F9
3D1F6AAF
BE03F573
3E72339C
BE167664
3E0445AA
3CCB27E7
BE26E760
BE116F87
3DAA3E3A
3CE94AB2
BDAE5A6C
BE40D3D0
3E74712E
BE5969A1
3EFACD3A
BE8158FB
3DD3E814
BDFEF5A9
3EC3749B
BE437E2C
BDC7A0D1
3D5A9DA6
3E804018
3DB80D3D
BDCBA494
BE5DF2ED
BD32D5AB
3BC9F989
3DD49CF5
BD4EAD78
BD1C56C8
3C335888
3DF6F08D
3E10A4E3
BDB46BD5
BE35E636
BE2185CF
BE1995EE
3E2D45A6
3DABA2BE
BE138C97
BD8BB0E6
3CAA1FC4
BD523F17
3D75CDAD
3C3AB141
3D9C01A3
BC9D2001
3EAD7F95
BE192D13
BCFCF4B3
BE885404
3EF062D4
BC7F7886
BE8057B0
3B98577A
BDA82808
BE10EC74
3E2B9F99
BE7312B2
3E4C6C98
BD8E61A8
BE41AB8F
3DC74107
3D8B8399
3EC6C93A
BDC82C39
3E189EBA
BD353B81
BD6A3111
BDA5DBE2
3D96F1EA
BE2E7BC4
3E259D56
3D967AF4
3E1AC711
3D4520EC
BE150269
3E546024
BDF0EF56
BE8E9681
3E67C41A
BD864F3A
BCC5857B
BEA1DF55
3D1EFFA0
3E49320E
BE02070C
3E4DEB96
3DCD362F
BE70B029
BE9493C9
3D7A1901
BE45D13D
BDFB9E06
3E3EBBFD
3C3F4A2D
3CA1E34A
BE165A57
3BE2C6F5
3E3B8CFC
3D98B893
3E142FA5
BC383276
BCA4AA6F
3CDF2BAA
BE0E79AB
BD1B0AB3
BE7093D9
BE233CE6
3D774313
3E3CF41F
BE5323BC
3E954F7B
3E3486AD
BE10A527
BE47BE98
3CFE2493
BD196180
BC0BB0E3
BB4FA71D
3E55F202
3DD209EE
BDE7D135
3DB302DC
BE8AF188
3E9C302B
BDE1D53D
BD165039
BDD694CD
3E90F041
3EE8AD8A
BEA48ABD
BE4634DB
BD8C04A0
3D3EA33E
3E63B7D8
BDE0C5A8
3C9077E8
3E888787
3DD439DE
3DD3D74D
BE11322F
BD4BE23C
BE09E27A
3E7D96A7
BD9654FE
BD84CE9C
3E936CDF
BE3E835E
BE33A6CE
BDCF3A9B
3C9B45D7
3E4F7A0B
BC8646A1
BDA5AEBE
3EAEEAC8
3D90CB7A
3DAEB4CF
3CCB6482
3D68D866
BCCC956F
3DE621B8
3E020AFA
BE762889
3E0B7E0B
3D4EBF15
3DCBB25E
BE621294
3EAA4639
BDFF9831
3CBC5CA8
BCE1EE32
3DE7DED7
3EA7BD27
BE558751
BC97CAF8
3D557A6B
BE2F3D3A
3E63671B
BE4908E6
BDD25919
BDE4E7AB
BE2F455A
3C618F67
BE163C75
BD1DBD9B
BE46BE7B
BE72C4D6
3EB155F8
BE38537E
3DBE44ED
3E6B2BFE
3E2E83E4
3DCDAA93
BE9BDAF9
3E5C2CA1
BE16BB99
BDC26825
3CAD21D7
3E23137B
BD5EA989
3E469B17
BE3F3344
BDD7EF5B
3DEFD8F1
BE56C658
BDF99913
3E524031
BB9CA28E
3E22806B
3D3B258B
BE0004B8
3E9A643D
BDBF1463
BE0F6F4C
BE001798
BE5E8AF8
BDFFB481
BC6D7C04
3E3563ED
3EE74EEC
BE82C6AC
BEC4C6A4
BE1599AA
3E95D26B
BCF8DE38
BE718EFC
BD8850FA
BD8C214E
BD5C3738
BDC0F9AA
3EAA6784
BE64245F
3E6D4995
3E708C82
BDF496AB
BE11C0CA
BC540464
BDE96894
3EEFA440
3E592AB7
3D2347E9
3D759345
BD9D2AA6
BE8D119D
3E008787
BE619C17
BDDF0A1C
BDA990A2
3D1F1D17
3EB18D8B
BD26720A
BDD4E6E2
BDDA2835
3E747410
BDE96DD2
BE180496
BE894EC2
BD4DC02D
3D31BA3D
3CE552D6
BD5D5FDD
BDC8D1CB
BD6C140A
3D38D493
3ED23CC9
BE85D91B
3E034EFD
3F2A049F
BE8A75AB
BEB1AB08
BEE7EF17
BE2503B8
3F0154DA
3D069A84
BE9230DB
BE8AA455
BECDFFC5
BDDB55AC
3F14FAAD
BD201316
3EA0203E
3DF5F99C
3F11562A
3C2CEB86
BD91C4FC
BE76188B
BE29BBAE
3DE6B1E6
BE44EB57
BDE998D0
BE0423D9
BD4E0689
3D94A11A
BDDD9557
3D95886B
BC33127C
3DC67E26
3DC5257C
3EC630A9
BE52AB69
3DC75EA6
3D7C891D
3DBDAB9F
BE000368
BE8199FE
BD96A45F
BD188A20
3DD824D5
3DD6605F
BC9AA0CB
3DA3E4C7
BE29D55E
3D91259A
BDB77AA6
3EB752B9
3E010236
BDCC5825
3D453FDB
3DECF4A5
3DE8B652
BE285986
BE080BAA
BCFC12D6
3E095076
3E0A48F9
3D207373
BC73273F
BE3337EB
3E815DD5
3EB37EB3
BE9F327B
3E9C660A
3E95115A
BE369DB6
BDB332FE
BE8AB170
3D3FDB9D
3D4BD15A
3E409635
BDF5347A
BE0774AC
BD0B9BC5
3DDF1737
BE320FF5
3E28869C
3E14DAD3
BE8387BE
BD35AF95
BE043C7D
BE7CD9E8
BE0177EA
3E70D802
3ECC5E2D
BCB0054C
BE702B84
3D340216
BDE5A9A8
3B0F2420
BB25AD79
3D94DB59
3DEB4E12
3DC4628E
BE1A059A
3D8CEDAC
BD877EE5
3DBB49E0
3E7AF640
BE2E835E
BE6AD539
3E0F926C
3E254D62
BDED86EC
BE1068DC
BE3F0996
BD401D5C
BE35F02C
3D9AC9E6
BE8A6528
3EE77425
BDE8B32D
BE5FBEFD
BE56C11A
3E76C2AD
BDD74FF8
3DFFCEB8
3D8DB12E
BDE471B4
BE745565
BD8F0480
3E8F3C0C
3EB523F6
3EA92578
3AFE00CC
BD8C9FEC
BE150A03
3D88E531
BE5ED741
BCC4BAB0
3D5AD2CF
3E1DD591
BD5C69F9
3DD8BB4D
3E0D145E
BC58298D
3D5F880B
BE4ACC4F
BD5F7688
3E2FEC14
3F0AFE1E
BDE0F345
3DD61BB0
BEA91362
BE03122B
BDF080B6
BDB8B736
BE0B5C3A
BDD0F8C6
BE04D1E9
3E23EEE5
3DCD2242
3CDDCE47
BCEFE246
BD2EEB20
BE32D341
3E2630EC
3E359429
BE4102BC
BDDAC9B0
3E0D1809
BDC9DA8F
3B8CB03D
BD6041BF
BE219BD4
BDA9B315
BCAC9AFE
3DAC62A2
BE54F69D
BDD5D13D
BD7AAEA2
BDD1FC4C
BCDC38E6
3E65985B
BD6412EA
3E20ABF7
BD98C536
3E0CC07B
3E08F96E
3DE9BE0A
BDA74264
BDF170D6
3E9A3077
BE923726
BD696A92
3CD8706F
3E38BC5A
BCC38B70
BE98DCDB
3E31A693
BD581301
3E788616
BE8B44E5
BE59656F
BD8FC7F4
3DB42833
BE3E9EA1
3DB9AB2A
3ECC72E2
BE157860
3D0FE45F
3D341312
3C86A495
BDC568CD
BE519AC8
3E7B7026
3E8B88EC
BD854F45
3E896D2B
BCC46A93
BD8287A7
3DC65BDD
BE788D6D
3C84A805
BE009460
BD4A3593
BD37D468
BD8952ED
3E9B3B32
3EBCD595
3D9AF4F1
BDDFA8F8
BD26A6AD
BDF3226C
BDFA17F4
3DD5275F
3CE78119
BD8B990B
BDC30B0A
3DA10CDB
3D3564B6
BE4674D1
3D8A4FAF
BDA3DE2C
BD924EFA
3E506F69
3E2A0408
3D69915E
3CACCD53
BC2A86BC
3DC7AAB9
3E55FF61
3E1668C2
3DEC0054
BE36DACB
3E42FA94
3D5FB8B2
BDEF0E91
BD503E8C
BE517119
BE9B9021
3D46295F
BC8252C1
BE4B5C7D
BE613554
3F043D9B
BE275CD1
3C4845EA
3E856FFC
BE2A42AF
BE3A6BD7
3E3A5A47
BE130447
3E891234
BD0F6A00
3DDB3398
3E7CC4AC
BDE11BA4
BE326BF8
BE22AC75
BE71B75A
BE2EC80C
BE0F84CB
3CF60A13
BE597529
3E239086
3EC7F951
BDC37B65
BDB7F108
BDD48A9C
BE6EF284
BD547B32
BA878AA3
3D5C05D5
BE3A9DE9
3CFBB2C9
3D2A5E78
BE5EB39A
3D4495E1
BD3E3418
3DAAA491
BE095FEE
BDDEB28E
BE6B8E08
3D95A808
3DA131B6
BDD07F24
BE08CAC5

