3DE2AE4B
3E0841AB
3E018DAC
BDB01C5D
BDA386E0
BD5B7953
BD929A94
BDA25220
00000000
BD637FB2
BDC48C57
BD45639D
3DEA3593
3D979CE2
BCE365CB
BD4E4A46
3DC999C2
00000000
BD97C287
3D647C31
3D90E61C
3E06861F
3E2159C5
3DC4294D
BE320429
3DEA9AC3
00000000
3DC74A19
BE0460EE
3E96FB09
BE2C332F
3DE1FD9C
BC9C3BD6
3DF19610
BE15F4A1
00000000
BE3B2A6B
3EB0A41A
3E550EFE
BE4E136E
BB9FD116
3D6762CB
BDE36C16
BCAB2512
00000000
3E1D6C2F
3D76CB6E
BC46FAFC
3DF49E02
BCB8561D
BBFAF0F7
3E36FAC6
BE19691A
00000000
BCDC391C
BE4FB86F
BE5D5DC4
BE07E996
BC4BFEDC
BE0FB092
BDAF1F07
3E44434E
00000000
BB21B979
3C1DFF9A
BDE6A7F0
3C7A219A
BE5EBCC7
3E0567DC
3DFFBDF1
BE26805A
00000000
3CCFA4EE
3E50F51B
3DDC5C57
BB4AFDEB
BE3B6E50
3E1EFE0D
BE2008A7
BCD359AF
00000000
BD68170B
3E3E03F7
3E82AD1D
BDC8576D
BCF0DEC5
3E37AAEF
BE326352
3DC10782
00000000
3C08020D
BE1E6ABA
BA484608
BE54F6E0
3C1C5B15
3E0411C3
3E09F59D
BD40BB47
00000000
3D978A89
BDD12125
BE45525D
BD013951
BDDB9064
BE3C1C1D
3D8DA357
3E4F8A8F
00000000
3DEF6380
3E87ABB9
BE8CE11E
3D8BE1A8
3E3789A4
BC3651CC
BDC5CC35
3D7C3CAC
00000000
3DBC5429
3E16EBD5
BE70C06A
3DB5F6D5
3E0BCCAF
BE1F7CEE
BD62A14A
3DF2A305
00000000
BE1321E6
BCB49569
BDA8830C
BE0677F7
BDAE2D2D
BE27FB26
3DB768C5
3DA76EA4
00000000
BC99B6C0
BD6EF72F
BDE5ADDA
BD039820
BD7F592C
BE486552
3D4A2C74
3E37FF15
00000000
3E5F2ECF
BE14E619
3CD7AFB5
3DCC39A2
3E075A75
BE09AA1D
BDA74BB9
BCE6AB9B
00000000
BE0E41D5
BD85C224
BE1D8B1E
3D9F6274
BE4361DD
BDE2C908
3E09578A
3D8082F8
00000000
3E87A9A0
BB998E71
BD3E3E95
3DF19BD4
BD9B16EA
3E4AFD11
3E09C4DB
BDFA493D
00000000
3E263737
BCFC2A88
BD737289
3B29D24C
3CE3A846
3E0FC116
BD69D13A
BE228912
00000000
BE47E953
3C14C839
BD63BE4B
3DE3F5F9
3E3631B6
BDDC8E26
BE1CC144
3DA09155
00000000
BE0884C7
3E7C8F32
3E963001
BE2C896E
BE10C997
3D04F6AA
BD3A63DF
BE28D2E5
00000000
3C9D8516
3D05EAC6
3EA681AA
BE3DCCA7
BE72F7B1
BE6AAA3B
3DF01EAC
3C3ADC75
00000000
3DE63498
3DD2BCB6
3D65A64D
3C8CD5D1
BD27512D
3DCB86A4
3CFB08B5
BD126883
00000000
BE1028E5
3CFEEB2D
BD541F3C
3CD8CCEB
3E2A20DE
3D0A08B2
BE31C609
BE27DA62
00000000
3DF6B65B
BE2ADEA9
3DB85B41
BD953792
3E20BFE4
BDC34CF1
3DCA091E
3E08C6D6
00000000
BE5FD9BA
BDE94CCB
3EA7B784
BE1D50A9
BDD1715C
BDDF7404
BE500193
3CB9DD3C
00000000
BB95D04C
3DE500D6
3D6CF928
BD245F5B
BD91FB90
3E3718A8
BE390A35
3E3ED203
00000000
3C17B259
3E941872
3D06263A
BE092CCF
BD015AA9
BCF494FD
BD60FECE
BE3B955F
00000000
3E192C8C
3E4E0BD4
BC92F3C3
BE391926
3D8BD8B1
BE14DF8B
3DF991BC
3D37D2BA
00000000
3DDFD588
BDD15B57
3E15E918
BE49EA9A
BD37BE98
BE08C155
3DDABE27
3C4BC566
00000000
3DFB2AAE
BE06B485
BE08BB0A
3DDA9867
3E0B39E2
BDAE9AA5
3D9970B5
3E1C23FB
00000000
BDA78C43
BA0D9405
3E49780C
3DA076B3
3E1A01AC
3E49F773
BDB2C5E3
3DCDC6E3
00000000
BE86DD6A
3E413F8E
3D9F23B2
3C41A693
BE29AFE2
3CABCEF1
3E0BF5D8
BCF69AC7
00000000
BE000EF1
3BB432A2
3D4DA4CF
BCD632A7
3DEDE54B
3E1AF5BA
3E502081
3E11AD21
00000000
BE4AC604
BD4F515C
BE081883
3D0196D9
3DCE1156
BDA7ECFF
BC8C2939
BDB8CD3C
00000000
BD1F08A4
3DF9B4DD
BE51C9B4
3DCD36B5
3DC605FC
BDF29F5A
3E4FBCA1
3D974023
00000000
BE1DACEF
BE040FAA
3E4A74C1
BB97B716
BDB4087B
3E31871E
3DAAE891
3E091A33
00000000
3E3B8BF0
BD035CFC
3D306721
3E356430
BC98DE53
3D41560C
3E478F69
BC811284
00000000
3E40DA1B
BEA434A0
3E27E77D
3DC5FC13
BD47B500
3DC5E2E9
BE330271
3E34F11B
00000000
3D4613FB
BE65C465
3DE9F05F
3B9B4EA5
BDD4E65C
3D020FF5
3D824639
BE0E0221
00000000
3E75FBF8
BE01A8EF
BD14C67B
BE2F533F
3D1338DD
BE507703
BE540B78
3D1813F3
00000000
3DEA821F
3E01E29B
BE7BCF92
3D0AD6D9
3D3F998E
3D8BF89F
BE0EB463
BD3C9E31
00000000
BE12D730
BE57B02D
3E9820C5
BE6336DF
BE714F8B
3E113B19
3DE8A9BD
BD7F147D
00000000
3DD68E82
3E0DBB9D
BE2015C2
BDF4C986
BE400F34
3E3C2939
BD12725E
BDA8A7B2
00000000
3E1ADFB5
BDE41F64
BE0F58C1
BE0F9724
BB58F77D
BD126395
BE0A9542
3B9E8EE1
00000000
BE95AB9F
3E97E64F
BDCFFEB0
3E4FBFC6
BD2CF130
BDA664D4
3E11537A
BDC9DD7F
00000000
BE520B3D
BDC15352
3E807C20
3DE40075
BE1227D0
BDAE25C8
3E07A919
BC246CC7
00000000
BCAE6AAC
BE5055FC
3D04C547
BD878CD7
3DE1E8A3
3E36149C
BDEF177A
BD0C991B
00000000
3E813E60
BB13283B
BE53DAF9
3E2D1F1D
BE42D384
BE4157EF
BD771C97
BD40D222
00000000
3EB216E8
3E3B6955
BE6419A0
BDFB5E0F
3BBEE7C7
BE23E9A7
BE41B5C8
BE3460EE
00000000
3E6F30E8
BE2DBCA9
BD44410D
3D45F400
3DC788E8
3D0EDAA9
BDC199BB
3D914B24
00000000
3E7BB2FF
3E1087CA
BE605858
BE117614
BDFF2453
BD2BD4B5
BD83C5B0
BE32F512
00000000
3D74C7BE
3E947E4A
3E34C8BD
BDA92DF7
3E005187
BE2C814D
BE58A32F
BC964262
00000000
3DDA4DF4
3DE486AD
3C88A017
3E460392
BE184A51
3E162C34
3E4BF50E
3BA39820
00000000
BE0B8F9B
BE56C615
BE2906CD
3DE965F5
BE107D91
BD919BEF
3BF5D443
BB7B7C63
00000000
3D5A9FF4
BCDC09EC
BE8C87DB
3D9A1C69
BD36BC55
BC319462
BE32C732
BE0E18F0
00000000
3E17F5E8
3E6DF698
3D76611B
BE3744B3
3CF2027C
BE324895
BDDAD5BF
BE3875D5
00000000
3A9F1254
BE6709FA
3E79BB6B
3C80D5B3
BE077D0F
BA5607E8
3E00D6F5
BDE121EE
00000000
3D47508C
BE073DE2
BE359296
3CA6B50B
3E27D1FE
3E0C9321
3D9EF772
BD9180AC
00000000
BD5DCB22
BD31015F
BE17C2CA
3E11BB49
BE5821AF
BD6822FF
BD64A0AE
BD2BBC2C
00000000
3EA50F41
BC0DFC78
BDCAD653
3C81B5AD
BE0A658C
BE4070FC
BE2DC9C5
3E07381D
00000000
3E3EB895
BDB80E57
BE080A5B
3E508399
3DF190D1
3DBE6A19
3D6601BD
BDF8DD61
00000000
BE0D7C70
3D4F697A
BE0BE942
BD320261
3E4B2D0A
BDBF9196
3E06DEB9
3E1E7297
00000000
3E305FF2
3E1B1423
3CC1C20C
BDD8A655
BE218F82
3E36E8B0
3DFC853C
BDEE3476
00000000
BE36948A
BE1B3398
BDB22277
3C427BA6
BDBC7468
3E28B0D1
BD04C6A4
399AD935
00000000
BDDA1017
BD8C27CE
3E605037
BE27E2C5
BD86A543
3E0132F8
3E1FA8B5
BDAF3867
00000000
BE19C9D6
3C570967
3C6018DA
3D0510C6
3DFB35B1
BE40B34E
3E1022DD
BE4B3FEA
00000000
3DA76D1F
BD3126E9
3C394E6B
3E4F1D3F
3C22DC8E
BDD1C9F7
3CF7189B
3E18FA7B
00000000
3D526528
3E0DB6E5
3E339F34
3E03B8A2
3E0D5F9A
BE194EE4
BDEABBCB
3DDF4129
00000000
3E17E77D
3E9D568F
3D4EB91B
BD6FE6E3
3E3CEA29
BABCCFD5
3E133D6C
3DB7B9FB
00000000
3E41A2A5
BE011FD6
3EB61805
BE0E5365
BD3D4068
3D80218E
3DBA407B
3E2360D0
00000000
B8CB36CB
3E4DCE3A
3E471EF3
3D784282
3E480BED
38D48FA0
BE22806B
BDAA416D
00000000
BE0C4263
BD44C511
3E244567
3E24866A
BC6F614C
3DED527E
BB303715
BD6E8138
00000000
BD8DFE18
3E01A4BE
BD964071
3E0316E3
3D3790C6
BD67E58D
3ADCA9E5
BDB315F2
00000000
BD92698F
3E1485E4
BDDD87B5
BD54D0C2
BD1B5CE8
BE3CBCCF
BE541A26
BE1B7953
00000000
BD9FB770
BDABD8B1
BD9FEF97
3DFC6FBD
BDED7B63
3D90A110
BCC4B38E
BD776790
00000000
BD8342C5
BDB6CE1B
3E19F9CF
3E195422
BDB32D6F
BE516C61
BCD722C7
3D41EE4C
00000000
BDA16B12
3EC27ED8
BE732980
3E0A4873
BDB4780D
3DD10DBF
BE6C05D5
BE3CD20B
00000000
3D43B19B
3DA94079
BE47518B
3DF86A90
3DD23C43
3E4BE33B
3E054153
3E56AB9B
00000000
BE410668
3E19D990
BE0A8651
BCB1AFA5
3D07BA3E
3E365A14
BD8CFB4E
BE1B21C4
00000000
BE0BC16A
BD498EA4
BDE9AE4F
BD985F07
3DE02D17
3E041E15
3D7E5BF1
BC429CC8
00000000
3C409297
3E4CEE9E
3CE307D7
3DBB0CA3
3D3C2DE3
3E26E3B4
3E36E610
3D92E6D0
00000000
3D993236
3DFA56DE
3E1033E8
3E1EB67C
BD2B7D77
BC9216B9
BCE6FEDD
BDB81ADF
00000000
BD5E3AB3
3DA44CCC
BE037FBF
BE12F05A
3DADEB02
3DAD1A9B
3CD69DD1
BDAFB514
00000000
3C86B591
3D9DA8CB
BE3A4D6E
BB737502
BE1526D9
BE418330
3E49439E
3E12F449
00000000
3E576E1E
3E999AE9
BE881E04
BDAFABDA
3D655A2D
3E382F94
3CA76930
BE286445
00000000
BD98C99D
3BB96DB5
BD648429
3E1FB1E2
3E463ED1
BDB1D3AA
BDABC6D0
BD93E9EA
00000000
BE336BD3
3E5984A1
3EC3BA77
BD0ACEE1
BE76BA49
BE4C853C
BE6428D4
BD9A394C
00000000
3D46AEF6
3D613554
3E1293D1
BE2673C5
BE1616F8
BE273FB8
BE15100A
BCAEC03D
00000000
3CBB6E00
BD9BE320
BC59CB4D
BDBEF714
3E3C8FB8
BC692C7F
BE168D33
3E495E18
00000000
BB541ACA
BE41B0CD
BE535C18
BDBCC74C
BD9D8C53
BE2C100E
3D19DC80
BDF4A44C
00000000
3D102A4F
3DDBBE88
3E42CA58
3DF03FB3
3C5D660D
3E3140DD
BDDB64E0
3D19321B
00000000
BE27D1BB
3CB15C99
BC08B195
BDFBA344
BD87CC98
BE411234
3DA71C1E
3DB1871E
00000000
BDBA2065
BD712E5B
BDA12CF1
3E4F748A
3E189093
3D6AFA65
BE28CEF6
3E1B42CC
00000000
BE0DFC1A
3D193CE8
BE46E2EB
BE0C75C5
BE50CFE1
3D92C633
BE1C9646
BE46F502
00000000
BDD7079E
3E1B6E93
BC832DE8
3CFCD1AD
3D5E1F70
BD27C6B9
BDA40FDF
3D078ABE
00000000
BD0F5898
3DC46929
BE05568F
3DCDAC26
BDB15494
BDC1BBDD
3D0F8C2F
BD84F286
00000000
3E4D5065
BE44C9C9
BB73F382
BD784CC8
BDA5F46B
BB809DE0
BAE876CC
BE0F861A
00000000
3ECF59AB
3D9CC36A
3E6507A7
BE461A61
BE5919F0
BE781E47
BE2AAC54
BD065AA8
00000000
3D1F615A
BDACCEBD
3D9C8026
BC25A6EE
3D8FECA7
3E26F156
3E301EAC
BC7A1A0D
00000000
3ECF1822
BC95AD7C
3E57574F
BE30DAA1
BD040F8F
BE806F26
3DD84E40
BE710F0F
00000000
BD5A1D17
3E4742DD
3D129F8F
3E490603
3DCCC1CA
BD146796
3CE3FD00
BD05718F
00000000
3CE4B0B9
3E213661
3D2A29BA
BDCDF506
BE390F73
BDE3B257
BC89B1FB
BE25A5B9
00000000
3EB17B96
BE710CF6
3E59E94B
BE3C0379
BD68C389
3D988D60
3E0E43AA
BD5CE605
00000000
3C91B097
386212AF
BDF101B0
BE0306E6
BDD3B85F
3BABA017
BDA575DB
3CC788C0
00000000
3C523ACB
3DA821E5
3E3EDF61
BDDEF417
BDB95315
BD206317
3D3C29B2
BE0D4952
00000000
BE04D270
3DA0D456
3CD2FE3F
3E482ECB
3E0B8BAC
3CD2FB50
BD871137
3DBF0F82
00000000
BDA128DA
3E273472
BE0214AD
3E415A08
3E52AE8E
BDA671BA
3D3175C4
BDB6291C
00000000
BCB2D5AB
BE77B80B
3E8629B7
3CF7C88E
BD98220D
3D92CAF9
BE5881E4
BE52F556
00000000
BDE5FD05
BC4609D0
BE129069
3D4F7213
3C9BDD0B
BD9D531F
3DE8D328
BE1E9EE4
00000000
3E17F067
BD870A58
BE384168
BCDCB791
3DFE1E2E
BE43FAB1
BE283E42
BD62D1F2
00000000
3E281E8A
3E227E52
3E04280B
BC533C53
BD8C5CA8
BE725C81
BE3DDACF
3C88DFD8
00000000
3E68E326
BE248345
BC30D0EE
3E07980F
3E063B69
3DD33440
BE15521A
3DF6AC64
00000000
3E1FED63
3C8E0836
BD22508D
3B0D528E
BD377F43
BE493AB4
BE049B63
BC9D20A2
00000000
3E0682B6
BE3F822C
3E3AA3AD
BE3D388B
BE6BD8BE
BE4FF152
BDED6239
BDFFDE72
00000000
BDBBFD7F
BD162083
3DC4E31C
3DF933E3
3DB718F9
BD12E997
3E00FCF8
3DE686E8
00000000
BB57B635
3E791AB9
3C933531
3D582723
3E191106
BD043478
BB0F8DD2
BE30B88D
00000000
3E88C719
3DFBD1EE
BE2582DC
3DC7683F
3DAF6A0E
BE465669
BE1CE1C6
BB7F9B56
00000000
3E0E6B40
BE68522F
BDB04A30
BD74BB0E
3D4BC34D
BD55A808
3E3F6406
3E0A0770
00000000
BE0CD035
3D2BB50A
3DF9B1B8
BD3744A5
3DB64F3A
BDE2B303
3D67165A
BDA3085E
00000000
BE2B8C76
3E260957
3E0E39F7
BDAFE0C1
BE362AA2
BE208701
BE404C8C
BE12BBAA
00000000
BE0616B5
3E4234A8
3CC212CA
BE22834D
3DCB375E
BD51C78E
BD6C5EB3
3D52FE0A
00000000
3B539818
3E90A9BD
3BD948B1
BD2C95F6
BE3AC4F8
BD6DF896
BE052114
3E487B14
00000000
BC43CEF7
3E04EF89
BDD47E07
3D745EAC
BE1D740C
3E3D490E
3E47D524
BD2A4F0E
00000000
3E48EDE5
3E50E5E6
BDD6C7A8
BDBAF138
BDB07E68
BE330E3D
BC12C57F
BC8904C1
00000000
3E2254A4
3E458794
BE2E0CE1
3E2412CF
3E04BA95
3E517F41
3DE6D9BE
3C5DFCA0
00000000
BE1ADC90
BE309635
BD5903F8
3DC084F6
3D7CDAB2
3DA3BF8D
BDB72368
BD879F81
00000000
BE4D3240
3BBBFAC2
3E21EC0B
BE04E22A
3E0BD33D
BE26E5CD
BDB62DEF
3E4C9FB6
00000000

