3B94FCE7
BDC0E256
BD17E4DE
BE1E69AD
BCFA5D94
3D314156
BD8C098E
BD452172
3D1702CC
BD914F2D
BD8C11C9
BD8C64C8
BE1F4D7B
BC9E3037
3E0D1676
BE18537E
BDCE2974
BD39F7F9
3A9B8E66
3E553D64
BD0A2A25
BD47C9F9
3E205B3A
3D1A7BAC
BDA8FD85
BDD80A9E
3E15082D
BC0C9A22
BCCE0511
BD2DBCB7
3DD2FBA0
BE270585
3E1D9125
BCCBEBC7
3DB0AC3B
BD91F8FF
BC62F9CA
BD588D45
BD469A18
3D769263
BDFEB639
3A039974
BD0DD2A1
3D5242F9
3BD87207
BE1B2703
3ABB2708
BE0EC02F
3C6D6B3D
BE40D994
3E14840E
3D2A4980
3C9BAB22
BE23779F
BDDBB7B7
3D2CEACA
BE0669CF
3E0182AA
3D8005AA
BDA2E6B5
BCD123DF
BE222B39
BCC74539
B7A46AAE
BC0D7680
3D35D42D
3D91BBB4
3DF950B9
BE1F80DC
BB0CFE2B
BBDC1225
BE3ED6FE
3D26F38A
BD8410B6
3D4E2725
BE361D00
3E190321
3D34605A
3C849E96
3AB2E6C8
3E199568
BD944C10
BD908737
3C717812
3E401648
BD8136DA
BD30FEDB
3D21FC74
3CABD2ED
BC044CAB
3BAA7219
3E1A7B91
3D29FF5D
BD04CED2
3DF6616B
BD80436C
3E590710
BD5FFAC2
BDE0D802
3D3F8F12
3D950904
3DB5E28B
3D9C976D
BD270909
BD9AB9E8
3D050A2B
3D353155
BCAAF039
BD3BF600
BD223E69
3DB0AF6D
BE08D2A2
3DD9CCFB
3D010A21
BCF92D7E
BB8E91FF
3DA887D1
BD6DDBC1
3D8711F2
BE17EC35
BD3C98BD
3DA9F0F2
BD8E73BE
BDBA9791
3D627002
BDF07D0B
3DB21C47
3D4F7CC5
3C18533E
3D9C9D32
BDFE8251
BCD72EBB
3D30F769
BD314B9D
BE48B114
3D62FE9D
BD6EDE3A
BE231A09
BE42495E
BC5AD67B
3C4CF8D7
3E0E8A2F
3E2730C6
BD7162E4
3D545430
BD193682
BDD7EED4
BDA200DC
3DDBBF94
3DA186B3
3C89DD9A
BC4A3685
3BC9C053
3CED8468
BD6A1314
BD56996A
BDFD10B2
3CED11B1
BD426CF7
BCB4C85F
3D986CDE
3E03ACD6
BE122D95
BE096207
BD4F1BE2
3BBFF3E1
BCA3091A
BE14827B
3E295704
BD86E9C9
3D2CDB2A
BDF1A976
BD8D9770
BDF13A50
BE410CF6
BDBE9B89
BE3F7F8D
BDF7CBB4
BDCD338F
3D656C51
3D8BC9E8
BE303EA7
BD006184
3D241FD0
3D5FC86D
BD798D8B
3D28A47F
BD0FFB05
BBE1B4E6
BC20CC53
3E00157F
BD832922
BDF2862F
3D962E5B
3D54D2C0
BE07EC35
3E13C2DB
BE299C7C
BCD54E10
3D09EE61
B94E5563
3C72A09C
3D4E76BB
3C88EA55
BC1E9C4D
BE178705
3E4780BB
3DD33B10
BD114694
BCC5227F
3E07C287
BDB339A6
BD9B0EE5
BDB18EFC
3DBAA476
BD480D9B
3E3D9408
3C921CCE
BC038F21
BDCE6080
BD7352F9
3D386FE9
BDF8EB03
3DBFBDA0
3DDEBD90
BD836362
3DC48098
BE39B670
3D40A7AB
3CBFC075
3C47B2B2
BDAA1F3E
BD231F04
3DAF1C25
3DA4A44C
3B984BBC
3DA51223
BE096E9C
3DC443D4
BD6B1085
3DC2914D
3BE16C57
3C79F7A8
BCEF7D31
3B862CAA
3E25D7CB
BDF01A7A
3D23E92E
3D90809C
BD25A7AA
BDFDB2B3
BCB83998
BE518C5D
3DEAA3AD
BC84A409
3B494A0B
BD755A55
3D6B46F0
3C922094
3DFEBB77
BC0A7BA4
BD920AED
BD598740
3D81DBA2
3CF89756
BDE918E3
BD8D9DA0
3D77C0E7
3E03E682
BD91DF76
BDB48487
3D635661
3E0B4DCF
3D5AD71C
BCCF0018
3DE8626F
BD9BC416
3CECFE66
3D924D90
BD9FB9F5
BD8CBF2B
BDE304CD
3E070A3D
3DA3731C
BC28E277
BD34CC90
BE153B08
3DF01E26
3D28C642
3B8C5CC5
BD97C21C
BC9BEB18
BD05C6E9
3DD2D3C8
3DD97354
BDB93632
3DAF9DF5
BDC24EB7
BD009C58
BE03E5FB
BD63FCCA
3DBA8926
3D6A114C
BDBEA7A6
3D069596
BC54866A
3D2CC972
BD269545
BD878119
BCB8712B
BD983B2A
3D27E140
BCA8E1D6
BE1B05FB
3DD625A7
BC7ADF9A
BE09667B
3D36FA32
BCB0A4E3
3D2A3528
3B2BD281
BDA0644C
3E2E2479
BD982D7B
3D7EB796
BD69E201
3D5FD893
3BFA9FAE
3DF543AF
3D3743B4
3E02CFD9
3E052114
BD9F3EF5
BC25E2E9
3DE99B6F
BCF04C2E
3B651ED3
BD198634
3DB4799F
3DC3230D
BDF75EA6
3C5827DF
3D5C2118
3E06DB94
3CAB8BD5
3D051797
BBF08727
3D2D900B
BD7C1468
3D8D9AD8
3D887684
3CABF049
BE047F99
BD1F09CB
3DF592DA
3DD26D8B
BDA05B98
BDD37D20
BD6D2425
3C68B48A
3CEBB15F
BCAA0A2A
B9F033B8
BCE2FF09
3DBDFAA2
BE12F76E
3DEB51BD
BDA86735
BE0938DE
3D18C4A2
B9A9F268
3C807612
3DF0EFDD
3C9518CC
BE180347
3C76E173
BC6DDFD7
BCDC7CA3
3DFECBB8
3C162A2E
3E02FA0D
BDF800A8
BBBFA69F
BDC29E40
3E07B678
3E14A7F8
3CF2D5E0
3D145522
3D3CF2B5
3D2BCD28
3D306A46
3E08ACE2
3E3C62E5
BD6BB327
3D75B01B
3CF97AE0
3CC8E0E5
3DEA4873
BDE24EDF
3E0A2F06
3E052B4E
3D4D1202
BDAB753C
BD27DDAF
BAA0A9AE
BDB7DF35
3D02F7E7
3DAC4C67
BD7CBB07
3C1E4ED5
BC9203D9
3DF132F8
3D8BBC54
3DE8DC98
3CA39ED6
3DB582F7
BE2B1748
BE0C66D3
BD9A90CD
BD1EFC95
3D6196BE
3D456331
3E0F0E4E
BD20332C
BD8D2A98
3D125F63
3E0C6046
BDD652BD
BCB8EA2C
3DD0B0F2
BD603C15
3D413A0C
3DA04EA5
3DA9D4BD
3DBB303D
BCE86E7E
BE288872
3D562937
3D4616EB
BDDB3FA7
BD3F7A69
BCACF3B4
BDB7B7C8
3CCDB311
3E0A0C28
3C984AE5
3DC01AD8
3CFE0F9B
BCB5961A
BE1B13E0
3CED3DF1
3D178507
3D873168
3DBA318A
3D0ACEC6
BBB0D1DA
BD482B98
3E0F950C
3DE32EBE
3CD44C88
3D39F773
3D954A65
BE4424E6
3C4C6F44
BDA63411
3DFDBF48
3E221C47
BD4C6C55
BCC4CFDE
3E373A36
3C6CB535
BD39D437
3DC9B8CC
BD6BEB40
BB5B3DA9
3DD1843C
3CA30695
BDE618CE
3C195B05
BE070585
BE531338
3E1514C2
3C7B2901
BD9B9BC5
BD47066A
BDCE5A36
3D984422
BE1EBA28
BDF8E087
3DC09FC0
BD43B9E4
3DABBECB
BD95FD05
3E26A551
3D98D79D
3E11CF35
3D863A5C
BE0C8CD6
BDB0F16F
3DDEF06B
BE394467
3D41FF7F
3D6C25C3
BDAEA1C7
3DA0990A
3D98C289
3D2267EF
BDE9F9CF
BD9C78F7
3E25D639
BD9CC002
3C3ECA40
BC4C4411
3CF0E28B
BD080B67
3D43670D
BC2546E1
BD141E65
BDB5EC4B
3DC70AF9
BC9C178E
BDFE9A70
BDB4435C
3DAC2191
BE09CC32
3DAE74BD
BDC1BBCF
3E0508F6
BC4F4624
BD538F7A
BC0681FA
3D14AFA0
3C41DF33
3CA8E821
BE13C6C9
BD6AFE46
BDB6D803
BDCD92FB
3DBF9973
3E19103D
BCA7EE26
BE0A3487
3D71D81F
3E1EDEDB
BC0157CF
BCF4ED48
3D6DC967
BBBDB6F0
3D696EC4
3E059792
3D8FF328
BD1EBF3E
BDEFDE2F
3BD60D7E
3C7517DA
3D7DF040
BCF82F1B
3D8A62AA
3DD0A351
BCB9A8CE
3DED5843
BCE36A9E
BDB2F995
3E008701
3D607A0E
3D0B367A
3DA0F437
BE074320
3CAF2DB5
BCF7F7BE
BD8DF6C1
BC3CC583
BD6654FE
3D4A3147
3D38F43D
BD517416
3DE9C4DB
BDD9999A
3DBAF0DA
3A59887B
BDB4D12E
3C97CA57
BE0AF6C7
BD5EA5A8
BB4DB0A2
BDCF69CB
BBF05817
BD8D4D83
BE33EFF2
3D0D65FF
BDEAAE29
3D22CFD9
3DC459B1
BD35D33B
BC571A99
BD56FC66
3DD3825E
BD2EE378
3DCAB382
BDE26352
BE0276B8
BBAD3619
3DFC52E7
3DB433AF
BC35F296
BE0A1EC5
3DCA7313
BE19C843
3D9BC607
3AB8B3E6
3DDAF859
3DA34359
3D9AACDA
BD5561FC
BD3F94BB
3D46E90D
BDCC57D5
BE07E6F7
BDA5C132
BDF48883
BD5EB166
3DD502AC
3DD0A351
3CB1550D
BD00C217
BC62F1D2
BD4317FD
BDBCDA61
BDD8AC19
3DABC855
BE16F651
3DE816F0
3D230C8F
3E0CDF26
3DD531DB
3DC015B5
BD62BF98
3D8FE5BC
BD20ED9B
BD5B828D
B9CAACAE
BDA2A0D2
BC8B9311
BDAD17E1
BDB99D7B
3DE9A4DF
3C5E5520
3DBE76AE
3E138FBD
BC2CF2A7
BD8081D0
BD88E7C3
3D82B3A4
3E1AC711
3D53E631
3DE31F04
3CFB6A04
BDDD627C
3DE382A1
3E07ADD1
3DEAF683
3DCB72B8
3DCF7879
BDD7995F
BD800559
BD3670BA
BCDF0259
BCFFE345
3CBB0418
3DE8D328
BD8D87B5
3E126F1E
3DEB2852
BC2D369A
3B514A8B
3DB3477D
BE158EEB
BD6DAA78
BD8E73F4
3DCB8B0B
3E103DDE
BC70FAA9
BB41597C
BDEC8C50
3DE031CF
3C855722
BDBA80DD
BCF6CCB0
BDE22A2C
3D1E2295
3DD2178F
BA5B789D
3E1C3A00
3D495564
BE0A5ACD
BE0BFE3B
BE08E044
3D9B891B
BDE32010
3E258149
3DD7763E
3D4C4A41
3D7CB35F
BE18FCD6
3E45E02F
3D8124A8
BD8D8B89
BD6F7A41
BD2314BD
3CA1B740
BDFEC786
3AA28ADA
BE1FB9BF
3E066CB1
3B007ABA
BBA1A871
BE00BAE9
3E072B45
3DF74688
BE08023A
3BE064C5
BC0FA87F
3D2B4C7F
BDD4F1E5
BD260C03
3CC6A678
BA4283C9
3D48919F
3D2F2EF7
BCA58850
3DE6ADB4
BD897A4D
3C11E154
3D8FEAD2
BD4190A9
BE1616B5
BC0E7584
BD7AD33B
3D3799AF
BD1B8851
BD17297D
BD9B8306
3DA954F8
BD9EEEB0
3DCD25EE
3D94AF4F
BDB17CD8
3D6D24C7
BDACBA66
BD017028
3E00563F
BD95903A
3BDB7ABB
BDBB2A86
BBFEC33F
BB8479E2
BDEF5D35
BD37ABB9
BDDCED0B
BDDBD274
3DEA087D
3E020D13
3D777E01
BD53C2DB
3D117A10
BCC3BA6A
3D3D1D7D
3D8746A3
3CC44A12
3CBF5A89
BDE7607C
3D433DA2
BC68D9DE
3E2E1C9B
BDDF609E
3CE82808
39D92314
BD36030C
BBF42DA4
BDDC08FA
BE0593E6
3E43C6C9
3D767FEF
BD980007
3CD9EAC3
BDB7ADD1
3CE2A689
3C7E8A4A
BDE19F3C
3DF3BAFE
3C8DF58C
BBD19549
3D4E1D65
BD37E514
3E0962D0
BD3864CB
3D2B8C91
BD98CEC1
BD75FC8C
3D30B7DE
BCB0F429
3DA130D2
3C162CD3
BD89C5F4
BDC81685
BDA0CB44
BD7D7C98
BE32D624
BDE333FD
3DF890D6
3E120685
BDAFEEE9
3DE9A911
3E065ECC
3E31904B
3D6BCFE2
3C650CCA
3DA8A647
BCB0F678
3D987A2F
3D09E287
BB850360
BDE9E237
BDD2830A
BD079662
3CBF9DA5
3CDA5F5D
BE326D05
BE04B839
3D8A911E
BC86A063
BD51FDA9
3DA1B8C5
3D1F5F41
BD814B74
BE0111AE
BDCD19DF
3DDC0C20
3D4A23DB
3B9BA827
3D651F74
BD561F26
BC529F75
3D812F90
BDC9C4B2
3DD9D7FE
3D791BFB
BDBD83B9
3DB00DAF
3DC885EE
3DC53CEB
3E1C282C
BD38DB2E
BE0397DD
3DCBF4BE
3D5C3A79
BE0D0FA6
BD0EBBF0
3D960906
3DE8EEF2
BDAC7813
BCEB2DAB
BD7CF158
3DC874FF
BE271BCE
BD06F461
3CFE7155
BCE0C0D5
BE0E7642
BE374470
BDFFBF83
3D2D10A5
3D939383
BE0B9C30
3A868540
BDAF469D
BCDE2D47
BDBA9CEA
3B0CB687
BD193759
3D4D3756
BE03BD16
3DA331FE
3E29A49C
BD7B3EEB
BD23EEF3
3D0F4AC1
3CEB2F23
3E3B10BA
BC8EA580
BD0F92E5
3A9FBF23
3E0EA39C
3E037154
BCF770E5
BE0979E1
3D685371
BD044F85
3DC637E5
3BC05154
3D6EF292
BD619C32
BDCAA6C5
BCDC7871
BDB177B4
3D697E64
3E01D96F
BDE0B5EE
3CC53198
BDBA27A1
BE038A3B
BDFAD18D
BD93613C
BE08444A
3D6335FB
3DFD77FB
BD193F01
3D5647D6
3D94B6CE
3A937D20
3CB555ED
3D6412CF
3C5157E1
3D84A5DF
3D1F5BCB
3DFDC726
3DAE99E9
3C92E911
BDCCD6C3
BCDA6506
3DDBF402
3D9063B8
BDA04D55
BC8C7483
3E1651B1
BD5F9908
BDCD24E1
BE1A415F
3E09AC36
3DC8C983
BD0ED2CC
BE0D3BB0
BC916583
3D40AD1F
3DB753DA
3D7881D7
3D6B7D0C
3D48B886
BD4A62C5
3DBE2677
3DA89A89
BE0C5AC4
BDB45CA1
3D3E8B20
BD6DD7FA
3DF7835A
BDBF053C
BE11F2DC
3CCD702B
3C11C149
BD9033BF
3D3A8303
BD2FB997
3D38EE5E
3DD36263
3DE27957
BD681A4B
BC9A6323
BE1D78C4
BE0EA0FD
BD0CB07D
BDE66B1E
BD9C0AA8
3D00A973
BE1AB218
3D5B357B
3C2EC362
3D4B4289
BB9F4971
BCEE17D6
39A0ED31
3E056649
3DAE9CCB
BDA6281D
BE37414A
3D9A1AE4
3DEB5D46
3D949823
BE062175
3BEB8EAF
3DD5F139
BE24DC66
BE07A17F
BDD739F3
BCE0C2EE
3D9EC8BB
3D100D94
3BF0500A
BD8BE22E
BC1A4B70
BDA065A9
BD225977
BD89E5AD
3D5D4896
3DBE92A0
BDDEFFA0
BCF3A366
BBD422C2
3D3D36C2
BDDED8D3
BE0DC487
3E00B5EE
3D86CBB1
BC898A8E
3D8B6905
3E15AF6C
BD839E1A
BC62A363
3DC90D17
BDFC3C5C
3D1506A8
BDA521F8
3C9FD263
BC15FF1B
3C321B71
BBC613E1
3DA4D2A5
3DAD1237
3D806F0B
3DEC4C59
BDB482F4
3CF9771A
BDFE5FB7
3D467092
BD9DF9CB
3C85DB0B
BD9C1BBF
BDCC89D9
3CEF99EC
3D51D423
BE0B5FA2
3D851D33
3CD2A0EC
3DEF062D
3DA6A6A0
3D489CBC
BCB068E9
3D9C99F2
BD93745E
BE11F1D0
BDD4AA97
BCE2BC58
BD0C0D54
BC53F6F8
BD8295EA
BE04152B
BD5BCBBE
BCA0E695
BD3C5429
3C88F5A8
BD6B53D6
BDD5E397
3DB20719
3DBA9C20
BE14F15E
BDC0C6B5
3E328416
3D524E9C
3AE773C2
BD262747
BD00A958
3DB11FE3
3D578720
BBC70E06
3D336F63
BD9667EC
BD2AC449
3DB325D5
BD8801F7
3DBA0C86
3CB086B1
BD2EDC06
3E15E2CE
3D991A40
3D6CD4E0
3DE527A2
3E240075
BD9D2ADB
BC0190CF
BE08051D
BE2FE2E7
BCEFCEFB
BE0C1B11
BE0C4A84
3D91FBE1
3D197B4C
BCE5DA85
BD651DC7
BC74FD02
3D686BDF
BDE59C06
BCEEF368
BD972DBC
3C87DFFE
BDAE1A4D
BE101712
BDD89939
3D89E867
3D8D7668
3BD2CD2C
BCF7DC0F
3D86E610
3DBED37A
3C4A1273
3CF26CCF
3D95C960
BBF99EE8
BD89A9CD
BD014B5A
3DE6F47B
BDED594F
BDB576A5
3D3CEA6C
BD3332AD
3DA2419C
3D987D1F
BDDB04EE
BD0C0039
3C8F82BF
3C1FBE01
BDDBDA51
3DE3161A
3D94BC93
3DD52B0A
3DFA95C8
3DDEFAE8
3E2A9EB2
BCE9A9B2
3CBD325B
3D735562
BDCE4218
3D0430B1
3C42B94E
3DD5147F
BE1273D6
BC25CC42
BC93048A
3CF838F7
3DD22186
BCE19ABA
BCB325C7
3D4059F8
BD89642D
3D99394A
3D00EF9A
BD6346F7
3D43B19B
BE0FF089
3D3D1CA6
3D6A1B77
BD760B3A
BD4810A5
3CD45191
3E2B0963
BBEEDD2D
3D9EBB5C
BDB400D3
3DB8354B
BD8DE8C1
3CC382A1
3D5F08F5
BCC9E8ED
3DFA3550
3C8CD8F7
BD37E5B5
BC9924CA
3E04B1AB
BE487443
3D83E949
3C8CC9A7
BC868703
3DA11673
BCBA7A1A
3E1E9681
3DB6FE14
3D51CFD6
3D27AE9B
3D46556A
BE0EDFA4
3CB1E372
3DE71151
3D9FB0D5
BD623564
BE2D5736
3C8B92DB
BDC5C3B7
3C53EDBE
BC166C53
3D9079CB
3D37016F
BD05436C
BCAED5A1
BD1C04C9
3E05D91B
3DB1FD4B
BE1CF56F
BE279BBB
BDF24E9C
3E0D26FA
3E1FE7E2
3DA85B26
3D2A4F44
3DA81E11
BE132592
3D09FA1F
3D1890D6
BDA0B872
3B95761E
BCD0F80A
3AE2475D
BDBFAF50
3CB10632
BE069878
3DC49782
3DEF9F45
BD0D68D4
3DBF5F5C
3D99EA07
BD903ECF
3DFA76D9
3E0F9CE9
BDF71865
3C5E46DD
3DB9954D
3D249F37
3C916DB1
BC6F20B5
BDF52B91
BDD96207
BCF43775
3AFC5F0C
BD9317BA
3D865534
3E03BFF9
BDC21E1D
3DE779A7
3DA043D8
BBA393AE
3DB1C681
3D9CE380
BCD1CCB1
BE0157AC
3D33631F
3D4D8F85
BBFFEF64
BD1A3E3A
BD6395D2
BE164239
BE0D36B5
3C87A9AD
BDF7D630
3D82F281
BCE85CE1
3D65F725
3D9F8A31
BD8E7891
BDB2FA43
3D9C7F5D
3E01A544
3D7F1FD0
3BFD5022
3D09BD4E
BE33D3A2
BC4DA53A
BD24DCC4
3DF3CBC5
BD7B9CDF
3CA6A4E5
3DC9E40D
BCB72A6E
3C8AE932
BE05360D
BDF7C45D
BC157822
3DF6AA4C
BDAC6328
BDF2BE49
3C386247
BBC0D26E
BD28FA95
3E021FB0
3D297834
BDCFAD6D
BD4D87A8
3D90818D
BC3B0E5E
BC455B54
3DBC56AE
BDBDEACD
3CC98C05
BDD208E1
3DB0885E
3E170436
3D82B793
3CFF7D8F
3D9D6A16
BD46031A
BD2569E7
3DAE963E
BDA19074
3D403687
3DBD7DF5
3E201E69
3E2C42EA
BD08E242
3DA0AFBE
3D0F7B18
3D2E72A4
3CFE6F3C
3B0C3228
3C2CB139
3D9DEAE7
3DB497C5
3DB0D611
BBB27BA8
3D34F26B
3DD51E75
3E1EC2CE
3DB05B2C
3DD3AA37
BCE59F2C
BE05931D
BD4F8DF8
3DA2DFF1
BB6F8D97
BCA0BF93
3E115619
3E39BE90
BDC779DC
3DBF6223
3D62CE11
3E011516
3CE47489
3DCEE06E
BC645798
BD70D1FA
3DC8F78B
3D90EF2E
BDA40556
3D1E5AFF
BD9D8E5E
3DE491B0
BC1B8B57
3D691A25
BA9C3DE4
BD11EE90
BE0851EC
BD114AFC
3D4E0B26
BD70FD7E
BD0D369A
BD995407
BDE132B5
3D97617B
3DCC4CED
BD53E9DD
BDAD0884
BDD22C88
3C0DB265
3ABA7C3D
3CFD98E8
BBECDF67
3E35015C
BD93146D
3E01E604
3B2215EA
3DA02463
BD23900D
BD11BB13
BD46D91D
BD878F40
BD51FB40
BC9E96C4
3DBC65D4
BD5C9837
3D8CDB7B
3E01DB01
3C59062C
3D42B6C9
3D3F1C76
3D832CCE
BD920C07
3DF3929F
3D1FB7DC
BD287916
3D83EB54
3DE67621
BCE0DFA9
BD45A0BE
BD823026
3DB5F0E8
BE03AD9F
BD55AF44
3D8F5093
BDC285B7
3C8B0C6E
BD31CB8A
3D9627BF
BE0B5BB4
3DC1E7B1
3CF384C7
3DFB3FA7
BD3EB2C3
3DEECFA7
BC9A7C4D
3D76EF15
BDA3A3B6
3D210A21
BDAE1F8B
3E17CFA2
3C89E4BB
3C8F0308
3D8A77D8
BDD2146A
BC8248B0
BD129E9E
3D5F9C63
3C1B4CAD
3C61551A
BDC8695B
BD84A277
3D893759
3DE1EABC
BD8D38E8
BDBA8E9A
BDA37974
3E02CFD9
3D12797F
BD819B4E
BD860A05
BDAA97EF
BC2DCFB2
3DD691A7
3D828912
BDBE2CCF
BD260D45
3DB5F550
BD9DF754
3D2F5A2B
3DA0F5C9
BD23E74B
BDE2DC6E
BD709E48
3D84771B
3DA11CF3
3CC1FC5A
3CB539D3
3C29DB30
3E154D62
BD2DFBBC
3DBF8FB3
BBC4CDA5
3D23C064
BD9DC301
3DB7A31F
3DE5B4AB
BD56A239
BC5E1636
BC9A5C6D
BA194344
3DA8BE58
BC294BBE
BDBFE020
BDB7BF62
BDD42C3D
3DF6F199
3BCA247C
BDC7E14E
BE032A8D
3D7BB293
3C24CFC3
BC592C57
BCF7E0AC
BDB378FC
3DAEA43D
BDB7E8E8
BE03F24E
BD6383FE
BDEC300A
BCAFD007
BCB9DC2F
BD2F8F6F
BDDCC4AC
3D3C9EED
3DBB644D
BE01904B
BCDF8891
BDA28F92
3D545D85
3CA3F53D
3C9F142D
BD5FF980
3CC7F95E
3DEBE9C9
3D78892E
BDECE033
3E040896
3DF0CA1D
3C2423CC
3D934521
3DC2968B
3D716B47
BDA32732
BD895FB8
BD341B0A
3D9E26C7
3CC1EEEE
3D060716
BD26D770
3D25C9BE
3CDE66F3
BD9FB0AD
BDD210BF
3C9D1626
3DC7472A
BBC8FB5C
BCCE88C4
B77F0381
3D351C77
3DC6743E
3D09685F
3CA13829
BC41878A
3BCF3E41
BD86593E
3D54B041
BDCF038E
BD13EA2D
BD9D86D1
3D653A4C
3D5250B5
BC8F4F94
BE26A2F5
3DD211CB
BE096F22
BDE2EBA2
BDA0229A
BDB1AE05
3D3673AA
BD023FAB
BDD5CD0C
BDECDD0E
3B8031FF
BD5FEF39
3C52333E
3E3068DC
BC9487E2
BD3FA6DF
3CA10CF6
3D1FD1A7
BDB19F22
3D3EEB63
BCEEA2E0
3D4B829A
BC1929BD
3D104909
BD979BC8
3DB268D3
BC332E96
BC7D7FF3
3E0C397A
BCBE751B
3DE41DD2
BD84ED55
3D8F0B1B
3BA5D5A8
BC823748
BE03137B
3DE56580
BD0B9A4D
3AD2F382
BDF4E6E2
3C628E6B
BDBF5DA1
BD84B68B
3D4EF63D
BDDD9A0F
BD900757
3E4E2D62
3D4914E7
BD977E6C
3D0F4D7B
BB916909
3C12BC30
BD258271
BD0D9A52
BD4724D2
3DB79DD4
3D23C85C
BD370FCC
3CA57B85
BD31C9A7
3CA251CF
BDEA8D22
BDF042D9
BD8D482A
3DAEDFCD
BDDB1F25
BD3FB5C3
BDCF4B62
3E34F5D3
3B8CD1B5
BD285447
3CEF5E27
3BEC1DE0
3CC8FF4D
BE26E2A8
BDBE0FA8
BDA105C7
BDE25072
BD9C42A6
BDD8F367
BD609B16
3E20BFA1
3D52AD82
BDCAC2EC
3DA44C96
3E084125
BD2EB0D3
3DAF7B5B
3D99AC87
3C72AD31
BE070BD0
3D1FF477
3D9323D7
3D8B931E
3D47749E
3D93A952
3D51D3ED
3D9459B1
BCA202F5
BE3958DA
3DC9F044
BD1A31DA
3CA37CDD
BE01D25B
3CD091B3
3E182907
BD1CC7B7
BE07B635
3DAA4716
BCDAB44C
3B14CE59
BDE9949F
BE125FA6
3D941DB7
3DFA7D24
BD898C7E
3D8F2E64
3DB0CD50
3D0588D6
3D9A42AF
BC9102BC
3DACE53B
BE003793
BD66C7B5
BAB7CEB9
3E0478C8
BCF23F17
3E120360
BDA74BFC
3E2E835E
3E1CC3A0
3D59A78C
BD03650F
BDA22340
BDBA5417
3DFC2870
BD43E7EC
3D8E7112
BCC791FA
BCEB11C7
3DD92296
3E0E807C
BC194038
BE0FAF86
3DC0AF96
BCE07D4E
3DFB8349
BDD00DE5
BC6620C6
3D6634B3
3D69D0CF
BD4DD342
3E093C8A
BABD89B9
BDA4E641
BD85F296
3D84D7E4
BD396BFD
BE1748E4
BD505136
3BA7889B
BDE59C8D
BDD89E77
3D4D4AD7
3D946A28
BDF5D0B7
BD86EDE0
3CE02280
3D68B206
3DD57471
BDE490A3
BC4E53B6
BC90C290
3DE1A1DC
BDA3A04E
BDC06DD7
BC3F0D5C
BD326A66
BDC1183B
BE08AF3E
3C10C616
3E0D7907
BE10F8C6
3D0858CA
BE1CDC44
3D5B8455
BC7A3550
3CDE7B4B
BDECA362
3D145E0B
3DA09B8E
3CB6E6B1
3D4D80F2
BD79CEF9
BE0F0996
3DD6E697
3D6E7BF9
3CEA19AF
3B92F322
BD142AAA
3CAD3E5C
BC94CE59
3D42877F
3E419C5A
3BD1635F
3D9FBE41
3D3CAD15
3E09B23E
3E21C2A0
BD680212
BD9FCBBA
BC3188A4
BDBB4F2C
BC23E624
3D8DC93F
BDE399B3
BCDCAE57
BE0CDD0E
BD25BB96
3DABD8B1
BD356862
3DB4F441
3D973C85
3C27D88C
BB9A5C8D
BC83B561
BA737BFD
3DB6499E
BDDC4652
BD748C64
BE0CC74C
3D9AD305
3DD363F5
3DA37289
BD5B7125
BDBFA179
3DC40F31
BD96946F
BD6BEE80
3DB5951B
3BFCB1C2
3D4BBB70
BCC30DD1
3D205880
3BA56641
3C438BDB
BD08231A
BDB01FD3
BCC44722
BDB8D709
BDD7C808
3D13DD47
3E056C94
BB801E73
BDF605AB
3DB85851
3DCA444F
3D10BB03
3D187E7C
3D7643F4
BCFA7DAA
BDD3D9EC
3D9C65D4
3DF069A5
BCFBDFE0
BCAA7C0A
3D9212E5
3DA9E55C
3D9FE1F5
BD851175
3D9DD69D
BC0E47A1
3C24CDAA
3DD2830A
BE01DEAD
B93BEA51
BDCEAF25
BDB2DBCD
BD540A79
BCEE1DB5
3D817226
3D8D042A
3D86EAC8
BD2C0D54
3E1E1C9B
3D62D20D
BD747934
BDF0446B
BDED65E4
BD857F81
3D79608F
3D6C2664
BB3DF544
BCBC61B0
3D4DD44F
3B946D8B
3D85C1FC
BC579512
BDEE2DA5
3CC44FF1
3D025F05
BD15AF44
3DDC8B00
3DDC10D8
BDBC953A
BE3B3461
3E230C67
3D646BF0
3D86837F
BD095B43
BD133C38
3BBD013D
3DEB9021
3DF7457C
3A5C9D69
BD0DF4B5
3E0A5376
3DE44FA0
3BD8BE48
3D9E1EA7
3DF01217
BDD00368
3D97B360
BA5F9504
3D0B693A
BC92205E
3DAF99DE
3D3F7A84
BD55F769
BDB96AC8
3D8FD403
3DBBB759
3CCDE6DE
BB04B053
BD1E2916
3DCA71A9
BD454D62
BDE0535D
3DCA0316
BDFDE8B4
3AEF9AD8
BDE6455F
BDFF7C67
BDE92D56
BD8F5035
3DA3E286
BB9D6A74
3CB76A2F
3D121F88
BDE95183
3DCC5BB6
3DE412CF
BC2C26CF
3D442579
3DFB4891
3E28F0C7
3E15EB74
BD5B7B00
BD7AC472
3DD757D6
3D0DDE95
BCC7E613
BD8440AF
3C2E05CD
BD36F560
BDCA1032
BD6BF2E8
3C3551F1
3D28A083
BDA1B201
3DFD55E7
BC4609D0
BC9B3AEF
BDE16617
BD7840EF
3D0F79F1
BE1DD4C7
3CF7C4C8
BBE8BF1C
BDC2D2E3
3CD4141F
BDDEA0BA
BAD7299D
BDBF3740
3E40CED5
BD9E93E2
BD70635A
BD5D2D6D
BDD45522
3DCFAEFF
BC9A4B05
BDF49D7C
BE01A501
BCFC6DDA
BCAEF5B7
BB8EC682
BDD312B2
3C5A0092
3CB998DE
3D262945
BDB3DCCF
3D8DE6B6
3E318D69
3E19029B
3DED8905
BC5F0549
3D881D05
3E10999E
3CD0441B
BE04A7B5
BD80CFFC
BDA171C8
3C3B10E3
BDBE3D02
3D9C1392
BCE47F3B
3CB802DB
BD776F02
BDCD8772
3D0A9139
3D55ED58
BD294234
3D122E86
3D6CA9FD
BC88E079
3B60D212
BC3C664D
BC913C68
3C50F2CC
3DDBB385
3D60BCBE
BD1DEBF4
3DE3736D
BCE0902E
3D818109
BDA4DB24
BE0199FE
BD6C2416
3C6231B9
3D683D36
BDD4B05B
BBA0AFB8
BD5EAC93
BDADB8D6
3D2E1AC5
3CAFC3A8
3D40E7A1
BE08AEB8
3C87933D
BD495960
BD9618B3
3D956133
BD623DE3
BE06E009
3E0D3D86
BD6BDE0A
BE0AA4BA
BC520302
3DE23D92
3C2FE02D
BD81FE8D
3CAA6FE0
3D7D888C
BDC84BC9
3D19F0F2
BDF42678
3DF53501
3DD33094
BC24F0E6
BB0AF034
3C1D19EC
BDC51B78
3DE46F15
3D1BE498
BC64246D
3DBBE356
3C750E34
3DAE392E
BE0C892B
BA25D511
BDA19561
BD611C7B
BDF8EDA2
BC4159D2
BBDE4ED5
3DA01B36
BDA99F28
BDD07A6C
BE40BAE9
3E1A4A8C
BCC3D7C6
3DE23290
3DA88E95
3DC03212
BC731FB2
3D9DC627
3C095839
BD9FD6E5
BC7C9009
3D59C38B
BCBAB898
3C0850BC
3D9DA405
BD3D8821
BDE659D1
BE0F3450
BD974470
3DF44AA5
3D06C8A7
BD81F3F6
3D285D4C
3D947553
BD2CB65C
3BCBFF88
3B92C5C0
BC3962F8
BDC4BD9F
3DFD94D1
BE089E34
BD4264AF
3D6DA738
BB900F01
3D1CFB4E
3E036F7E
BD161FC7
3DF4330D
BD84B747
BDFA5B10
BD6C566A
BDD70AC4
3E0415B1
BDE9EBA7
BD7626B3
3BCECAE9
BD4E8097
BDC79FC4
BD1C908F
3D813DB8
BE0E9E5E
3D65D72A
BC88C42A
3DD3D9EC
BDD52EB6
BD88C37B
3DD2C5A0
3DD08249
3D7686A5
3B66A840
BCD1F08E
3D1EF93A
3D221767
BD57B7C8
BD574D3E
BCB6E829
3CBCE92A
3CE90E4C
3DFE03F7
BD446900
3D47AEB6
BDBB6A7C
3C1CAC08
BD2EC90B
BDBCEE76
3DB4CB5C
3E2C2A02
3D8485AE
3DCA431A
BDFE7F2C
BD2EC270
BC0ED5FC
3C5EC8E3
3D4685F6
3DB51703
BDA3C7A0
3C0492E2
BD177278
BD9CDF84
3D71B930
3DE33483
BDABD81D
BDA18648
BD7DAD0A
3D83B504
3D9E212B
BDCEEFA2
3E01B435
BE0861A6
3DCBE6E6
3CABACF7
3C78B9BB
3D94DF70
BD5545FD
BDED64D8
3C82206C
BD16D57F
BDBC4744
3C4214E3
3DEBCCF3
3D4B87A3
3CE2F314
BD6EB108
BE037DA6
BCAE9FBB
3D4EFBCC
3DC43351
BB11EDD4
BD14B513
3C8B97AE
3DF763E5
3D36E2B5
3C7DD4AD
3D8D626F
BD33F134
BD7FC9E5
BDAB8CFC
BDD1DB44
BDB3EFAE
BD39B43C
3DAD396F
3CE9FB46
3DD3D966
BD25A8D1
BE022A2C
3E0C6C55
BD0423B1
3D9FF9D0
BDD1044F
BBEAB6AD
3D68F770
BCC23AA3
BD477128
BDB9B083
BDC6C45A
3DDB8FDE
3DB9CCB8
3DF779EA
B8C1C6DF
BE01CEAF
3D2B6FF0
BDAC5DB4
BE088F00
BE00D0AB
BAEA1181
3DAE2CB4
BC8D6A16
BDB392BA
BD7E46C2
BCA602C9
3CBCDBBE
3BDF4245
3DA2C2BD
3D5F761D
3D317BA3
BD4E9087
3DE650E7
3B443F8B
BD609DEA
3DE1AC58
BC9C6BDC
BC4100E7
3DE3BFF9
BD7A6CC9
3E119F80
3D958F13
BDEB0D95
3E01B75A
3D7BB54D
3D5DE62F
BCB132A8
3D9D42F9
BD1BA64F
3E172192
BD33F565
BDBFF350
BD87B1F6
BDC7DA04
BCB1A594
BD5DC32A
3DD32053
3E087054
BD352A84
BD0A88F0
BC314EC2
3CF0D18F
BD86D091
BDF8140E
3E063C75
BDE47992
BA92740B
BDDD82FD
BDD09B74
3C303262
BDB4114A
3E048ADF
3CC1D232
3D706A10
BD27DADB
BD57E224
3DD8CB8E
3DF64D7F
3CCA3685
3D13B42D
BD4CD7EA
3CBE55DC
3DC85C5A
BD2C235A
BDEF94C8
3D5AB58E
3DB23AD8
3DE36651
3E032B99
3DAFF492
3E170EF5
3D94ECCF
BD4158E0
BDBCBFCC
BC9C32D1
3DFF3062
BD6C1E51
3D5B0D6D
BDA3CD8D
BD65D547
3DF1E3A8
3E146D40
BD00B674
BDB86B4C
3DD95465
3D40918B
3DB842DF
BDB8B2A7
BD8D58C9
3C5EF8B4
3DD57ABC
BD9F8CC3
BD6CAD07
3D782E2A
3E0D38CE
3E0E5322
3DB0483F
BD5174ED
3D8A6F3F
BD775679
BDEF34D7
3DC68E24
3CFA4AEA
BDC59579
BE008D4C
3D65B7EB
3E0C3116
3DC453B7
3E087F45
BD2A48A9
BE014489
BD9AE61A
3D467092
BDB3CBAA
BE0A3337
BC7D3FC7
3DF98202
BE12B23A
3DA933F1
BDB42D3C
3CB17192
BD9ECFB4
3E00A6FC
3D5F7886
BC7B5C2C
3D40DA1B
BB58B462
3D4DBA18
3DA32102
BB4F6FEA
3D37EB5F
BD860243
3DD2A498
BD969FA7
BD9BB78E
3DC1616C
BD98576D
3D023CF1
3E193187
BD5AB126
BDC4A856
3E21D042
BDE2834D
3DCBAE7C
3CB27C8A
3CFE1D72
3C891B32
3D273BC9
BD526C64
3DD3892F
3E19335D
3D01EF59
3D8455C3
BD47CA2F
BCF306BE
3D3EB603
3D15FF2B
BD5CA9BA
3B504426
3D7F5ED5
3D858BB8
3D0B2C4E
BE183F4F
BD79BD40
BDCB6292
BA5EDD01
3E0DA33C
BC85EF63
BD76521C
BDA833FC
3DD8572A
BC40A287
BD6A9E6F
BDE321A3
BDC56DFE
3DBD1D12
3D5B474E
BDBC53A3
3E1D5ED0
BDD4E54F
BDE12F90
BE01B003
3D852172
3AAE4248
3DAC41A7
BDDD9BA2
3DACC0F3
BD3C9024
3E12BE49
BDC74935
BD14B48D
3D4292B7
3DB52927
3E23D35F
BD9064FA
BDEAE07E
3D77C59F
3B9D9C5E
3CBA4AEA
BD8AFEB1
3CEF93D7
3DD22292
3CB23E0B
3DB8008D
3E317269
3CE9E4A0
3D9CE5F7
BD2BC2E2
3D9A3D2E
3D3F4667
3DDF3BEB
BC5997B6
BDE07810
BD968C9F
3DB2329D
3D70F642
3E1FC71D
BD17E118
3E0F0CFE
3D8B4A31
3DBD458B
3D09498B
3E2457C1
3E415E7D
BD8707FC
3DDE4580
3CA879D1
3DD3FEA0
3CB8B0B6
BE2312F5
BD4EC7C9
BD4C00DA
BDC1928C
3D9C179B
3D28D201
BCED2F43
3DAB91EA
3DC93CE8
BDBA9A3D
BDA44FE3
BBA5CC83
3DE6AA08
BDD6D19E
BB02169B
BDC6F537
BD5BF529
3E26A338
3D02953B
3D638AEA
3A53A232
3DB82690
3D0C9C0B
BD966EF2
BDEE2EB2
3D435FEC
3D852E3D
BC9EFA2C
BD516E37
3DE5B531
BDEE05CD
3DC6FCDF
BBB36B11
BD5D6063
BDA6913C
BE0456B4
BD81DDFE
BCC5E552
3DD6ED67
3D513C18
BD85BB03
3E0C7F35
BD70307F
BDA8AB35
BD551A29
3BF98715
BD8407DA
BD83F05D
3DCFF759
BD98D244
3D852795
BD7F2C15
BD316CA4
3DC15D12
BD627815
3D899C61
BCC3E1D7
3D41B1B1
3DACC36A
BCA01D77
3DCEEFA2
3BDE34FF
BD0DA159
BD36A147
3CC8A1FB
BDF12770
BCED6239
3CA39A03
BDD9C305
3DAFD312
BD0ACA29
3D126F03
3DC580EB
3E01DD1A
3E1085B2
BDED7F0F
BD881982
3C9F31BF
BE19D3CC
3D946639
BD84E931
3DDCA18C
3CED6883
3C3EE731
BD1BE0D1
BC92698F
BD9B169A
BDAF7978
BE0075B4
3D8F3C56
BDD74FF8
3BFB938A
3B46D7C0
3DE4E832
BD2B5569
3E37A205
BDB20487
BE2C43B3
3CEA4873
3E21C087
BDCFA722
3D89949F
BDB58B3F
3DA55E1B
3D081B22
BDBE8244
BBBE5337
BDD02F73
BCEA8793
3E1E581D
3D21D7DC
BD37B12C
3BB42348
BDE3C6C9
3DCBF17E
3DD446FA
BE061D86
3D66AA23
BC53ACBB
3D9F394B
BD952312
BDEBC05D
BD9EB222
3D3A1C5C
BD2ED5D6
3DD8B589
BD59529D
BCAD62A4
BD29E724
3D7572A9
BDC8E6A9
3DC76EBF
3C28BA33
BE11F1D0
3DC56748
BD3A1372
BDF1B930
3DFFBF83
3CA93C04
3D8D57CA
3BA4277D
BD33A330
BD981DB3
3D6513D1
BC90455D
BE1AD18D
BD053940
BCC345D0
3E95C593
BC2278A6
3E010A13
3E7ABE6A
BBD680EB
BDFADC90
BC8C100E
3E1E492C
3D4B18E8
3E142891
3E5FF2E5
BDFCFD4C
BDE66DBD
BC8770D8
BD9DA4CF
BE7CEB79
3D916F79
3E00474E
BDC20147
3D8EF3D4
BDE87B9A
BE0B267C
3CE2456F
3D775445
3CA2BFE9
39C9605C
3DB07549
BE008C3F
BCC7B31D
BDA5CE91
3E13A798
3C8A5E93
BE08D60A
BE34EDB3
BE19B6B3
BD89E0DA
BB2F2674
3CCB1E41
3E75019F
3D32923E
BD79BF74
BE1DBF05
3D87B784
3DC2EB0F
3D5113D4
BE31B047
3D9E898E
BC8B61C8
BE3333B9
3D278580
BC7CD24E
3D80BD7A
B9893D1A
3D562124
3D80073C
BDB3676B
BD157EED
3B16CF90
3DD69B17
3C72A5A4
BCC9CDA9
BDA40AE4
BE09CBAB
3E0C5D20
BE068D33
BDB2B03C
BE33571D
3D7562EE
BD06ADB4
3DB21881
BCEECF56
BE3D1E11
3CF0B5E0
3DF3415B
BE03F184
BE281E8A
3D8C05FD
BD92C047
3D87B6AE
BE1ADA77
3E25EFE9
BD9391A0
BDBCF737
3DB5A767
BD54245F
3D3D2BA5
BE2B838C
3C83C628
BDA7556C
3D95D265
3E63C148
BDAF4392
BCEBAF7C
3DCB77C0
3DB3825E
BD850706
BDC2D54D
3E263411
3D97A31F
BDDD4F9C
BD3F7EEC
BD91B1BE
BD36F41D
BD613EC4
3CBE6F3C
BDB4F26B
BE6DA6E7
3E0429E1
BD99077B
3C895472
BDB2EC29
BD6816F0
BDA87D1F
3DF73216
3CD8C5CA
BDD082CF
BD94AEFF
BE61819D
3E6F1562
BE7A68F5
BE3C0768
BD798C48
3E5B85A5
BD475361
3D5E9BB2
3E44256C
3D07683F
3E2460EE
3DFE9F27
3C749137
3E62F3C3
3D839B1D
3DE1F6CB
BE577100
BE21EEAA
BCDBCB02
3D880121
3DB882A0
BD0AD6BE
BDF03644
3D213661
BCFF818B
BDA9954D
BBC10E12
3E627B70
3CF6852D
BDF40896
3E48997C
3DE11E43
3E4A2489
BD2B653E
BC97D8CF
BDB7F265
3E01B25F
3E7512EC
3D8FBE84
BE1C4E72
BC38E7A8
3E0713AD
BD6922BE
BBA01B69
3DD35B0C
3DDB0D52
BDD42891
BD076F96
BD1ADC5A
BA390965
3E4D5F14
3DC77DBE
BDB4A93A
BCD8694E
3DF90A78
3DB8835C
BE02391D
BD431A67
BD4398DC
3DB91FDC
BD3E3C10
3DA642DA
BD7F7023
BDFCDEE3
396796A8
3D3D4EC5
BDC16858
BD8A3975
BE3E23AF
3D328A61
3D8F1844
BD477FBC
BD3EC171
BD4A06CF
3DD8BAC7
BD84DE3C
3D0588D6
3C406764
BDF5CAF3
3D77BDA7
3E0CBFB1
3CE51D5B
BD02D3BA
BCEC8092
3E2FECDD
3E911255
3C4523F6
BD9A34E5
3BCF8C1A
BE24D8BA
3D2B01A1
3E5B645A
BD91AA9D
BD85525D
BDBE8E89
3D08F9A4
BCCC4DB6
3DF361DD
BDB8F763
BDF04FF4
BE3A3055
3DDCAC8E
BCBC873A
BE02C01E
3DCBC317
BE0104D5
BDD1C865
BC8A1314
BE33F24E
3C9718EC
BD84F7C4
BE79A0AE
3E5A4D2B
3D323699
3DA92F39
3E90D738
3C8302B4
BE41E753
3D18DB7E
BDF88095
3E049F95
BE7699C8
BE07110E
BD82A470
3E0D590C
3DAC7CE6
BE4343B7
3D3A1AC9
BCD5BEE4
3DADFA1C
BCAB9976
BDC8C338
3CA0CC94
BD91EAAE
3DCFA82F
BC573AE5
BE31A438
3E071BCE
BDA203D9
BDBE67BD
3C0380FE
BD4742D0
BE630F06
3E008AF0
3CA35F4B
3E222D95
3E0523B3
BE0145D8
3C5BC9C0
3D000523
3BC1DE5C
3D65D6DA
BE3C0160
BCC6A16F
3D8D5FDD
BE148DC1
BD3AC34A
3D5C1D02
3C99330D
BE032C1F
3D77E564
3CF8BCE0
3D318C6A
BDE3C537
3D3F5240
BDAA13D0
BD4943FC
BD996AD5
3E0CBA30
3E012557
3E000A39
3DEFF8EC
3BC94112
3C3564D1
3C4ACD18
BDD04817
BB201158
3CE64A4C
3E0DBF05
3E593922
BE2DCB14
3D951698
BD0D6E98
BDE95C85
3DC1A08C
3D3D7C98
BDDB8887
BD3C71BB
BD7EA1AC
BE36A876
3E46C97E
3D727A05
3D9D660D
BE15E786
3D8EF98B
3C5DC909
3DD50CA2
BD8420EA
BE14E619
BDC180FC
3D08A5C1
BE113272
BDCBC8E9
3BBCA624
3E4FAD2A
3D93A472
BD028E35
3E30470B
3D100DCA
BDE3821B
3D15B4D3
BE0DC875
BD5E9AA5
3D04C851
BE215098
3D7CFEC4
3DE7B13A
3E2E8A2F
3BEE6233
3C8BBD38
3D5895DE
BABC7338
BCC7721A
3C005D33
3D259E04
BD26C948
3D7DA273
3DB25892
3D8F9B21
3B9E3911
BE411516
BDA0F0C1
3883126F
BD7EF8B4
BCCD6A81
3C6C706C
BD8C6ED9
3D90C39D
3DC5837D
BC3E8F88
BDC8101F
3D1881D7
BBE38D84
BE13A3EC
B99E1373
BE056E69
3DEB5675
BE0CB7D4
BE136CDF
3DD62CFE
3D5A5805
BDECE3DE
3AA442C0
BCEBED24
BD55C605
3E3FC936
3D60569D
BE190CD4
3E6D2A20
BDF98B72
BD370BEB
3D3EA5C3
3DCF0E91
BDE66773
3B902D4A
3C640E32
3DCCF399
3AA400FC
3DC78B95
BDB75DEB
BC5498DF
BCABED59
3A69B44A
3E4FD19A
BDD8EFBB
3DA6440F
BD80446B
BE1AC7DA
BDCE1694
3E01D606
3D9F81C0
BD472BF4
3E1D10B2
BDCEC7C9
3BB9F011
BCA4C2C3
BCE68D33
3DA31CA8
BDAFB522
BCA6CAA5
3D0E0547
3E10F777
BE027F1B
3D11C483
BDD2178F
BD240853
BE1BA16E
BDFCA4B1
3CE10ADD
BE3DF091
BD1BAD05
BDAA600B
BDE446B7
3D8FFDF5
BD61E223
3D860FF2
BD6C7AB2
3DB05A63
BD8D06AE
3DAFE02D
3DC3C247
BD4A3ECE
BDA4BD26
BC892F54
BCAF5FD4
BDEE4218
BD4973CD
BDDD9FD3
3D9ECB82
3D562E5B
BC242940
BE1598E1
3DCCC5D4
BD3B9E21
BD593866
3B068743
BC2E8188
BD6EF714
BD38A548
BDB97679
3DBD3E27
BD3F7DDF
3E1BAFD9
3D8087B0
BCB590DC
BDFE9857
3E13EE1C
BC9783AA
BE41ABD2
BCE745F5
BE271EF3
BD99AB60
3E195B36
BE35DE16
BD727E6D
3DB5FA66
3D3DDC54
3DDCA3A5
3DE38195
3C908879
3E048063
3E0B1E9F
BDB4112F
3CC814A1
BB89FD19
BCC6B26C
3E3ECE14
BDD95465
BE17E1B9
BD4EBEAA
BD754AB5
BE4A9479
3E0DA512
BD946B5C
3D8FC306
BDFAD8E4
3E614DF9
BE669B9D
3CB1C53F
3E03C7D6
BCFDBBB8
BD4C7F35
BD09336B
3C00DA86
3BE38560
BCE3FAE7
3DB6F270
BC8CE3A9
3D75CB0E
3D113E4C
BD8C61B0
3C88497B
3D007901
3C1AD498
BE2EC28B
3DC485E4
3E5938DE
3E004EE8
BCD8383B
BDE15D2D
3CF902EB
BDE55864
3D0E8691
BCE73A01
BD371052
3D2439B6
3CC1A36E
3E05C0BA
BD069EEB
BDD807FF
BBE4DB8C
3E40E304
3BDFE9B5
BE05A3E4
3DBCA85D
3C20C1AC
BCE47B0A
BD0B6AB2
BE3C2374
BCB4C646
BD992005
BE258FB4
BD85D6CC
BD06034F
BC6C764B
BD53E2BB
3D753CF9
BD3A955D
3E217C5F
3D146273
BDAC2A10
BDA250A8
BC9DA7B1
BE23AB86
BCD7EC50
3E2C12AE
BD9F2D72
3B1F2371
BCCC7849
BD1EBEB7
3DBEE187
BD217805
BD8A24F5
BBE8BB80
BCA55087
3CA58596
3DBD6536
3E84B253
BD19D3B1
3DAEA9E7
BE14302B
BE0EE9DD
BDB92817
BDAB1240
3E18DD1E
3DB4D08C
3E14B2FB
BD895B5E
BCC031B4
BDE85C25
3D0BFCC3
BD3D5794
BD52C22A
3DCA30CE
BD930305
3E136CDF
3DB9D17D
BD782E95
3D509990
3E0542E5
3E32F05A
3DAD9CFF
BE10763A
3C51010F
3D5FA3D5
3DADEC6D
BDBA3FA4
BD90D738
3E1955B4
3D963561
BE16F3B2
3E40BB6F
3CAA45EF
3DE7210C
BCD02F58
BDF46CB9
BDC9A15C
BD18F3B7
3D6464EA
3D22EA2B
BD81BC70
3D9EC263
BC96F976
3B8D23BF
BD09EC7D
3D8C7326
BE2E1BD2
3D83F9DA
3D6FA3C7
3D27A256
BD835499
3DE31487
3D46D770
3C47CA9A
BE0111F1
BDDBDA51
BB17475A
BD3A1B6A
BDEB75EA
BD28B6A3
3DA4E959
3C654C8B
3E1DEA89
3DAE260B
BDCA0EE2
3D689FFD
BD17CBCF
BB0F2F88
BD194AA4
3C556374
BE0B5782
BD96A0E9
BDB08F57
BD35A492
BDA92791
BDBC89B1
3DD7C0B1
BCF51F67
BC7F8CA8
BCE919D5
3E33A53C
3DE30A91
3E145AA3
BB9000D4
3D112B6C
3E13D252
BD6ED8FC
3D9971A6
BDD4024B
BE0B630B
BD10818D
BD7F5A89
3D222E5E
BD128A97
BDD2FD33
3CC4FAA6
BE219DAA
3D932F95
BAC5502C
3D39F64B
3DDE60C4
3DDDDCA5
3DCD288D
BE18D584
3D5542F3
3D3B098C
BD9D5121
BD9BE1F9
3DC4F2D6
3C4B592F
3DFF8FCD
3C9790AB
3B587FDE
3D0BFAFB
3DFE8709
3D284620
3DAE02F8
BC364A3F
BD0E2AB6
BCF84C42
BDB18B43
3CA6CED7
BD44AFAD
3CEC3EED
3D70E81A
BE04577E
BC042620
BCD018E7
BD8657EE
3DCF1130
BBB8C935
3DF7AEDE
3D9D8BBF
3D74CA92
BD9D75C7
3D0B8E74
3E2B46BB
BD540901
BE251ACA
BDCD5A5C
BD928A97
BDB0EB83
BDC7486C
3E552B4E
3D1A7DC5
BE080065
BBADC9A7
3D3EABD8
3C8B4579
3CEB4DF7
BD9E321A
3DF4434E
3DEE3151
BD4588BB
BDE9D1F6
3D84049A
3DFFF0CC
BB99EFD6
BDB761BE
3DD72A39
BC5CFFB5
3D810541
BCB1EE5A
3E34FD6D
3D091AAB
BE26D0D5
3E0B46FE
3DE391D5
3A62F4FA
3D827D96
3CC9D8FD
3B2F1227
BD2402C4
BD4D94DE
3DDE3865
3CBCF3DC
3E1ED203
BE5DF2AA
BD8F31DA
BC7EADF0
BE195D0B
BDEC6BCF
BDAFFF44
BE0EB570
3DDEF0F1
3BE7C475
3DCE71CE
3E8AE686
3D910F37
BDE09353
BE3ABD5E
3DD64BEC
3DE6CCA3
BD461BD9
BE2D9E84
BE36E654
3D0E334F
3DEF1130
BD8AA822
3D83F375
BE0F1BAC
BD15B93A
BD6E4954
3DA77532
BD774FC3
BD5ECF13
3DE71609
BD3F3875
3DDF5409
3D788EF2
3DDAB9F5
BE18FF32
BD1922CC
BE0E9814
BD823F5B
3E2EFBB1
BD91C517
3E3D017E
BDEFB43E
BDCAA136
BE0FF8EC
3DCF398F
3D71A4F3
BC7BAD20
3D6961A9
3E099FE4
3E169878
BE1F9F88
3DC63AAD
BD7BAB72
3DDCFDD2
BD496554
BDF980F5
BD76F0C2
BE1AC92A
BD610CF6
BDF2EC6C
BE4231C6
3B96A7A2
BE40AA22
3E256606
BDB763D7
3BB8D59F
BD05030A
3D94BDC7
3DF53155
BDCF91A3
BE004641
BCAB21B7
BDC0688B
BDED4802
3E4F7271
3DBBDF74
BC8447F9
BD0D2D45
3D8D551D
BDA95754
3DF05AF7
3CC13B34
3D926685
3D9AB6C3
BDBBDB1A
3C9887EC
3DBAEB8E
3DC70070
BC143E10
3D5DA796
3DCF355D
3D071583
BE3EC17F
3D946C5B
3DE20C4A
BC9D5510
BD396165
BE5CA750
3E0909F2
3E46C00E
3E55C9E6
3DD2617C
3D633524
3C8887F9
BD362E90
3C5AA20D
3DAD74F0
3CC1333C
BD95D554
BCB240C5
3D4AE6E4
BCBFC9E5
3A60B4EA
BD30CC86
3BB50BE6
3DA99CA4
3ACBD5D7
BD60A1E6
3DA298E7
BD2C3944
3E3A3769
BC8B630B
3D1270E6
BDB860A7
BDC737CD
3D6AB409
3D2D522E
BD975679
3CE5ED9B
3DDEE808
BD9D18D2
3DCAACE7
BE04B44A
3E398890
3E037586
BD403C9C
3D8491B0
3CFC5302
BE2A4BDC
3D8A8171
BCACB5D6
BDFD5E4A
3DA5AB20
BD9B79D9
BCAF5A96
3C82C7FC
BDDEACC9
3DBAAE87
3D73E7F9
BB4AB8A0
3E139607
3E006680
BE2399B3
3D84911C
3C27A19A
3DC4266B
3C3D0112
BD1C7FC8
BDFAB431
BE365B64
BDCE5C4F
3D1A1A28
3DA005C4
3DBE3921
3DCE04C0
3D331104
3D2CAA32
3D0E85D5
BD5C7A1F
3DA88A48
3E306C44
3C8567B3
3CA2102B
3DF4E098
3DFE9D95
BE062025
BDC1F688
3C139386
BE380410
3C1FF2A4
3D8B1FD4
3D3278F9
BCB3090C
3D2D1C13
3E10D7BF
BD8B9489
3E22DA55
BD9356DA
BDDEAA2A
BDE697AF
3D5EB796
3D1AFADE
BE16B7AA
3D9C537B
BD443AC2
BC8824FD
BE2B2D90
BDC6F17E
BD2BDC92
BDA503FB
3DAD6C07
BE3B3B75
3D899D38
BD9443C7
BC8ED296
BD0CC682
BD45E786
3DAA8C15
3C881E11
BC90E19A
3D61A85C
3CA64792
3E2A9B4A
3C95A79D
BCA7B0E9
3CFDF599
BBA81C13
3DCEF241
3D21B75A
3BB6210F
BDBC106C
BD98F507
3D172DC9
BDD4B05B
BDD09310
BDA9C19A
3E39D346
3D8F9A8D
BCBA53EF
3DDA08C0
BDB96788
3E0DAF8E
3C6ECD3D
BD82D1FF
BDE29D84
BE3A36A0
BC54DE13
3C5C8902
BDA52172
3DFAAAC1
BCFDA074
BDDDBB17
3DAB9D8D
BD818663
BE6391D5
BDD98288
3DAC5E48
BD6C6188
3DC552BB
3DD04253
BC2E770C
3BA1550F
3DA28DAF
BE4A16A5
BCAEF947
BD2C442C
BE1F6A0E
3BD4BAD8
BE4B07D1
BCA7FD3F
BD051A1B
3D6BDB6B
BD67291F
BE2D4F59
3E2BA3CA
3C883EC9
BC97F18E
3E0CD24E
3DF63A19
BE0E3194
3B42AD64
BCB3226C
3CDE9A1F
BE1D09E1
BDE19F3C
3D02A0DF
BAD36847
3E0A2F49
3D2057DF
BDAE487D
3E2041CC
3C9AD85E
BE1A5CA3
BD248A74
3DC9A4B7
3E14A83B
BD5B994E
3E18CB8E
BE4F9F45
3E20C6B5
3D884E25
BC691C23
3E05846F
BD2437B8
BD06A967
BCD375C9
3DB4BB43
BD076732
BCCDA09D
3BCCFAB0
BDE7DD44
3DB2A348
BCC020ED
BD9020DF
BD823514
3DF4DB59
3D34FDF4
BD7BFB59
3C4995E1
3CA69022
BD333CBE
BDF203A3
BBA6E608
BE0DDCA5
BDC41299
3CC0D14C
BE082279
BE145176
3D835661
3E0A7009
BD669F71
3DD9C5A4
3AB39192
BD8A7FB6
BD5D5404
BD7C88B2
BDD933E3
3C801854
BCF2CFCC
3D6E023C
3CDB12E1
BCC555AA
3C864990
BDE0E304
3DAF62FA
BDC803DB
3DCE26D5
3D84181B
BDE64346
3DBDFF3F
3CBA87BB
BD98910B
3DA2A158
BDDA9FBE
3E17ED42
3D31D240
3C08A91C
3E0408D9
BDAA07A6
3DA251CF
BCEE2110
BD64A83B
BDC45232
BD0ECFF7
BD3C8308
BD979512
3E58C4BD
3DA99A99
3B7352F3
BDF8F712
BC4B9C4B
3B99AD3B
3D70C2AB
3DB54526
BD52ADED
BD2A119C
BDC56565
3E067169
BE0BD7F5
3E38522F
BD694C95
BDE039AC
BDDFFB48
3D2C933C
3DF4D057
3DA7BEA6
3D9FD33A
3D8C08D2
3D4492D7
BDFF6A0E
3C09834C
3E0580C3
3D528EFE
BD55F11E
BE0B96F2
3E08FC93
3DE71151
3E0F6406
BD00E2B4
BC143389
BD6D4563
3CE77524
3E0BD87B
3DFF876A
BD860FAF
3D97977C
BD9A530A
BBD683F0
BCF12902
3DF1233E
BD154816
BD261D00
BDB1A537
3E141073
BE1F9831
3E2266BA
3DCFFA7F
3DC08249
3DF4E011
BC957222
3DD48883
3DD82342
BE10763A
BDC145F3
BDC5454F
3D8DE714
BC7916D8
3DC8DFBD
BC090C6E
BD73041E
BD781C8C
BDAE6C4C
3D1E7BB6
3DD8EFBB
3DBF46C5
3D24212D
BCE0FD71
BD88A42E
BDC926C8
3DB55864
3DCD794A
BD33B62B
3DE54584
3D890D83
BD3C1194
3D5AB0D6
3D2F90E7
3D2ED4AF
BC9D2BF5
3DBEE54E
3E21D862
3D10BCB1
3DAFF6EE
BCDC0915
BC18E84F
3D966949
3B8C39F5
3DE39714
3DE1BB8C
3DF4BD77
3DB73132
3D137D70
BD7840EF
3DB57CEF
3E2339C1
BD3EA2EE
3E1DD617
3BE5BC07
BC49D31D
3DF1D8A5
3D937C64
BCC78997
3CB0E835
BD7B3F71
3DA6D316
3E0425F2
BDCB7F25
3CA3C8FD
BCB7C88E
BD8832E2
BD82B112
BC4AAB8A
3D9CBC13
3DD6F21F
3DB1B4E4
3E1602C9
BDA45B6C
BD38DB2E
BD9D645F
3CFF8A5A
3D1BEF4A
3DAD2C2B
3E05B963
BD5D1DE8
3DD8255B
3E070D20
3D069164
3C1D6EA6
BDBB12C6
3DB74CAB
3DA4276A
BDD3176A
BDE8882F
BDA53B15
BD9D5A5C
3DA5AB05
3DD8AB0D
BDCDCA08
BE2BF2F5
3D25DD09
BD903786
BDD9D346
3D772CD8
BD40803E
BE19231C
3DF043E5
3E32CD3A
3DA7BD2E
3D89F5ED
BDB5E976
3D1431E6
BD0A9C20
BE066F0D
3DA2418E
BBBAD7AD
BD32765A
3C2668B5
3DD3AFFB
BD870641
BD9ECDA9
3DCAC373
3DAE3D2A
BDCBCF9F
3D4B3EC3
3D7A2637
3CF70AC4
3CEB0C53
BC9F3DE9
3D67C89C
BDC82690
BD722871
3D0A436B
BD9CFC0A
3E15D399
3E0A3769
BDFD7668
BDB84259
3DE8FA7B
BCEBA5A0
BCE4FF94
BD358F7F
3E0ABD1B
BD98D478
BD59076E
3DB2E283
3E0EBAF1
BDD1ADA7
BE032485
3D06C6A9
BC9C9639
3E3AFF2A
BE0CCF29
3E13968D
3D9DF117
BE0F3A15
BE3A8BD2
BCA7A164
3DBAFA65
3E0D523B
BD495A01
3DF7F5A5
3E26EB92
BDB3D2CB
BDE1333C
3D38CC4A
3D2E284C
3CB17086
3E2BC5DF
3B79DDFD
BE022E5E
BE136588
BE619503
BDF37EB3
3CEB5EBE
BE4F4385
3A31520C
3CAB06DF
BCDE6D74
BDB1092F
3DD5D0B7
3CFE8039
BE121A2E
BD76D910
3DB21485
3DEC4D66
BE009071
BD2BE9E3
BD821775
3E6C0B56
BD63FDBC
BD3E254F
BC502F58
3DD6BB13
BDBD2766
3D48310C
3E03F5B6
BDA8F839
3CF48E47
BDAB4C21
3BB72459
BE9C384C
3D033468
3E1F0521
BDA0EF21
BD22A2A7
3DB7A800
BC8985BB
BE30B0F2
BD26687F
BE6D6A59
BDE027D9
BB2143DD
3DB5100A
BDE6DF83
3E84BDFD
BC7A4759
BD1FE6F0
3CD60F6C
3AB4776B
BD1BB532
3C70CB44
BDD0BAE9
BD7BF8BA
BBB34490
3D776816
3DBA025A
3D5B0773
B90BA930
BC24DF48
3D0F2064
3D54C91B
3D89D80B
3BBEA3AA
BB60C2F9
3DE6C7EB
BDA3699F
3D0B7854
BD44860C
3E2CB146
BE222574
BDB5CBE4
3DD79746
BD7C45E7
BD974B18
3D0EBD17
3E0DE82D
3E30CCBC
3D9C16ED
3CA27830
3D70B707
BBAD996B
3CAC6C70
BCD2A80E
3D4E4522
3D021640
BD6F97D3
3DF5D5F5
BDBB351D
BC8D8051
3DF67EC8
3A38C457
BD557852
3D711D7A
3E016B98
BD0E9707
3E014F48
3DBE628C
3D96C30B
3D29658A
3DAC41DD
BD50624E
BE901451
3D92DB54
3E2E0D24
BCE8265A
BD22A993
3D8F4095
3C4442BB
BD4AEFE8
3D1061C8
3E0CEF67
BCA9874D
3E1B1141
BDE76534
3D934B5F
BCD4D402
3E0CE13F
BC605C61
BDC9CE58
3E2C154D
BE81AF7D
3D81F67A
3E3E0978
BDB4FC46
3CD23C43
BC8E4218
3B5426B3
3C80EFB4
3D24F609
BE07852F
BE284988
BD8DA0ED
3D115882
BE2126E9
BE1D2DCB
BE038327
BCB1DBB0
3D620203
3C06156E
BDA5DEFA
3DAEEA56
3D87DC45
3DE15C21
BD7D03E7
3E00B285
BD832519
3E250D6B
BE020A74
BE1A90CD
BD1E6FF8
3D935943
BD666D37
3D0A39AA
3DD1C971
BDBE651E
3E52513B
BD4B4E2D
3E5301A8
BE11FF71
3DF01755
BDF3910C
BE117614
3E18DF37
BD02381E
3D7F926C
BC4AABF6
BD35A427
BD4A13B5
BDBE9135
BCB50CF2
BDF11E86
BD1A7A6A
3D446215
BD900B46
3DA4359F
BDAEC5B0
3E244B2B
BE3552E3
3BA968DA
3D8B886C
BE46E610
BD38CE12
3D15540A
3BD57CF5
3C896A42
BD9F0168
BE583233
BD5AE8EF
3B990EAF
3D99CFC2
BDF5903A
BE0CEDD5
3CC938C4
3E3C2614
3CE6A627
BE30407D
3D6A42AF
BE32CBA7
BE75C6C1
3D4BBA48
BBA771F4
BDE6F827
3D2946B6
BD01A0B4
BDC11920
BDED97B3
BDE77B39
3BE04793
BCE219D1
3DEF91A3
3C6ACCFD
BD599E01
3DC5714C
BD892A30
3E6207D5
BD8F9D62
3D8F861A
3E133094
3D07C6EE
BD8E9A1F
BD5DD568
BDB32732
3E021C47
3E69131F
BD5FB4EC
3CF4AACD
3D6FB5D0
3DDBDDFD
BE39BC34
BDC8D930
BE1822BC
BD7D3657
3D23326A
3E380410
BD1C6A49
3C8E3228
BDA555ED
3C5A5185
BD3143A5
3DE1FC8F
BDA89233
BDD29995
3E04F3FE
BB40A3CA
3DDBCDBC
3E045A1D
3DC8A040
3C8D42DF
3DC2BA67
BD1E24C9
3E04B513
3CF794F7
BD7A4378
3C060EF8
BD7943B9
BD91FE4A
3E3F0414
3D1012B8
BD88BABA
3DE4AE86
3E68522F
3D063EDE
BE0FC8F3
BE0E54F8
3DB64C58
3DC907F4
BD4AB2C7
BD8E3A8B
BD779E17
3DF61E4F
3DEC7326
BD02D11B
BD8C12F1
BDDB8024
3BD8DC50
BD5A72A8
BD2FDC4C
BD844F1A
3D3C0443
3E0E3EAF
3D472233
3B496564
BD9C5726
3CC55616
BE2E0B0B
BB2A91E4
3D023FFC
BD7D0A17
BD308B4E
3E0A51A0
3C740A94
BDB67118
BDB0E073
BCB5E0C2
3CD8E178
3A855AF3
BCE94615
BE4AD96A
BE097397
3CBEB837
BE27B7C8
3E12A90D
BDF04A30
3DE4095F
3E00D34A
3E18C587
3C94BCF1
3D8B7A2A
3D7868FD
BD7289F6
BDB2DB39
BCAC1C53
BCBC8A95
3CBA673A
BD1E2BD0
BD0D236A
3A3AA8CD
BDE2E2B9
3D3107C5
3E0FE32A
BB8B11D7
3CB1FEEB
3DB21C62
BD92AE8E
3DA4274F
3CB1E017
3DF48451
3DD83ADA
3ADD8B0B
BDF59EE9
BC8B6051
BD05582F
3CDE0AE3
3DBD5F3C
3DB99949
3C32EED5
3E2ED784
BC9AEDC2
3E015A4B
BC9241EC
3D6E07E6
BD9B4E7D
3DADC202
3CFC1FA1
BBBEC2C9
BE1A1D32
BDCA03FA
3D97D150
BE081B65
BD870B80
3E216E37
3CB7FBBA
BCA8DEE7
3DB110F2
3E0186DB
3D73471F
BCCE728A
3C440655
BDCF9A07
BCF87776
3CBFF914
3D970352
3D8D893B
BD18AAD7
BD50C0FE
BDCC7ED7
BCEDA0B8
BCCD13E5
3DA93101
BCEB1F9E
BD51E62C
BDF22F27
BCDD47A4
3D1760BF
3DDE004B
BD2D1E97
BD2F6995
3C8827B7
3D0C7FA0
BCF38F44
BD9C00E8
BD9A5D01
3DBFE74E
3DA2594E
BD2A2AE1
BDA30BE1
3D6A4C04
BD66C4FB
3DA830A1
BDB92726
3E3FC86D
BE054C12
3DCE989A
3D40BF78
BBE811A2
BD9EAFE1
BD360774
BDDDEC5F
BDEC7219
3D30E347
BDA0BCCC
3DF0AF60
BDD3E78E
3DABA055
BD98EB46
BD3F0B79
BDA1418C
BAECD37D
3DBC4D8E
3DFFE5C9
3D684CBB
3D44BF68
3DC664E1
3D6BBFD7
3DC98351
BC95E728
3BDD7363
BDD0EFDD
3DB748BC
BD197389
BD93D9FA
3DD6EEFA
3E0872F3
3D9544A0
BC2BFA5A
BD137F54
BDA0E878
3DBBB2D7
3C9ED070
BD108CC5
BC9DB736
3D7FA333
3C3098BA
BD9739E6
3BFEC9CA
3CA994EF
3D07041B
BE41A7E3
BD55BDBD
3DC565F9
3E459FF5
BE23B5BF
3C9785F9
3DE1F751
3D2969BC
BE02B94E
BE204FB1
3DC43300
BC35CDAD
3C217AFA
BE04013F
BD9AE5A2
BDF01D9F
3CEC2481
3C9DCE11
BCE03A32
3DBA6274
3D13EEE5
BDA863F5
3CA3231B
BD9410DE
BCB94ED6
BC148D0B
BE031FCD
BD6C679D
3DB8755D
3DE56606
BB900F6D
BD8ADDD2
3B9EC3D0
BDB9090E
BD9ECFEA
BD228DE4
BD0F1B26
BD4F53FB
BE1781C7
BD10FDEA
3DA45F33
3D283F84
BDDC84B6
BCDBA3CA
BD63C4E6
BB3A115E
BD14BBAF
3E0DC11E
BDC7BA4C
BD02FB93
BD6578E6
3D75C671
BE032A49
3D52CEBF
BD660FE4
3E15D463
BE131056
3D52CC20
BD0F94AE
BD53F20A
BD2004D3
3D6130D2
BD8FAA1F
3D6B0227
BE388E37
3E1B3B75
3E1858BC
BD57A411
3DCD6990
BD8DF853
BDA24371
3D352DFA
BDD65D3A
3DB5FF03
BDF7FE8F
BD50673B
BE3A6A01
BDC2FC19
BC18E6E1
BDDB2C41
3DF53719
BD55CDC8
3C927914
BC0AE353
BBE34A12
3D2BF679
3C9B7D9F
3CA1C8A8
BDCBA139
BAC559E7
BD6F9D47
3E4B738E
BCEC44CD
BD6C1F78
3DE3D146
BDE06FAC
3D785CB8
3DA6ABB6
BCCF3DF6
BD058977
BDA2C161
3E0009B3
3CADD236
BD217607
3DAFE32A
BD0D25EE
BDE882F1
BC7920E9
BDB2EA38
BB788E47
BE119978
BDD10881
BD290D0A
BD174313
BE1E2260
3C9C288A
3E0E6363
3E3AF428
BB064E38
BC7FE1CD
BD059769
BBE8DE3B
BC8D6396
3C36DDE3
3D07017C
BD7D6982
BD6B11AC
3D2D297E
3E02007E
3DDD1245
3DD21E60
3D85505F
BDF28F19
3DD1971C
3CEF0EAC
BD0C640C
BD6120AC
3DD93922
3CEAD9C8
3D53E865
BD2187F5
BD770245
3C8448CF
BDABEF22
3DC9B9D8
3DB96DB8
3DEF177A
3DF2F230
3E25C4EB
3E2F440B
3B27BEA0
3E24F00F
3DBE2E39
BE03F6C2
3DB83043
3D55AA57
3E177C46
BDDE97D0
3D30BC2B
BD99A82D
3D1A1697
BDEF0414
BDBC20A0
BE0E086C
3CDFF492
3D4260E8
BDBB69C1
3E264628
BDD4A127
3DD7C350
BC0640C2
3D9A7597
BCD69644
BD1962A8
BDAA1CD4
BDC5FAF9
3D2B8214
3D096B84
3E28D25F
BCBA3D13
3DDF10ED
3D08DE10
BE0BA94C
BDCBF89F
BD24EE2C
3D955377
3DE725C4
BD2D9CF1
3C9BD549
BE258106
3DB6E321
BCC41D66
3DB3E05F
3DC565C3
BCC1E365
BD707995
BD23D4F1
BCBAA3D5
3E177AB3
3D7B872A
3C50678C
3E425461
BC245331
BD9C198C
3DFD3459
BD8E690C
3E1C4C16
3D65D399
3D23FF84
BD51DC51
BD66720A
3CDD1DE8
BD8BC15C
BDDD627C
BD85C92B
3DFF255F
3DC9BD69
3C241879
BDF08A26
BCD0C6F8
BD683086
3DD3250B
BD9F399C
3D2BA4C9
3BC22905
BDA62860
3C3475BE
BE115FCC
BC18F895
BDBA86F2
3D533EBC
3D9F6A29
3D9FFFCA
BDC5CE5B
BDD26741
BD22BC58
BD4DC8E1
BD6A5E28
BC862BC9
3DE2C1B1
BDBF8884
BE11D191
3BC4E085
3DF733A9
BC63326A
BE0EED46
BD93636F
BE2038A0
3E1DFE33
3ADA7F3D
3D36E371
3C21BA24
BDA2FE32
BE0AE8E2
3D25D1EC
BC0A78B5
BD4033CD
3E19F341
BDE65626
BD8B0E51
3E352B4E
3D9B3A84
3D9AACCC
3DD28D86
BD3B8F07
3DACCB2D
3D9885FB
BDA19E66
3DE98C3B
3E12FD33
BDCCADF9
3D313C83
BE0E8640
BDE1C3F0
3D52CB7F
BD736CDF
3BF050A0
BB363F42
3DA4D37C
BE590108
BD7294A8
BD34B97B
BD4E45DE
3B811178
BD4EE591
BE045D42
3D6A0466
3E30D34A
3D4E9920
BD9C2BB0
BE3A671F
BDAE5FED
3E30F1F5
3E257929
BD90F5E4
3D4F8198
3CF33EF2
3DBBF742
3E691149
BA70F6AB
BD7983CA
BE18E714
3DBAC8CC
BE321F6D
BDB1F546
BD24A4AA
3DA8230C
BE0541D9
3E312620
3CFD89CE
3DA338CF
3DA29BD7
3D264940
BD383093
3DA539B9
BD8D49BD
BDBFD439
BC997841
BC09C917
3DE635A4
3D64E436
3E1E542E
3BC3C0CA
BD2B29CA
3C121851
BD00B582
BC506141
BCCFBB29
3D7E0BD4
3E5400B9
3E1919AC
3DF3E3E3
BDBE302A
BD2CFCB8
3DB83BBE
3DBA3E04
3CEE2C63
3DFF1950
BE076BC2
BE391B3F
BE0ADB40
3CD5BDA2
BD191B75
BDA0F3BE
BD774CD3
3DF7B310
BD33A5B4
3CBE6561
BDD72E6A
BD950749
3D8B82EB
3CBDD2C9
3DDC7A3A
3D9CC6D3
3D75019F
BD6135DB
3E1BE61D
3E0C5E70
BCC5564B
BD167126
3E03BC0A
3E209785
BC25FF6E
BD0522B4
3E5CEE18
3C2792EC
BE029A1C
3AD46548
3D079E75
BD808CC5
3D550764
3E149B20
BDAA010B
BE17913F
3DF88766
BDF5E204
BDB175B6
BE1540CC
BDBE3708
3D585D24
3D059DCF
BD67E09F
3E35F30E
3CCE955A
3DA220D7
3D71D408
3D376E61
3BBF3926
BD37B7E2
3DB8EB61
3DF57B42
3E5C2FC7
BD80733D
3CF28813
3DB999B4
BDA3F607
3DD322F2
BD622722
3DCA75E8
3DA99B11
BDA991FF
BCB7E473
3E15F8D3
3DF5FC3B
3D2EDA73
BCBDC959
BD8D66F1
3E0A8976
BC7868C7
3E38A611
3BFE8806
3D7D0AD3
3E208851
BC9E251A
BE0A9197
3CE87DCE
3D1F7F57
3D4469D7
BDD43F1C
BE19F490
3DA8D229
BC81DDF1
3C991651
3DEB32CF
3CABAEA5
BDB41942
BDB34A02
BDEFF434
BC3ECA40
3D084CF0
3D88A604
3D322F0C
3E1A2058
3DD3037D
3D875785
3CCB4CD0
BD37DC60
BCE7A7E5
BD8224E1
BD5E74E6
BE10E454
BD40F4D8
3D8CDCD8
3D7E26AC
BD9036BC
BE09BBAE
3DA47EDD
3DCBC192
3DFED4A2
3DAB3C3E
BDD27D46
3D9376F0
BD8D1D55
BC564155
BB501F3D
3C468EC5
BCB83A39
3D9DB65F
BD2BD9BD
BE10E6B0
3D82DD60
BDCC4560
3D5B2321
3DE97BFA
BD5198FF
BD583474
BD203A9E
BE04A2FD
3DB27419
BD025941
3DFD9989
3DAC8FAB
3DFAAF79
BBFFC9CF
3DF1DE6A
3E40B84A
3A9AB751
BDDDEACD
BE0D87B5
BDABD52E
BDD68F8E
BD80CBF3
BD9131F9
BCD0045A
BD9E90D7
BD407231
3D47C6EE
3D2F6513
3DCA5376
3D85D504
3BE00980
3D2090EA
BCFA3CA7
3D3B8F8E
3DA91F63
BDA722EF
3DEB367A
3E397D07
3CB5FCDC
BC0D3776
3AA53AB8
BDD696E6
3D39F49E
BE0DB339
BDC24A0D
BD52F845
3E40CCBC
3DBCD49D
3E160568
BD4EF409
BD75E113
BD9ACC6A
3C5F9FA3
BCDF5713
3D173739
3DB0B044
BDE3C4B1
3E0FE7E2
BBA5ADFA
BD1E9CF4
B9845E7D
3DA82675
BD4E04DB
3D7E4A89
3D4246B2
BD59F9C1
3CB8A025
3D0F55DE
3E0AF7D3
BD8CA021
3D84C4CE
BDF898B3
3E2227D0
3D41A36E
BBA37A59
BE20C4DF
BDA79FB7
BD1770B0
3D237AA9
3E1B62C7
3CCA8B3F
3CA44418
3CAFF2A1
BD46A444
BDDF2991
BCE8C65D
BE0CF5F5
BCD91C66
BDD73322
3DF90215
3E200F34
BB1503DE
BDC6001D
3D2698BB
3D8FA369
BDBB4BC3
3D937CEA
3D17D509
3D1A6897
3E8630CB
BCC7E5DD
BDC66B04
3DCF32BE
BDD7BD8C
3DFE974A
3D3CBDF6
BE13D46B
BD13E8D0
BE0FCFC4
BE02788E
3D8A29BA
3D236E2F
BE11105E
3DB1A1E9
BDB777EC
BDC09FCE
BE10852B
3E1ABABF
BD9BC7C2
BE3D883C
BDAB3C59
3D2D9458
3D484F24
BDB30DA9
BC79364D
3BD99C54
BD7ACB78
BC02FD6B
3D8B7F75
3D14A680
BDC9D734
BDC8B751
3D9AFA07
BD92E77E
BE110386
3D88AC84
BBE0A384
BDC93A64
BCAF71DE
BBF4A2AA
BE13B646
BD93C55F
3DC95084
BE20DA1B
3B5225FD
BD13595E
3DA061FD
BE0BE1EB
BE371194
BDC2F599
3E08D4FE
3C7B6F0C
3DBA28C8
BD23A1AB
BDBECA18
BD42E2EE
3CFDD808
3DC11BD9
BDB25A0A
BD9606C5
3DCFA69C
BE1D230C
BE36D15B
BDA5EEDD
3D8A402B
BD4620FC
BE11BE6E
3E2C332F
BB0737ED
3BE84690
3DE8C587
BD10E5E6
BC822468
3CC4DF99
3D02EDA1
BD6EAA1D
BD15470A
3C0FEC7C
BDD667B6
3D6D8C2A
3DCE4A7B
3E1941C8
3D949F5F
BD4FB4A9
BD8D626F
3DD4A772
3D842A8F
3D4EA34C
BE43B81B
3D3DE6D1
3D850FEF
3D90C72D
BCC4AB96
BE31BF38
3E0DA05A
BE1FE005
3DA60E6D
BDE48733
3D25C374
3C7A49DE
BDF6872B
BDD29B28
BDE9E55C
3DF28390
3E1060FE
3DCA132F
BCD6F1EA
BE106855
BD3E707E
BD573A94
BE0F6B5D
3D2478F1
BD8524C0
BDD75C8E
3D0EF2C7
3D96621A
BE0064AA
3E00995B
BDA05583
3E2BE4CD
3CF9BD5B
BE317050
BDD8904F
BD593129
BE1A0CF2
3DB36893
BDF1209F
BD0D189D
3E55F245
3C61297B
3E1EE06E
BDEE1B4C
BD1DC84D
BD3F8E8B
3DBA7F65
3DB613C6
BE232B99
BE64C7F3
3D1B8B77
3D66F6CA
3D8E3469
3C891AC6
3D3A3C57
BC5E6C32
BD9B07A8
3DDA7EB7
3DB8E01B
BCCCC1E5
BC8F704B
BC6EBE24
BD27D135
BD9D06C9
3DCE557E
3E4AFC48
3D8FFAB4
3D27CB3B
3D44F334
BD60B7B6
3DB8E150
3D0CDC01
3D43F78C
3D4B7ED4
3C451838
3D8B6468
BC555E6C
3D7865F3
3B19963F
3DBB1FFC
3DFF3387
3CCAC8B1
BE1202DA
3E1583A5
BE022B7C
3C158421
3DD2BC30
BE2484D7
BD4EA041
3DC762B0
3DBAAC61
BE2F8B9C
BD9F5D0D
BDC7F2C3
3DD470EB
BCF0F1DB
BD3142B3
3DD485E4
BDCAA83D
BBF865ED
3C78953D
BD8EDFA4
BE3AEB3E
3E54228A
BD130271
3E1BFD2F
BE0E3AC1
BCC26ADF
3DB2EBA2
3D65BEF1
BBF7A24E
3DE44A62
BC537487
3E35C7CE
BD5FA242
BDAF3E8A
BD5885B8
3CAF0FB8
3E20CE92
3DD332AD
BDDBE22E
3E887358
BDFE2260
3D9AC406
BE339B45
BE044B2B
BBD7DAB2
BC1EC410
BE4E7579
3D8802CE
BE15B531
3E14F7A9
3D1C19C1
3D82650D
BE077C46
3E2141A7
3D569843
BCF41546
BDB2C55D
BE2105E2
3DC2C7EE
BE164F12
BB8B0BE2
BD94C2A8
BE08DAC2
3C2918FE
BD722FC8
3DA3BD3F
3DCE9B39
BD5E1EEA
BD49A119
BCA1F04B
BC8B68EA
BD3776DF
BD34FB55
BCE06B45
BDDE279E
3D81427D
3E183FD5
3DEEAFAB
BE124EDF
BE30B0F2
3B22E8F9
BDA2146A
3DAF82BF
BD171088
BCB8A4C2
BD510E10
3D9EA514
BDE0E736
3DD68C69
BDCBA740
BDC7E282
3AB963B9
BDC5FCB4
BD02744F
3DBE4B2A
3DAD5510
BE1C0DB2
BDCE05CD
BE1CA601
3D5D60CE
BDFA55D2
3DC72416
BE23F898
BB53CD47
3E3AB368
3D13F19F
BCB9911B
BCE3CFB3
BD720246
3DDABDA1
3DA05DA3
3E0CD7CF
BCF8EB39
BDBB5145
BE1DDD2B
BDCCA86A
3CADB220
3DE200C1
BC92E799
3DB54526
3E05271C
3D98DF6D
3DC92005
BD4E5421
BD97D7EB
BD508066
BCCABCF2
BBB16C8A
3D8AED72
3E65B5B7
BE1F9B99
3DD491F3
BDE856E7
BD61CBCD
BDC0D2A9
BDB220A1
3E3A98AB
3DE1D7DC
B973628E
BDD947D0
BC19DDF8
BDC07BA1
BE177FF1
BD13AAD8
3E0417CA
BDC5BD6C
3E27CDCD
BE392D13
BE177814
BDC2DC96
BDC40C84
BDE6655A
3D2A7B84
BCC89382
3D85C44A
3D516D10
BD0B322D
3DFEB9E5
3CAB23D0
3DA9DCB5
3D415769
3D27264A
BD791E14
BB159B32
BD99A962
BD807D9F
3D9DEB6E
BD9F6AD7
BE21B153
BDD86C22
BD892DF7
3DC2ED43
3DF7DBF5
3D3F1AAD
BDAD8A3A
BDCFB092
3E1F51AD
BD60CE41
BD8A8A9D
BE5AFA2F
3CFEC3C0
3DF4C554
BDAB0CB1
3D6D7859
3E367770
3E05EC81
3CA32BB4
BE13E0BD
3DFCF701
3D27B9B8
3DBB9644
BCBA761E
3E3E6C4C
3DDB96AF
BE1C4546
3DDCB46C
3D8A2F7E
BC059210
BC1208AC
3E1A3EC0
3D524D5A
BD3EEC39
3D9C88E8
3D971B1F
BD6D91EF
3CD57471
3DC3462E
BE2908E6
3DFA708F
3D1E553B
BDED9CF1
3D368314
BDDB7CFE
BD0480CE
BD9FE642
3E095F24
3C403A17
BD9FD37D
BCB06706
BB56C777
3D77376F
BE242A67
3BCF2DE6
BD9A4E52
BE25C3DF
3BF92D13
3D2FDC31
3C80CA60
3D31575B
3E0315D7
3E2FCD25
3D30EBE1
3DA29655
BE48F6CF
3CBC664D
BE0C4DEC
BE07D391
BCDEEF7A
3DCE28ED
3CD66821
3DF55715
BBBA4561
BE015F46
BE21986C
BD2BA550
3E026E98
BDE1B973
BD135B92
BD1E0412
BD4AC29C
BC66545D
BE0E85FD
3C939C5F
3C50862A
3D78D7D3
3DA6872B
BCB7A695
3D868EED
3DAED85B
BD37292C
BC31210A
3D16375F
BD4BC409
BDE6C765
BDCCBC8C
3D55A6C6
BDA33D87
BD98B9A0
BD0B0136
3DC6B668
BCB39A61
BB445788
3E414E7F
3E1CA46E
BA315567
3CE697AF
3DEECBFB
BD4C8E33
BD6E298E
3D96EA0C
BDBBD92A
3DEB502B
3BD79781
3B5F8B6B
BD3365D9
BD1110E4
3D9C2ED5
BDC34565
BDCF3238
3DD2E621
BD7CA120
3D5FCB92
BDC1DFFC
BDA89F91
3D5C76DF
3DD44ED7
BDB93880
BE0555C5
3DA9AD6B
BDE686E8
BD134019
BDA1970F
BB55FD22
BE138BCE
3D0A600B
BE04B274
BCA844C3
BDAC1722
3DB40CE2
BD478D0D
BD2CD88B
BE0328FA
3CA5A6B8
BDF6A401
BE133EBC
BB60EE98
3C612473
BD95534E
BD45F7C6
3DAC58AC
3D94AACD
3C2231F9
3D9FEBF9
BDC67176
3E0B54A0
BD265859
3DBC2232
3E2BB129
BBEA3E78
3DEC8D5C
3CDB43F3
3D4EEBDC
3E0E9F6B
3DEE72DA
3D74916D
3E109071
3C583A54
BDE72757
BBA79068
3DFC779A
3D2D5A41
BD32FBF1
3C6F21F7
BD974C32
3DD691A7
3DBBFF62
BB277C5B
BC729CD6
3C897204
3CA848F4
3B165597
3D0772D6
BDA9F45B
BDEB6B6E
3E2D5065
3DF96A6A
BCC4827B
BE016378
BE137197
BE0133C2
3DA06134
3D1EB1B7
3DBCFB69
BE02AE4B
3C596DC5
BD900B6E
BE1F251C
BDDCDAB2
3A372320
BD4290D4
3DCEB9A1
BD140C77
BE112B1B
BE0E2260
BD2FFD39
BDEFE8AB
BDF98AEC
BDE475E6
BAC0714A
3D68C1A5
BDD23140
3D3A3CF8
BD36A30F
3CFF4F6B
3BFA287B
3DC845C2
3DC1E8B0
3DE19978
BCD7EFE1
BD0C0D3A
BCFEEE1D
BE006530
BD407612
BE1357E6
3DF9DC2F
3E0D6ADF
3E1D9125
3C36F41D
BBF57045
3CC5D48B
BE05C91D
3D80E213
BD769F49
BDC17233
BD95EBFB
BCA9C561
3CA1060A
BDDB6ED6
3D6FDBC6
3D0F7828
3DBF3DCE
3DAEE4E2
3D9EA0AD
3DEF6DFC
BCF4B2C5
BC96FEB5
BD8B4B07
3D15E5CB
3DE5F8D3
3D738EBE
BE140358
3DF60F1B
BE06E697
BDE9552E
BDC36E06
BDBF35C8
BC9605FC
3DD96BFD
3E0ADC90
BDD6BDB2
3DE0E51D
BCAE1A90
3D855EF2
3DBC57FD
3D2F6853
BDDC6D1E
BCE81197
3D9CD0A1
3BC2D613
BE01B5C8
3D91815A
BD845D27
BC03814A
BDA64338
3D1C48D6
3DE71CDA
BE2BCF4F
BDA34EEF
3CF2D143
3E11CCD9
BDEB3D4B
3D37D219
3DC60235
BE0441FF
3E154153
3CB3717C
BD50AE6E
BDDE8709
3DCE91C9
3D9F6B6B
3CCB5B7E
3D1BE589
3D3BEFEB
3DA82ED8
BD93BE73
3D4FB041
3CCDC479
3C88274C
3DD9591D
BDAF1BEF
3D8D2C03
BCFE9B46
3D71E520
3DB9D1DB
B98E47DF
BDA4406C
BD9C90E0
3D8FE9AA
3DD0A809
BE139C52
3C80F777
3D44A6F9
BDC8DE60
BC58D5F0
BD09E55C
3D5A182A
BDAF66F6
BD701069
3CF5C0E2
BD18444A
BDE77143
3DA5E1EA
3DC9B5C1
3DB7924B
3E3F10ED
BDF3CD57
BDBB229B
BD336DEC
BD439C88
BCD314B0
3C84C9C9
BC94137E
BDA784EC
BDB35697
BD80AC70
3CB058C3
BDE25FA6
3D9D4C41
BD9ADA41
BD0E73B1
BDAC7FBB
3D539390
3C9C6C47
BDFE920C
3E242BB6
BDB126B4
3E170B8D
BD7DC1CD
BD3B4296
3CC86636
3D91996B
BD95E65E
BD53AF24
3BAAA4DA
3CD702B1
BDDCB791
3DC32577
BDBC4A33
3DE1DB01
3D985DC5
3C4FE4AF
BD9F62D2
BD8527D8
BDA76344
3D633FF1
BDA2E870
3B41122F
BAD50703
BD9A7E16
3D421BB4
BD9EB08F
3E035DAB
3811F637
BDA14C9C
3D8E11F7
3D6C4828
3CC8ECA3
3CCD7C8B
BD6C1BCD
3CEE45C3
BDA211B0
BDB8F7A6
BDF6B5D4
3CEF7EDE
3CBEF680
BCD2B4D9
BE227A63
3D46F13B
3D4E969C
3D2AADD9
3D6D9408
BE2A732E
3DAEA720
3D573EC6
BD4A506B
3D3F3824
3CB9837A
BE176AF9
3D584373
3DB8F0D5
BDE392E2
3DEF2F98
3D5AEA31
3E026959
BDD15832
3DC45DC8
BD603834
BD665189
BCCAB607
BDB773FD
3E2424E6
BDEDD053
BDDE18F0
3DCA2ED0
3D5F75E7
BD85C39C
3E0440AF
BDD8487C
3DD6B6E1
BC2373C3
BBB145F3
BB7CF7E3
3E33B9AE
BDA72291
3D755D95
3AB5A818
3DABB491
BD1243EA
3DD233DF
3D2573DD
BDF6262D
BDA68C69
3D91730A
BD5C6ECC
BD1F7A19
3DBB9A9E
BDC088AF
3DB1540E
BC86C0E4
BD9BD937
3D2F4136
3D0A6C85
3E196894
3C8C2573
BD9DD0F4
BE38CF3A
BD448C21
3D9B729D
BD2476F3
3D839C88
3DA373D8
3E0CB07D
BD585A34
BE1EE286
BD304AEC
3D000036
BDB0BF78
3D3F26A1
3D2D46F6
3D7D6876
3D7FD7A1
BCB4E768
3C748AEC
3DD85F8D
BD3B9735
3D03CC23
BD9FEB80
3B8A1989
3DA40117
3DF3825E
BE19E5E2
BD4817E2
BD39940B
BDDB584B
3DE43CC0
3D9F1074
3DC63FB5
BC8FCCFD
3CCA0720
3E16D506
BD8FF782
BE050B52
3D3DE9DB
BE14690E
BB3BCECE
BCD3D4C9
BDA7115F
BB7531F1
39414719
3BD8936A
BCD989A9
BD51DA88
BD326685
BDC8A556
3DBBDB35
BE38D25F
BDBE2C71
3D8C012B
BA49168A
3E3BE8BC
BDEB7CBB
BDCCA9FD
3D86B300
BE322C88
BDB3E0D8
BD62E9A4
BD2D9077
BDFBCD36
3C66E364
3C2B7F0A
BC0F9737
3E08A4C2
BD8C4CED
3CBE398C
BD1F1950
BDFB3073
BD1A4A2E
3D81DB37
3DC847A5
3DF65A9B
BD9FD70E
BDC3BEB7
BDC88682
3E1E2867
BE31B2A2
BC8DCF2B
3E060AE9
3D94C24A
3D756E77
BE0C2374
BD8C4A76
BD9E572B
BCEB3502
3D3AA11B
3DB61F77
3DD271BD
3D6E5C84
3C0501D2
BD8F7A9F
BE18BF7F
BD8086BE
BC2F52D4
3D565DDB
3DA8DF37
3E3B59DE
3D551BF1
3C50B44D
BB99AC24
B99BB5BA
BE0E6688
BC831162
3D729C1A
BD2B6FD5
BC68A13F
BD84BDE2
BD5149BA
BE8591EF
BD70FD49
BDC7419B
3CEC16AA
BB943618
BC746E67
BDDFB481
BDDF6DB9
3E3236C1
3DF79BFE
BE00AB2E
3D2D2F79
BC24894C
3D8E6BFC
BDD67664
3DD0F27C
BDBF634A
BD0782AB
BC9CF38B
BDFE1112
BE0AB25B
3DFED528
3D852A77
BD330FC2
BD62E5C3
BE1096FF
BD758AC7
3DAD38DB
3D7E3C7C
BDF38AC2
3E2E171A
BD40E76C
3D897529
3D8F4B6F
BE094EA0
3CD77F79
BD049683
BDA55C60
BD70F388
BDD74FF8
3D9D0496
BDCA47C5
BB945F1D
BDAFE74E
3DE25205
BDBCEDFD
3DBB0C60
BDB24B84
BDD26B72
BD911EC9
BD09C927
BD3FFE1D
3DBC5990
BC986120
3C3BB334
BD2A4E88
BD97A299
BDFD94D1
3DCCC045
3D9B4CEB
BE4CAB82
BCC94CE6
3C479F66
BDE53198
3C89EE2B
BDB286DE
3DFD6F11
3D560BA5
BC0670E8
3D8B4825
3E4EEB70
BC51BADE
BE0B45AE
BD0B3FCF
BCE9DE8B
BB384E91
3D43CEDC
BDDD1138
BE15479D
3DF39970
3C8E2A9B
BDB5D53A
BD5161A2
3D2DDC97
3E1CE8D9
3DB5BF92
BD994912
BDA9255E
BC495E83
3D85A73F
BD153E8B
BE75592E
3E2EB420
3BFF254F
BD24FE37
BE29B563
BE1A3A08
BDEF9768
BD997CB6
3D51AFDB
BD2B2FA9
3DF7414A
3E1881A1
3DBCAED0
3AE39B9B
3DAF9B99
3C7B9D2F
BE47125E
3D87B26E
3D958454
BD9F9FBE
3DD39C95
3DAF68F4
BD2F479C
3C8DC4AF
3E2004B8
BDA0F6BB
BD17101D
BD91CE0E
3D266DBD
3D471C03
BCB7A6CB
3E007EE1
BDBBAAB6
3DACA926
BD91E083
3C3A8D9B
BE14F54D
BCAC782E
3D47BC22
BD152C82
BDD7D8CF
3D0CBF2B
BD2175B6
BE8566AE
BD92A470
3D908E15
BC9FA0AF
3D6AC901
BBFC5C72
BE4967CB
3CBE4C6C
BBDC8511
BD89E02B
3E08EC53
3DA76153
BDB62406
3E11ED18
3DC0F495
BDEB862B
3E201861
3CEE8519
3E419C5A
3D903F7E
BDFC8FB8
BD3FDE72
BCC88286
BE127DCC
BD4DFC0C
3E488F86
3CFDDE52
BE08090B
BCB67A10
BD8076E9
3D251FAA
BDCD6452
3D89648B
BD5830AE
BC929E33
BE58C932
BCB3FFE2
BDBD9C86
3C3A3B65
BD4E43AA
BD9B4DF7
BD0C55FF
3D8D84D3
3DE06530
3CF82DA4
3E00F627
BD64EA9B
3D66655A
3DB2CE6F
BD038A64
3E59FB61
3C49AB45
3D734953
BDA3CA90
3E2916CA
BDAA6F82
3DDEA78B
3D940B35
BB059429
3CAAE445
BE8A9521
3D266ACE
3D277BC0
3D733ED7
3E4BF727
3D9642DA
BD716DE7
3D273457
BDBD23F0
3C387B72
BC1B3C1C
3CA6CBE7
3DCBC622
3DD5336E
3E01C758
BDCF3C2E
3C97F2D0
BD8AAB70
BD82F6DB
BDA1669D
3DC94AF5
3DA9A614
BD81CA98
3DB1F3B3
3E20F6AD
BDD46349
3E0E1BD2
BE33122B
BD064686
3DDF0CBB
3D295DE2
BD211FF0
3D914298
BD37EA52
3CCFF972
BE03992D
BBA9FB92
BDBB48EF
BD976923
BCB72CBD
3DFC28F6
BDD54C12
3A9A900F
3AC7553F
BD9F9ED9
BDC5243A
BD3355CE
3E0A66DC
BCD7AD30
3DF99243
BE11797D
BC47A688
BC9EA09F
3D559BF9
3E0F587D
BE2907D9
3E329803
BCDBFF04
3D97DD01
BE0DB1A7
3D661C95
BE0FCA43
3D11471A
BD949690
3D45BF42
3DDEBA6B
BE0BE554
BD5F912A
3E06EFC3
BD7C6DA4
3D303FB3
3CC8DFD8
BD458DF9
BDA13745
BBE01493
BD1AD62A
BD71E5DC
3E4557DE
BE0D37C1
BDFDBF48
3C82DCBF
BE9CFD6D
3D99A39D
3DBAA052
BD4AEC07
BDC198FF
3DA70C3B
3D9C1D0F
BD357ED2
3D279413
BD53EF36
BDD4BC6A
BE16AB58
BDA2AA9F
3DC40C26
BE106BBE
3BE72B1D
3DC27EBD
BDFC9ABB
BD944FC9
3DBD11BE
3D23BA4F
BD90F30F
3D6756A1
BE3E2196
3D9F16BF
3CD820BE
3D04A998
3DA8E1BB
BDD95D4F
BCF2C8E0
3B3A25D6
BDAA95AD
BDD07B78
BD0FF9F8
BCD04344
3DC4837A
3E305EE5
3D4CD6A8
3D5A19D7
BB7D191B
3DBEADBB
3DCAAEA2
BE10C4DF
BDE949A5
BD412803
3D0C6188
3D9D30C8
BC380C4B
3DA6402E
3B85A2AC
BD84A8CF
BE03DB7F
3DA00A04
3DFE36D2
3D6CBCF7
3CDA7313
BC9A1C41
BE805986
BCD6938B
3E1FC090
BD341836
BE2815A0
3E241AAC
3DE6DC5D
BBA92F39
3D1E6BE1
BD47805D
BD3534B0
3BEC1E21
BDF7E4DE
BCFC6434
BD984E33
BDD6D762
3CCCE9F3
BE1AEA74
BCC4167B
3D97A75E
3CE62747
3DC1C377
BD7F52E1
BE285AD5
3CA004EE
3D2F19E4
3D484D41
BDC1583F
BE800D3D
3D735075
BDB779F7
3D919C32
BCBF8013
3DD5DAAD
3C47496B
BE0F1D3F
BD40F451
3DE687F4
3DA4CB5C
BE37A2CF
3D464925
3DBE916B
BDDB341E
BDE4D552
3BDEC7B7
BCF830FF
BD69A870
BD9B1613
BDE81E47
BDC8E292
BDF49E02
BD160865
3D2665E0
BE3B9778
BD96A239
BE3CB146
BDDD9EC7
BE2A511A
BE061AA4
3DE7674D
BD48D4D6
3D70C4DF
BDBF08DA
3D81D705
BDC0110A
3CDB00A2
BCA95711
3E2EE200
BDDE974A
BDD8EEAF
3D7388DE
BD30DAE4
BDE8A611
BD26E598
BD2BBBC0
BD48AA43
3E0864CB
BD1D0F8B
BD512D34
3DF33B97
B808509C
BDD9BCBA
3DBAA69D
BDEAD57C
BD9D1B8C
3A32A084
3E0EBF23
3D1A4957
3E033615
3E24F484
BE1C8DA0
3D8630FA
3D8FA5C5
3C8D0EA7
BE28BE2F
BD2D2582
BDB2977D
BD2D992B
3D36706A
BDCFCCE2
3DD9335D
3E25BF27
BD90AC63
3D1B8207
3E00EE07
BDC1F09B
BD26A693
BE16E0D2
3E10E411
BE9404A7
3E07E88A
BCD70B4A
BDE3486F
BE1C5EB3
BDE54EF4
BD42B6C9
BD4F7A26
BE407421
3C747878
BE10C3D2
3D4F091D
3C4730AC
BE05A3E4
3E2E492C
3DB4CFF9
BE06002A
BAD842CD
BCF40D18
3D84416B
BDD4AE43
BE079BBB
3E10E38A
3E648CF8
3D065C20
BE553198
3DA1436F
BD992B8D
3E2C40D1
BD75A94A
BD830058
BD851944
397AA2C9
3D4AEA09
BD835C69
BE0CB85A
BE484988
BD50110A
B97C9839
BE1FA2F0
3CEDAE8F
3C58FC1B
BD8F3634
3C9116A9
BD9FAFA0
3CA153A2
3D18B843
BCA7A81A
BD4D4AA1
3D366369
BD8C881E
BDFB4352
3BEDEC57
BD96E72A
BC7DED00
3B8C6D0B
BDC99807
3E150B95
BD8B555B
3D5A0656
BDC9CA77
3D6C1AF6
BDC50F91
3D09B58B
BE6A5CA3
3D316858
BDD29803
3C215E6A
BDC07F31
BDFEC354
BDBF474B
BD590EC5
3D744FFE
3DE343B7
3D89510A
BD7328ED
BAC287CF
3DB2C89D
3DEBD76F
BC80C664
3E0215FD
3C9C69F9
3D8606FB
BD96C1F1
3DF9181A
3E1CBAF9
3E2C08FA
BC32829F
3DBA1C4E
3E4ACEAB
BE7B9303
3DDF1844
3D1CED91
3CE68B4F
BDCCB641
3DBE3242
BD36749C
3DC8C89E
BCB348CD
BE537718
BE6B55AC
BDC07033
3DCF9B13
BDBAEBFA
BD6DFCE3
BD5D1F2A
BDE169C2
BD7D7683
BD18DC70
BE2B4D05
3D13A9E6
BD3342B8
BCD67ACB
BC3324F0
BCB52B25
BBFF4733
BD9B3F2E
3DB5C9A3
BC7C060B
BDA3B42D
BD5E40E3
3DAB88E5
BC5A87A0
3D5B10FD
3D97F8B0
3DC1DF84
3E5297C0
3C9F7688
BE0E0B0B
3E2452C6
3D697438
3C50C799
BDDA4E7B
BDA9865C
3D8EEB12
3CDAEB08
3CDDCB22
BD8E641F
BC17E0B2
BDD54F37
3CC6887B
BD865981
3D51B493
BE0BD406
BDAEF0FF
3DAAFF38
3C85902D
BE4C903F
BDE55A7D
BDD8BB4D
3D84A97D
BC6BAB4A
3D392EA5
BDE3D790
3DA350E0
3DA239CC
BE1A597D
BBE74284
BD81323D
BB7F5E6F
BD37CCC0
3CAECE7F
BE31F3E9
3DC4C8BD
3D9957A5
BD9DC718
3DC411F8
3D254EA4
BC2BBB70
BDE4B902
BDD0995B
3C089AF9
BD1EB5E9
BB9165D9
BCC6034F
BE4C7086
BDA46E09
BD0F8990
BE57B246
BC0A46F6
3B5DBDE1
3E1A6613
BD6AD43A
BCC9E592
3E6D0460
3D8F000B
3D1F5749
3E087B57
3DD405F7
3C9573D0
BDA23506
3D30DDD4
3E19BAE4
BB58FE5E
BDFC621B
3DA7B528
BD9D6437
3E0F5233
BE5B9E8C
3DCB76B4
BC9BB16C
3DCA6889
BE316B55
BD5C5CC2
3CFB2895
3C5B6806
3C582C11
3DE37931
BD17FA0D
BDABA6C7
3E1F8E3B
BE505D10
BE245847
BD91E901
3E2E2435
BDC9B075
BCD41312
3E28826B
3D89A5D1
3D2AF46B
3DEB6AE8
BD1946F9
BE0720C9
3DB14735
BD98C727
BDE7CE96
BAB49AFD
3B9A1B1F
BE49C6B0
3DE84381
BD78C203
BD2AFA80
3DCCA8E3
3BFDB6E5
BD9B8BAC
3D6C49BA
BE04C836
BD1DA48B
BD32FF4C
BDB2CD70
BE1AE85C
3D92EE85
3C8CAAD3
BCCDA6E7
3DF55FFE
BCB0A4AE
BE0F8833
3DA9FC88
3C19A6C5
3D71480C
3CA2541E
3BFA9634
BDA8C338
3E4A9F38
3DDB7CFE
3CAB7F0A
3B93E525
BCBA7AF0
3DC86651
BD883DE4
BE22A1B6
3DBF4674
3CE6068F
3DBA729A
3DB95953
BE1B8E4C
393F925A
3C405129
3E4EA466
3BAA74DE
3D8671FD
BD3806A2
BE019158
3D599B62
3DAA1A6B
BD2CA52A
3CEA1CD4
BDACA17E
3D9E8AEB
3E805101
3CABECB8
3DA2C4FF
BC12E2D1
BD0F733B
BDA48924
3D7E63CE
3D0D815D
3CF6A6F1
BD18F59A
3D1429B8
BCB26D70
BE08AEB8
BD97D97E
BC3816C8
3DE3F78C
BCBE5570
3D369B83
3D32B834
BE0B0143
BC8F10AA
BCF72607
3CDE3B54
3DB02CEE
BC8C7813
3CAB8F30
3D758EA8
3DFBA7FC
3E23382E
3D948F6F
BD5D3D43
BD2ACF4C
3DA04EF5
3D520F11
BD8EA572
3BF1E098
BE22B841
BD4B47E2
3D00BAF6
3CB5BE93
3E28A2EC
BDB623A8
3D906E27
BD807513
BC237256
BDDFD2E9
3DFF0AA2
3CC27E60
BE015A4B
BE02F61F
3D3666DF
3DA61EAD
3DC91926
3D37E7E9
BDCC5056
BDE33D6C
3D4A5F85
3E5D3D86
3D0C6010
3DCDBBE0
3E064F98
3CBF6754
3D24D389
3D9664AB
3B6234BE
3DC0E688
3D5E3525
BE38B546
BDE753E7
3E24E2F3
BC63B03E
BC88D3E4
3D798F38
3E12A737
3E1DC8FC
3E51D2E1
BDAD562A
BE3CDDD7
BE109D8C
BDE5BB7B
BD88AF59
BD85ECD1
3D94F3F0
3DC40C9F
BDFF822C
3E0096FF
BCFD541E
3E02439A
3DE8ADEF
3D5912C1
BD70C997
3D3FB572
3DEF8056
BDF82C2C
3D9B5BB4
BE492FB2
BDC439C3
BD769C3F
3C1B33CE
BE10BB2C
3C49CB25
BC0A6BC9
BDE1700D
3E4A083A
3D570C21
BD511424
3D87BD56
3C5F097B
3E2CAEEA
3DB447F9
BE308C3F
BD106177
BD030B4D
BDBFB331
BE2F21F7
BD43DE61
3DBC2748
BD14411A
BE2F81A6
3DA950E2
3DFE79EE
BD249485
3D20F147
3D0F3740
BC605E0F
BE4CC2D7
BD8ABC51
BCBB8801
3D129C85
3E044BB2
BD7C8861
BD9CCF29
3D11DCF2
3D03A7F5
BDE34118
BCC80EC2
BD88694E
BE01D085
BD29307B
3DE98351
3C08F5F3
3DB2CC13
BE255C96
3E0C08FA
3B174556
3BD9B528
3D30BEAF
BE396EDF
BCE1AB81
3E010774
3C6D7767
3A878CFD
3D589862
BC52CFB1
3D1CF04B
3C2BA74E
3D9C3A79
3DBCCA3B
3D75162D
3D14A93A
BC0D62DF
3DD54A80
3CBC2E4F
BDAE0EDF
3B9A61C1
3E142635
3D6BA99C
BDFC8EAC
3DD7E0AC
BCF1CB1E
3BB663AA
3C25BED6
3CC6F80C
3DF9B90F
3DB4FD96
3DA3C9AC
3D131FE8
BD59ADA1
3C3B0F35
BDCFC82A
BDD7268D
BD8FA468
3B5A4F16
3E136502
3DDE78E2
BDF54FBE
3C8A15CE
3D3183EC
3C03FCBA
BD84F667
BD87F1B7
BDCB92E9
BE027286
3D926528
3D308498
BE040DD4
BD1DDA3B
BD6EA14E
BC3B0A2D
3DACDE85
3CF28F34
3DA932D7
BD7A455B
BD99E394
3D29C8A1
BC0C3502
BE5027D9
BDC3B37E
3D9A1789
3DE5EA25
BDAEC926
BDA8B058
3DC25AEE
3D3438B7
3C9E2A58
3DD0A45D
3DFEE6FB
3E2F84CB
BD919AF0
3E2BDAD7
BD6789B2
3DEB7FE1
BD54C71D
BE084DFD
BDFCD35B
BCDE73F4
3E3DE15D
BD104BC2
BDB425D7
BAD3C691
BD572B60
BE47F173
3C67DD5F
BD7CBFA4
BB6A96E2
BDF1697F
3E469F06
BD419CEE
3C8328DF
BDA0B949
BE395BBC
BE0BF2F5
3D43D46B
BD06E887
BDA64112
3E2A0D35
3CE115FA
3D640D76
BD9961EC
3D326CEA
3D90B0E5
3D8AF4F1
BE094467
3E0687B1
3DCC2408
3CF4A44C
BD133333
3DFE1EB4
3DA06820
3DEAD14A
3DCFE154
BE1213E4
3E76AB9B
BD81C7A9
3D5A0580
BD4EE5AC
3E529952
3D403687
BD7590C1
BD621CC0
BDDAF74D
3E134507
BD20BA1F
BDEB9C30
3DD8B04B
BD675B74
B9B66230
3E0A43BB
3D8DF91D
3D119554
3C8A80F8
3DC26A30
3DADA3CF
BD838060
BDE3B363
3CFFF7D2
3D6A2C23
3D5C42C1
3CF439C3
B908DFF4
3DAD4952
3D0B446C
3D8C134F
BD612549
BDAE9D01
3E1D7F0F
BC9D22BB
BB28A7A9
BDAFAF50
BD863E30
3CF0FB15
BDF32F88
3D7D52F7
3DE2B9D4
BCD5A25E
3DD05F29
BA74DA6E
3D148BF9
BD2DAD68
3D770098
BD8BC848
3C446738
BDEBA5A0
BDAB975D
3D88D75A
3E264CF9
3D97947F
BE1EE49F
3BF003C9
3D8E0B5B
3DEAFFF3
BDCF13CF
3DA8C36E
BCD08B68
3D679E09
BE0A1E82
3C32ED93
3D5966BE
3DFD0742
3D7B12E1
BDEAC860
BDCCB6BA
BDBB86F4
BDBB5C6F
3E41B867
3D511B61
3DDFE197
3C40ECC5
BC90B590
39EF2477
3D274320
BDF32A49
BDB11EE4
BDACBC49
BCB1E5F6
3DB9E237
3CDBB7B7
BDA59593
3E24F616
BC6A776D
BCE8240B
3D9ADC67
3E0DFB0D
3D890B19
3E1E2004
BD2CFCD3
3E0CD6C3
3D5FB8CD
3D76861F
BBB6BEEE
BD9AA9C2
BDB79159
3E318F82
3DCC0725
BE239043
BE162A5E
3DB03926
3DC4B4B5
3E0C8C0D
BDD6A487
BB2A65F0
3CB165D4
BDA1AA3F
3D8334C6
3DEF8162
BD36E5DB
BD0317FD
3D2D002E
3DD9F87F
3DDC243E
3CA538D4
3DA76F60
BD4E8691
BC8BEB25
3DC82ED8
BDF267C7
3C230533
BDB98E11
3DC0AD2C
BE03B9AE
3D5B3779
BD8FAC38
3D650D1B
3D00A2F3
BD86219D
3D086DDD
3DA0AB3C
3D36E108
3DCC3D0A
BE0AF923
BD8B8986
BDB1C920
BC30CF40
3D0BF734
BDF74602
BDEE6320
3D99122D
BE0DA943
3D291750
3D0E25C8
3C37F09D
BD16073E
BE07E282
BE053DA7
BD73DB64
BB9C01E9
BD96314A
BDDE047D
BC85619F
3D03CC08
BC88BC31
BD4F0282
BDA2C3F2
3C89B7DA
3CE6E43B
3DB7135D
BC8B15A8
3DE9F517
BC484655
BCA29A29
BD1B154A
BDF9841B
3D864925
BDF7891E
3D5C4850
BE0E6D16
3C2FA143
BC454CA6
BBFF8180
3DED6F54
BCCF076F
BD4193B4
BD19EFE6
3CA1DF4E
BDF4DAD3
3D538D96
BE0CD91F
BD8360EB
BD9E34D4
BCBE9EA1
BDA4B755
BDD4677B
BB2B1EA7
BD9FAD52
3DE8387E
3D3471A7
3E14FD2A
3DADD709
3DC41D66
3D1A15C0
3DE9EECC
BD8C0E97
3C970B80
3E269DB6
BDE31162
BD348777
3CCD7823
BDBF99C4
BDB42876
3DE15098
3D88B60F
3D592890
3CDDAE67
BACB9DCE
3D2D2EF2
3D9603A0
3DB81FB1
BCD947D0
BE017B53
BBD849EE
3DD3FA6E
BDCB90C2
3CB8BF64
3E2F3450
3D4EF3B9
3DB79662
3E364BEC
BD9E84D6
3D9E0AE3
3DFC0011
BCED37DC
BD1EADA0
BD40EB32
3D44AEBB
BD3630A9
BDFC0768
3DB4B9E6
3D983EA0
BE300D5F
3C8D925A
3DC51BA0
3DBADA9F
BD5A0C00
3D76D7E9
3CF61566
3D405129
3D45A089
BDE13E3E
BDF9B0AB
3DA769A9
3D5A2072
BD474356
3E0B267C
3DE54CDB
BD83F5DE
3D503BB7
3CC268C6
3E01BC12
3DC9439E
3E03E469
3C620685
3D4D362F
BDEFBEBA
BD73863F
3CE347CE
BE143958
BD00742F
BA21DEB8
3DF2513B
BE035116
BD9A322B
3DBF350C
3D85C2C5
BDEA8A83
3DBC485D
BE04CD31
BD8B4642
3D3F8A3F
3DA118CF
3DEB862B
3E048CB5
BD6F0557
3D0118EA
3DEDE871
3E14241C
3D159CEB
BE1C3A43
BD67116C
3C038CDD
BD73F6A8
BD0885AB
BC5CA298
3E1435AD
3CA7D1D6
3DEBA0E8
3CAC3D0A
BE01FCD2
BE0BAC2E
BCACC378
BD02C2BD
BD28094E
3D016F6C
BD9F8D49
BD9167FA
3D664FF6
3DC4C91B
3D63E68F
3D84AF42
BD3E98F8
3D888D7B
BC9F7795
BD1C3611
BD0D7D46
BDA8F019
3CC97D8D
BE0C5975
3D5EBFF9
BC1900F8
BD88CCDE
BD13B96B
BD908E4B
BD60931D
3CE7026E
3DD5E52A
3C97B37B
3DF27FE5
3E06CDAF
BCF1EB6A
BC4E9956
BD508E8E
BE2ABF77
BCEB4C7F
3DCF8402
BC8F58CE
3CB6EB84
3DA2A752
BD7FD5BE
BDA35C76
3DAE0660
3D5051A2
BD71AB23
3A8A783F
BCD00B46
BD73C41D
3D6CA5CB
BD19C879
3DBC2799
3C42210D
3D408D3E
BD722821
BDFA847B
BDA5FFBF
3D3DFC35
3DBFF328
3BA2853B
BBEC8B59
BCF54B71
3DB452B8
BDB9DEA6
3BF2ADB2
BD8A3DB4
3DDA9004
3C850812
BDE6F0D0
3D898DB3
BC96A528
3D73D6FD
3D8D8658
BD8A4F87
BDC0633F
BE003F70
BE07C0B1
BDD1FA33
BDD28D00
3D4AD9E3
3D9FA4B9
3D58F1D4
BD958794
3DC478BB
3D17F96C
BDC16716
BC4033CD
3DD67770
BE01BDE8
BDD55DE6
3DFC1DF3
BC27B11F
BDD4F26B
3DBE6D4B
3D24ADE5
3E037F7C
3D3C1A48
BD12FBD6
3CF1E5C1
BD9D904F
3C1A199C
BD96919A
BD951B5D
3DC8BDD2
BD2375A1
3B215047
3B524486
3C9CD29F
BD91CE29
BD596399
BD393B3A
3CCA4716
BCA7A7AF
3DE6FF7E
3DEC460F
3D985412
BDB52FD0
BB9D6871
3B8FEBC6
BC06ADEF
BDCBCEFE
BD41617A
BC15A2B4
3C926487
3C21E791
BBCFB041
BCA264AF
3D1FBCC9
BDF4C986
BD812D77
3D693060
BD8B9C81
3D068AFF
BDF7EBAF
BBEFF241
3DB93492
3CA12C6B
BD0EB900
BDB041F5
BDECEAAF
3D4376E3
3E1079E6
3DC66608
BDDD82FD
BDE1D8E8
BDF5C747
3DB4E428
3C9E07F3
BCF07D41
3E1D25AB
3D4E519D
BC21FE37
3E51C715
3D720B15
BD81FE80
3C7042F4
3D2D57BC
BB980A78
BBDD2F86
BD9AD264
BD71D713
BE1D7E02
3DC6C5B7
3D8FA2A0
BDC7A7CA
BDE0F12C
3C3BC3FB
3C23D3A5
BC62AC32
3E384018
3E40E12F
3D2E3659
BE201EEF
3C75F11E
3E80D435
BDECDEA0
3DFF1AE3
BD33CF8B
BE07D1BB
3C0C507B
BD0E8ADD
BCE05BF6
BCFD6AC5
BDED2136
BD7EE010
3C9197A2
BDDE0CE1
BE04445B
BD3A7C18
BE10D131
BD221F5F
3D76639F
BDC4D199
3D687732
BD310972
3E08A97A
BC985928
BCCA5C45
3DE58FF7
BCB4ADBC
BDAFBE77
3DF0CED5
3E10BFA1
3D96FDF9
3DDE742A
BE06E697
3C27249D
3DB61566
BCF23BF2
BD91CA1F
BD97B5E4
3CCEC347
BD91BE61
3DD6B1A3
BD896F4A
BCAD9DFE
3D5ED289
3DCF27BB
BBE09704
3E15D67C
BDE05575
BE0AB68D
BDE91B82
3DCDBAD4
BC0A7BCF
BDEE24BC
3CB3C55F
BCF1F9AD
3DB19DED
BD621AF8
BD47B9EE
3DB3BB5C
3E072E6A
BDC95E91
BD9849F3
3E23F1C7
BD928086
BD15360D
3D85A972
3CDB55C7
3D35EF3B
3DC215D4
3A1E3444
BE002E23
BDCA446A
3BDC0D9D
3E0DBFCF
BE0B33DB
3CAEABAF
3E062CBA
3D830107
3DBE8C8B
3D9DD99A
3CFD5D23
BC559C7F
3DA4B34B
3E0F05A7
BE1874C9
BD964FE8
BDCBE653
BB856A4D
BE3B8562
BD4328DF
BDCDC3BD
3C09FA60
BC93DD98
BE26A6A0
BE1399F6
3B90DD1D
3D8BA1CC
BE10A6B9
3CCBBF87
3E0D0636
3A431445
BD40287A
BE17F5A5
BC0E63BB
3D2F2A0A
3D8645D7
BD987CE9
BDA0BDB0
3D86AFE8
3E1834D2
BDB6B9D0
3DFD95DD
BDF7F306
BC9BEBB9
BDCB6475
BE0DCE3A
3D95553F
BD9D03F5
BDC8793E
BDAC41B5
3DBDE2EF
BDD5104D
BE0332F0
BCFE029A
3DC411F8
BC39FACE
3E2D5A18
3D34EDE9
BD688C96
BDD6B65B
BC6FF9F8
BE029B28
BBB84292
BC6ECBFB
BE1CAFF7
3DA69BEE
BDC221D6
BCF0EDA9
BD740BA0
BD2D5DD1
3D8DFC6A
3E078034
BCAD0587
3D09633B
3DC7E232
BD20D48C
3DFBD7B2
BD8FCB34
BE123AF3
3D67A729
3DEDD378
BDA0E248
BD9C5C7F
BD853CDE
BD3B7811
3DF29CBB
BD67E10A
3D15F0B3
BBF9FD87
BE116ACF
BCA52447
BDAF9669
BC8B68B4
3BD12C98
3CD71F6C
BE0354C1
3DB01A6D
BD956F25
BD37B924
BE2F77F2
3DEDCCA7
BE69B2C4
3DF9578A
3DCDCC21
BD972658
BDCA22DC
3B1CF4C3
3D2B96D7
3DE659D1
BDE98809
3DEB34E7
BD69CE30
BDBA9B21
3D4D2FFF
BE58CFC0
3E513D32
3DBBE008
3E4813CB
3CF1C7F9
3DBEA10B
3E2B5244
3DA5C1C6
BCD0862A
BC3826B8
3CE252DB
BD1B303D
BC5BE27F
BD3E405D
3DDED395
BDDC0443
3D6E1969
BC1DF97B
3E0EC6BD
3D87DA11
3E05DE9C
3DD37DA6
3E1E9FAE
BD50F40E
3E18A3B5
BC781B2F
3DADDBE9
BD7FC639
3DC06233
3DEAC322
BD0ABCBD
BD790504
3CC61D1B
BE4DD6E0
BD5148AD
BDE1E0C6
BE18B220
BDC53DEA
3DBAC8CC
3DFFAEBC
3D88B893
3C97AD30
BE577C46
BCAFE246
3D5B1A6D
BC47C591
BD9084CD
BDB2234E
BD333384
BE00856E
3D4E4A2B
3C0E958F
3CFF203C
BD954DB2
BDA957C0
BD86F17E
3E2303C0
BDE441FF
3AB8F04C
3DC0AFCB
BE239000
BD01E604
3D9E41C7
3CBA8064
BC67E191
3E0E7AB7
BC9FF59E
BD9AF300
3E034C1B
3DCA78CA
BCD8998A
BC95CED4
BDD39431
3E0CEAAF
BDBD981E
3E0B3AAC
3E0599ED
3D491878
BCD6FB5A
BDA7D88C
BD9C5F04
3DECE91D
BE12680A
3DF4A127
3D35B7C2
3CC8B114
BD85BE6B
3DC10BDC
3D985851
BDEF6D76
BD9B4C21
3DDC6328
3E0A42AF
3DE2DF93
3D7DB065
BE034763
BC471279
3D1A9B57
BD921859
BD7E2BEA
3D649922
3E1FDDEC
3DE50939
BD3C9115
3DAC1857
3D84EBA8
3E00DCFD
BD948210
BDE46BF0
BD85D2DE
3D859302
3DBE8FD8
3C985E66
3DC41447
BC656EF0
BDBE5AE4
3D1B8272
BD4E7F54
BDB10F52
BD0E2D55
BB6BFB91
BCFB6A6F
3DA484E5
BDCF0AE5
BC3F5225
3D24FE52
BCF480DB
BC50664A
3D72E39D
BC3995B8
3D15F5F1
BD892F1E
3D652843
BD8CA489
BD0875D5
3D7B08B5
3D12576B
3DA0A59F
3D3A394C
BDB2E268
3E0BB4D5
BC04953B
BB9BA6E5
3D4B0FFE
BD95D7E6
3D01914A
3CA77ACE
BDB0F627
BD8A4096
BA863A6C
3DC84AF2
3C336BD3
3D4A2AAC
BD9A17F4
BD3703D8
BDAE5F74
3DE75DDD
3E3300DE
BC4CD749
3DCFDC9C
BD238F87
3D0DF6CE
3D771C97
3DBCBDF6
BD3BC0D6
BE0FDEB5
BDEA411C
BD9909E5
BDAE0165
3DE3F24E
3E042A67
3E085B18
3D5A3D48
3D10B418
3DAF82BF
3C510F52
BD7490E6
3CE94000
BC8FACB1
3B8341E9
BD84C257
3E0E4756
3D91E0FB
BDDB3398
BC3BA98F
BD11BE1E
BDC809FD
3DE93858
3DC1B7C6
3DD82236
BBF017EB
BD8F04C3
3D9575B3
BDA2C189
3DEEA316
BDC91728
3C8021C4
BC903B4C
3DA7C5AC
3D3CE05B
BC741942
BD9EB760
BD6F9A07
BDD7939A
3C8B0623
3DA2C2B0
3D6596FE
BDF3E1CA
BDCE06D9
BCEA091E
BDBEF5D2
3D94604C
BD9E4EF0
BDDBB2FF
BC9988D3
3AD29894
3C93E55A
3D20C82C
3E0B517A
3A897387
3D658F3B
3D0DC9B7
BACC7792
BE4177EA
BDB8C389
BE43736D
3D75E113
3E148302
BD6D86B6
B9B5BE93
3DD9E7B8
BDABCEC8
BDAA3B80
BCA6FC59
BD74ABF4
3CD92931
BD1277B7
BDC8CDA7
3B7272A4
3CF4C6E7
3DCBFD9A
BE285B18
BE096DD2
BDB872B0
3DB5ECB6
BE1E008F
BDCF0E0B
3CF961EC
3D9FCE16
BCA21279
3DBEA5B5
3D36A868
3DF6B3BC
BDEAC6CE
BD28DA9A
BD8EAB87
BE20B73D
BDC10A7F
3DD34938
BD7C792D
BE00A5F0
BDC99A7E
BDE86488
BD8F75E7
3DADD69D
3E151373
3E0663C7
3CE9C9C8
3D1E58E6
BDA10859
BD7109A8
3B15BC3F
3DACE6F6
3D5CF5BF
BE23F5F9
BD3DE3E1
3E02FA0D
3D96781F
3D85FAD1
3D0C726A
3D9642DA
3DEFD220
BD5ACB5D
3DC1A834
3D84DA5A
3DB1D3C5
3D834712
BDB913E8
BCEA39FB
BE01F4F5
3CA94C2A
3D6DF1AB
BD59F630
3D189C5E
BCF42C57
3DE0F4D8
3D5FD13C
3DFA8049
BD96AEDB
BE02B8C7
BDDAD96A
3E0473CD
3ACFFC2C
BD124760
BE198E54
BD1BEB69
BC19082F
3D935E82
BE0D2CBF
3E0E03F7
3DED477C
3DB78119
BDF7FE09
B86A762B
BE0C80C7
BCAB6468
BDDF7165
3E0502EF
3B1E5DCF
BD6DFBBC
BDE213A1
3A364430
3C462655
BD7F7180
BC9BB964
3DDADD9C
3D6E6C5A
BE229889
3D739C5F
3E3F8FCD
3CFBB97F
3DFF05EA
3E4610F1
BE0B877B
3DB9BC34
BCFD19D1
3D071CDA
BD96F66C
BD2AB43E
3DB5C861
BDDFBACB
BDA20210
3D9ED147
396CBED2
BE0E9CCB
BDD68AD7
3D8B3886
BD0D4DFC
3D19F01C
BCD3543B
3DFDD7ED
3CCB601B
BC8A37FD
BDD301EB
BD6D4D0A
BDB838CE
BD34FA48
3E722079
BD3E8E7B
3C420AD2
BDAB0C10
BDE9F16B
3C8AA82F
3DD3AFFB
BDC8ACAD
BC68617E
BE0B0C46
BE4DA6E7
3D56F976
3DBED93F
BDB12ED4
BBCFCB6F
3C487E1E
BDD91255
3E30E022
3DB2D8C3
3DACC8DE
BD0761F4
3C68774D
BDAC94E9
BD9ED818
BD17110E
BD877B47
3DD9042E
BD1651E6
BD186FB3
3D8B63E1
3D763BFC
3C915959
3B9F907F
3E5B649D
3E0FA8B5
BE150F41
3DF1F14A
BCF3717C
3CE0C67F
3E4A033E
3D8FB811
3D857F81
BD8C2748
BE19FE43
3DC4425D
BDA3F91E
3C887D7D
3E5EBAF1
3CE5AFBD
BD2B3411
BD2CF43A
3D11A346
BDA82716
BDE276B8
BD10FF97
BCB86750
3DEFC04D
BDD288CE
3DBEAC43
BCAB4B3D
BE25E248
BE44024B
3DF92F2B
3D22CD70
3DB7B61A
BE7EA24D
BE019E73
BDF29ED4
3E50713F
BC52538A
3D4E18E2
BDBEB04C
BD046F15
3DDB139D
BD81A9C6
3E243287
3DBD7E02
BD56B8A9
3DF01755
3D759F8A
BD9023DC
3D390936
BD8663AC
3D8B475C
3A885CB0
BBA5A17A
BDA23316
3D462D5C
3DE5A78F
3E657604
3DEFE692
BCBF22F6
BD95D412
BCED87F9
BD121D1E
BDA425FF
3B7E40E3
3DA2456F
BDB04F1D
3D99117F
BDF63886
BD148A9C
BE1D2AE9
3E3CC74C
3E087768
BD9152F4
3CD516B3
3DDE0EFA
3D23BB26
BCE4B58C
3CF8ED52
3E311FD6
BDDA6267
BCF44FFE
3D0E072A
3DA62E40
3D69C023
3DAC3929
BDA2C3CA
BE032874
3CBC3FB7
BD7749AE
BE6C5EF6
BDAF2AC6
BD945077
BC325D4A
3E458C4C
BE0B777D
BCB2D5E0
BD008E9B
BD6243DD
BD8FE1CD
BDF65C2D
BDE2AD3F
3E443394
3D8811A4
BE0E24BC
3DE4EF89
BD801422
3D4E1552
3D9C64F0
BCD182AA
BE8CDA90
3E0CC2D7
BDE9E55C
BB462D76
BCE1B08A
3E658687
BDEA78AF
3DAFFA7F
BD4AF8D2
3DC95620
BC87E572
3D013AE3
3D8BA725
BDD36EF8
BD9D107C
3D57D524
BD959AD2
3DDA5F42
3D95229A
BD61A56C
BD1CF71C
BC3304A5
3E1A0BE5
BDCAAC39
BD7E1438
BD6E66E6
3DA92F97
BD8C4B90
3E2CDC87
B9D9B1E3
BD9F4DD9
BDA326E1
3DB8C8D4
3D131D49
BE08CF7D
3D0BCEF1
3E174257
3DD21816
BD52AC40
3D7F8501
3DAA6ABD
3C62C202
BD2BCEF1
3D965EE7
3DAC19F7
3D840D4E
BE16034F
BDD8B0D1
BE005D96
BCEE04F6
3DAEFB10
BDBF0861
398E4E73
3D28E20C
3E0ABFFD
3C9C87F6
3C71EAFF
3D0B60D7
3D220BC4
3DC16723
3D589DD6
3D83BE23
BDF11277
3DDC1052
3C0F92D0
BE015C21
3DC7B74F
3DB78705
3DD06E5D
3D4623EC
BD7D2179
BBFA027B
3CAF13B4
BE100757
BD618FB8
3D9E302A
BE1E043A
3C90C799
BD6E1552
3DEE9E5E
BD4912E9
3C81919B
BD8BBC7C
3D8D66A0
BDC5D280
BDF13F07
3DD8AFC4
3CD9355B
3D487428
3E3DB121
BD90B3FD
3E40D888
3CF23D34
3E152AC7
BDB00E0D
BD8E82BD
BDDC0336
BD96E661
BDFBB7B7
BD09B307
3D09EAB5
BD9F7FC2
BE07FDC6
BDF38B48
3CCCA8F0
3D558588
3DEB7910
3B933780
BDD4801F
3E120B80
BE1E52DF
3DBE88D2
BE1992C9
BB30BF25
BD320E55
3D63D6BA
3DB4A574
3E2B44E5
BC93D9D2
3C9AE3B1
BDEC0DF6
BC47706C
3D8AE3A4
3B5C8628
BD79E478
BDF79B78
BD9CE48D
BC5A1159
BD6AC083
BDA4D750
BDC7E092
BD90C027
BD418A94
BCCC88DA
3E1FEB07
3BD864B1
3DA644CB
3B98032C
3C81BBF8
3DA1E3F8
BD963C32
3D77D0BC
3D432061
BC0F9EB9
BD690F3E
3A462159
3D9316E3
3DDFD157
3D36100D
3D8B1572
BDF9DBA9
3D3ADD9C
BDC5BC0F
3E056712
3CDC9313
3BDA5576
3DA4A912
BC7F8CA8
3DEF2303
BC0A3E52
BCD5EFF7
3B8FA11D
3DA28EC9
BE0A5658
3DA1BD6F
39EF6C68
BD519554
3DCACF31
BCAF8AD2
BC5F1C5B
3DE4DEC2
3E27B741
3E0851A8
BD97ECAE
3CB84DEF
3D6F75A4
3C5C8F4D
3D22EA60
3D4B9595
BC6A31CD
3D1BC15C
BD951D9E
3E22DB1F
3E17E069
BD91322F
3C5CDCE5
3D0D7717
3DB17DD7
BE458362
3D9F1A1A
3D6BC00D
3B4E02AD
BB97D9D1
3D3349D9
3DDD199C
BC2D468A
3C7919C7
3DAC7178
BC5ED21D
BD83B6E7
3DA2EAB1
BD1EADD6
3DE59D13
3DF71865
3CFC9115
3CF48D71
3D97FD32
3DF8B04B
3DBAA101
3DECC4F0
BD8D4B93
BD48E227
3C4CA4F4
3DD950B9
BDF1140A
3B96B0C7
BD1A8D2F
3DFF1BEF
3D488327
BA4930EA
BE2CBA73
BD55B9DB
3CBD793D
BD1D66E3
3C740662
3D8DC345
BD85673B
BD315726
BC16B5BA
BE0497FA
3DE15EC0
3DA0CC00
BDA34854
BC31996B
3E483233
3D6DA22F
BE1EB9E5
BE204684
3B3B5A34
3E056DA0
BD227A49
BD84EB64
BDF82236
3E17E4DE
BD93294A
BE3A6267
3D777425
B98EA121
3D48AAE4
BC00AC2D
3DB8FC43
BE07B0F7
BDA7159E
3D12EF41
BDF9652C
BC863107
3D5CE3D1
3DD0FF97
BE2634DB
3CF36014
3D8F6025
3E1CD63D
3C99E478
BD58F0C7
3DA4C610
BD99DA74
3CC04B4A
3CEDA3DD
BD310774
BD22CF02
BD3AE112
3DE2717A
BDB3608D
3D5C7EA1
BC175531
3DE6B0D9
BDF0574B
BD8CD1A0
3E0E52DF
3E16238E
BD8BE12F
BE019EF9
3DAB437B
3D8DE34D
BB243E0D
3DB554AB
BC1DFC1F
3D8A6620
BCD612C7
3DC888D0
BD8FCCD4
3E27CB2E
3DE66C2B
3DC965E8
3CC9CF57
3AD0D240
BDBAF541
BDDD2A63
3E136E72
3DB8DA21
BDD5B467
BDDA95C8
BE0BD05B
BE1E8816
BBE1E1F2
BDC0639D
BD397F48
BDA78A02
BE2B0293
BC3A95FE
3C954E7C
3DEF837B
3E11B1D9
BCD13BFD
3D7DF076
3E0EB28E
BCE2467C
3D573BD6
BD8A44F0
3DA96C83
BD124FC4
BE1BA5A0
3E132F88
3CF275D4
BDF4E981
BD1CB3E5
BA2DEB71
3DB2EB7A
3D9DB8BB
3E5DABE2
BD2361EA
BD566E1B
BAC4684F
BDAC52A4
BD8DBAB9
3DA0FC7F
3C6E3F0D
3C557222
3DF7E1B9
3CC39EF1
3E2D2C7C
3DAA71C4
3C637CA7
3D6DBB3F
BCC880D8
BE4772D6
BD112374
3DB80AC6
3E07CD8A
3D1499EB
3D92EE5C
BC981677
3C8482E7
3D8FB4B6
BE01F18D
BD45AC62
BDA130FA
3C5A1B6A
3DCFF21B
3E082129
BDBDE3B9
BE358AFC
BCA2A800
BDFD7CB3
3D12F0EE
BDDB18DB
3D99D452
BD008886
BDE2EA96
BD9D34FA
BD345D1A
BDC893EE
BE051B93
3D875013
3E1BC558
BE0ECAEF
3D9DAFA9
3DB1FFF8
BCB8F910
3DF89CE5
3D740505
BDE04966
BDA087E5
3CE7D6A9
3CA9C348
3DE40315
BD428B7B
BE209C80
BE3075B4
BDE7296F
3D535DE1
BD5DD2E4
BE055001
3CF43D8A
3DA81E8A
3DCA6A0F
3DE0F12C
3D8D4ABC
3DD3E682
BDB22036
BE14C87A
BD9B098C
3D44E21D
BC8D1054
3D803CA9
BDEB68CF
BCF77E51
BDB87FE6
BDB77029
BDE60243
3CC4068A
3E09E27A
BE027632
BCFB9354
BD11F5B1
3DC6A678
BCD7CCA5
BE28C75C
BD419602
BC1B7D34
BC5D63F4
BE29FBE7
BD6E802B
BD76A162
BDAC1D7A
BDD89C5E
BDAD4AA1
3B2141DA
3D171632
3C520F2C
BD9C508B
3E04DF05
3D94618F
3B7D0AD8
3D8F91CB
3D9CD69B
3D42590B
BE0BA0A5
BDF8AB93
BD479EFB
BE0639D6
391E7F18
3CF5B6D1
BD13B42D
3D72EABE
BDCB84B3
3DAA0C1B
3B895B73
3DE07033
3DAE160E
BDB19455
BC777A20
BDBB8D9D
3DBE4911
BDCDC5D6
BDFA0C6B
BDC995D3
BE0C2A88
3DBD721C
BDB921A5
3C70F45F
3C7897C1
3D875FC0
3E384E83
3E1D6DC2
3CDC76F9
BDF1C10D
BDA766E2
BCE11051
BDBA8976
3C300226
3D3AE1E9
3D8C267F
3C863356
3D550CBD
3D8ACB78
BDA139F2
BDF6F976
BD869F71
BD4C958A
3E1066C3
BC04550F
BDD6F6D7
3E0FA440
BB816154
3DAD1D7D
BD241CC5
BDFD3AA3
BCEC3FC4
3B724603
3C27BB9B
BD977681
BC7B6567
3D18C0F7
BD6EA0E2
BDC0C077
BD5F786B
3E3D9CAE
3DBC4546
BC5C1758
3E177532
BCBE330C
3C25BD94
3D9D03A4
BCB1C4D4
BC0F93FC
3DADEC44
BC63BDAA
BD87D40A
BC5D63F4
BE0F0069
3DB2B750
3E13C7D6
3DDBCDBC
3CCEF4C5
3D828000
BDA59203
BD8F907C
3E00E497
BE07B95A
3BD358EE
BE2C7BCC
BD05EAC6
BDF28955
3CFEE2FF
BD7BE9D6
BAB04909
3C284605
3C170F26
3DB3B554
BD203402
3D997E13
3DEAC190
3CB4FAB4
3D0953B6
BD38EE5E
BCDDAAD6
BDE7D780
BE11040C
3D008B91
BDC95F75
BD043F95
3DA9FCB1
3CB28DBC
3D1DE6B6
3C3C4B75
BBDFFE17
BDAE9234
BDB63320
3E2B1290
BE06CD6C
3D6DC6FD
BC653F8A
3E085597
BD8EF73C
BD799CDA
3CF58736
3D1834C5
3E04BDFD
3DAAC599
3C550515
BE16A162
BE038002
BDBE9051
BC0B7879
BD550ABF
BB852254
BE5DBF05
3DBF7F72
BDC2AD74
BDA9227B
3E006F26
3E2E18AD
3D8CE6DB
3D8C07D3
3CD44277
3CF66806
3D7A2AEF
3D8EAC43
BDDC6F37
3D184216
3E2634DB
BE1FA051
BE0FD7E4
BCF38C8A
BD6E5131
BC91FC82
3B309F45
BCB57DFC
BDB9ECC1
BDA6D077
3DFEF848
BC5F5F77
3E1809D5
3E4199BB
BC687966
BD50CD42
3DC9DC58
3C55347A
BD210767
3D5E7302
3E12D8C3
3D9BD5B4
BD6A8BAA
3D721FBD
3DA89192
BD939093
BC2FCFD1
BD172E6A
3D5850FA
3D43C2B3
3DF89481
3D1C79E9
BE2294DD
BDAE9C96
3C8D98DA
BD5E4C1B
3CFF6C27
BDDA2BE0
3E00E7BC
BDE89EBA
3A012811
BCF8FB29
BE00D5A6
3DC246B2
BDA126C1
3E33369C
BC46D24C
3D586170
3DB19030
3D9C5FDA
3E0919AC
3D9C4D3E
BD823704
3DDA35D6
BD42CC63
BE320E1F
3D215BB5
BE1C575C
BE09578A
3DB2E33F
3D8BA931
BCECCF36
BDBEE69D
3D389FB9
BBD38690
3D64A6A8
3DC6C6F9
3DA5281B
BCE04D48
BDA176EB
BD45119D
3D687981
3DE774EF
3CE1D82C
3D31CFBC
3D753932
3DE3443D
3D947C16
BD63B653
3BF3C4C9
BDDC7369
BBEBC35D
3DA97339
BB99652C
3E144029
3D80276D
BD0A7AFE
BC380311
3DD3404F
3D48893B
BDEC00DA
BCCF8360
BBCC6203
3D4EA580
BE24C1A9
BE0A7158
BC6BF303
BD8E1410
3DABE96B
BDB85745
3D2EB09D
3CFBFE13
3E20CAA3
3C811C95
BE36AA08
3BF08C04
BC071C29
3DB92E47
3C510972
BD38C727
BA003E20
3C0A69DC
3E098E97
3DCB01BC
3B9B74E6
BDDB9735
BDF075B4
3C4D382D
BE0D9A52
BE2E6320
BD85F486
BDB9039A
3C026A48
BD9FD538
3D384190
3DB4DD65
BDC37A59
3C3F4B6F
BDF0AFE6
BD10AF2A
3DA7296F
3D1D9A2A
3D329AF2
BDFDB984
BC9FA79B
3C865011
3D40DD76
BD7DAE67
BD86FF13
3BCA032E
3DAA0BAF
BDA738CC
BDAEB14B
3DFE28AA
3CF39376
BDA65AA8
3D5AC0C6
BE40B7C3
3C279EAA
3CDC5353
BDF6A1E8
BE1DDF01
BDBEF24E
BC0CF5D2
BD20B044
3D4E840C
3D7CE670
3DA2A4CE
BD86BE1D
3E0F7447
BD782BDB
3DB535A2
3E21CC10
BDFA93AF
BC987FF4
3E257C4E
BD92A5A4
BD15A6C6
BE1B8D3F
3D1572C3
3E21AEF7
3DC2323F
BE1D8D37
BDF48BA8
3C6ADDC4
BE2D249E
BDE87D2C
BE466773
BE18F755
3B8EAF1A
BD440DAC
3D04993C
BBAAD038
3DD03969
BCBB1F25
BD2C1D95
3DAA5772
BE25F45E
3DC7AA91
BC0368A0
BD8F3882
BD16E7D9
BDBF97D3
BE20B0F2
BCBD9480
3DA9D869
BDC98CDC
3DB8DF88
3DDE0AC8
3D220E7D
BD71B585
3CC930CB
3CB7F53A
BE07CFE6
BDF4D163
BDA97A82
3D9C3E24
BDFFE5C9
BD113C68
3E26F4BF
3C3ACC19
BE368CAC
3DF87F02
BC1E9D2F
BCFB5FBD
BB930A9F
3DF5F916
3DD4384C
BBA9105A
3DB1BA2F
3DD592DA
BE08E10D
3D37C5D5
BDC85D9D
BCF58CAA
3E2E7147
BD83D0A5
BC75104D
3D99F8C2
BD3F4906
BDF2DF50
BD4426D6
BE2880D8
BE6A936C
3E0616B5
3D24F674
BC06B8CC
BD081832
BCA4191A
3AA1D857
BC4FE012
3DA074D0
BD4C2720
BD80EAAC
BD6DD378
BDC97F7E
BD78929E
BCE7D673
BCD72805
3E08E219
3DF60E95
BDEC43F6
3E0A1166
BE13300E
BD5F27FE
BD8AA540
3D6D63E6
BC976D04
BD889E0C
BCD8EB89
BDB23521
BDA84A0E
3E062A5E
3CCF9C8B
BD88D98E
BD161D28
3E0815E4
3DA450D5
3DBC1F28
BE40A676
3DEDC337
BDADBE57
BD938B70
BDEC47A1
3E27FFDE
BDA46979
BD5BEF65
BCD5EA17
BD957802
3DF2A844
BDC01B79
BE01376D
3DA934FD
3DBC734E
BC5B120A
BE0787CF
3D2ED7D4
3D8C9FDE
3DDA9436
3C8DF9BE
3D90E205
3D930FD0
BDD05426
3C0C934C
BDE7BE55
3CD7EDC8
BDA7996C
BDA95F75
BD9207F0
BCF7F031
3D0A256D
3DF5F02C
3CB216D4
3E03AE25
BE1C853C
3D07C866
BC51D8A5
3DB93A2E
BD960822
3C8F6BE3
3D882E2A
BDF70D63
3CBB0956
3DDCFC40
3DD0270F
BD62A57C
BE0C7821
BD688682
BD007D69
3C647E2F
3D1B30A8
BBAC2710
3D5314CB
3D6CB8FB
3DBD3177
3BAA5742
3D02249D
BC3CD000
3C2296C3
3D929AF2
39E4D86D
BDE21965
BDA85CAB
BD885A34
BD6699AD
BD159EE9
3DC5CD5C
3DAF21E9
BD966D0F
3D253B08
BC841A77
3DDBAD3A
3E142246
3D941602
BCB9544A
3CE32965
3D8A9E47
BE069553
3D859203
3DEAEFB3
BDD2DDBE
BDE1C4FC
3C81CBB2
3C8433D7
BD2F9C55
BD817B38
3E12B5E5
3B0360F3
BCCE4B52
3CC03EB4
3CA3EE52
BD98AD69
3D630AC7
BC9737F5
3D8364A4
BDC55278
BC7AC3EB
3DAE8DDA
BD87A850
BDA8D859
BDCBEFC3
3CF3FCF2
BD8B65FA
BCC777F9
3DF8CEB3
BD7AC380
BD180A18
3D0BAE04
BD0A0481
BD314735
3B50117B
BC57BC7F
BE18A8B1
3D1AAC03
BBD0BC30
BB54DBBA
3DDD566D
3C53C2F6
BD88DA64
3DE4F334
3D19CFEB
3D4303A6
3D9B4E70
BDA9D297
3CB67903
3D5575B3
3C8603BB
BD9CD482
3DD23572
3DAA6D19
3DBD3F69
BD5CC568
3DC2F18F
3CB41404
3D8C17F9
BE103969
BE17CF5F
BD89AD43
3D97E87C
BDB62C4F
3CE12077
3DCF4ADC
BD652264
3D2EF2FD
BE096D8F
BD807F74
3B3B60EA
3CFC51F6
3C82F9B0
BD063498
3DA00A62
BB489A0D
3DBB3794
3DA33623
BD93424D
BDC5BD29
BDEF80DC
BD8BDB93
BC58CDF7
3D3230D5
BC0BC0B3
BDAF252A
BDA3BF14
BDC8C500
3D08AA28
3D8770E5
BCB35D90
3D6DA22F
3DB99476
3CB66B97
3D4E32E4
BBE3A4AB
BD855227
BBD9400D
3DA37875
3DFBAE47
BD5F05B4
3E1C6046
BB417D38
BBF1BF35
BDE79AAE
BC748578
3D9DA5B3
BD6267D4
BBF8A65A
3DD0CBB0
BE0462C3
BE1BF8BA
BDEBB3C8
3E13A0C7
3E071E6D
BDB6E689
3DC79DC6
BD748E7D
3D3B6F0C
3DFC182F
3CFAB2B9
3E16BB56
BD5582B4
3D515F53
BE172607
3C1F3E1E
3DB8B6CB
BD27F745
3DA28A2B
BD2DABBA
BD71A4A3
3C6CCFA2
3BC23732
BDBE1A17
BDDF72F7
BDE7EF9E
BD43EC89
BD6958BF
BC69C66D
BC47496B
3D1D1641
3DE5E99F
BD675636
3D4185F7
3DF0E2C1
3DE97529
3D092924
3CEE69D6
3D8EDAC4
3D8A41CB
BDD6D6DC
BDB2200E
3BD02E81
BC4BDE90
3E160200
3C96BCDB
BE0E9143
3D960C6F
3BB7D316
3DBDB8F0
BDBFAC1D
3D8066EB
BD9E7DCF
3D8FCF4B
3D4092CD
BD91F48A
BDAB40DC
3D110BC1
3DD64628
3DE6C4C6
BBC2DADC
3DA300A9
BD231B73
3C8F7B9E
BDB84A29
3E2FD04A
BE2250B5
BDF16095
BA9BE2F5
BD39CFB5
BDC68FA9
3D972467
BDF12019
3E0600F3
3D27258E
BD7F048D
3E16FBD2
BB555ABB
3DB8B0B6
BBEE6995
3CEED0CE
BE0B88CA
3DEC76D1
3CEEF475
3D029E5B
BDC7A2C1
3E182ADC
3E11897A
3782DCBF
BD238C7C
3D0C32DE
3D90700A
BD829274
BDC033F5
BA6FB950
3E026F1E
BDC48012
3D8587AF
3CDEA5A8
3DFC5BD1
3D223CA1
BD5A8B67
BE1A337B
3D1E0701
BD8068DC
3D4D5263
BDA3F2D4
3D2B28BE
3C971200
BD4B908D
BE062B6B
3C70F4CA
BE0D46B2
BD7EBCEF
3BF9CDA1
3B3D05AF
3CDE4240
BC91E8CB
3DCC12E3
3C0C430F
3D865E10
BCB646AE
BD229281
3CF685CE
3B3F31AF
3E1F5169
BC6437B8
3CD15A9B
3B0E07EB
BDC45A02
BD228870
BCCFAA62
3CCFF328
3E203537
3D3D7BC1
BDE9F948
BDA72530
BD62971F
3D7417AF
3D45E6E5
3DCD0785
BCDD5800
3E0B64E0
3DD92A73
BD474E08
BD2E194E
3DCE429E
BDC19BEF
3E16E222
3C4816F0
BD8D55A4
BE2406C0
3E0069A5
3D7547E0
BD6256F2
BD82FD0B
BE0EF6F9
3E272192
3B015F3B
BD88CE12
BD0CE069
3D0B13FB
BD0F32BE
BDAFF774
BAFA1585
BD9E0C83
3D85E402
BDCAD993
3DA14C81
3D2C381D
BCFBA37A
3C0D77B8
BDD204B0
3C7DEC2A
BDF100A4
BD181098
BDF5EFA6
3DDB90EB
BB480614
BDD0B956
BDA4F0D8
3D8D9613
3E0BD76F
BD829AF2
3DB64F2D
3D2192F8
3D145613
BDF356DA
3DDEA140
3D05DE81
BD9BBDA3
BC0F05D7
BDAF4609
BDAA78BD
3CB55730
3DC9C2F7
3D932D03
3E10E9D5
BCCDAA78
BDD455A8
BDCEAD0C
3DA3E50A
3DDEDF1E
BD8CC327
BD914AFC
3D8CFC0A
3E2E88DF
BD7682DE
BE022079
3CDAE55F
BDC4F532
BD961F9F
BD8EA44B
3D882ACF
BD7D8ADB
BD1A8339
BDD9181A
BE028F9F
3C82C8D2
3D671EF3
BBA94157
3E14202E
3DF90215
BAFA747B
BE10856E
3CB9DD3C
BD66CD44
BC6908D8
BDB6BACF
BDB5B15D
BE190B85
3E292E62
BDD50B0F
3B04AC78
BDAECCED
3D80D39A
BD355D5F
3D7E9780
3CB6E1DF
3DF6CACD
BB7E37FF
BE1626B3
BDE0F1B2
3DCB6FE3
3B3C4B1F
3D33D79E
BCBFAD2A
BD9AF717
3D7AB706
BD6430CC
BC1E7597
3DD3AF75
3C6771FF
BD5E7A3F
BCB2CEBF
BD845CD7
3E0CC1CA
BCBA6C0D
3CA41695
3D484DC7
3DD3F9E8
BD9276FB
3D6190C4
BE007571
3C646CFD
BCE9A00C
BD7C45CC
BDBF9FB0
BE0CF9E4
3D5A3890
BC2B66B6
BDDE8145
BCE29B00
3C547E72
BDCF68BE
3CB71723
BDCD4FDF
37BD9521
3D01E944
3E0C1E36
BDBBE7A2
3DAB4D3B
3D7255D8
BE010F52
BD1F493C
BCB25F2E
3A9B2057
BDA44765
BCBD9C43
BD877052
3D680461
BDBAE6BC
BDA26C64
BE48A8B1
3D8F58E9
3DE69CED
3CE9D7A0
BE00EC74
BC9ED32A
3E3863BF
3DBD4952
BD24BDBA
3DC280FF
3D9E1204
3DD35116
BDA61947
BD215428
BC97BB3D
BCA394C5
BDA504ED
3DD68D76
3DC213E4
BC083208
3DC8CD7F
BD2F260E
BC66E6BF
3ADDC8C9
3B615A4D
3D649FD8
BD87DB7C
3D3D73E4
3D0BF0EA
BC669992
3D0E2817
3E3B1EE2
BCCEEBC1
BB3B1F25
3D059302
BB2D62FA
3E0B78CD
BCEE008F
3B0A2AE7
BDA987AB
3BA540C2
BDA4A20B
3DE8BF3C
3DC1F95C
3DEE1DEB
3D27CCE8
3D6F70B6
BDB0069B
BE2112BA
BA808BAC
BE0A5FC8
3D2CC44E
3DD3A81E
3DBD65FF
3D3F6860
BC56A818
3CB792A9
3E03CAB8
3CF1B8AA
3D834839
BDC67EE2
BCC536D6
3D68DA64
3E0B90A8
3CACFCB8
BDEEA39C
3E2AFDDB
BD866A55
BDEA3AD2
3DA348A5
3DB9F1C9
BDEAC3A8
BD83DA22
BB4FB9BC
3C109C1A
3D45E13B
BD28A109
3C128660
BCDEC1F8
BCD63D59
3D7B9C59
3B84E0D0
BD845763
BAD48F8F
3C9C7C38
B9BC76D8
BDFAD645
BE29934F
BDC7EA1C
BDD3A8A4
3DA3D578
BD77FC91
3D9F8E48
3DEAD363
BDE2C450
3E13CF2D
BE12E382
3E021533
3C186EAC
3DE7A073
3D4D022C
3D4252DB
3D8190A9
BDC3AD69
3CB5EC4B
BE226D48
BDA8A9E5
BDAE5E75
3D203FA6
BE11E753
BD8D11B1
BDAA644A
BDF6D2AA
BCF7D955
3E10DFDF
BD8D6DC2
3D283431
BD778D86
3D8B3C16
3E04751D
BC4B3304
3DA95F32
3D9F2438
BE677E1C
BD9C1F50
3C8D9FC6
3CA539E1
3C297FC1
BD92B496
BE1A2F8C
3D0BC1BA
3D840B93
3C96FDDE
BC18DF3F
BDCCB94C
BE1264E5
BE03F8DB
3D22BC3D
BDCFE586
3DA97EA7
BCD0C43E
3DD9AE0C
BC865B2E
3DE3E9EA
BD004718
BE4422CD
3E2C7193
BD9E4C6C
BE38B08E
BD98B33A
3DE63411
BD90902E
3D51D6F8
BCA9AE1A
BBC75757
3D6AB911
BD979739
3CF73BD6
BD8134C1
3C4CF6BE
BBA2976F
BDB08828
BD866A98
BDD58B82
3C888616
3D99F773
BDEE63A6
3B7851B6
BDD63993
BE3177A7
3CA00B03
BDF43A64
3CE04E8A
3D50FEF6
BDF281FE
3CEFD362
BD0411DD
3A31B8FE
3CEC87B3
BD0AB0C9
BB662690
3DB79471
3D21FC5A
BCB82C97
BD3F75E7
3DED36B5
3CC63BEF
BCC1556B
3D12268E
BE33AA7A
BC36F6A2
3DB3760C
3CEBE638
BE0D3E0C
3DD7D06C
3D45AFBD
3DB8D5BA
BD2C197E
BC0C2C89
BE038E6D
BE56B6E1
3DBC1CCC
3D82933D
BE22367E
3CB37D05
3C04988B
BC92B361
BDC8DD11
BD34AD51
BDCF4F0E
3D50EB0A
BD848BB6
3CCE2959
BDEC7193
BC66DBD7
3DCF5B1D
BD8E90A2
BD81881D
3DEBE2F8
BDABA1A4
BD5B3271
3D81D4FA
3D370D12
3E169DB6
BC09461A
3E005D96
BD371C97
BDF19158
BCDD023A
3CD8EB89
BE29728A
3D998A4A
BD657738
BBAC1689
3DA31551
BE0EA316
3D4C6CC0
3DEDD378
BE03D35F
3DE975B0
BD40B5EE
3D997B09
BB79EE99
3E1D8EC9
BDB7C866
3CD4FC46
3E046349
BD9D46A5
3D893731
BD4973E7
3E0DABE2
BD6D4852
3D8FA659
3D3A74A6
BE10852B
3D71AA4C
BE0264E5
BDF3FC01
3D10AC70
BDE78E9F
3DA7CCCE
3DA92C57
BE0306E6
3C977E01
BE11A7E3
3DA249BC
BDB4CC25
3D8F3436
BD7CBFA4
BA79DB9B
BDDE19FC
3DC3E766
BCA6A1C0
3B0BB7AF
3CAE16C9
3DCC0DA5
3D5C475E
3D700C52
BDA71609
BDAB62AD
3D34A7C2
BD8CEBD6
BD6A99ED
BDDA9436
BD4D0551
3E22B55F
BD9A8933
BCA9DBD1
BDB82B8B
3D2F2E3B
3C447072
BD6BC566
BE11F299
3B98A2B9
BD2F841C
BC99992E
BE2A1512
3CF48B22
BD30DF66
3D2105D4
BD85E12E
BE12D5E0
BD6422F5
3C211F3F
BDDD9125
3CB523CE
3E0F1A1A
3DF87619
3D5E2A22
BE0FF089
3D5A77B0
BDC545E2
3D864983
BCD7DE79
BD167EAD
3DA1A204
BD093C1F
BE2F6E3F
BCE1CB62
BDD891E2
BDBC2416
3D57B685
3D083559
3DC0600D
BD836651
BCFE2C8B
BD1A19A2
BD1EC1DD
3D12EC6C
BDEC0C63
BDB5EA5A
3D907754
3DB6035D
BD457017
3DEE8427
BCA9DCA8
BD95B1A0
3CB9E27A
BD8EBEED
3CBE9531
BDB5DFEC
BD6E199E
3D8CF689
BE0CEC85
3D617E35
3D5A8262
3D74CFD1
BDACB641
3DBEB745
3DAC0189
BD1F5607
BDCD7ADD
3B8A35B9
BD188044
BDB07648
BDC1427D
BDA81C49
BB8836B0
BC5F33D8
BC394CBD
BCDB5774
BB47A16A
3D72F372
BDE89B0F
3B983581
BD60C44B
BCC3EC89
3DF670A0
3E31D25B
3D4968CA
BCD6BD7C
BCDCE040
BB10AD62
BDA855CD
BDBDA1DF
3C98FA02
3C6442A0
3D69226E
BD078027
BC1589EA
3CA75C65
BDA6B64D
BD527E1C
3D4F479C
BD94643B
3CBA9486
3C5DC0A5
3D405D88
BCB52D3E
3DD89C5E
38A1E66F
3E2B356E
3D5FD8C9
3DAE60B6
3D8889A7
BE1098D4
3DD552E3
3DD18CA0
BD8E4E92
3C57745B
3D9DBD73
3DA2B27D
3D682858
3D9D9755
BD81F779
BDC85C75
BD101BBC
3D9CD3E1
3D05B9B3
3D859AFA
3DCB277B
BB39AA5B
BC8B01BC
3C8C74EE
3DED2D45
3CD9B39B
BD247885
BE191A33
BCE39C52
BC7D93AA
BD998CB4
3D7F714A
BD145EFD
BD9FB656
3AA92904
3D8FDC09
BE0302B4
BDFCE6C1
BDE65519
BDAE1021
BB9EDF94
BDE66F50
BC1905D6
3D9CB542
3DAA062E
BD4753B1
3D64BBA1
BC13116A
BDC327C5
3BF2E4CF
3D2240B8
BD91DACC
3C64910F
BE171EF3
BD950409
BD144BCD
BDF5EE9A
3D7A11DF
BDBC61CB
BD36D63B
3C3F8DB5
BDD78EE3
BD3F8211
BCD19E58
BDB96D3F
B7F776C5
BE0D245B
BDE18CE3
BE014CEC
3DA5CC1A
BD992CB5
3D293CDA
BCB5554C
3D270740
B824D60E
BDE8A82A
3D412945
3DD4D9C7
BD04C5B2
BDC85371
3D588D45
BCA6F5A3
BCF2B453
3BBD1103
3D78618B
BE0FD263
BD52ADB7
3B79D519
BC5E4ED5
3D396C83
BDBCFC90
3E0BDC6A
BC98230C
BD6429AB
BDF55C53
3CE0AD54
BDACF9F1
3D265A3D
3D9BF940
BD4E50AB
3D57AF13
3DA54725
3DBE67BD
BDDD1AA8
BC369C09
BC8A3D05
BDD0EDC4
BD34CC76
3D849DBF
BDB9C1EB
BC93CA17
BDDE279E
3DC0C0C8
BDA40281
BC5CDFD5
BDE8FEAC
BD96EE9C
3D32DC46
3CC5A15F
BCF33CD9
3CFD9953
3DD1D799
BD4483A3
BDF88F43
3E5703B0
3C44B82B
BD725EF8
3D1EF9DB
BDDAB431
BD798527
3DA794CF
BD644C96
BDD7E026
BDB3DB06
3DB6010E
BDDDB6E5
3E0FF045
3E2625EA
3D9847B2
BBB58B68
BB3914DF
BC1E3E39
3D6E9DD8
BE1DE1A0
3BCF281C
BDCFB118
BD74B00B
BDE8CA3E
BD8EBC5B
BD9D4860
3D6A2F99
3DFB7E0B
BD9C688E
BDCCFFA8
BC9EE3BB
BDA543CA
BCABF5F2
BCEE1298
BDBFD0D0
BD90926F
BC52E515
3DE51223
BD28E780
3E1807BC
3DD8B9BB
BD1AFC70
BD5C43B3
BDF9C737
BD9F866B
BD890C26
38A1B0BF
3E065CB3
3D31A4D9
3C13A48D
BD50BE29
3A65360B
3C678A53
BC9C68EC
3DA6F834
3D870776
3E09C843
3D7352DE
BDB1BB13
3CA66DBD
3DDDD335
3E15FCC2
3D4A4441
BCC44AB3
BCCB4AED
BCBE9ADB
3A210E7A
3E168512
3DB6C7A8
3D04BA29
BC7EFDA2
BE1FD3F6
3CC11FBB
BD77BD56
BDBEC3DB
3C96323C
BDDEC80C
BDBCE1FB
3D5E0646
3DBF8F6F
BDBE95AA
3E3E9963
BE106317
BD3FCE16
3C6CAEEA
3DB1DFC7
BCDD4C77
BE0CDCCA
3DEBE597
BD1B0193
3D6B149C
3B7FF36B
BD8D154F
3E086BDF
3C591398
3CE80786
3E19A027
3E178FEF
BE0F8876
BE19BAE4
3D972A46
3E6EB5B3
3D48B5E7
BDC264FF
BDB308AE
BDD8F1D4
3E0ED5F1
3DB653BC
3D54A64B
3CB5F40E
3C4CAF71
3DF7D30B
3D4D4223
BD325878
3C875B74
BDEB73D2
3E09003F
BD9691A7
3E0A6EFC
3E40079A
3D96FB3F
BE3C6EF4
3CAD3A2B
BD95C854
BC19216F
BD81F4DA
BD2478A0
3E0A5269
3DA46512
3DBC50F7
3E4DF506
3D78FB44
BB45A612
3D87B0C1
BC7F5E1A
3D790372
3D659B15
3C85F9DF
3D4FAC7B
BD3198AF
BE1EB67C
BDE784A9
3E0832BA
3E101217
BDA0DF16
BDD89EFE
3E33E814
3DCADB4E
3CD53841
3E0C0160
BE0ADC4D
3DDCE853
3D4DD3E3
BDCC6EF4
3D16B6AB
BDF04BC2
BDAC168F
3D0B932C
3CE59C72
3D2B8371
3E0D8277
BB8B4441
B99E00A9
3DA53E20
BDC87542
3E1EF5A9
3CEEF622
3D8ACD69
3DAB110B
3D608073
3D111C1D
3E0A697B
BC6B6DA2
BDD3037D
3DAE199E
B9410192
3C76D473
3BED8D0C
BD6C7F6A
3CF0CA02
BD0B38AE
BC8FD1CF
BB2A8F8B
BBA0A76A
BE21A7E3
3D4E8782
BD7B1E4F
BDB8CF04
BD820C8D
3D819E81
3D530A33
3DAE3129
3C741073
3D3CA4E7
BDFF9618
BE1477BC
3E17DC38
3C65C557
BC4D4A36
3D9FE579
3C8F9138
BDBE2ADE
3D2F686E
3D354A80
3A2BBDD6
3CFECE72
3CBBD457
3DCCF52C
3E396745
3E24766C
3D6BEABA
3D069B75
BC1F4A3D
3D358A0B
BDF6616B
BE25F45E
BDA4393D
BDA1565C
3D189141
BD9AE6AE
3D675793
BD94DA9D
BC9514D0
3D6351DF
3D494D36
3DC73472
3D36215A
3D2ECEB5
BBC6BD7F
3D09BD33
BE018549
3CE3F218
BCAF4A05
BDB24F80
3D6FE769
BD48D7AA
3D0B2A50
BE09EF0F
BD352D23
3D3044A1
3DBC5DC1
3DD4FF00
3C9E87E0
3CE6FEDD
BD2FF617
BDB29B5E
BDE71BCE
BCBA70AA
3DA20D7E
3DA3ABBC
BCAE37B6
3E096EDF
BD497BC5
BCF1282C
3D0B1903
3DAA3890
3BA2411E
BCC58B25
3E06C2AD
3D1C025F
BE1CD185
3D71E62C
BDD17614
BE0F969E
BE171D1D
3C5C6922
3DA95A7A
BD9BBE95
3CF32B71
3D00E934
BDE94DD7
BE36C482
3DF23C43
BDB9CDDF
3DD09396
BC6F071F
3D623CA1
BD090314
3DF6F75E
BC7A43FE
BD1FEA9C
3DC26EF6
3C3C0428
BD8B6A2C
BC995D69
BE0BFB16
3D8CA438
3D60D9AF
BD67D7EB
3B5498C9
BE2079A3
3DF966BE
BDBE26E2
BD2553AC
BB2C7C4A
BCA21D97
BD669601
3DD867F1
3DFFCC18
BAA72040
BD641E3D
BD974AE2
3C4EFFAD
BD5C9024
BD6A90CD
BD2896A7
3D481634
3D8F2D3C
BC9907D9
BD81A940
BD67BF97
3D2169DD
BD0433D7
3D097CD1
3DCFC58B
3DF07C85
3B579D8B
3E35B424
3DC0228D
3DF4341A
BE0D987C
BD8329D1
BDA04585
BC46D09F
BC4E61F8
BD0CD6C3
BCCB0BCD
3D0BE7B0
3B998994
BDCC06EF
BC488971
3DAA802F
3D6DC337
BD6E1C73
BD91F9F0
3DAB966C
BD626C71
BE01BEF5
BCE2D476
BE1224EE
BE00B780
3D54F0F3
3E16CACD
BD61169B
BE18D973
3E055F78
3C5B7BBC
3D786E20
BCA27682
3E071822
BB2A722F
3DDB1E9F
3D8A153A
3E1CF399
3D1B13B7
3D2D6D56
BDAEC86A
3D8F0B86
3D694A11
3D10687E
3E1B9ECF
BDD7A13C
3D2691EA
3DADFE33
3CDB749B
3CC808AD
BDC8D5F0
3DBA77A3
BDB6F892
BCDA0A02
3D973945
BE028416
3D0F4F0E
3D2E05CD
BC498F2B
BD48666B
BD111B46
BE41626B
3DAB386B
BDA4910F
3DF425F2
3CA8DD39
BD99E54F
BCD4D3CD
3D40A7FB
BDB574B4
3D875C3D
3DA0BC2B
BE0DB057
3C877865
BD94ED48
BDFA493D
BCFF4DF4
BE02C882
BBD605F1
BE01F57B
BDDDC487
BD1518B1
3AF1CB8A
3BC75DE3
BD24C059
3D98EF93
3E07E5A8
BD4E68AE
3E094EE4
BDC42940
BB8DC3CD
BE1625A7
3DE031CF
BE05FB72
3D6F3B21
3D87F37F
BE17B917
BB3ED060
3E007FED
3E27F130
3E182ADC
BD6AA73E
BC2144F4
3DA74942
3E25DF22
BDBF2E7F
3BB875E8
BE1F3B64
BDF44E51
BC145B16
3D996F65
BDDD3997
BCAC4F13
BD0422A4
3D6E5C6A
BDA3F1F0
BC9B5C7D
3D837AC4
BD7694E8
3CFC1773
BDC2C775
3D365C12
3C8CBA8E
3E231D71
3DB10B70
3D944EBC
3C8FCA43
BD76A03B
3CF4D84F
3E1D6A59
3C15D62B
3D841510
3DB9D4D8
BDC52C5A
3DB5A922
BE0304CD
BDCAC53B
BC64BD84
BD7F3479
3E272F34
3CA54102
BD994BB1
3DC36794
3DB6C1AE
BC864E63
BD77B1CD
BDE394FB
3CAF07C0
3E0E557E
BCB30073
BDC60194
3D8092E8
3E552370
3B17F4D4
3D7EC8FE
BDA5F677
3D2004EE
BD1B7E40
BDBDD723
3C4B9743
3C436EEB
3D6CDDAF
3D5C353A
3D80C415
BC3472CE
3E05C076
3C44F5D3
3E223DD5
3E294574
BDE821F3
3A8FFB35
BD4E64B2
BBEFD149
3DA66E01
3DF51B50
3DB467D9
3CD74272
BDB561E2
BDA9194F
3E1A98AB
BDE5F30E
3DA9E640
3D233391
3D999319
3DCC599D
BD848070
BD97601E
BD8BF5CA
BE0F0953
3DA6C955
BE1B7132
BDA28615
BDADA710
BD850DF1
BDDB54A0
BDD12D34
3C765633
BA6B7290
3CEA0481
BCDAB416
3C9CE0AC
BDC95B00
BDA46C9F
BD7BE843
3DB8AEE0
BDBBA2D9
3E12046C
BD9776B7
BDCED56B
BCB1B5BA
BD141AEF
BDB31D13
3D9EE15F
3E412A52
3DC8220D
BD3B44AF
3D8B5236
BDFD840A
BC853DC2
BDC81D7E
BD81F8F1
3D92E847
3DFBA5E3
BDA09B66
3D25209C
BCA860A7
3C3CFCE1
3D777609
3D4B6D6C
3DDF2FDC
3D964D7F
BDE90364
BDC72B2A
3E33482C
3DAC0D3A
BDB296F6
3D11F8BB
3C05D48B
3D506812
BDF4A0A1
BC705DCC
BE05AC04
BDA5A2CA
BD2A7FD1
BA86E0DA
BDA60C97
BE35E52A
3DD5CAF3
3D0C0FF4
3D3DB106
BDEE7925
3C8FE917
BD0DAF15
3C8750F7
3E0D6D7F
BD0AD48A
3D46EA85
3D8B6376
3DD0F388
BDF8194C
3E0E3476
3D06D44A
BD7DDC1E
3DD3FFAC
BDA6D620
3DD93709
BDB386AB
BBFA62F3
3D7FE360
BDE5BF27
3C04094F
3E298DCE
BDC387DF
BAD61A28
BC5BE8CA
BCC770D8
BCCBE9E3
BD418175
3D13EF6B
BDCD56B0
3D9BBA05
3E067903
3D9A0F25
3E00C0AD
3C4EB2EB
3D50A1BE
BD8E87AB
BCCBB2BC
3DD0A6FC
3E2C7864
BD60C6B5
BC5E0FEB
3E2BBCB2
3CE8CB9B
BDD27914
BD704146
3E073083
3E1D8A98
3DC3BE15
BDC634A5
3DEE22A3
3CF32089
BD91E789
3DBD1011
3CF63EB6
3D31C5C5
BCF0ACDC
3DF06D50
BD3D0006
3DBC92A8
BD120E1F
BD8CBBB5
BDA9FEE4
3D27DCF4
BDA1B428
3DC14F48
BB30AB2E
BDC5DB4E
3D8AD3C1
3C373E5B
3E1032DB
BE01D367
BDC61141
BD5AA40B
3D8F0084
3DB5326F
BC929995
3E2CFE9B
3D8887B6
3DE72757
BDEB26C0
3DB95C1A
3D9260C0
BE2C3505
3D6B98D5
3DB713D6
3D4E1A5A
BE02923E
3D6309D5
BD6AA3C8
3DBE7940
BE0BAB22
3DF719F8
3CE16D38
BD29590F
3CE9563B
3DD0EFDD
BE04CEC4
3E187054
3BB45ABB
3C097EC4
BD548D20
3BE341C4
3D38D584
BDEB5D46
3D2BF155
3DEEA52F
3DF02B41
3D62B389
3E03B1D1
BCE2E283
BD84B480
BD975DC2
3DCB4147
3DA2C0DA
BC2661FF
3D9AC15A
BDBA8991
3D6CD9CD
BD7FB126
BE055F78
3D8CCA20
3D0269B7
3DFFED20
BE0CDEE3
3B3E07B8
3DA06276
BC0BE77F
3D80C9DA
3D952C3F
3D9CA545
3DF881A1
BE23C105
3DC8B9F0
3CE10EA3
3DAC1D88
BD8E5952
3D030B83
3D3C6BF7
BC81A5F2
BD27F258
BE3E3FFF
3D942056
3B7788E3
BE1D6495
BD1192CF
BE0751CE
BC6A34BD
BDF3C57A
3BFFE6C0
3CB26C64
BCC98EBF
BD7770E5
3C9177F8
3E7CA255
BD5407DA
BB84553A
BDC72B1D
3E0806AF
3E106C01
3D80C283
3D42E3FB
3D56DDFD
BD8CE231
3DC216FC
BCF8B264
3DE52C5A
3D25F634
3D2BBA13
3CB8FEEF
BD801648
3D43E242
3E1590C1
3CC3FA2B
BA93C092
3E076BC2
BDCFA7A8
3B8DABD0
3E241BFC
BDAE0C4D
BCAF48F9
BC4BDCE3
3D8B0913
3D9D468A
BCFE274D
BDA7987B
BCA96371
3D944B89
BD1E2BEA
BD4D2F0D
3D86C88C
3CFD1A07
3DF4128C
3DAF8818
BE16E697
3C79E966
BDD58F2E
3C814545
BD160E0F
BE029521
3BE09394
BE300608
3E42F0E1
3CA1D5DE
3D62BF7D
BDCE2B06
3D91CC38
BE0B367A
3D8FD47C
3DF461B7
BD9288CE
3D8611C8
BE1E7536
3DD0E1B5
3D8AF1A3
3D93BB0B
3DFAD6CB
BD0C47BC
3DC9E343
3E1CD573
BD537289
BE07878B
3DF80A18
BDC67DA0
3DB02470
3E05CA2A
BD6F5954
BC82EDF1
3D2552F0
BCA1DC29
BC8B9199
3E492924
3D87FD25
BCDE3D38
BD962505
BBDB3505
3DF107FB
BD8D6020
3DF8C5CA
3D6218A9
BCEB8D4D
BD30D8B0
3E04B620
3D89D7E3
BC318472
3E024F66
3DD23A2A
BD81813F
3CB6BED9
3DF592DA
BD4699E3
3DD08CC5
BE2B4A23
3D14B854
3DB410A9
38B42536
BD3CFE8E
3E01943A
BDB66392
BDEE2C13
3D4B6E93
BD46D24C
BD3765E3
3C9F8AE0
3CFB9644
BD94EDDB
BB54B579
BDF389B5
BDAEA3C5
3D5FB5C3
BE198DCE
3DCCCAA7
3C4EE10F
3DD80453
BE16C11A
3DFAA476
BD3EE1BD
3DB290C7
3E1B352B
3DDE742A
BD97E1B9
3E0F3062
BDD8AA86
3CD74B76
3DC2CE54
BD31E33C
BD1ACD5B
3E0BB98C
BDC92E1F
BDC5506C
BCDADC5A
BE0E9A70
BE106D50
BDE0D563
3E2F9F45
3CDDFF90
3D3AC117
BDB86D72
3DA7C526
BDF22AF5
3C035910
3E22AA5C
BD96512B
3D3EAE5C
3D148F39
BDD301EB
BD0180D4
BE0E1501
BD93A0C7
3D1FB0D5
3A5A3277
BBF4C8EA
BCFC82D3
3D943C7D
3DBE81BE
3CE0069B
BE58B19A
BDB038D5
BDA43A8D
3DE8AA43
BCD4DC66
3D8F2BED
BDDE0AC8
BDFD80E5
3DCE6D16
3D81D8F6
3DA0F50D
3DE90FF9
3D3D1B2E
3D9595BC
BDD90C0B
BD6546C7
3E3A2D30
3D64F858
BDC2120E
BD0882F1
3D88032C
3DDC1CE7
BD8F9B7E
3DF1C433
3D3FFED9
3D97B429
BDF945B7
BD0C001E
3B1963BF
3DEE6D9C
BDABC233
BCB4A8B4
BE4FC8F3
BDDEA91E
3E02641B
BC5F860D
BCF7810B
3C08A581
3E05B78D
3E08FABE
BE2C69B6
3D964460
3D1E66BE
3CEB4F6F
BD50B2BB
3D8DEE0D
3B05BBC1
3CACF928
3E022813
BD4B8D32
BE112945
3DD530CF
BC61EF74
BE0DAD32
BDFE28AA
3BE11935
3BA09DAF
3D7B1DC8
BE0A29C7
BDCFEEF6
3D6C86C1
BDC3F7A7
3DDA4D6E
3D39AE42
3C6F2339
3D61B7FC
3D3F1EFA
3D771250
3D802E31
BDD5FAA9
BDFEEFE5
BE33D1CC
BDEF00EF
BD8B313C
3DB1145A
BD8FDCAA
3DC6AA4C
3CBF8D13
3CE6FD2F
BDDAB9F5
BE1AA79C
BCDC38B0
BD099B8A
BE187379
BE30B4E1
BDE63172
BD0FBFE1
3CBF4773
BE013DFB
3DBF11B6
3DC41695
BD8E7C22
BD83F4B7
BD2F8346
3D4B5477
3D9200CE
BE000EAE
3E1BC5DF
3D541DA9
3D6DEE6B
3CDFA440
3D4932E4
BDB2BD07
BDCD898B
3C74C5A5
3DDAFC8B
BE130058
3D348CD0
3DBB89F2
BCAA920F
BDACB01F
BD935788
3D2CD1BA
BD1F3677
BD9B3114
3C332E96
3D5994C7
3D8685F6
BD9F31E7
3E088E37
BDA7D92D
BDEE989A
3DB48487
3CDD854C
BC585455
BDA15288
BCD2D15E
BBB528AC
3C6C163E
3D13523D
3D8B2A93
BD01BFA3
BD306756
BC2D71BE
3D5A9161
BD83C6D7
BC5A7745
3D2421E9
BD002B4E
BCD68AF1
BD85376A
3DC9E21C
3E877271
BD83893C
BD18996F
BDEA758A
BE26D82C
BDC8B447
BDF199BB
BE26598E
BCFFA490
3DC04593
3E0074EB
BC8DEFAD
3E028566
3D575C58
BD54B381
BE2BC05D
3E61F362
3E4F1E8E
3D83BBD4
BC9BB4FD
BD759D8C
BD9E86D4
3DFF83BE
BBBD708E
BE3C6E6E
3D5442C8
3E3E3BCD
3E1FFF7A
BDB8F367
3D545507
3C85C8CD
3D527EA3
BDC421F6
BD252FB5
BC95E1B4
BD21D9F5
BD491F13
3E61697F
BD98FAE6
BD60EB68
3D51B966
BCEDC352
3C6C4106
BD9EBC69
3D1ECF99
BDD143BF
BB82A2C8
BC9055B9
3D1820BE
3DCB814B
BE0C32EC
BB976C2D
BD9B9B31
BDF5831F
BDDCC7D2
BDA465B3
3E039000
3D8FA6FA
BE026E11
BE361523
3DD342EE
3C49023D
BD2FA35C
BE109247
3D88BFC2
3DB7B5FF
3CC07A0E
3DC5C359
BC7DE49D
BE05A533
3C8CC0D9
3DA3A366
3DE34EBA
3D6E5C34
BDEE58A3
BDA0880E
3DF16CA4
3E0C50CE
BDBEE93C
BE14128C
BDBA8918
3E5B62C7
3DAAD38B
BCE2DD7B
3DDF66E8
3C8449DC
3C18CA11
BDEA83B2
BD0ABFFD
BD914E06
3D50891A
3DEC09C4
3DBB07F9
3DDA5764
3D1331F1
3DF76BC2
3C8E2486
3DDBAB22
3D88259E
BE268CEF
BD3C6A14
3E49D495
3D9D7003
3D5496C6
BCAE70F7
BE10A5AD
3C587A15
3E1EDAA9
3C976FF4
BDAE99B4
3DBEDC06
BE04F4C7
BB8DB7B9
BC02A907
BE2DEF85
3D89657C
3DCB2AD6
BDFDBE3C
BD1A55ED
3D42D3F0
3CCDE05E
BE80900C
3DCE2110
3D91F172
3E421816
3D8AD015
BDA8783F
3D8BAA4B
BD3AE254
BDF03C08
3D4E7D56
3DBEC70D
BD74DD72
3D585597
BDFCC294
BD1658D2
3D556649
BC317340
3C9CBA81
BB1A3A7E
BE306467
3DBC70AF
BDC3ABC9
3D1DF43C
3B237941
BDB7616E
3DF612C7
3DC2ACAB
3D9F82E8
3D8DEDBC
BE3813CB
3D00D208
3CC20741
BD200FF0
BD89864E
BDEF1887
BD8C97CB
BDC21EB1
3DDF9F88
BCD43A14
3D6306E6
BC7FC1ED
3D16CCE6
BD258220
BDCBB7D2
3DE1248D
BD07B02D
BE0BED31
3D0B5F5F
BDFC2B95
3E67FE4C
3CA6F3BF
BDF599AA
3E09C51E
BB90703B
BCE4A4C5
3BA83162
3E0503FB
3CE34AF3
BD7B8745
BDA589AD
3CBBB807
3E0A13C2
BDD62068
3DA903DD
3AF51CCD
BDCEFB2B
3E0EE914
BC633341
3DBBBCE7
3DA2AED1
BD9458DB
3D17ABD3
BD618571
3D8C1D88
3D935E4C
3D8D9CA1
BDA90D40
3D95CBCA
3BA2275D
3C38095C
3D564DEA
BE0D4A1B
BDAB837F
3D6DB651
3C59F7C3
BCEB89F2
3C4C404A
3E60C73B
3DEABEF0
BAD58888
BD26A891
3DABEB0B
3D2A3D56
3CF29BC9
BDF3269E
3DC43640
BDFE3194
3D0757AD
BD5792DF
BE09A30A
BE11947D
3CCB4AED
3E2C1765
BE0F64D0
3D134A7A
3DCCA545
3D98306B
BCEE61A8
BDDAEB3E
3C41F6B0
3C6E85F0
BD545217
3E3C6717
BCEE9864
3C5D44EA
BD8BEED1
BDDBCA10
BDB45A88
BD70D9F2
BD84AE93
BD41E97A
3E1D13D7
3CE7ECE4
BC604692
BDA5E8E3
3D533B46
B9BE7F35
BCD1E1E0
3DD20642
3CA209E0
3D85CB00
BE495747
BDA14C81
3C0ED0E9
BE36262D
3D18C17D
3D3BB3BB
BE1309C8
BE1B85A5
3E1F19D6
3D87F3C2
BD0F8148
3D9B8356
3DF00E6B
3D9E05A5
3DC0E850
3E39641F
3D9EE484
BDBB6E86
BD6C8E33
BB752C92
3DDAECD0
3E56C8F7
BDC22A04
BDE59D13
BD9F0663
3D2E3044
BE55B813
3DF44CBE
3DE1B08A
3D263158
3DB15909
BD903FA6
3DC94C37
3D71C21A
3B619E6B
3D3DAB5C
BD5D4555
BCBDC161
BC1D2B29
3DE9D51B
3C961A53
BDE955B4
BD8245B3
BD2313E6
3D1C7963
3DC71393
3DF29132
BCAA6D5C
3CB27A71
3D82D6C5
BDC7DA3A
BDAC694A
3DD6FA83
BDF67D35
3D842005
3DF46456
3DEC56D6
3DD947D0
BDC67232
3D1D79A8
BDF1BC56
BE0AFA72
BDFB8B26
BCBDF92A
BD24266B
3DB45359
3E340182
3C1D6602
3DEA65CF
3DC980B2
3D7766D4
3E2084A5
BDA842FA
BCE98783
BBDBF864
3D3D4159
3D9E73E7
3E626AA9
3E00E5E6
BDBF93D7
BDAEEFE5
BB8AF567
3E15D1C4
BDAFCB42
BCD7B12C
BE0A105A
3CB4EAC3
BD475600
3DBB30DE
3D7E4947
BE732FCB
3D8B66F9
3E0CD5B7
3DFF2778
BE2D6F97
BE040789
BDCB9FB4
3D33A091
BDF4E981
3DC0B3E2
BE0653CA
BE030FD0
