3C9EE427
3C8A65EA
BCD7FD17
3BE2A567
BD0EE4BA
3D3B569E
BCA64686
3BE5DE16
BC6C1857
BE0FB86F
BF43BBC7
3EFB4699
3EB9FC2B
3E621922
3F08AAB9
BE215593
BE55E918
BEFEABDE
BF27BCF5
BEA50A03
3EE36D01
BE8C99D0
BED024F6
3EDAC387
3E83E3C1
3E120297
3EB30942
BE9923A3
BE74F54D
BE765B64
BE8EF0AE
BEA7D1FE
BCEBD96D
3E85B91F
3F1AAF9B
BE90AA86
BE92836F
3EA2FF2A
3EAC404A
3EF101D2
BEFBEE80
BEB73A58
BF042880
3EA01217
BD1E4D28
BF04B1DD
3DD66491
3ED1DC0E
BDE4406C
3DBA7207
3EE57CF6
3E8EA748
BE966235
3CC3420A
BDFDE82D
BD8B6AB2
3E66E829
3DBC716B
BEC29004
3E991106
BE0C0CE9
BE8D7BC8
3E75EB74
BD8ACCC8
3E53A605
3E9E1EB4
BEC7C6FC
BB8815CE
BE92363B
3EC1B175
3F117236
BDA590C1
3C827C11
BEAF8855
3D3122B8
3EB156C1
BED8856E
3EC39A9E
3BB0219B
3EE6EE74
3F04346E
3DA6A500
BEEC6306
BE19BED3
3D68AA0E
3DBE63E9
BDCB2F08
BD8715E1
BEB5FC3B
3DDA860E
3E39307B
BDB5E42B
3CD68E82
BE366BA5
3F0826DD
3EF46562
3E62A412
BEC469F9
BEAD6F97
3E38BBD4
3F249D39
3E73061C
BE8C297C
BC4CA84F
BF12261C
BDACC9EB
BD893C97
BEFCE054
3E8FAB32
BE427ED8
3EABF4AA
BD86B958
BE32990F
BEC86E5D
BF29D4D8
3E3E1D65
3EB2493D
3F4177EA
3DBB100C
BF004AA5
3EB6F651
BEDBFE7E
BE88C3F4
BE45DDD3
3D0E13F5
3E47B9E0
3F013155
BF12173C
BEAAEA10
3F1B2E9D
BEC5F0B3
BE447885
3C88F938
BE5455A8
3E70928A
BEE7A41E
3E9C0E7C
3E958F50
BE51BC99
BF190EDC
3E863BEF
BEFCE619
3E3D0FE9
3F07328B
3EDD9D77
3DEA04D1
BF1BDA73
BE0439DE
BF2FD912
3EF3C16A
3E56C4C6
3E05BEE4
3F057BD9
BEDB4070
BEA6427C
BE7F6BA0
3E90A809
BDDD3997
3DA6B980
3F1178F7
3EA0DE6E
3EC4EE18
3E7ABB88
BE8FF36B
3C92FE0A
3D031D8C
3B7150BB
BE811D15
BF14A97A
3E09F3C7
3E781733
3E0D4068
BE48B9FE
BDE4DD2F
BDE07DD4
BDDBE1A8
BEA6948A
3EE63476
BEA0ED5F
3EA416DF
3CF548B7
3E7132F8
BF401765
3EA289FC
BEF61848
3EB4AD58
3F03D578
3DEF1A1A
3DAD3324
3D5DBE8D
BDB7292C
BCD68DE1
3E5DEC5F
3E9F9357
BD28C8C7
3E83E6E6
3E51E6CD
BEE2552A
BF168933
BEB99C17
3E590A78
3DC4316D
3E99FD7A
3E7A2F8C
3EB1A7C1
3CB0E256
BE57BFE8
BEEDEB96
3EAEF1FE
3E2837F8
3E42391D
BDE35611
BE9674B0
BF0A594B
3F03B1AF
3E986E7E
3CB35F08
BE78EC10
BEDC23B8
BDBC976D
3E1CB791
3F255B57
3E484663
BE04BD34
3E547992
3F2C5B3A
3BD4F8AB
BF30CF4A
BE004BC2
3EAA784B
BF220A42
3F20A84C
BEDD19DF
3EA4B253
BF243351
3F00894C
3F1441EE
BE0F2ECF
3EFEC5F4
3EC0D0CC
BD9427E3
BE8EF6F9
BF17AADE
3EB59685
3F346DC6
BE5B09A6
BE7C5048
BF3AF188
BE10110A
3E9475E6
3E25A5FC
3EB4DB59
3BED2C53
BE735504
BE7FEDE9
3EC74F51
3DECDC87
BEBA515D
3F08357A
BEC53975
BD04CD09
3F059D56
BD2459E7
3DBF3D70
BE5D3B2A
3E4F7F06
3E50EED0
BED7E0CE
3E1713AD
BE9330F9
3EED00F7
BE7DE721
BF19DBA9
3DFAA3F0
BE6359FF
BE81830E
3EEEA769
BF0F311A
3EFF357E
3DBA2F13
3F36007E
3E92FEE7
BEE13682
3E83F2F5
BEF99935
BE028998
BEE33615
3EC93C47
BE1E43AA
BCDDDA06
3F110258
BEC7BE77
BDA43584
3D504AB6
BE585597
BE0C8B44
3E58A5CE
3D828142
BF165ABC
BE714F8B
3EEADC6E
BE4E121F
3EA800A8
3C381CA7
3E849689
BE6AE46D
BDBC7BE7
3E66D549
BEF01733
3E01DC51
BEABF76A
BEE940FF
3F1E6BD7
BEA2F987
3E882129
BE893CAC
BE308EDE
3DA10D6E
3E899D02
BE39B025
BDE36007
BE64C554
3EEA337B
BD8B4012
BE2223E2
3B9FE1F3
BECCB3E5
BE9F1EB0
BED00970
BE709678
3F21041D
BCDC98BD
3EF0954A
3EB38ED2
BC053BEA
BE9A3F03
3F15E59F
3E8B52EB
3E60D8CB
BE385B5B
BE502C91
BEC1973E
3BF46F28
BE183DFF
3F06749F
3C91C920
3E9AAA19
3F242CB2
BD3634DB
BF1FF1FA
BEB84B5E
3EDE03D5
3EC1B047
3CE23803
BE5B6391
3EA4A16A
BF08BCCF
3E6032DB
BCD02B91
BF1036DB
BD001BFF
3F19FB83
BF12643D
BF073850
BC1D7277
BEA21859
3E940011
BE851633
BBD190AC
BE179182
BE613272
3F27AAAC
3E7AF89C
3EF3A16E
3E4B6FA0
BF1A02EB
BE15DEDF
BE204FF4
3E9F9208
3F0380BB
BF522691
3E7D3565
BF0BD9FD
3DB5E728
3E329457
3E937825
3E24D163
3EEAA455
3DCADBB9
3E837910
BDC82D61
3F0427B7
BF0119AC
BEDB7C57
3E85A251
BF25360D
BE1A98EE
3E022186
BE6CAA32
3EE6C41E
BEF2CB64
BD4AAB55
BE050375
3ECAD491
3EA1BE6E
BE784663
3F1A8C37
3E924EBE
BEFFFDC6
BDD16A8C
BEC4710D
BEAB6D01
3D562810
3E070004
3DE9D6AE
BE96DB94
BE2DB1A7
3E78CEF6
3F083782
BE8B84DC
3EF41850
BEBA8438
BF10DCFD
3F0186FD
3EB074EB
3EC3B83D
BF2D899C
3F221E71
BEC51D69
BE6AC96D
BF0ABE7B
3D3D98E8
BEE53B8E
BDBD17AB
3EAC08D9
BE89B9FA
3E616E37
3E84816F
BE8D9E84
BE024031
3E88DE2B
BEC96F44
BE1CB253
3D8FE818
BD460CF5
3E8218BD
BD700AF5
BE1B10BA
BF084F09
3D774836
BE0168B6
3ED9BAC3
BEC61566
3EDA8AA4
BF09E519
BE3FD47C
3E963476
3E9D8D7A
3C8DB205
3E0E23AF
3D71E017
3CE40025
3E43732A
3E941FC9
BDBA9832
BF0436B9
3EF1E59F
BE6CBEA5
BD2C0D1F
3F1F0425
BF2281DC
BF299264
BF04767D
3ED0094E
3E817B31
3EFC7DA2
3F008B44
BEE220BC
BF0FEED4
BDC468E6
3EE0E27E
3D1FCDFC
3EFEE829
3E91D713
3EE22FF1
BECB8738
BEC0B1BC
BE679208
BE998C5D
3F0C5804
BE5D73C9
3E971CB9
3CACE358
3F109E67
BA84E9DF
BD08CE05
3E96CA47
3E48A00A
BE69945B
BD889F69
BEBA92E6
3E066F93
BE4A176E
3ED2D83C
BE7260B3
BDD41AEF
BE3EE350
3E7673C5
BD923DF0
BE34EDB3
3DBA4F0E
3C815494
BE06D331
BE56D267
3D8A6F9D
BC1C6F17
BE95C52E
3EE52524
3F2EA876
BE43F141
BE5DD97F
BE5EFBB1
3EF5ADFB
3D97F928
BF10A644
3EC379FB
BF03E9A7
3D9E9806
BEC0B674
3D55CFC6
3EB08A48
3F23FA6E
3CC95798
3E1136A4
BC07E2A2
3EEFF045
BE526C7F
BEF1B8CC
BDCCB0CE
3DE44178
BE9A8F5C
3D39472F
3E813CAC
BED48649
3D1AA624
BDB22F93
3DB3ADC7
BCDE968E
3E74F5D3
3EC18740
BE44F54D
BF3D1633
3EA9D27C
3ED5F395
BE566CB1
3F126794
BE5AC42F
BED8EA5B
3EF9422D
BF279F88
3DB39DF2
3E10257D
3F116E37
3E80A505
BE3A5ACD
BF166938
3E2F76A3
3DFE004B
BEB4C597
3E917E35
3ED0E2A0
BE04B8BF
BE8B4B94
3D900BF4
3EEE8E82
BEF46A5D
3F11CBCD
BEB74D9C
3E706706
BE6A9E2C
3EE6D71F
3EC83255
BF112C5A
BDC9BE25
BE75204B
BD251A51
3EBCFFA8
BE13A4B5
BD9004C5
BDAF4E37
BE73E0BD
3E6F2FDC
BE54CFD1
3E7BC9CD
BD498981
BE9A697B
3F186BAD
BD874A92
BEE4F399
BCE68DD4
BED7F002
3F4A2A1B
BE18DB8C
BF1118F4
BD5642E8
3E046888
3D8C64F0
BEE32DB2
3F1C4103
BE03C212
3E3D7300
BDB477E4
BE8E004B
BEE45A60
BE87B225
BE2670E3
BE412BE5
3F185E3E
3DBC3FD2
BE990DE1
BDBEF88C
BE93E48A
3E28A1E0
BD47462B
BDFF56A8
BF0DA05A
BDDAAEF3
BDD780BB
3F2E1273
3E207D4E
BE0E3AC1
BEFB6E2F
3EAEDA66
3F12E42A
3EA42F62
BE8D9DBB
3D5AA36A
BE990646
BE595BBC
BE201712
BF1649E4
3EE22596
3F0F28C8
BF249D7C
3D0B9057
BF1FC0C2
3EFDEDF2
3EF3B6ED
BE4250B5
3EFA7D89
BDD4D9C7
BF0C8755
3DF626B3
BDEE69F0
3E3BE0DF
BEDB8280
3E8F9B56
3EAC18B5
3F0678E2
3DF52D23
BECB2AD0
BE24191A
BF1BC904
BE3C1CE7
3DF2ABEF
3E4785F9
3EA0BCE0
BF1E0115
3EF2233A
3F2A13C2
3E1671EF
BED8BA62
BE848BCA
3DC9603E
BEA13E81
BEDB6977
3F277B18
BE7D1BF8
BEAD24C0
3EB915BE
3EF4B817
BE55D9E4
BEBC6BCF
3DA6A02D
3E0CA4B1
3F043E64
BEC86AB1
BED698FE
BEA9478D
3D520F62
3D430D30
3DCD2807
3EA641B3
BDDA47AA
BF25C7DE
BEB4A277
3E92D05F
3EA187C6
3E9729D4
3F0FF8A9
3E20CBF3
BF02C754
3E451B93
BB8970D8
3F130143
BDFD4174
BF059F5E
BF500EBF
BE8CA750
3F19626B
3ECA615B
3E941E15
3ED9B62C
BF325786
BE49A8CE
3E260F1B
BBE161C5
3E56377A
BEC389F8
3EB6106B
BD11A7AD
BE3C1E79
BEB782D4
3E430165
BEADC26E
BD30B06C
3EE09D8C
3EB688DF
BDE4C836
BE28FC50
3E4989DF
3F0627F2
3DBB6E43
3E5BB880
BE93F056
BF24475E
BE7B7ED4
3EEEC93A
BEBF5643
3D503DB5
3E5427C8
BEC7AC1D
3D73F565
3ED39D1B
3DE33722
3D959C72
BEBD7E67
BE8E7903
3EBF9874
BEF9BED3
3C52C676
BDE753E7
BDCD0BB7
3F2067AE
BEB4D0BB
3E983C6D
BF15FE97
3E52962D
3F1EAC32
BD9FD1B5
3E9EF6F9
BE662E0A
BE113B5C
3F18DA7F
BF3400EB
BEB47864
BEAEE286
BE923572
3E98F6CF
BE61D25B
3EAC7992
3EB9E03F
3E2DAAD6
3E566A55
3E320BC4
3E62AC32
3EF079A3
BEB510B2
3EDC5A3E
3E8B6DCA
BEC51D69
BE01172F
BE35A294
3BBF9150
BE836806
BDB544C9
3F33A01F
BF0AAED1
BF120C9E
BE9963DC
3F53E804
3E2AC3A8
3ECEBBBA
3EB47A5B
BE283276
3DA723FC
3EBD14E4
BE4C6C98
3EBF9FA9
BF0F0B6B
BF137415
3E0E2CDC
BE9ED118
3E89BA3D
BDE2CA15
3EF4508B
3CA8C840
BF130EA2
3E0CE67D
BEE5EE78
3F0A5732
3D7CE945
BF04C60D
BCFD3B95
3E3B649D
BEA1D4B7
3EFA00C1
3EBCD61B
BF18D37C
3E294D94
3E84AB3F
BE17542A
BEDF8056
3F03F488
3EA2326E
3DEC2614
BE715055
BE835F1C
3F25D313
BE857604
BF054D62
BE1464DC
BCBA96D5
BE3DCB58
3F0B395C
BDA591DB
BE8949E9
BE542F62
BF08F7CB
BEEFC6B9
3E7B6AE8
BE909310
3E098CC1
3D88B992
BEDFEC35
3F068C7A
BECFB0F7
3ECFDBD3
3DC791ED
BF034D16
3ECBBE44
3EC3F91E
BE49E300
39E556BA
BE9E1AC5
BE673D5C
BD875460
BEE1FEA8
3EB88787
3EB862B2
3E79B952
3E943A21
BE71E796
BE5D141A
BDDA4485
BE899286
BEE07D4E
3E1DC769
BE8AF0E1
3EE368AD
3EB7D7A1
3E973EEE
3EAA2574
3EC9D474
BDC56AF4
BEC468EC
BEA5D1A2
3F0AE8B0
3E0AA540
3DDE0696
BD94B762
BEE5989E
3EE659F3
3F1D4C98
BC4A4C54
BF13E78E
BF04868C
3E693AF7
BE8934AD
3E3AEDDD
BE7F93FF
3EAD71F3
3E9A7EB7
BC004682
BDDBAFD9
3F05E519
BE2DEA89
BCFB8115
BF06B1D5
3D847DC3
3EBCCFD1
3E811127
3DE41249
3B20ACDE
BED9D9B2
BDA77631
BED7E79F
3DE1BC12
3EFB1056
BF09AC47
BE3CE076
BCF9B457
3C58409E
3E78C112
3DFE13B2
3E1FCDEE
3D44DFB3
BE50DD40
3D800622
3ED4BD12
3E4DD2AF
BF019BE5
3DAC35A6
3F1B2FEC
3EB2CB21
BED2146A
BF29B49A
3EE35137
3F3C6DE7
3EB916EC
BF1F09D9
3E51C865
BEF01388
BDFBD838
3E4C768E
BF126A44
BE0B7910
BE00B5EE
BEE3E7D1
3E8261E1
BE07D0AF
3D16DB94
3E5DCD70
3D72A879
3EDA220C
3F0A7A53
3E237D20
BF125DAF
BD8F2113
BF2A7EC8
BEA29329
3E94FDF4
BE7117F8
3F234081
BED849AA
BEC4AF71
3F61C9F7
BE62D40B
3EB893D9
BE7EB357
BE528F9F
3E9D6430
BE98A201
3E37839D
BD97AC4C
BD82B735
3EA87F88
3D042CEB
BE503537
BF1A4B23
BD83E659
3E8DB9C7
BF17458D
BE550375
3E9B17AD
BEEF54D2
BB9973C4
3F3B38E7
3DDD7DBF
3E1AFFB0
BE69F278
3C16306E
BEA1B973
3E23B9AE
3E38EDA2
3F029C13
3E84840E
3DF0DC77
BF0C5AA3
3C724CB9
3E971690
BDBA5DD7
BF07D86B
3F23D417
BE712839
BEB818A4
3BAE9CF6
BEFCB6E9
3F363044
BE4C5719
3E83B7FA
3E73CEA7
3DBACE90
BF128ED6
3EE845FE
BEE6D677
3EBD612C
3EBD1D69
BF200703
3EB7C4E3
3F29CC85
BDBD3B2A
BF26074F
BE74A83B
BEEA81BA
3F24F074
BC9DEDF2
BF117D7C
3D864C30
3F30C31A
BD1DF076
3EBE7DBB
3E5CB2D9
BEDA5919
BD121CCE
BEB21C8A
3E15DEDF
BDC6451C
BF40FAAD
3E8B85E8
BE9C74B8
3C89392F
3EBDDF01
BDAA1603
3EB6E04C
BEEE14E0
3EC2CC0C
3F72B335
BEA05943
BE602BC7
BEC08851
BEE4898F
3E162AA2
3BBAF661
BEA13B7E
3D8D9F40
BD8EF673
BE147629
BBA69124
3D962406
BD9B11EF
BCC79A94
3DAEAB1C
BEEB838C
BD7D38DB
BEB88F00
3ECB1C22
BF040160
3E515055
3D4328A9
3F20B47C
3E7195CD
BEA51676
BE8295EA
3DE53A82
3E72FE82
BD5BAE47
3F2D594F
3EA55A7D
BF07F130
3EB272C9
3EB59A74
BE7C48AE
BED2960B
3EA13CCD
3EA1E59F
BE2775FB
3E67AD08
BD0F5706
BED22164
BEE670C1
3EA46541
BCFEEA56
3ED15CEA
BD3DE9A5
3EB51783
BE5F5409
3E61BA80
BE4EDBF9
3F0335F4
BF074784
BE82F039
3ED1E8A3
3E74666F
3E5A708F
3D900E35
BEDDDCA5
BDB753F4
3ED634B9
BEEBAF32
BE21C194
BE8E2B6B
3E81B1B8
3DCFB092
3EA90321
BEEF6D55
3EF246E1
BBFC06B7
3F30CD31
3E71CA7D
BE9C228A
BED46174
3E0FBC1B
BD54B23F
3EC58AB9
3DE85D31
3DD7B7C8
3E909B0F
3E2DEC1C
3D52C85A
3EE97CE5
3F4439BD
3B402118
BF32BBBA
BF075F70
BE756A38
BE20E497
3EA1BF59
BE9CCC47
BE062A5E
3ED668A1
BECC84B6
3E1FFB48
3DD8A761
3F12847B
3EBA82E8
BEA48F54
BEA85122
3F0F2A7C
BEA382E4
3E89372A
BED0C522
BB99BA51
BE0AD927
3D7955DD
3EFB1A4C
3CAC0288
3EE648A6
3EAB23BC
BE105921
BDCD794A
BE914EE4
BECDCDF7
3EB2D16C
3F3EE222
BE49841B
BF04664D
BECCA70D
BE94E832
3F59199C
BEA5B5FA

