BE138002
BDB9D6AE
BDA6F205
BD1CE274
BE89AA1D
BE397529
3E86B0FB
3CFF8CDE
BCEE9AE8
BC2965BF
3E034374
3E007EE1
3DD67770
3E80068E
BE6EC3DB
3DEA5DF2
BD4208D4
3DBEA1C7
BDE19546
BE13A9B0
3D8F4A7E
BD3E0503
3C8D0F12
3E1A47ED
3E5BA909
3E5AD18D
3DAABE85
BE6475A3
3C9F6698
3E1C8CD6
BE35B142
3DB3F522
3E3E0EFA
BE566A12
BE37CC7D
BE50FF11
BE81AFC0
BD9BCCA2
BD67843E
3E511383
3D84B39C
BC7CF4B3
BC346AD6
BD6EF4C5
BD822813
BE95DA06
BE2E6B40
3C0B8C70
BBD5B82E
3E03547E
3E1C297C
3D2862A5
3E23CFF6
BC0936F6
BE42D2BB
3DDEC0B5
BD86ED67
BE274539
BD98ED87
3E478D0D
3C0DDA7E
3D69BBD6
BD0367AE
BBAD21E2
3C8C8D77
BD94E959
3C5273D6
3E228AE7
3CEF92CA
3D3B4500
BD2D43D0
3AB1587D
3DDCF67B
BCD7AF49
3E309AAA
BC242650
BE6255B0
3D9777C4
3C25E064
BE7DBAD4
3D4CF993
BE3D98BF
BCBEF9DB
3D421A3C
3D4F52EF
3DD7FF9B
BCAE6F14
3D4D76FC
3D3AECD0
3E718117
BC0A775D
3DFC5048
BE851E11
3E46FEF8
3DC06E0C
3E6345D0
BDCE9DD8
BDDB6CBE
3C60D95F
BDF6848C
BE4D2568
BD7F1C40
BE087AD1
BD721668
3E0E2196
BE2ABB88
3D562D18
3E208EDE
3DB0C59B
BE267408
BE0616F8
BD34E768
BD737202
3E08FCD6
3D2D2999
3E8A06A7
3DE894C4
BE58E326
3E6D3F18
3E30F990
3D8DF091
3CFAED06
3E6D56B0
BD92BAEE
3D290E31
3D3437E0
BCFF8F62
BD88FFE1
3D486F1F
3D00D6A5
BE0DE0D6
BDB1E48C
BE10C671
3DFBCB1D
BE500325
BC80A50C
3CDD3317
BCBB7699
BE3BC276
3E78F755
3D58B85E
3E740571
3E25BF27
3E26177F
BD1B15D0
3E3780BB
3D8BF170
BC1D4D4E
BE09DE48
BE3AAB8A
BD9E910D
BD9EBA1A
BDDE2EF5
BDAB8DD3
BC8BD29C
BC6E84AD
3D9CCADC
3D6219B6
3DDE121F
BBBB29A2
3D3690B6
3D8D0262
BDEEF241
BCAB309B
BB80C248
3D10C83A
BE25C28F
BD046753
BD695AD8
BB20C90E
BE209785
3DD4727E
3DC6E364
BDE00863
3D62C69F
3D9F99EC
BDC37210
BDC898CE
3C90CC6B
BC326BF8
BDF7E77D
BD62BC22
3D10F11F
BE0ED246
BE37D999
3E82BDA1
3DD6E58A
BDEAEAFB
3DB81535
3E21CBCD
3D454768
BAC2973F
3DEEE7C5
3D98AB50
BDE42BFA
3D2A02EE
BDFFEB07
3C92806B
3E710236
BD547DD1
BC06B281
3D7D74A0
BE01CA7D
3C2F0A44
BE16002A
3E0A8A83
3D210C55
BDAD7244
3D93132A
BE58676A
BDFE7AFA
BE580BAA
3E022CCB
BDDA51A0
3E12599F
BD1EF192
BDAB2E3F
BE2EC461
BD6BA22A
3D55BD51
3E68F81F
BE6A3D2E
BC689515
BD75AB48
BE26BF01
3DAB54BA
3CB3E250
3E206B7B
BD3CBAD1
BE25143C
BE668FD2
3E17F38C
3D9244F7
BE18EFFE
3E053437
3CC84620
BD6E2EE7
3E6F7EC3
3B971BE6
3C6C368A
BD3D418F
BC9A4E2A
3D191A18
BD36AC14
BD26B64D
3C05D9FF
3CCDB992
3CD08D4C
BCECB677
3E30196E
BDAD06A1
BDB79CE2
3DF740C4
3CDFBE0B
3C021168
3C7AD589
BDD708AB
3C270A9B
BDDE5C92
BBFE1B23
3E2C9796
3DE34331
BDD4F82F
BAEB204A
BD09A39D
3E30E51D
BADC9B77
BE5EE1BD
BE20E411
BD80029F
BCB6D946
3DD38C54
3D83C686
BDA0D8CB
39DE9487
3E5DEA89
3DBA1E8F
3D7171C8
BD96556A
3E5C37E7
3DC5CB0E
3E35EFA6
3DB32EE7
3DD9F128
3BB697C2
3DE3C212
BD3B16DD
BDF67770
BD0FBE34
3DF399F6
BC847794
3E2DF506
BDA9F82E
3D8DCB07
BE299674
3DD84018
BDE6290F
3D68623A
BDA4A1FE
3D5216D4
3DAF5416
BD665F0F
BD7D7038
BD69E196
3DC79FDF
3DBCB528
BDB1FD3E
BC6B4F03
3D497793
3DFB517A
3DCBDD69
3DEEC205
3E13497B
BDC633CE
BE1FB7E9
3D3975BD
3E04FB55
3D8E978D
BDBCAA83
3C8F7737
3D911C02
BE07631B
3DD550CA
3E38DB05
BB2F6660
3CA25743
BD8114C6
3BD93CF3
BDFEC461
BE660A63
3E1750C2
3E183F92
3B8C19EA
BE176FB1
BB6DC617
BCE1FD81
BDDDE721
3D89BA6C
3E547DC3
BE404DDB
3DCBA7AC
3DA5EA40
BD442777
BD6DBA18
BD9D7EA3
3D3B7DF0
3D39A218
BDB1507D
3E0540CC
3CF72B45
3E06F32C
3DC354F7
BD01CCBF
BE0486AD
3DE1650A
BE2A2CED
3E1DCE7D
3D6252DB
BE36CC1D
3E2B4A66
BD229E5B
3CAAC49A
3BC53E4E
3E1075B4
3DEA9692
3D6B3172
3D8F7510
3C6E3B47
BD8BCE27
3E096F65
BE59802C
BD1914DA
BD2C008A
3E2D93C4
3BAE35F3
BD1838DC
3DD97DD0
BCD76725
BD4D419D
3DDC2C1B
3BF15659
BCFDD624
3CF97BB7
BC387D8A
3E171CDA
3DAC8308
BCDEB420
BD347FB4
BD8D52DC
BCE4191A
3DB45C6B
3E274107
3CEF93D7
BDDAFF2A
3DAF74C0
3E4E1156
3D2291C6
3DDD6627
3E1F7D31
BDE5FBF8
3E11FE65
BB14A1B8
3DA9C256
BD97A9E3
3CB023B4
3C527F94
BCD8D25F
BD98A888
BE17AEDE
3BDDD51D
BDCD9620
BD76E24A
3D8CDE1A
BDB4C3A7
3C4D7930
3B5A31E5
BCCB96A2
BDB0D33C
3E1ACB86
3D02D34F
BE2023EA
3DA41879
BE1C6AC2
BD211C0F
BD2DBF56
BD3792C4
3DB63828
3E06002A
BCC5260F
BE3475E6
3D15CD0C
3CF8B62A
BDE766C7
3CE1F7D7
3D8B8D5A
BD1B2D83
3D2CCFD7
BC4965A5
BDBC5719
3D8D50F9
3DA47AAC
3BE5C495
BD8F4E6C
3E01D085
BD8AC34A
3DCE9814
3D9CC01D
BBCA2177
BD4E987F
3E221AB5
3D2C8458
3CADFA0E
3E496BFD
3D8A9692
3E5D2BF5
3CB336FA
3D2EEDDA
3D193E60
BE415443
3D87EDC8
BD9317BA
3E6EFDCA
BD8265A0
BD8DE62F
3DF71B04
3D336D15
BD8548DF
3E02A66E
3E13C537
3DD60957
3E13D146
BE61D4B7
3E0095F2
BD1B1A1D
BC9C28C0
BDB1D466
BD93A358
3DA0DA00
BDA74C75
3DB2655D
BD3A6648
BD145E5C
BDDD6E8B
3D6671EF
3D4E5761
BE16F86A
3D0ACA94
3DE07E5A
BD11AB59
3D31D8DB
3C902364
3D83BEFA
BD67E034
3CD83622
3D9DFA37
3E3F7122
3D06F7D6
3CE3497B
BBCB9EBA
BDD56B01
3D6A2E72
BD77E1EF
BDEAAEB0
3DB9117F
BD1A167C
BDE45B29
BD98BFD0
BAC0A044
3D9B5A71
BDE8DD1E
3C0BC94C
BC9C03D7
BE24FE7A
3CCC6FB0
3CDC46BD
BD1B2AFF
3CD0469F
BAD208F7
3DE009F6
BDF6C7A8
3DBD727A
3CDEB745
3D502257
BE3381D8
3DB7BB08
BDA859AE
BD1CDB53
3E1AE74F
3DBF6259
BDA4071E
3DEB3248
3E16ADB4
3DF6E3F8
BB0CA4EA
3DAE7EE9
BCF3F565
3D9F94C8
3C7F4BA5
3E36DCE4
3B9A962E
3D2EBCAC
3CC89565
BD0C65BA
BDF455A8
BE00902E
3E3235B5
BDB0BDD8
3DFFC116
3D9DB977
BDF86F48
3D44EFF4
3BFEDBA8
BDCA000C
3E2712A1
BDE8B114
3D34CCE1
3DCA7E16
3D34EA07
3D1CB26E
3C9D85ED
BE0E1EB4
BCD672D3
BD93B023
3E54B4D0
BDC4C4F6
BD2ADE15
BD89F242
3D9FA623
BD3DD5B9
BD35C52E
BD878C94
3B9C76EF
BD7EF9C0
BE0F0ED4
BE19F905
BDF54E2B
3DBAD0FA
BE390603
BDD7B396
3D2EAF0A
3CE0BA8B
BCE060FE
BD20FF1E
3C475310
3DF2AAE3
3CD177C2
BCB3C5CA
3D9F7A5C
3DC58370
BDEA0557
3CFC30D3
3DAEC04A
BE063DC5
3DF1A5CA
3DF1BA3D
3DDCC6C5
BD3ED360
BE0A41A2
BDD46456
BD0325EF
BE16BE38
3D538385
3DE76295
3E108E15
3DAE26E2
3D041C75
BD1C495C
3D77466E
3E05ED8D
3D8B2F4B
3D64604C
BD42ADC5
BC17574A
3DCFDD23
3DE90929
3DF662FE
BDA733C3
BDB6163D
BDCE1B4C
3DE2CBA7
BD96CACD
BD3CACC4
BAAF1D0F
BE00CA1D
3CE40F09
3E1534BD
BE17D1FE
3DF713AD
3E0537A0
BD96E2C3
3E0981BF
3DEDE54B
BE09C6B0
3DA65C63
BC79FBDA
3CB81260
3A17F2B7
BC8F634A
BE00EA18
BD67C4BB
3D9F1638
BD48C31D
3DA60624
BDDC7C52
BD4F56EB
3D446B19
3DBCDA03
3DAC5BEC
3DB3AC1A
3E013E81
BE261F5C
BE092F6F
3D42991D
BD5654BB
BE0F92B0
3BF2EEA0
3E2EACC9
3D31CF50
3DCE0A85
3E1150DB
3CC029BC
3DF0BD01
BDC472A6
3DFA7760
BDE6D8B2
BDE9ED39
BDAC3710
3C9CA7A1
3D530546
3C6B3D66
BE3C82E0
BD6213A1
3D138279
3DA8BB90
BDF14D2F
BD50F444
3D430B18
3D1745CD
BDF47B67
3C1F0818
BD1C95E8
3E228B6E
BD399B47
3DC595A1
3D59BE68
3DF1C8EB
BE5626B3
BD9FCF8E
3D363C32
3E32DD7B
BD6A68F5
3DC48642
3E44F50A
3E2A52AC
BDB8A611
3DFB38D6
3C2AD23C
3D097113
3C2250E3
3CB121E1
3DCB2AAE
BB528FAF
BD7390D6
BD99F82E
BD8C8B29
3C529DC7
BD5C1509
BDA6A70B
BC2710E6
3D0376E3
3BB78161
BD800948
BDAB75F8
BDF15DF6
BD8A534E
BD54C504
3CAE6D66
3A17BC16
BDEDB1EA
3DBE55F7
BE26748E
BD86ABC3
BDC9CE3D
3D9C25D0
3E23DAF9
BE057A35
3D129BFF
BD871B62
BE1E6E22
3E00578E
BDC8EFE3
3DFC9C4E
3D9B9A5B
BD0790D3
3CB8A2A9
3DD87B57
BDA6F588
3D3F48B5
3BFC303D
3C4F3E2C
3DF80779
BB97F14E
BE000043
BDA643D9
BDAFF15F
BDEF2E06
BC93C75D
3DDFD2E9
3DBDA207
BDAAC77C
3D4343D2
BDA1842F
BDCD9DFE
3D18A23E
3BBCD487
BDD34480
BB0C657F
3D7F32E6
3D2FD4F5
3D0C12FE
BCDD7D1E
BDF0917D
BD16EE3E
3D6555AA
BDBB28F3
3CBD6F2C
BD5E14D9
3D027E45
3E2979E1
3E0CA57A
BD1A2022
BB8A0FCE
3E2BD44A
3D9B1A7B
3D13E616
BCDEA7C1
3D8645AF
BD23C7BB
BD9BF9FC
3D0490BE
BE0B58D1
3D937429
BD18C543
3C70A874
BC094935
3D581F7C
3D4CD0C9
BC75CA1C
3D3A6897
3D884CF0
BDC2A41F
3D8D5800
BD81F31F
3C323140
BCA066DE
3DBA7B19
BD383C01
BD1EB5E9
BC146B3C
3E120A74
3A23C6CD
3C4DE6A8
BD026A58
3CCE930B
3D603D3D
3E17D391
BE09EBEA
BCA46E74
BDB29988
BE1ABB02
BE481F97
3DB6DEC7
BCEDBFC1
BB6465C6
BDDC5BD1
BDAF836E
3E1FB656
BC66304B
BDFE414E
3D78A4F8
3D89BD76
BD45A089
3BEC0DDB
BC5DBE8D
3D82D781
3DB0E164
3D40B582
3D13BF4A
BD4D4FC4
BD447256
3D278565
3D8B8950
3C79B6A5
BDCA5409
3E1F459E
3C969A0B
3DDD6B66
BBDE62A1
3E118549
3DB2651A
BE0BA40E
BD5AC86E
BDC748E4
BDB845EA
3D92C534
3D645AA3
BCED641C
BDDD8E86
BD99DF62
3DEC0054
3D2C20D5
BDDD41FA
BCC511ED
BD8EF9DB
3D91D3ED
BD88982D
BE151DAC
BE34C272
BD85F718
BE24BD34
3CDA80B5
BDDCA9EF
3D90F66A
3D74C371
BDD08701
BC38EDF3
3BCECEDB
BDE76FB1
BCD6F2C0
3BD8CE38
B921BCD4
3D69DD7F
BDD357E6
3D2DFE91
3D991794
39CBDFC6
3D21CC1D
BDA4048C
BC251421
3DC93B55
3DCF8F8A
BCF6E463
BD18904F
BDA97643
BD8AD42C
3D95374F
BE17D7C3
3D821BC1
BD293A71
3CC771E4
3E044F1A
3D84F1AF
3C4E0547
BDF58F2E
3D5A3210
BD9DC8AB
BE05375D
3E170004
BD77B9E0
3C8ED40E
3D5F97E0
3D3DFB43
BDEF7A0B
3DCD056C
3D97B239
3DCD2CBF
BE606EA0
3CCA0140
3DE1A933
3DA01F82
3DC488E1
3E737D20
3C8A8B74
3C225779
3CF7AD15
3D104BA8
BDEB1EE2
3DB50B52
3D99F89A
BD293060
3C830066
BE516873
3D4419BB
BDB16194
3D257FB7
3D338F0E
BDFE2B49
BD88444A
3DD18F3F
3CA4221E
3C1D3D7E
BCC57F9C
BD97E473
BD867415
BDA91728
3BA1A023
BD907662
BC540D33
BDAF3A65
BD90E71B
3D728416
BD4F529E
3DA362CE
3DEEEC7D
BDD0CE4F
BC5E713A
BD38C26F
3E0760BF
3E16583F
3D155FE4
BDC3B1A9
BCB70AF9
BD57E4DE
BD1DD1F3
BD86DC28
3D313222
BDDB9B67
3BF24644
BC8BCCF3
3CB4CC90
3D292487
BCB49C1F
3CF033DA
3E1A2EC3
BD0558EA
BD63FA61
3E2295EA
3BF7C102
BD903B16
BE0E2585
BE0404EA
3D010CF6
3D5A7A85
3E075E20
BC472BA3
3E196BFD
BE103E21
BBC69B45
BDDA7F3D
BE4C7B89
3E19DECE
3D1CB4F2
3CD6F61B
BDE33CE6
3D11EFD2
BB3EB5DE
3D383714
BDA0DE5A
3D3DB8E3
BC9588C9
BDD017DB
3E1EBA28
BD8F07CD
BD908023
BDA7A1B5
3DC3AC4F
3D9F21F7
BDDC7A3A
BCE99C46
3DDD933E
3DC9C1A8
BE0D8C6D
3CF939DD
BDAFE2F4
3D891D22
3DFF5409
3D95FB4A
BC965C99
BE24180D
3DA26784
3C7B0631
3D6731EE
3DBE5A36
3D3EBFA9
BD8B0319
BD911C60
3C083132
3E2E03B4
BDE05CCD
3CC418FF
BD0E30CB
BC6A3B07
BE2D462C
BBAC31CD
BB77164C
3E219E30
3D4AA82F
3BE28C7D
BDCCA65F
3E01B6D4
BD93A9BE
3E2E364C
3D32D6ED
BE20902E
BE1BD5DC
BD6BFE3B
3D07C4A0
BCEDFD34
3DA3DD55
BC870FBF
3C019A9F
3CFD7145
BCA48876
BCBAFD62
3C39DA16
3D9089F1
3E061848
3D3553EF
BE02B23A
BE146CB9
3D976790
3D57745B
BD0B5DB2
3D39C7D8
BC55E50F
BD8D126D
3E2CF399
BD8B3AFC
3DC35372
3DACD6B6
3DB3DE39
BCC91EC2
3D0B2A35
BE023077
BD3F572E
3DDD7881
BB6CF7E5
3D8934FD
BC02E461
BCEDD5C6
BDC0B06C
3CFC9C33
BDE66F50
BCEBC6F8
BE039B02
BDB6C7D0
BC8A25BE
3BFEE2DF
BD5E794D
BDC5D455
BDA685DB
BDA5E47B
BDDF52FC
BDB6F6F2
BDD14014
BAE4C1E1
3DC06EE3
BC84D120
3C9F7A84
3E4E5B85
BD842818
3D9ED261
3CA2D97F
3E00B6FA
3DE3C3A4
BE245F18
3DDF0DC7
3DE63950
3C1FCDD1
BE1C78EA
BD0D07BB
BB5F2E79
BE12491B
BDA9B124
BDC00EF1
BCCDF3DF
3D310145
BDA81ADF
3E04DAD3
BE08B2EA
3E4EAEE2
BCA34C6B
3CDFF5D4
BD0F7BB9
BE532485
BCC8751A
3D99A05D
BE330942
BE0D3ED5
BC95000D
BDB82DF4
3DB4D5E5
BD8977D6
3D500608
3D990951
BDA0B194
BE2D9AD8
3DAA4E60
3D2DCF46
3DEAEF2C
3DE88D6D
BDB896D0
3C30FBB6
3DEBEB5B
3E1C282C
3D0F7C75
3DEBAC71
3C95B325
BD919EC4
3AC27302
3DF816AD
3D138808
3A3BB999
BE0378EE
3DA02031
BE0EF955
BD1527AF
BE162A1B
3CADC677
BD9A57B5
3B7AC2FF
BD87CADD
BDA03E06
3DF4B72C
3D8D53E9
3CE4133A
BD676D7D
3CD7144E
BD1309C8
BE3DFD26
3DEFB54A
BCDF9089
3DFD54DA
BDB89A02
BD810E88
3DB5918A
BD33793F
3D69491F
3D803D72
BC50DFEC
3DD5FEDA
BDE5B4AB
BE0C6195
3DCD6F54
BCB08539
BDE965F5
3E613EC4
3D17BA31
BD04CF3D
3D4E02A7
3D95F4AF
3E32C01E
3DFC9B41
3D74B25A
BDEAC754
BCEC570B
BE45946C
3DD81ADF
BD93AF4D
BD224C25
BC652660
3E10E90C
BC9CE72C
3D975CF9
BE18023A
BE17D524
3DA9F05F
3DE6ED24
3E2933E3
BDFF6A0E
BD37EE84
BD837B2F
BDBBD96D
BD4B1374
BE3FC04D
BDE9BC77
3C990702
BD63C9B9
3DA5A2BC
3D0C32C4
BDEA1166
3D44E908
BCDDE15D
3DBC4022
BE20D62C
BD3248D8
3D4F20B5
BE45E0B5
BDF96D09
BD8C1BDA
BD8C9E09
3D689657
BE680D80
3D30D8E6
3E0CA212
BD843D47
3C674F9A
3DFDA512
3C058FAC
BDE45804
3E1254A4
3D253162
3D26E928
BDA67ACB
3E2DD9C2
BD8E38EB
BC497DF8
3D13AB28
BD6C2B6D
3DF265AE
BDF84FD3
3D70B01C
3CDAF5F0
3DFE8683
3D4DF4D0
BDC7347F
3D749ADD
BE09A6B5
BD3545FD
3C8F7081
3E1FBB51
3BAB7915
BCA2CC7E
3E42B55F
BD25CCE3
BDB48FF5
3DDFD9BA
3D8CE0D4
BE105D96
39FDB237
3E06A22B
3D645D27
BDD6CACD
BD26B5AC
3D84D7D6
3D5A9A30
3D9497AA
BDE00219
BD5B24EA
3D9D79B6
3D5E2E39
3BA1C7BB
BCA74EF9
3E52C519
BDAF4F00
3CF12EAC
BDF9E27A
3D0A81CF
3D8BBDE6
BD2F8C4A
3DA989D2
BD056316
BDB71815
3CCC2176
3DF23C43
3DE6C094
3C36CDF2
3C67F2C3
BDD4ECA7
3DC33000
BD98101F
BDC70692
3D478ABE
BCF34938
3DD4690E
BCF9B95F
BDD1BCDC
BAD49294
3C70867B
BB8B2F89
BC8FC3C2
3DC5118F
3DA61D1B
3D0FE7BA
BE1B3B32
BBAE64ED
BD8A1888
3C8B9453
BDA11D5F
3C8F5508
3E3C3505
3E342FA5
BDAC159D
3BCB5AF2
3D60C019
BE16455F
BDABA535
3D143973
3DEBB55B
3B2E731A
BC3366CA
BDADB878
BC6BD7BF
BDC6E306
3DA24E31
3DA3F63C
BD2E7FDB
3E0BBD7B
3E2D7BEA
BDA7D7D0
BDECFBFC
BE0255B0
BD96B2A2
BD31B626
BCB65669
3DA87478
3E053B08
3D888DD9
BDCA9535
3DB7C94A
BE0E1156
3DCFE261
3C63A5C2
BD5FBA96
BDC8558A
BBD840C9
BCD00B7B
BD9B9601
BDF63D3E
3DE49881
3C8ADB91
BCAB58DF
BB0AF38F
3E030404
3E1C5A81
BC442DC2
BE24723B
BD9D97DB
BCB33EF2
BE3BB01D
3E2C90C5
3D4BC1D5
3D0EC46E
3DB95CD6
3D600E28
3E39B457
BE0C0011
BDBAE28A
3DABD7B2
BDE605EE
3D6671BA
BE36501E
BD635646
3C7EE0B1
BDE1626B
3C89469B
BD6596C8
BDD7FA5D
3C80A039
3D22471D
BD3C70CA
3C28ABF1
3DE46280
BC0F40A5
3D46D1C6
3D356176
BD478AD9
3D52200E
3C74A69B
BC6BD612
BD05555A
BCEA2171
3E2DCEC0
BD98298D
3E1801B4
3D5366CA
BE02584F
3BF1990A
3D33D768
3D8D01A6
BDBF2DB5
BDA0BE1B
3E0FC760
BC5C3BD6
BCCAEA74
3D0A63D1
BC4C3994
BD8B332C
3D683CCB
BBD22D5F
3DD7CC3A
BDC01839
BCF70DE9
BDD847F5
BC038591
BC89C9E3
3DBAD5CC
BD0AD795
3D7D7B8C
BE032096
BDD6AE7D
BE285986
BD656621
3C84D8E3
3AD5CC50
BD2EDBB6
BD9F266C
3DE5E3DA
3D8DC832
BD85CC78
BE0FF8A9
BC9AACF5
3D38C3B1
BDBB8D75
3C9BCB38
3DA2A737
BD4E4F69
BD9F4525
3B24916F
3D97CB20
BDD6EC5B
3DC5F1B2
BD2EEC97
3E245FE1
BE0FD263
BD7E1BFA
3D048769
3DAEB4A6
3D47CECC
BD4E4614
BD833391
BCEC2D85
3D85DCC6
3C6C27DC
BE03BEA9
3E0CFD4C
BC270A9B
3D707513
3D59B39B
3E357860
3E21E0C6
BDE57321
BC82012C
BDFEB745
3D6A2A91
BD15CED4
BD3C9E9C
3DC29C34
BD442D56
3D993682
3DB87237
BDFE7D9A
BDE1ACDE
3E09D94D
3E079F66
BCB898CE
BD12E4DF
BD8DA753
3B35D3E2
3D84CBE2
3CE3121E
BD89E94B
BE0FD827
3D9940E4
3E0264E5
BC5696E6
3D3BDCF0
BD282E02
BD75C5B5
3C9CB50D
BDB4CDED
3DF23C43
3D74DA4D
BD81D9F5
BDF403DE
3D12630F
BD50B64C
3D8795A6
3DE2FF8F
3DE6BE7B
3D378649
BD411EFF
3D91EA86
BD23A323
3D64851B
3CF7B90A
BD47253E
BDC10E2A
3DEAA5C6
3AADDAEF
BD260D60
BDE4CF07
3D698189
BCAE3CF4
BD87C668
3DD04146
BDE070B9
3C8723E1
3DD96BFD
BD6695CC
3DDF22C0
BCAF7A41
3DECB9ED
3D86A70B
BD70DEAA
3E0F68BE
BE1E43EE
3C9B92CE
BD238576
3CBDD3D6
3D58449A
3D26205B
3E19B025
BDE6F9BA
3D4014C3
3DCB4A16
3CB1AE99
BDCC92F9
BE0937D2
BD98D775
BD9C86A6
3D1FDEF8
BE1D373B
BD8048FB
BDA7645D
3DA504C5
3DFB20B8
BE12AA9F
BBDE056F
3D8FDDD1
BE0F01B8
3E1D1AEB
BDE584F5
BB450888
BCCA1603
3DC344A9
BCD092C0
3C3F9328
BE019546
3CFBA055
BC669850
BDB8BB18
3C227022
3E1FF477
3D61E7E7
3CB892B9
3DE449DC
BD0CE5C2
BDD85F07
3E1FC7A4
BD8F45EE
3CE81B3D
3E0040C0
3C772CF3
BDB5DF3D
3E24F4C7
BE2A3982
3E494C44
BC8A35AE
3D85427A
BD9D3133
3C5602D6
BD09F79B
3CEB97FF
BDFC22AB
3D324B92
BE0A743A
3D69CDA9
BDEA747E
BCEAC612
3DE388EC
3D27F28D
3DF0F0E9
3DD57FFA
3D3F63A8
3D4D0501
3D173373
3C9F3875
BE038F36
3CD78F69
BD420396
BE17B5AF
BE0066C3
BD3A196C
BD34375A
BC3360EB
BC0E5253
3E0B2852
BDC96115
3AF638AC
3DC0ED23
3C7C69DE
BDACAB82
BD4351A9
BC64D99E
BD2A8F3B
BDEE9D52
BC1414D5
3D8F1DE0
BD9B7953
BD314EF8
BD4A8AD3
BE2426BB
3E229F9D
BE10E454
BC08BB5B
3CCF271A
3DD443D4
3C44DCA9
BD4186E9
BCF1DF40
BACDA031
BDE1626B
BB5EB730
3CEF0F4D
3DE7FC33
BDAC6046
3DB6BA21
BDBB34CD
BBC4C9DF
3D2CAEB5
BE392C06
3DD84A94
BDA2F5DC
BD27B79F
3D71663F
BD65420F
3BBFA7F6
BD2440D7
BB703608
BE10142F
BDDE19FC
3CEE4192
3CE72F4F
BDE48733
BDCBA626
3DD552E3
3DA0F6F1
BDBE61C3
3DE0AE10
BC4F5A46
3DE959E6
3D070CCF
3CAAAA63
3D247311
BD64775E
BE0BB1F2
3CFC9A85
BD82FE32
BD83E568
BE270047
3D1CCAF7
B9E93925
3CFCB2A3
3D8E869E
BD694574
3E6DE3B9
3E420104
3D4A9E54
37144F83
BCFD77C5
3D1E9475
BD0A7702
3CA78184
BD8DDAB4
BD86F786
BB28BD23
BE0E32E4
BD65D0FA
BE2B7D41
3E22B4D9
BCF89DD6
3BB92916
3D9089C8
3D7685E9
3D04DA3F
3A447532
3DB9DA67
3E03F3E0
BD64B648
BC2563D2
3B2E0A6A
3DC38053
3D5158D3
BDBA479C
3D4C57E2
3D749F95
3E0D7DBF
3E0592DA
3D9844D0
3D43A9A3
BD9383D6
BCEDE9E8
3E502DE0
3DA752A5
BC90EF3C
BD39889D
3D1BEF9A
BD1F29AC
3D832386
BD0566F8
3D10F784
3DADE7DD
BD8414CD
3DA38569
BDA1DB87
3D61AAC5
BDF2567A
3D8F40D8
BDFFD71B
3D9E0272
BCB54343
BDE8C155
3CE949DB
BDA4B52E
BE154435
3DA6173C
BBB70D88
3DAA31DA
3DC5686F
BDA147BC
BDA2702A
3E1424A2
3D5D6302
3DD09071
BE0ECE9A
BC4C4411
3CD1A793
3DBBE894
BDE9E12A
BD09F674
BC6DFE76
BD852411
BCADCB14
3D704593
3D37391D
3DF93F6C
BD94A7A7
BDD0CAA3
BDD23359
BDE577D9
3DF4B407
BD9A3E70
3DCFEF7C
BD3257A1
BE0A52AC
3D8B8222
3D9DA04C
3E3A4378
BE322DD8
3DC958DA
BE33B689
BDF68837
3DD97BB7
3DEEDDCE
BDB832FD
BD370C3B
3E1D4131
BDCE79AB
BD6918C8
3DBB2895
3D28D06E
3D861ED6
3CD5966A
3D86D9BE
BD7D298C
3DFB3FA7
3DAC0908
3C08536B
3DB0B8A7
BD62F1B7
3D6E2E46
3D3BD68B
BCCDF521
BD0CA149
3D6FEA08
BD876B13
3AAFCCE2
BD947DD1
3D63BE30
3E25A576
3CEAD0FA
BE146738
3D54EEF5
BE170542
BC704D70
BDFB445F
BDCD5A5C
3E0709FA
BD0551AE
3D182251
3D8D800E
3D95F011
BD22618A
BD51B5F0
3E18FA37
3D202F80
BE016484
BE2A5615
3E0EDEDB
3BC08B60
BD9DB489
BE2FDEF8
3D8FFC8A
3D9571FA
BDE0980B
BCF3EE7A
3D72C916
BCA5F4BC
BDB0E70E
3DE8919F
BD22453A
3CE6B7C5
BE0AC259
BDB09DF8
BE1189BE
BE1AD14A
3E3601BD
3DC42E99
BCBFD31F
3DCDD9C2
BDFFB0D5
BDDB80AA
BE3451B9
3E4842FA
BD13D966
BE1EB4A6
BD497E99
3DB3EDF4
BD581062
3D9E7650
BD9487C7
3CE869AC
3E11B0CD
3DE13A93
3D421BCF
BD9A8006
3D4D7E53
3D66A31D
3D0AFFF3
BD838FE5
3C3867BB
3DAA7B5C
BDEA8544
BD97E00B
3D5AA2E4
BE12730C
3BE88FA1
3DC6E222
BDF2D667
BCD5A442
3CF60E0F
3DAF3923
3CD7F33C
BD459B4A
BDA55A04
BDA8E9E9
3DB31BDF
BD89CB18
BD1B6F42
3DA7B4D8
BD706508
3DE43B2E
3E073FFB
3DD891E2
3D54E11E
BB486285
3C8AE968
3C13398E
BE19DECE
3CFAE9AB
BD2A2E21
3E19EE46
BDCF7122
BD407EFC
BDE9B845
3D055C2B
BD0AA484
3D8253DA
3D8807BC
3E0EEFE5
BC98F422
BE205532
BD9381D8
3C5F0B28
BD8ED01F
BD27F801
3CD9FAE8
BADC616A
3E0F0E4E
3DF6A594
BD9454D1
3E13CC4B
3E120210
BE2AAEB0
BDD81E8A
3B398446
BC8F47D1
BD46EF3D
BD9DE912
3D9B8BBA
3D8DC875
BAE4CC9E
BE37FF9B
3E0493C9
BD6D5919
BD8E8E1D
3BAD0FD9
3DB20CD0
3E65907E
BE1E0C5B
BD90ECB7
BDAFA8F8
BE2756C9
3C83DFF4
3DDB1AF4
BD470C7F
BDAB49EE
3D849053
BDFCF91A
BDDCAD15
BD17D5FA
BD9C28B3
BCAAC1E0
3D7EFFD5
3E1D2F5E
3C18E9BC
3D540937
3D83DB49
3D01AB4B
BC353CF9
3D88E384
BC02BFB8
3D9F67F5
3D503E21
3D9CAD73
BD1645D7
3D6EA656
BD500A1E
BDBD2341
BAE6C196
BE00578E
BDE4345D
BE031A4C
BD21F3A5
3D7BB045
3E13B928
3E1C62A2
3D2D943D
BD8E189F
BD36B300
3AD953EF
3DA2640E
3C69B53B
BDDAF20F
BCF760BF
3E2FEA3E
BE2DD15F
BDC781BA
3D7EA3C5
BD5F2D8D
3DD8F8A5
BD97981D
BCD078BE
3D15C2FB
BE3C7714
BC8E534A
BC25FB3C
3D88F78B
BCB5F51A
BCEA652E
3D2F29B9
BDBC64E3
BDB8A9D8
BD18E524
BCB8CF1F
BD4E24F1
BD843E03
BC212B69
BA8148A6
BBD58F94
3DC04F53
B841C6DF
BCECA86A
BC863894
BD86244A
BE5BD76F
3C19939A
BD617ABF
BCFF191B
3BAE0435
BD9A9098
BD9681D2
3B23C2BD
BD80114D
3DD2B55F
3E2CEBBC
BD92E614
3DFBBD7B
BD875DC2
3DA7D83C
BB57F9FD
BDEB6F1A
3BF9E219
BCCAB4FA
BD321F01
BDD923A3
3D4B9545
3D41919B
BE127FA2
BE20A30E
BE5F1E4B
3CF337D0
3DCF5EC8
BE21CE6C
3BA59D33
3C71B40D
3DFEEA21
3DEBAADE
BD9D40FB
3DD1ADA7
3E0098D4
BDC620E1
3E30285F
3DFCB791
BCABF1F6
3D0B57B7
BE1D245B
3DBEEF1C
BC70FFB2
3C4F0F32
3B8755E0
BD5A1F30
3D75ACC0
BDBCD72E
3D748BC3
BD25BFAD
3DDE0E73
3D5690D1
BC4232AA
3D6F2A3F
BD62717A
3D9F6EE1
3CECDF26
3D30D230
3C324420
3D6E0B0B
BD28547D
BDCA16BF
3D25BCD8
BE2036CA
3DC6030C
3DB0EA91
3DC63D16
38B92DB4
3D587161
3D3737C0
BD9B5873
BE13D146
BD257AFF
3E288EBD
3D41DB87
BE03FBBD
BBADF9A3
3DF144CC
3E153501
BDB8CA09
3D387B72
BE045F9E
3E355001
BCE5E1A6
3D8A1F15
BDB2DBDB
3DD16441
3D8580F9
3C5EF1FE
BDEF9980
3DAE482D
3DE514C2
3D848005
3E3419A0
3DDC829D
3CEF9584
BD821958
3D1D929D
3D8DD1F3
BE098527
BE17A13C
BD03B638
3E05E5F3
BDD10D39
3D259C8D
BE0EE8D1
3D461C0E
3DCCA2A6
3C9B9E57
BDC13C18
BDCB9A17
3CEEDF46
3C462797
3D1834E0
3C7D35B6
3DDCEAF2
BDF677F7
3E48472C
BE20856E
3DF70B4A
3E1BA1B2
BDDCD0BB
BD20D1D2
BD6C5020
BDD72EF1
3D8DE559
3D9C471B
BD989ACC
BD8920DB
3DEF0AE5
3D9076B3
BD5E1006
BCD9578A
BD08F903
3DE9F1F1
3DC9D0EA
BD956F76
3E14E54F
3E088095
BDDDEDF2
BCDF81DB
BDD8E53F
3E284231
BC6EB04C
BDBE7A74
3C4606E0
3CD35258
3DB76D04
3E1E6688
3D5E8618
BE011E00
3D333DB0
3BC0DC69
BD7DF34B
3DCF76E6
BE4F16F4
BD82A031
3DA2A180
3DE7DB2B
3DC6407E
3CF19EDE
3DF1E647
3C56D854
BE04D1E9
3DA684B4
BD6EC779
BDFCD5FA
BDBF6FFA
3D3C281F
3D3E6A33
3DFB4F61
3E2023EA
3D242B08
3CB06ACC
3DA00F85
BDA3452F
3D5AFF2A
BDD402D1
BDE34FC6
BE230B18
BE03F78C
BD4029BC
3E008851
3D622432
3D71F652
3D6BA7B9
3D670832
3DAD67E2
3E054973
3D93BCD3
BD69C19A
3BE2B455
3DC28F6A
BD5A0BE5
3D290D0A
BDD9A522
3DF379FB
3CBBA7E1
BCEFFA2E
BDCE7792
3D7B91C1
3D92F860
3D9A766E
3DBDDBE9
3E14738A
3D261771
BCBC1708
BE050CE5
BAF9B8E9
BDAA57C2
BC9600F3
BD3B89E4
3D2C69EB
3C086C0A
BDDC475E
BE259685
BD84A79A
BDDE58E6
3C6A2B17
BD651ED3
3E3F3BA7
BCE07E90
3DA3A48D
BD9FADA2
BD8402D1
3D9E718B
3E090B85
BDD522A7
3DF2BECF
3DEC3A86
3C8324AD
BD32CA3D
BC8AF3E4
BBC78E9F
3DE2EB1C
3BDD7ECC
BC59F89A
3E0704BC
3D9DCDCE
3DA20AFA
BDD4E2B0
3D9BBFA1
BE15E397
3DCA168A
3E03A648
3E03C793
BE144D44
3D854336
BD55691E
BCE7FBC8
BDBA4E88
BDB7E026
BDE11B1E
3D75E70D
3D685A92
BDA9CF21
BCA3B75F
3D9A4ACF
3D811234
3DDF2BAA
3DC9FE87
3DACD474
BD2B1C79
BC8B99FD
3DFE4A38
BD3FE03A
BDA90EC5
BD9DAA93
BDA0C4D1
BC876153
BDCE6213
BE35421C
BD5AB5C4
BE0BDF8F
3D511490
BC80402C
3D047DDE
BE070479
BDE0A633
3DE284E0
3D550A38
3D9A5277
BB9D6972
3D871F36
BD7D4D33
BC1E4647
BD2DA265
3D2B74A8
3BE3DA9B
BC4BE90D
BD756A2A
BD1191F9
BD8A2F2E
3D0704F2
BE074A77
BE04052D
BC30C9CC
BCF39269
BD54E351
BDC4D402
BDC6928C
3DA0CAE6
3D0D6B23
BE53A084
BD5C725C
BCEF8452
3D4778B5
3CA5D547
3DA87A58
3D92E367
3D81F71B
BD0822FF
3CF77334
3E068F8E
3DB205A1
BD3AC802
BDC3DB06
3D4AA286
BDE43569
3DB98740
3E13C31E
3D182038
BE153693
3C3EDC49
3E37A637
BD1F7CEE
BC987435
BDC49419
BCBFA242
BDCE8295
BCA74305
BAB9869F
3D6BC911
3DE0431C
BE01797D
3D8A7F58
BDE5C0BA
BD826B14
3D3B2AC9
BE063C32
BD04E1B1
3D382200
3DA11F4F
BDB36F2E
BE06783A
3E27763E
3DCEBB34
BC64EAD1
BE391538
BD0FEAFA
3C863C90
3DB74D3E
3DC3FCAF
BE152DED
BD205002
BBC06D43
BE07BBB6
BD2D7A57
3E23497B
BC9C5B4B
BD9274AC
BCB32053
BE15F2CB
BDF3FE19
BDC27EBD
BCF38FAF
3DD2D1AF
BDC989DF
3D3DCE11
BDB9D1F6
3D5AA5B9
BD670C64
BD71A57A
BDB41256
3D3359E4
3D42B3F5
3D1C7FE3
3D79F616
BDD341E1
BD428E50
BD96C0FF
3BE1C5AD
BE0024B3
3D83BD31
3D59992E
BD4D135F
BD999F1B
3DBBB6D3
3D56BD7C
3CC8FA7B
BE0568E8
BD2A50F2
3DA5B622
3DA22326
BE061459
3CF8EF35
BCA23EEF
BDB27FBC
BDAA4A49
3BC25D9E
3DCD2242
3E194FF0
BE1C0054
BC68306B
BC82429B
3C8D36B5
3DC8D188
BCC364DA
3B8C19BF
3DB71E95
3E2471B4
3CBD1CF7
3C011041
BDE5E354
3CBAF45D
BCA5501C
3CAB6000
3E2AD4F6
3D826FCC
BE411F92
3CF51D4E
3D641645
3D4826AB
BDC08EEC
BE763D3E
3DE3AB86
3CCB3D4B
3DD43B71
3D91B65B
3CF90C5B
3E1E553B
3D197AFB
3D9EF43F
3D94D3CD
BD48C76A
BDA81004
3CCD8234
BD3778A8
3DF6C722
3D9971B4
BCDB526C
3DD03EA7
BD7CD142
3D9ACCAD
3DFF45E1
3D7DD2FF
BDA9D18B
BC21CD5A
3DA4C29A
BE13D31C
3CD285DF
3D810A71
BCB7D772
3A825F5A
3DCD4F59
BD9053FE
3B4782B6
3D14830F
3E0C65C7
BDECF074
3D653BA9
3DDF2021
BDC7585C
3C14A0CC
3D892733
3DBEA862
BCA4E9FA
BE51BEF5
3DB3175C
BD807BBB
BBB72FED
BDB59FBF
3D8602C9
BD603FF7
3E289B52
3A2595A6
3E1D438D
3DACA0C3
3DB8AF67
BE1039AC
3D910584
BDC8F4EC
3D1932D7
BE32E72E
3D98D6C6
BD8AAA7E
3D4213F1
BCBD6CDD
BE0F8551
BA348BC1
BC4295A7
3E3666AA
3D63A414
3E084407
3DA31401
3D4CEE40
BCF2A67B
BE0BA16E
BDBD5DB7
BCFA0041
3D65FB72
3DD52114
BE0C8C93
3C1FD67F
3CB86A75
BDE8DE2B
BBB7430D
3C6CD581
BD27F456
3E3004B8
BB83F888
BB0FCF40
BDF12A0F
BE2BACF7
3D02046C
3D983E1A
3D91B8ED
3E4AE9AB
3C5DD101
BD050771
3D485646
BE1701DA
3DB78713
BE0B1FAC
BD80BB61
3DECD856
BD7E3A2D
BE61B64E
3D8A2FEA
3D9271D8
BCBFF477
3DE6149C
BC6A9890
3D97E6CF
BDB87790
3DEB70AC
BDE19115
BCFE9E36
3CBF1016
BDC835D1
3DA460E0
3BC85DFD
3E2212D7
BD1C60F4
3DB5AFD8
3CC1C3F0
BCEA6274
3DED898B
BD41C8F8
3E036439
BCF3A72C
BDA4B663
BD065387
3C373A29
3E45B036
3CC9B739
BD37DD01
BB851C5F
3DBE78C7
3B26B0D9
3D1D32E1
BC2B17DC
BD35ADB1
BE5AAC11
BE2884C7
BDE9EF52
BD7A1017
BC13F2A6
3DAD292E
3E67CDCD
3CA1F878
3DFB7B6C
3E4E108C
BCE46611
3C1BA52D
BDD5243A
3E44F15E
3DD7D524
BD57FCE1
BDA0599A
BC8387DF
BDB44FC9
3DE1BF38
BDC6705D
BD70E149
3E27E415
3D3D85B7
BBCD4F69
3E104296
BCD2414B
BE04916D
3D4100B1
3DCE2542
BD88404E
3D24B73A
BD4EF05E
3DA08E08
BE01172F
3CCD826A
BE69F59D
BD3CF96B
3CFCD7C2
3E03CE64
BD08830C
3D31EDEF
3E80E68E
3E019C5A
BDC3897F
3D51FA9F
3D1BF198
BDBD7DB2
BE6002E2
BC801996
3DFFD2E9
BE07FDC6
3DA443EF
BDBE9F42
BCC3C7A0
BDA1F461
BD1683D0
3E146C33
3DC36E3C
BE149342
BE3371DA
3C8BF1DB
BDC9DB23
BD027D6E
3DD6494D
3DEA4F44
3E64C511
BE84D317
3D34DDDE
3E495AAF
BE0F10ED
BD53E5E1
3DC99A70
BD9790E1
3E0DA405
BE222B7C
BD884472
BDDB59DE
BE3377E2
3DD475A3
3E19BD40
3D8B6820
3D2965BF
3D9EFE0D
BD0408F4
3E5D0F62
3E26E04C
BD7733DE
3B51EAC4
BDCB2F4B
BD1F50FE
3E0C9D5A
BD452F4A
3E372B02
3DF0C671
BDE8509C
BDB600D8
3D86F41D
3B009998
BE030DB7
3AFAD3C6
BD8EAB7A
BD731B30
3E46E654
BE2EBB77
3D2D8EAF
3DC8C66B
3E22B3CC
3D534F9E
3D4CCFF2
BD911509
3BAECFA1
BCC79372
3DA62505
3CE9A8DB
BD0BDD84
3DC457F6
BE3EDC3C
BD4F4E37
BDA4D636
BCFFF1BD
BD4D06AE
BDF1E6CD
3D175DD0
3C7E46C2
BC9B093B
3D92650D
3DCC763D
3DCF9FCB
3E2C1C61
3D0309F0
BC01DCFA
3D22C01E
3CE020D2
BE2371DA
3C769304
BE04D7AE
BDEAED14
3C8AC8B1
3D3A658C
3DADC444
3D0B896B
BA8BF56C
3D09FD7A
BD90E8C9
BD84CB0B
3E42ADC5
BCAA758A
3E3A26A2
3DF78D50
BDFD095B
BE211A54
BD55F9B7
BE3FB00C
3CB4FB1F
BD51F0C3
BCBEAC43
3DA5209C
3DFB395C
BDF7CB2E
3D8C7B7C
BD9AF27A
3B5A3AF4
3D061863
3DEB6F1A
BD6693B3
3E0BC276
BDABC7C2
3CECE49A
BDACD573
BCAA71C4
BC987D70
3D3B0433
BBA5C4A0
3DECE033
3DE88590
BC9849A3
BB9B7339
BDF7DD87
3D553445
BCA10A3C
3DEA88F0
3DC6D2FB
BA9EDDA6
BDE94C44
BDD91E64
BDE4D1A6
BD227A2E
3D3B1408
3DC49E02
3DC90646
3E249A99
3E201B00
BDB2A5CD
BD2EA97C
3E018A87
BD9AD5F5
BDD61028
3DDBBF94
BDA130AA
BE38D4BB
BDE66BA5
BDD8904F
3D426EC0
BCCA2984
BDA95AA2
3BB3F525
BC117E8D
3DFCB03A
3DA860CF
BB8406E0
3D8E227A
BDEF0953
BE09EE46
3C95FF46
3E32CBEA
3CD00B46
3E1057D1
BDBC4A33
BD5BAF53
3D2EB87A
BE2E7147
BBBEAC63
BD6C43F6
3DFAB756
BDE79896
3D6AC8CC
BDEBC7B4
BD324E4C
BD01783B
3D8C1491
3D5ABC7A
3C631C2F
3DEFD007
BE0F9592
BE04AE00
3D9FF1D8
BD9BF1DB
BD9967D8
BCF96760
3D564B9C
3E0B24A7
3D735852
3E1C79F6
3DC5B368
BD4DF810
3DD36827
BE0B9778
3B3C9923
3D23DE11
BDE3736D
BC955FAE
3D15AAF8
BD898C7E
3DC5D76D
3DDF0803
BD061DD7
BE2329C3
3D6034D9
BADF3631
BD8AD660
3B55EE34
BDB6455F
BE0135DB
3D5A0316
3C564013
BD8042D9
BCF13B77
BE18EC53
BD9C77C3
3E0A5871
BDE7E73A
3D0A3401
3E06D3FA
BDB899F5
3E1BB129
BDDD75E2
BE3CBC49
3DBB30B6
3CF505D1
BC3F8049
3D843145
BCB8557C
BD98FA52
3D5D88A7
BC8350ED
3D28C74F
3E01758E
BD7FC090
3D277C2B
3D81CB97
3E146C76
BD9DD36A
3D211EE4
BD32B2C0
3D86E986
BDE73040
3C7CC187
BD12C85A
3D8D2AF6
3D2EA00C
3DFA4485
3E086877
BD1A7BE2
BC866575
BE0411C3
3E24CE81
3E0103C9
BD9549A9
3C635108
BD123308
BDB937C5
3C7B8405
BD77FD9D
BD4DE516
3DB3694E
BD0F7D16
3C3FF7D2
3DDA4DF4
BDAA5B6E
3C5732ED
3DD7D7C3
3DD62BF1
BE677E5F
3DBA4675
BDBD2AF6
BD9BD190
3A9C677F
BCEB9113
BD0D0C58
BD597298
BDCEB2D1
BDBC527C
3DDBD48D
BE0965B2
3D2E7D06
3E2E8965
BBF3BAA2
3DB692DC
3C8A8BE0
3E165732
3D351018
3E29F9CF
BE01AC9B
3D5F75B1
BD39B86E
3C27F4A6
3DE4AC6D
3CD9B406
3AA140AD
3D99B563
BD0CF90D
3D9394AA
3CC29DD5
BD165BF7
BD54A10C
BCA752C0
BE79A805
BD690024
3C4B8900
BE3E36D2
BD341510
BE0E414E
3D8AD015
3DC06192
3C155DC0
3E1394B8
3E0475E6
3CDC05BA
3B7BC9BA
BD812209
3E4D02CD
BC9C1B8A
BE7EF4E0
3BC4F222
3DAECAEF
3DAA83CD
BD66DB00
BD7275D4
BDE79E5A
BCB01C93
3E1B313C
BD3A4576
BD593F1C
BD131586
3DB6AF62
3D028EA0
3DBBD6E9
BE0893B8
3DB5A99B
BD386354
BC91E789
3DDBD72C
3DFC810A
BDACD119
3DAF4476
3DC82385
3DD2788E
3E1305D9
BD3903C2
3CC236DC
3DF89BD8
3D14F3AD
3DC05FA1
3D244BA4
3DAC391C
BD0C1369
3D8F6D76
3DF98F1D
BD689C1B
BDDCB578
BE28A5CE
BDD6512B
3DB8C17D
BE0B64E0
3D919E08
BE0E3FFF
3E1D4E90
BDCB57ED
3DF59CD0
BD47B5D7
BD9714C7
BD266326
3DA5EB8F
BB746ACB
3D9728B3
BB35E7D9
3E24790C
BD8B645A
BCB7BC9A
BE292A30
3E13458D
3C6BA641
BDEE336A
3E0F97AB
BE01E18F
3D7BB36A
BE0B80AA
3DF379FB
BDAB8A5D
3D86A777
BD770550
BD40F401
3D923EB9
3D341744
3D6BC9B2
BD9EDC2E
3D8E32E4
BDCB3D08
3C65067F
3E14E4C9
3CB3E0D8
3C4D1C7E
3C80DB5D
BDC0B1AE
BD2529D6
3D8FEA59
BDBB0001
3DE60FE4
BDCFE719
3D15A60A
BC9CC74C
BE148388
3D3D8D95
BC9602D6
BC80B6A9
BD1A35D6
BE5C3697
3D8BFF70
3DA085DA
BE04DD72
3CDFA97E
BD8134B3
3DDA9F38
3DADA48B
3D0E5F23
3D68DE2B
BD1996C5
3E3C0F02
BE41BA3D
BD88D5AC
BDC74D16
3DA33516
3E3CE39B
3CFA252A
BBEE68BE
BDB11E5E
3D49B901
BDECB967
BDDE8FF3
3DFADC90
BD0EC95C
3D1509B2
BBD2BD92
3C1BDAF2
3D3994AC
3D6198D7
BE047779
3D6DBE14
3C837A73
BE224FA9
BC49C0A9
BD8CEDBA
BD9A11A9
BE2F0457
3D851358
BD4524E8
BD3087D8
BE078E5C
3D884E76
3D01130B
BCD2D7A9
3DABBC61
3DDB21C4
BD1FEC49
BD06A2B1
3BEC2DA6
3E1BAB65
BDC30553
3CE6AC07
3D6DDB55
BCD73B50
BB10D5FC
BDCC4B68
BD807A1B
3DA6E7A3
BD5A2D58
BD40EC3F
3BF61BFC
BCB8C93F
3C335BE2
3E157929
BC6F5B6D
3DA9B315
3CD8DD11
BD95CC28
BD98EFF1
BDFB8F58
3DE4A516
3CE11FA0
3CDFD8AE
3DC8DFBD
3D1A10EE
3E0161A2
BDECD8DC
3E060419
BD39024A
BD9AFC7E
BA3A0EFC
3D43BC4D
3D9E34D4
3DC3DD2D
BD7843A9
3D9AC216
3C9DE665
BDD95B36
3DB380F4
BB958D86
3DB2AFD0
3E67863C
3DC93858
3CD405DC
3D8A8E64
BDA423BE
BDB981CC
BD6144D9
3E176295
BD588999
3CA04443
BDD1BB49
3D76E173
BD4405CE
BD80BC89
3DBA0A2A
3E3F9A8D
BDE958DA
3E1F21F7
3E2170D6
BE2FDD23
3D39BEB8
3E37F62B
BD9FF335
3DE6594B
BC172719
BD2BD704
3CD88999
3D3D537D
3D4F4858
3D974A5C
BD86DB6C
BDB492AF
BE0CE91D
3C972870
BD856FD4
BDA661BC
3D024844
BDA7987B
BDFE2153
3DC37CCF
3E490F73
3E24E9C4
3D856F40
BD255D6D
BAABECAD
3DDC22AB
BD15232D
3E0D24E1
BE4A2121
3D5D6500
BD7CB89D
BDC2FA36
BD54DCEC
BB3959D3
BDA5C374
BCBE5B1A
BD378375
3D4B6B6E
3D834664
BCA45041
3DD0F5A1
BCBFA6A9
3DD2FD33
BDC51C34
BC1AD442
3D96A0E9
3E0F43C8
BCDDBC3E
BD1ECF13
BDC11D01
BDD267C7
3CD8A43C
3E11ABD2
BDE42396
3DFD13D7
3D0925FF
3E2B48D4
BDC5520C
3DEA4980
3DEE8534
BDC29DE2
BE0F3F96
BD047FC2
3DEE13F5
3E1B291C
3E019B91
BCE03FDC
3C7C547A
3D14A000
BDA2DCCC
BDE57A78
BBB8B411
BDDF0457
3DA65394
38C0F020
3CFC24DF
BCAFBF40
3CBD9084
BDDFFAC2
BDB25A76
3C63B1EC
3DE43676
3DC5B7C2
3D39D6BB
BDBD49BD
BD554E2B
3D89CDED
3BCD305F
3DBED139
BE012A52
BE0068DC
BD2DF24C
BD818091
B8CC433A
BD035D9D
3DE960B7
3D6B6000
BD4D5AAC
3E0AFEE7
BD76E7BE
BD8A6747
BDEE8640
3D9286B6
3CE4D105
3B1F57F5
3D85F103
3D8380D9
3D1B3CD2
BCDC3E5A
3D257A93
3DD72EF1
BE2E1651
3DE28805
BE08305E
BD05D801
3C09F09A
3CA941AD
3D94D2C0
BD594FAD
3E09EA9A
3D52D773
3D7A9329
BD3DE7DD
BDA0AB99
3E0DFA87
BDF084E8
BDA4DA25
BE1DF224
BD74015A
BDCA638E
3D4B5101
3E399BB2
3DA83CCB
3D8D9140
BDCB3F2E
BD4132D0
3CD2F901
3DDE9B7C
BE1F4880
BC25E212
BE2FFA3C
BAC560F3
BE2FEC9A
3DC72467
3B8BEBF2
BE097BFA
3DCCB726
BE186552
BDA1F9C8
3D8D155D
BD283086
BDD13405
3D82BBC4
BE1001D6
BCDA9B8D
BDD6616B
3CCE230E
3D95C953
BD1117B5
3DF52114
3D570C3B
3E0470A8
BC3C75D2
BDD58EA8
BDC0F99D
3E0D2674
BDC73C6A
BD8D3191
3CC67ED5
3D181479
3DED716D
3DCCBBC3
BD5AD7F3
BDDFFD61
BD2DB926
3D8C7E43
BE0F4E01
3CE079F3
BCB06192
3E182B1F
BE043F1C
BDCBF8FD
BC25C3DF
BBBB189A
BDF08CC5
BD61626B
BCD10287
BC894FD5
3E1BF402
BDEFE500
3C9BBD2B
BE050614
BDB99880
BE099BB2
BDAC896E
3D029698
BD8FEF97
3DF8E53F
BD040F59
BCBD3580
3DFC7608
3D74231D
3E1AE254
BC384556
3D75C14D
BD8070B9
3982BCAB
3DFBE8FF
BD6D6020
BDA9F68E
BE0DF43C
3DC2947F
3DD6BC1F
BE05A709
3C91E611
3C8DCAC4
BC19F041
3D769644
3DE6A22B
3DB30660
3DEAF46B
3D8E2103
BD5C9547
BDDFD60F
3A9D9222
3D28CE3B
BDE9CE4A
3C435702
3C4AE99E
BD571880
BDA54EF4
3E14EDF6
BDE429E1
BDFD3FE2
BC7CADD1
3E0BB3C8
3DC0FC06
BD70A4AE
3DB44C96
3DDB890D
3D9921CD
BA86AF31
BDAFD9D5
BDC2FA28
BE26B7ED
BDFA5F42
3DEA4B99
BE0FE048
3DF8904F
BE0E0BD4
3D0F9478
BDF3B320
BC86BDBF
BDD19696
3DE517E7
3B31AE0D
BE2C68EC
BD4C6F5F
BD38C50E
BDC4F6FB
BD00035B
3BC312CF
BE0AD3E9
3D43BA6A
3DC8DD11
3D67A7AF
3E06EA42
3CA9B3F9
3E005532
BD918175
3DF44D44
3DB1DABE
BC8F69CB
BCF73C77
BC137802
3D3CF18D
BE01272D
3D8778B5
BD8B1621
BBAE19EF
BCF12DD5
3CB48070
3B0308B4
BDDEB852
BDA29267
3D4972A5
3D2FB97C
3DD40032
BCF9E493
BE1C9753
BD31FE9B
BD94275C
3E1453D2
BE2E25C8
BCFBF402
BDFA8E71
3D3D9699
BC6EA48E
3C11A564
3D5A7115
3C98F20A
3D45222E
3B643AD3
BD69F674
3DAF5756
3D4A0430
3BE54C8B
3D83423F
BCBA8E3C
BE06DE76
3D214BFB
BD7DF5B4
BD416BC0
BDD511E0
BD3764A1
3D462D5C
3CB8726D
BDF5043E
3E0A936C
BD844D44
BD575D9A
BDDA2835
3D38769F
BE0374BC
3C6FF053
3D1AD737
BBFA02FB
3DA26352
3C68873D
BDEFEDE9
3C449A64
BDAE98DD
3CAC1319
BDA360DE
BC780347
3CD6839A
BD5735C2
3DFE5A79
3DF4256C
3D5AE32B
BDC7FD0A
3DCB4D7E
3C153CB3
3DEA7CE1
3E2F3B64
3D753968
BCC87189
3E13293D
BCBC4850
BB130A08
3CD44FAE
3C6E65A4
3C96F6F2
BD7C64A0
BDA1DE4F
3E109D06
BD115A80
BD67BDB4
BE4ED139
BDA91B4D
3C866D37
BD00E6B0
3CFDBEDD
3CBF3C20
BD9DB255
3E4A6938
3D1937C5
3C1E3F46
3D30D1C5
BC7B8470
3E0D6CF8
BD4A4731
3DD95571
BD7CA36F
3DAB5AB5
BDD0281C
3E125461
BCB763AF
3D9EB09D
BBB6FB3F
3D056FE1
BD68C389
3D839F27
3D01E802
BD2DBDC3
3DDEDF1E
BC45CF17
3E1E807C
BDEA515D
BDB0E42C
BCF928AB
BA0718D2
3DE3DAB6
3D672D00
3DB14ECF
3E1DB4CC
3D0C7A2C
BC9C545F
3D00B715
3D92E317
BDAC7384
3DD5E743
BD254859
3DBC61D8
3C4C6533
3CC44574
3C85CD6A
BDE1BFBE
3DF3311A
3CAC91C4
BC786354
BCBF80EA
BD023C00
3D6C431F
BD0B356E
3C6945A9
3DE0BA1F
BD480F99
BB875ED9
BCA4E7AB
3DA8AB0D
BC1DDE6D
3C8662F1
BDD661F2
BD73EACE
BDCB84DC
3DACDB96
3D6EBB19
BC7BADF6
BE2ACC0C
BD83C925
BDB19FC3
3D89795B
3E0EAF25
BD622899
BDB13BAC
BD2E58D9
BD2439EC
3CADB728
BD820CB5
BDAD0445
3DA21782
3DA4CABB
BC8EE7C5
BDE615A9
3D9B0FFE
3DA2DA7E
BC6D44A7
3D4C3A6B
3DC76534
3DFE718B
3DB9B797
BDE3D70A
3CD9FD37
BD31DF26
3C81263B
3C424661
3DF0B6B7
BD7B209D
BE46440F
3C4DC51A
3D5F4A7E
BE1FF9F8
3D237BB6
BCAEAFE1
BDFC6089
3D87A08E
BDCF7C24
3D9D3606
BD77B5E4
BD2C834B
3D53298E
BD4734A8
3D8BDF16
3D0A10E0
BDAB8C4E
3E05C854
3D6AF01E
3DBFD072
3E226E98
BE1CCF29
3C421767
BDF70AC4
BDD55CD9
3DCDA6E7
3D6EC5E6
BD3CE19D
3DA831F0
3DD05FAF
BC06B6F4
BE092535
3D5B9C08
3DC430CC
BDEE568A
BDD91FF7
BE217119
BE44373F
BD5D971F
BDC255D8
BD71111A
3E257604
3E20DBAD
BDB443C7
BD4484AF
BE2D6D3B
3D46C871
BD31D34C
BD17BD71
BD8D8DF3
3CCFEB65
3D83A209
BC25AE7B
BB7AC62F
BDBF266C
3DCDEB10
3CA8869C
BD8326FC
BC3D7831
3E19591D
BD169248
3CCBC093
BDAABFBA
BDFB42CC
3DEE7792
BCE4DFB3
3CCBB7C4
BCAEE709
BDCB9BB8
3C9ECB9D
BE07CFE6
3D218D4E
BB2541EE
3E0C62A2
3D7710A3
BBB0A11D
3D9A70D2
3B165267
3E3C2E77
BD8C62F2
3D31273A
BD0E3242
3D10074A
BD832AF8
BDBC98F3
BE07C393
3D72D631
3E3460EE
BCDB18F6
BD757888
3E0B4246
BD407662
BDCB25CE
BDB76B57
BDD4940C
BD86B9D0
BE55FE97
BE05CAB0
3D5D6AFA
3DABE7B0
3D0EC32C
3C3D6693
BD37216A
3E52E7B4
3BB441FC
3D047072
3D2F48DE
BDDDB65F
3E2FEB07
3E09AE4F
BD73EC97
3DC40952
BD4389DD
BD3457C1
BDBDA306
BB05D440
BD844773
BD752008
3D25B25C
BCD32F88
3DEB2208
3E2BEE3D
BD8EB405
BDF99ED8
3A2887F4
3BEDA35C
BCBEE4E2
BADE220A
BA9DCEDD
3E099C7C
BE19E061
BC1DED31
BDA6A2F5
BABA6369
3CF7BBF9
3D883C29
BCA7ED19
BDBC7079
3D56BCC0
BBE75CC6
BC0FA768
3D6D8376
BD2AACCC
BE063066
3DFD4845
BDBBDABC
BDBD2037
BCEDA58A
3DDEF1FE
BDF1FDDF
3E1F776C
3E3F37B9
3D42C450
BDA93BF6
3DB94DA1
BDE7DE51
BD8B59B5
3DABCAF5
3E0469D7
3C129E48
BD0DB885
3DB5B8B4
BD101FD3
3DA6E1FA
BE1F5D79
3E3FC936
BBF11907
3DC642DA
3CC941C8
3DF0A5F0
3CFBD63A
3DAEAA37
BDF487FD
BC1101A5
3DB626A6
3DB6135A
3DAE1694
BD1A0910
3BD8E636
BD2D954A
BDBDD02A
3BB7B0B1
BDEBC409
BCF52A19
3D5A5F42
BCA11C0F
BDA9C4B2
BD6846C1
3D5335B7
BCE3F720
BD008B0B
BE1AF188
3D162648
BE5F73C1
BE21E81D
BE45B079
BC4D283C
BD8A4144
BDB03595
3D83491E
BD814629
BE0C60CC
BD49F25D
BC119391
BDCF28C8
BCB28340
3D430030
3DF9CF9A
3CCB94BE
3E1228DD
3DBF34BC
3D954A72
3E22C882
3DC5D95E
3E21D96F
3D5CC3D6
3E26F5CB
BDF84018
3E106898
BD0A6C85
3D166BCD
BD1CC690
BD3E87AB
BDAC26DD
3D030CAA
3E1FCF3E
BD6CBFCC
BD283F84
3CCBA769
BB6788BB
3DCDE764
BD7DD92F
3E213C25
3E03B9AE
39087788
3E0712A1
3DF83ADA
BCA68789
3D3CAD4A
BDE5C91D
3C8A2299
BD665717
3E2746CC
3DAFA0D7
3806A31D
BE3BCDFF
3D7E08AF
BD045C00
BE050332
3D5F5CA2
BE115B14
BDBC30FB
BCCE4C29
3D645FE1
3DB25CD2
BDBE0F72
BD97DE1B
3E7EE88E
3DA2F604
3D883078
BCBA212E
BDEF2AE0
3DAC5E7D
3C45AF37
3D4FE2CC
3BA1E81D
BD9EE4AD
3CAA10AA
BD9868BA
3DC453AA
BC646280
3D3E9A8A
BC795A5F
BDD87BDD
3D209DB5
BBACD02D
3D181550
BE21858C
3D33D6C7
BCD1A940
3E0E2AC3
BDA61BA3
BDAA23F6
3DEE7F6F
BD5AEAB8
BE01B21C
BD40B384
BDBDC627
BC854A22
BD81516F
3D304161
BCBE7D13
BD8CD68D
BD83A91D
3DB61E1A
BC84A292
3BD3B386
BAFC3215
3E16FB4C
BD91EF3E
3CA05433
3DA846E9
BDE64B23
3C1D0A7D
BCD379FB
3D8DA2C3
3D4F85AF
3CA08510
3D1986BA
BE0B63D4
3D24C1B6
3D566E51
BD13FE4F
3E513CAC
BA76BFF7
3E2F3882
3D9B4BC3
BD598BF8
BDBD90F0
BB6F045A
3D842DCF
BC596993
3D0E8D7C
3D06AADF
3C147AD7
3E0E9186
BD78FCBC
BDAA08C0
BDF9CAE2
3D11C2D6
BC4AE6AE
3D98BDC4
BDB5FB72
3E400D5F
BD2728CE
BE021145
BE0A569B
3D4148BB
BDC496E1
3CC81E11
3D1AC6F6
BE0E33AD
BA8DD6EE
3E12DE44
3E382060
BDEBB129
3E25FFE7
3E0FB225
BE0E2196
BD7A3CA7
BD54C894
3E013D75
3CC785D1
3CE0ECE0
3E3A0FD4
3DFA2941
BC44FEA2
BB905624
3C09E0FF
3E4ED4E5
BE24955B
3DF57EED
3DD24E9C
3D95B10C
BE3AE792
BDF2E83A
3DBADA92
3DD08701
3D789862
BE11A4BE
BE1ACAFF
3C1923A8
3D360EB0
3E3E7360
3CBB9BB8
3D2C7D51
3D59907A
3E04BF0A
3D17B310
3E14F4C7
3D6CF638
3B7BB5EE
BD205631
BD85128E
BBA51D1B
BE6FDAC7
BD5DDCDA
BC98A7CC
BCD7B818
3E045953
BDF053A0
BE24CAD5
BD24B76F
3D6DFB50
BCE2E939
3E04F15E
3DA07DD4
BDDFE08B
3DAE2FF4
3DE6A4CA
BE24FB98
3E0FCDAB
3D45F110
3E2CF356
BDF4FE7A
BD16B4E3
BE4950FC
BDFB9D80
BD6B41CD
3E051A43
BC58028B
3D0806CA
3E22E408
3DB4BE83
BD40E1F8
3DC93F29
BD450141
BB11021B
BCC12AA2
3CF9529D
3D831975
BDBA062E
3D3AEB59
BE1E9F27
3AC2633C
BCDFC994
3D902DFB
3C119574
3E1E1587
BD9D482A
3E2D0B31
BAABE4F6
3DA2C062
BDDF7BE1
BE2CFA6A
3D350ED6
3E1F95D5
BD34B72C
3DB8F712
3E33CAFB
BD9D3D86
BD010625
BCA7B917
BCFF4B6F
3CCB248C
BD874498
3D94DF7E
BE0141EA
BE1FBACB
BCDEED61
BDF1337F
3C7B8547
3C8A3A16
BE247E4A
BD97DD29
BCBFC075
BD8E6B90
BD94604C
BD2893B8
3D38D5D5
3D49ED6F
3C01BC0D
BE506BBE
3D923B44
3DC5365E
3CC33391
BDE79BBB
BD13A05B
BE02C626
3D279FB7
BCDBD28F
3DC9DFE8
BDEE31D7
3E37B6BB
BDC5DE31
3D84C214
3E6BA27B
BCC52249
BCFD6261
BD9BF13A
3D327E6D
3D8B8E9C
3A699F5A
BE1415F4
BD7A6D9F
3D1DB588
BE64D6A1
BC9B3149
BE3693C0
3D2AFB21
3D6DEEF1
3DBAABC0
BE5DFC1A
BDC49EB0
BD67C831
3E269A4E
BDA34C93
BDFC0C20
BDC0EE2F
3D39968F
3E47DE0D
3DB6F919
BD82976F
BCC232E0
BDB9AF26
BCADAE59
BDD2CF10
3D26E66E
BCE1AF7D
BDDB4678
BC19CF14
3BD4D920
3BC0E868
BE247B24
3E2AE211
3DE35DEE
3CEF3B8D
3CB255F3
BC71C5AB
BE1AAB8A
3E01C582
BDDC46D8
3E01C151
3D7AE90A
BD2AF110
BE58094E
3DA7C195
BDE58927
BCDF8DCF
3C893C54
3E0EC13C
3D725694
3C4F2E3B
BD998733
BE2BEBE1
BC5165B9
BDF21EE6
3DB9E2BD
BCD8FE69
B9F096A3
BD175460
3D22FEEE
3DB6427C
3DDA6EFC
BE21E53B
3DEF9D2C
3D8A4540
BE2B01C9
3D6AF35E
BD11F362
3D123847
3D589705
BD83A3DF
3BBCB9C5
BD142BEC
BE0028E5
3D9A24BF
BD10AF0F
3E2306A3
BD3F7F3C
3CF6706A
3E2358F3
BE3157EF
3D9E8526
BE0A6938
3E2B83CF
3C982419
3D8511C5
3D094325
BCF8DCF6
BE02491B
3D989C36
3DE45AA3
3D25D8BD
3DE6655A
3C001FAB
BDC39DCA
3E1F30E8
BDE05C46
3D813CFC
BD2AD61D
BDC912C1
BDCC575C
3C9F7B91
3D59979C
3E014E7F
BC26FBED
3D60CEC7
BCA6FC8E
BD7AC090
BD7CB7E2
BD2303F6
3DC3EB7D
3C36CBDA
BD80772C
BDA4029C
BE324F66
BD2E2C2E
BCE9B9A2
3D27EC43
BD27A271
3D901663
BC20F61A
BE0196D9
3CD46222
BE0ADA77
3B4C6E83
3C670055
BDEB6C7A
BD9D9084
3DA33DBD
BDB969BC
BDA566F8
BD4E0597
BD508950
3D81551A
BE018266
3DCEE7C5
BCCDC94C
3D43BFA8
3BD8E081
BCE9AE1A
BCD77609
BDC1C68F
3D91B84C
BD022326
3D899484
3CA49AB4
3B277E5F
BE0CBEA5
3D582195
3D532F1C
BD3A2FA7
BD992A59
3E2C6717
BD1672D3
BD22E1AC
3DCC66EE
BC8B2314
BDA20E12
3D924C4E
3DFF676F
3DCD0247
3DCF95D5
3D1E6F21
BDEBEE80
3DB09B9C
3DA0E787
BE08E92D
3E0ACF31
BE2CD6C3
3DD4C2B5
BCC53C4A
BB760EE5
3DCA659A
3D3A023F
BE17939A
BD7EAAB0
BC0C9108
3D236B75
3E53CF2D
3D67B7D5
3E21DBCB
3D9A9DCE
BC16EEA4
3D6EB6CD
BE4BBBE8
3E26B485
BE12949A
BE0CF28C
3E588A05
3D5A5F27
BCA3EC39
BD9363CD
3D8B7613
3E2FAC60
BDF17375
BE2A5E78
BE061523
BD8C0CF7
BCFFD42B
3D0CCDBE
BD3DE0A1
BCCEB3C2
BDADD94A
BD86DC5D
BD89EDE8
3E7F6A0E
3E431E7E
BC192FE7
3E211ADA
BB979E2C
BD6D0694
3DAB485B
BCFBC96F
BBF29102
3DCF416C
3DA61383
3DCE7360
3DA2F662
BD493C1F
3DD6598E
BC9F05EA
3D561078
BDC510B9
BDE55001
BDDE4042
BD8E8BB4
3D75469E
BD100D79
3CD30CB8
BDD3B29A
3D30AFE6
3D714298
3E14B48D
3DA20D71
3BA47C4C
BC388F28
3D4A308B
3C641411
3DCAA89B
BD31B83F
BE0383AE
BDA005AA
3D0AB3EE
BD253FF6
BD3F7073
3D2F207F
BD815641
3D652589
3E5550CA
BD9873E5
3D187E46
3D142E05
BE3DF655
3C76089B
BDEB11C7
3C392627
3C3935AC
3D68CD99
3C719A77
BB461E5D
BDD4B72C
3E03F466
BCF92EF6
3DE2224F
BDC9FDE5
3DF2CC71
3C3F5870
3DCF605B
3D5AA79C
BD473A36
3DC815FE
3D3D057A
BD6565B5
3D67863C
3C8F157C
3DF6F7E4
BD398D8B
BD3FB8E8
BE08A8B1
3DB59CB5
BD904A65
3DB1C250
3DAB2C91
BD7F43AD
3DCF6944
BD84ABCC
BE001D5C
3D89C6D9
3C01A669
3C1AD706
3E13B107
BD964841
BD2C107A
3C8457B3
BD32B2A5
3DA735F7
BD8D2F6B
BD989332
BDA1126A
3DED716D
3DD583A5
3DA0232E
BDD2239E
3CD3206E
BD245A88
3CD28B53
BD9C74FB
3C918CF0
3D04F187
BC152704
BE05182B
3D303E21
BDA69073
3DA34649
BC882C8A
BDEBB4D5
BDD8A00A
3D8BA50D
3DF21816
3D5D8079
BDD3AC4F
BDB9F2C8
3E092E62
3C3BEE58
BD18991E
3D329422
BC9319B8
BD00D03F
BD40D604
BD92439A
3AD8AF84
BDB9BED3
BCC0C374
BDE20579
3DCBC0FE
3DAF8501
3D6F0699
3D34E0CD
3D92F754
3DF08D4C
BDAA0415
3D9AD942
BE0ADF72
BDA7FEB7
BCBF4F6B
BDA47F71
3DDCE8D9
3E03B5BF
3DA58E22
3D0CC7FA
3DE3CFB3
BD936A9E
BD1A6CC9
3D939093
3D16735A
BC401960
3DEC625F
BD1A0DAD
3DF54FBE
3D40C6CF
BCD5C4F9
BDB344A9
3D040F8F
3D8C6640
3DC916CA
BE1F2A17
BD8B7656
BD98DBEA
3DA1A402
BDCB26DA
3DD39219
3D3BA202
BD96ACDD
3DB5D108
3C9551D7
3D03CD7F
BCC16B04
BDAE1247
BDDDE269
3BA11A82
BD70A783
BCC6763C
3B8B30A0
3D0F2750
BDFE9857
3E13A323
BCA3F3C5
3C7B7BA1
BCBDD8DE
3D091DD1
3DD307AF
3C6D03A4
BDE4A83B
BDBDA639
3E0FC5CE
3C331719
BD969015
BDD2F230
3D6DD591
3DB5D639
3E080991
BD03F3AB
3D2279DD
BE06B335
BDCDE97D
BD9ED162
3DFEC5F4
BDAA21C2
3DC5266D
BB83C298
BC06872E
3E1F43C8
BDF841AB
BAF95BA1
3BE2A800
3CE5B856
BD93E5E1
3DABBAA6
BE38CB08
BBCC5192
3E024C83
3D9D362F
BD4223AC
3D876717
BDE00432
BDA5AA06
BD9D3E27
3CAE38C3
3CE7FF58
BC8219EB
3BA4D50C
BD9FD171
BC546405
BDED0892
BCE2EAE7
3DC7B6AE
3D29AC01
3DDA2403
3DAC070A
3D5900ED
3CBF84B0
BD4A9550
3DDCC9EB
BD692634
3DE16D6E
3D61A170
BD740860
BC842ECE
BDD2799A
3C9FE6F0
BAE6DC6D
BD716B47
BDA11EAE
BDE21640
3E1CC038
BBD7E22A
BD8E1D21
BDF9ABF3
BD0ACA29
3D46E7CB
3D19ECA6
3DE80629
3DDD4BF1
3B924740
BD229190
BE132485
BB809C5D
3DB2DA55
BDC058C3
3DAAA3AD
3E2013EC
3DAD14A1
3E1913A5
BD34EF2B
3CAD3375
3D9A2263
3DBE6008
3DD27ED8
BC5773F0
3DBAD2DD
BD1E5215
BDEACC0C
3DE92BC3
BDAF34D7
BD8A1B19
BDBDE6C3
BE05171E
BDA4AE00
BD4CE5A7
3D538716
3D66C79A
3C816708
BDC85455
3DA4E9C4
3B969DA6
3E12F512
BCE8A358
BD91381C
3E2A78F2
BD9ED60C
3D0DD06D
BDA84D26
3B54DB39
BDD74363
3D98E64B
BBC5EA85
3D8F2B74
3D345268
BC9DB304
3DA67D93
3DD19EF9
BD5436B9
3D2BE7CA
BD86489F
BDCCFE15
BBBCA578
BD7BC29E
3C5065DF
3D8C42B4
BD865201
BD83048A
BD915DF6
3D1DFB79
3D4ED479
3CAAB9B2
BDA3E9DD
3C11FB96
BBC4D156
3E1A21A7
BD8C6F01
BC89BE5A
BE277BC0
3DAC5AC4
BD711963
BD97557A
3D943633
BDB6303E
BDF3636F
BCCD65AF
3DBA50FF
3D89B901
BBC915B3
3DD2788E
3D6A9FB1
3DDB3743
BE1A1D75
BDBBABF8
BD486DC2
3DCF709B
BDED20B0
3D4A13EB
BD204EC0
BDF1E3A8
3DC2C882
BD89F674
3DBF4C39
3DE6B3FF
3D82B36E
BBC775B5
3D8FD220
3D9E39C2
BD63C156
BBAC692A
BB58B93F
3C958644
3D59D594
BDF67EC8
BD16CB1E
3C4E505B
BDA0C2C6
BE0B4E98
3CC1948A
BD1CE0E1
BD6C9EDF
3C49807D
BD0772F1
3D202539
3E09BED3
BE0695D9
3D408455
3D304F6E
BD9C7D6C
3BD176C0
3CD7DCCB
BE03F9A5
BD1511E0
3DA94947
BCA2244D
BE35464E
3E1D0F1F
3C896BEF
BDDC8217
3D147786
BD174942
3D19F483
3DA6E7B0
BC237DD4
BC3B66DE
3D58E89A
BB55E0C8
BC270FA4
BCE41D4B
BE29CC75
3E01EFB7
BDEB5BB4
3B83A4D0
BDA21965
3DBBFC80
BD7175A9
3D734BA2
BDCE136E
3DDE7FB2
3DAE1CA9
3C304FBF
BD96DC28
3D29A764
3E19131F
3DDC62A2
3DAB22DE
3DF7EA1C
3E48AB50
BDFAF4AE
BD3230D5
BD55FB14
BDA0FB07
3D91FA26
BDAD2D1D
3D68E45B
BC145369
3DB08B0B
3DB3354C
BD102AD6
BC94E351
3D99211E
BA3571F0
3B457971
3D514B31
BD7C788C
3CA1678F
BD7E85AC
3E037F7C
BD2E83A1
BE0D8341
3DCBE3C1
3D6717B7
3E2EA1C7
3D1A5F27
3CBC01D9
BDC0AE03
BD15E57A
3C954A80
3D1227D0
3ADDE4A2
BDE0C62E
3E113A0C
3D607739
3CEDCBB5
BDABBFFF
B9FCA854
3DF62520
BCCCCA7E
BE1EF135
399F3E16
3DE98BB5
BA094984
BD4EB9D7
BDB36113
BD84533E
3DAD4D4E
3DAFB847
3E072B02
3D6DF33D
BDE96702
3DAF9BC2
3E2B8738
BE185F07
BDD8A090
BC9D07E3
3CC16378
BD00CFB9
BD8597FD
BE14C6E7
3BFCCE5D
3DB57647
BD8C886F
BE01782D
3D1A5871
BCA1367C
3E468A50
BDB2E7DC
3D9EC28B
3D62314D
3BF57563
BDB4C349
BC385180
BD7139FF
3DD0B0F2
BE4A99B7
3E044E0E
BD800A62
3CBCC914
BE0855DA
3D947220
BD95A0B1
3DDFCA00
BD9C6B8B
3D96D6F7
BD466EE5
3DBEF8CF
3DC88C10
BC4F70EC
3D6FC4B4
BDDFA1A1
BE123D92
BDFCE076
3D9DE6F9
3D499194
3CDD0FDB
3D581916
3BAAF4B6
BE024F66
BDBD4995
3DF5E397
3C6F2629
BC9A228B
BDD775B8
3D948FDA
BD828607
BE09BBF1
3BB87D1F
3DB0272A
BD5D52F7
3D00B7EC
3DDD9F4D
3D8999EA
3DBF8529
BD74BF24
BC357A35
BCCB9347
3DE8C2E7
3D291E57
BDF6A2F5
3E064021
3DA5D04C
3CDCB5E3
BDB98FCC
3DC9AB37
BDB8226B
3E07B5AF
BDDC1052
BDA2466E
BCAFE45F
BD17CBB4
3CF6375F
BD8B82D0
BC65229A
3BFCA56D
3C61F62A
BA8194A6
BCAF7E73
3D982A64
BD6AAACE
3B826042
BDE4EB57
3DAF1C90
BD93B3B4
3DD1B0CD
BDD5158C
BD36D381
BBBA6BF7
3DA0EE57
3E0C13BA
3D9695B1
BC0AF735
3D91AF98
3E80DB27
3E4B6E0D
3C8C140A
BD18C89E
BD95E86A
3DC1271F
3DE1565C
BDEDF0D4
BDAA66CE
BE0CC815
3C556EC7
BE23647C
BE1231C6
3DEF672C
3D9189D8
3E55DAF0
BDFBC0A0
3E0296F6
3D3E0305
BD54F921
3E2E27E1
BD207A0E
3D065EA4
3A613ED2
3AC5B17B
3DFCD899
BDCFC2EC
BCECDC37
BD663498
B96C3CE6
BD58D386
BD94B8CC
3DBD06AE
3CE4E37A
3DF4E1A4
BE3942D5
BD9FB4F9
BD989169
3DBA852A
BE1F42FF
BD8BA89D
BD14EC8C
BDB0FE2D
3DC3585F
BBADEF67
BE4A708F
BC29EAB5
3D8B1225
3E3BECEE
BE0CBBC3
3DB642F5
3E38E4B8
BD2F2EF7
3D723374
3D0D3862
BDE43B2E
BE0C15D3
BE2F1F58
BCADEABF
3D033BDA
BD360D88
3D43EF94
BDEE7C4A
BD35CFAB
BD1945B7
3E1338B4
3E1650A4
BD049F6C
BDB5EE21
BD82E73B
3DF9C1F8
BD755384
BE376FB1
3D94A757
3CCA0F83
3D1DF19D
3E0B7E0B
BCE5B6A9
3E30203E
BE27A787
3D28F49B
3D3470B5
3E00A6B9
3E0B239A
3D144384
3D85549E
3D2C688E
BDE55433
BC32E7B4
3CF3C1CE
3D82B32B
3DF377E2
BB08F8B8
3C80FD8C
3E40485A
BDA3D01F
BDC9CFEB
3CBCCC6F
BA72C23B
3D9D9323
BD7DC26E
BDC3C7C9
3D6E68C9
BC6A202F
BD0BFB66
BE16A401
3DACFB84
BE0AEFB3
BE11016D
BD72F520
3D255468
BD3E6744
3D26A678
BCE596FE
3D212026
3E2B7D41
3D566369
BE03DDDB
BD9F369F
BDF84EC6
BDBF7081
3DD63BAC
BD38982D
BDABDC34
BB09186D
BDE466B2
3E0CDC44
BC0CD982
BE250225
3E0F4949
3E06C1A0
BD401A87
BD0EE617
3E44B33E
BE1972CD
3D573EE1
BD88F755
3E6D31FD
3D2F37FC
BDC155F1
BD1D74D6
3D955CE7
BDD6C93A
BE0FDB90
BCF26A15
BDECB74E
3D1023CF
BD273D77
3D909A9D
3DA7DC45
BD2F42E4
3C765C7E
BD9AEFDB
3E394574
BD5A1D17
BD511318
3D00837E
BCE6E4A6
BAE5A25C
3CF11948
BBF7CC14
BCE56290
3D7B45BC
BA82C6C4
3CF6050A
3E3F2C73
3DC5BF1A
BCC255E6
3BF2F0A3
3E718C19
BE26EA85
3D8E4B52
3DA121AB
3DDBB16C
BDDF4D38
BDE45133
3B19D803
BD8B9F56
BDD1F927
BD79DB8E
BDCC11C9
3DE5AE60
3CE4FB62
BE1F61AA
BE06EE31
BD009A09
3DB0CCBC
BD1C78F7
BE0393EE
BC154267
3DABA260
3C957FFA
BC9B512A
BCCC1730
BD67D25C
BC2A0D85
BCEFC703
3B09656F
3D705FE4
3E3E69F0
3B5646C9
BE0D6452
BDD3671B
3D326C13
3E2E6F72
BD7CF498
3D0C58EF
BB3A3BFC
BD16570A
BE104FF4
3DB6EAC8
3D2F1EB7
3DBCCB1F
3D06F679
3CC4CAD5
3DD39325
3D9BB9DD
BDAFE048
BD47C0A4
BE2A5FC8
3DB62D69
BE14AA54
BE38F084
3C9F2600
3DC0EF13
BD834E9F
3DDBB1F2
BDE10E88
3E196FA8
3E7E20CD
BDEB9453
3D1E29B7
3D8C3505
3DD017DB
3D4B0440
BE14E5D6
BD43096A
3D9F2397
3D866F5E
3DA06B6D
3B82258A
3D531302
3D3F493C
BD243478
BC676428
BBFD4088
BD14AD36
3D35D504
3CA4DF48
BD0541D9
BD1D730D
BD391D3D
3E1EF566
3D97D559
3E31B64E
3D868D4D
3D89FCD9
3D8DEA03
3AEE7843
BE01A826
3D8C659F
BE37A0B6
3DDBD945
BD9972CD
BC5AC5B4
BD0CD9E8
3C5468A3
BC9908B0
3D582957
3DA75E99
3DDCAD9B
3CD58E3C
BD633391
BD93BC4D
3E003E21
BCEB3E72
3BF35929
BD6750A7
3CC95BFF
3DB94390
BDA3C70D
BC7F1EC4
BD9F6449
BDDB1E19
3DD44E51
BDE8CD64
BD329803
3DAED8B9
BB420E02
3C9B049E
3DCE6751
BD4FB1EF
3D8C334A
BDC05151
3A903EA7
BD82179D
3D81E76E
BDFABE27
3D31D6DD
BD1C5A23
3D3F5E85
BDF7C915
3BC1AE61
BE04013F
3CB4C85F
BE243201
3E173FB8
3D4D0E56
3E0A5E78
BDB7DCBE
B9CB7F00
BDC97A75
3D8BCC6C
3CD3E1FF
BDA670FE
B9AD516E
3D0162A1
BE45208E
3DCA920F
3D96E23D
BE3A3401
3C2E840C
3DFD68C7
3D9F8056
3D9264CA
BDC3ED52
3D3A2D08
BDF142B3
3D30862A
3E0420B4
3DB16675
BE0BEE80
3CF371E8
3DF315D7
BD903446
3D80CB87
BD73A7B2
3D6B88AF
BDCFC0D3
BC6F558E
BDD03969
3D7E3D1D
BD8AB64A
BE408356
BE241A26
BD08D1B0
3DB63927
3D5A00AD
BDCDD9C2
BB65B4FB
3D85E32C
3C7AADB1
BCDDF9E6
3D7F3677
3DE2480F
3CD0232E
BD683680
BD9ED5D6
3D6234F9
3E3B59DE
BE80C21E
3D9C6D2B
BDC9E0BF
3DC9A69A
3E4873BD
BCF894D2
BE25D1C4
BE3F6CF0
3E416052
BDFC91D1
3D51D4FA
3E2E7AB7
3E15B0BC
3D575643
BCF94531
3E25104D
BD53F947
3D3F5CBD
BDCD1740
BE05CAB0
3B9D8C02
3D2A082C
BE055C10
BDEAA4BA
BD29B216
3D7E9B97
3D9F6F31
3D2718A8
3DAF36E2
BDA35B41
BE2DA4CF
BDF07421
3DCD2C38
3DC2806B
BC50BA2D
BBB1A91A
BE272BCB
BC8337C3
BD852E65
BE2E7C07
3C996F72
BDA63EDE
3D92764D
BB8A74CE
BE0478C8
3D9CB6FD
3D8499B5
BE040810
BD84794F
BC844FF1
BD809361
BD4B4BA8
BDFF5515
3C1AB40B
3E06E654
3C890F73
BDC78573
BDA93CCD
BDC712C9
BD15B9DB
BDE81E47
3C8B24F7
3DBECB4D
BDF5D895
BDAB0293
3D71CFA1
3C26D699
3DA1EE09
BE3A3B15
3DE2F9CA
3CB68E32
BC561764
3C4C0C48
BBAC6462
3D988F86
BE0ECAAC
3C681CB4
3D288052
3D83E5EE
BD3519BD
BC0F4D45
3DCEE9DD
BD87C6C6
BCDB35B1
BD53D011
BE111623
3E0EEBB3
3DF4434E
BC60F437
3D93003D
3DD1BC56
3D939DA1
BBE5F04A
BE382667
BDA79662
BD65A200
BE337197
3DC4BBAF
3DDDE269
BE2950B9
BCF1C49E
3C9998F9
BD6BD1AB
BDAB7854
3E143ED9
3C4CDA39
3D79D66B
BDC32ECC
3E10DD40
3CBCA502
BC82DED8
3CB98882
BDBF741F
BCFAC48D
3CDE88ED
BE0E4324
3E293858
BD9F7AC7
BE12F33D
3D944681
3E19784F
3C5AA7EC
3C97E996
BDCB72ED
3DEF7E3D
3CB462DE
BE26D0D5
BC4647E3
BCEBBFA1
3C00EF94
3DC60D7B
BAB41C27
BE52ADC5
3CEC3B27
3DB88B1F
3CBE765D
BC55C026
BD208E4B
BC8A4C54
3D4F0C27
BDD6BFCB
3B9E2708
3DA3B993
3CC31310
BE0DC6E3
3D0E3228
BD9DE848
3DBA3F2C
3D8E9D01
3DA38BF6
3E210BA6
BE847BCC
BE064FDB
BDB32958
BCC73076
BD065C3B
3CD76831
BE093533
3DA439A9
BD716243
BE0BE554
3DC0BF28
BD85D37F
3E3EE8D1
3D27EA0F
3E107BFE
3DC74356
3D744F5D
BD9EE3A0
3BC81B62
BCDCEFC5
BE2A6267
BE4A4053
3DA7DD29
BD04E832
3E3A98AB
BD861C1C
3E5BEFD0
BD63576E
BE107747
3CD54E7C
3D11F850
BD635AFE
BC4595A1
3E2A7265
BDDAFE1E
BD362902
BE1D3911
3D037AA9
BD08D3FF
3E1B2EE0
BC3D548A
3D5DBE57
BD3D3D5D
3D928EAE
BD1D8FAE
BE15158C
3D8FB3C5
3D2D7A06
3A1C827A
BD252DB7
BDBE8196
3E863F14
BE56ECE1
BD3D0B59
BC79EF45
BE10FD7E
3BE7069F
3C0F3E2C
3D157DE1
3D5EE5EF
BD958E9A
BDAEBD75
BDDD859D
BD17B75C
BBC2C476
BB875244
BE055001
BDD73322
BD67C632
BE082667
BDD68598
3E162A1B
3E2DC593
BE699DCB
3E2940BC
3E6F82B2
BE595B79
3DEE1AC5
3DD8E758
3C65A1B0
3DDC5048
BDBD6E70
3DA13E23
BE4B0F6B
BE06B0D9
BDDD156A
3C0BDF31
3D9A9D05
3D04A97D
BD9EEF37
3CDBB1A2
BE0097C8
BBCE042F
3DA94178
BD912473
3C3E6602
BD948E70
3D716EF3
BD7299B0
3CE671BA
3D84A3C6
BB0522EA
3DBB3BAB
3D6C2CAF
3D922FD6
BE09CED1
3CF0CDC8
3D07D2E3
BDF8AC9F
3DA458E8
B7B0FFE8
BD63CA5A
BDF1D713
3E358080
BD833920
3D5C23B8
BD0A5142
BDAE1FDB
BD42987C
3D70B1E4
BCDD66AE
3D439A8A
3E2BB774
BA273EEB
BCD1B493
3CB0D04D
BDD9F773
BD7E875A
3E0A187A
BDEFCAC9
BE16E58A
BDB4015A
3D0919D5
3DB67B95
BD2BF211
3D30FA74
BD852602
3D5179C0
BDDE94AB
BD86E32E
BD8F38AA
3D37AB83
BD1A2FDC
BD77F09D
3D247AB9
3DC247F4
BDC1DA60
BD4DE093
BCAFCB34
3D44A0C9
BDD081C3
3DA88C7C
BD501308
3E1C3266
BC8A488E
BD938D38
3C024D42
BC09EA7A
3DC7EE91
3E01F751
BE21FFF8
3C80E751
BD397B82
3C4B8F4B
3E07D029
3E10635A
3DCFDFC2
BD711185
3D6AEE56
BDE6ADB4
3D93E2A0
BE398B2F
3C95CE9E
3D2C6D2B
3E51DC0E
3CFC24A9
3E36BA06
BE26B6E1
BD31A239
BDC9D1F6
BDFC66D3
BDF22079
3DF52B0A
BE209FA5
3DD8DB49
BBE463ED
3DFAF640
BD5A88AD
BD466631
3E61C25D
BE07531E
3E35881A
3DD12019
BE243809
3B5FADA5
3DD74E66
BDB4FC1E
BD6A5C95
BE0EF34D
3DD8609A
BDD45522
3CE1C97E
3D946306
3D7CBDA6
3DB42635
3D69208B
3B49FFE9
BE1589F0
BD5AB898
BC033803
3C0CCA94
BE055B46
BE273216
3E6064AA
BE5D2FA1
3DC13E31
BBAE49AA
BCA39CBD
3DEA2FCF
BBE9EA7F
BCB11B2B
3E231F47
BDCF0B6B
3D2D32D4
BC5936D3
BD8C1524
3CD65790
3C9B0326
3DB95B51
3E26583F
3D7CF91A
BD855532
BDAE85F0
BDA23F9E
3D9DA598
3D999DF4
3E25F677
BDC05200
BDB98D47
BE52C732
BC1EA903
BDD141A7
BDFF72F7
3D455EE5
BCBA322B
3D347CFA
BC7D2DBE
BD42552A
3E1E7F6F
BC95E651
BE047B24
3D518DAC
3A36CAF2
3DE05F6C
3DF425F2
3CA40D5B
3DCB73FA
3E179032
3DABE70F
3D6D5EF9
3E3A23C0
BBF169E5
BE1685DB
3BBDC0EB
BD020818
3E2A0CF2
3D99032F
BE045283
3D433D6C
BDBA0FE1
3D8E0FF9
BE18027E
BC210C80
BC313455
3D9A7745
3D3C054F
BDCC4942
3DAF0AE5
BE0190D1
BDE5ABC1
BD098062
3D4C61A3
BDE99956
BDA7887D
3DA18B78
3C2C2812
3DDB56B8
BD891C81
BDD211CB
BE127286
3D86BA14
BE1DF7E8
BDB56EF0
3DB9EE61
3DC16F79
BD91967B
3CE84960
3CE2C4F1
BE1352EB
BD7B5D39
3CD582E9
BC0F2B0B
3D1985AD
3D078C1B
BD7C0585
BD9B6E1B
3D040944
BDE18612
BD885950
BCC2491B
BD69D719
BD8F257A
BD124745
BD29F00E
BD88BA26
BDDAD7D8
3D8CE465
39740BF0
BDD1233E
BD54A0D7
BDE76B7F
3DB281BA
BC9341C6
BCB11D0E
BC14D626
3D465F60
3CBE6ED1
BD80EF21
3D833849
BC8C4A5B
3D9715D4
BDBDDE02
3BEF03AE
3D08F374
BDA93972
3D9E05E8
3DC71C54
3DA621C5
3D3CF2B5
BD62E903
BD7BD4DD
3AB352D3
BE0F8C22
3D5DBCDF
3DDB0C46
BD9E30F3
BD20DAA1
BDD486F0
3CAEF079
BD7F19D6
3CEA3634
3B93489D
BDC9BC9F
BD2E8244
BCCFE94C
3C4CFC32
3CE1CF28
3D9A0A1D
BDCE7DDD
3C0B6478
BD864B9C
3DD764F1
BDC84C85
BCAEFEBB
3DC113C7
BE01EE67
BCFEDA30
3D0D878D
3E31BE2B
BDAFC38D
BDA00B38
3CD84C92
BDA4AA39
BD64E75B
BDEF41F2
BD35C7E8
BDC84F9D
3DC60279
BE16616B
3E28B60F
3DBAD12F
BCF2B4BE
3E0647BB
BE03A4B5
BCF7BB23
BD46B10F
BD0FA681
3C9E01DE
3DB4ABCC
3E05219B
3C9F0076
BD90C027
BB8589ED
3C816D1D
BC88641D
3C5CB868
3CC375D6
BD345C0D
3E42C83F
3C9C7EF1
BD8FE85B
BD99B96D
3E093D96
3D72C6AC
BE0563ED
BD65A7E0
3DB7D1E4
3D077128
BE100714
3D328D1B
3DDAA045
BDB66341
BD7C96F5
3D458256
3D53F63C
3DE4C511
BE2E75BC
3D3D34DF
BDBD512F
BD4DD64D
BCAF251C
3D9759AB
3D445225
3DE52DED
3D79F8B5
BCBF2006
BD96E2C3
BD8CEF9D
3A90938C
BE23400C
BDBA9923
3D049E0F
3D0CEFED
BD7A1555
BB25563B
3C5F9F37
BE0BF338
BDED8F50
3D50B001
BDF572DE
3D09528F
3D351C0C
3D1575B3
3DFC7A3A
BE267F0B
BE067E84
BE23675E
BCDBF5CA
3C28657A
3C6A5D01
3CF9C76C
BDEEAE19
BD8345DD
3BE1024E
BD46928C
3D36C376
BC1CBA35
BB96ECEC
BDACF1B6
3DFED41B
39767A2B
3DF82CB2
3D9CE1EE
BDF45BF2
BCE6CCF3
BD483127
3DF0E66D
3CF62F9D
3DD25A25
BDE00432
3D96AEC0
BDACA601
3D533B2B
BE1BC16A
BCAA5A7C
3D6E3440
BB99E834
BDB754CB
BDB7B5F2
BE03F423
BDD95FEE
3DD60200
3ABB6ED6
BD4764AE
3D44775E
3A806128
3DD152F4
3B335557
3E026B72
3D99C645
BC32CDB3
BC6117DD
3D16832F
BCDD9D6A
3C318EEE
3D9FCC41
B8BD9521
BC1C0E33
3E2148BB
3D969A4E
BDE494D5
3D87E422
BE066623
3D7DFA87
BCCC6B7E
3DA96F65
3D7CCE52
BE16A0DC
3D28C932
3C301282
BDE09FE8
3DB761F4
3DD18CA0
3D0A634B
3B9080C1
3D88DDB2
3D9FB39C
3D2F8310
BC9CFB18
3E173190
3DFD5A9F
BC82206C
BD131A24
3D5EDF54
3CF93D38
3AD91EEB
3E01BDE8
3D968E3F
BDBB1F33
3DCA43AE
BDD2A5A4
3C157776
BD80E9F0
3D96088D
BDD661F2
BC4EF531
BD87178F
BDD22C88
3D008A4F
BE11E109
3D6EB123
BD249342
BC622666
3CC6E8F3
BDC4AC01
BC88CF7D
3DB086B1
3D1E29EC
3E102795
3DB6D605
3D128813
BC9B6912
3C56A0F7
3CCDC733
BDBC0923
3DE8EFFE
BDC08729
3D962E9E
3D799781
BD91B641
3D83F2C6
BD999C1E
BC26995C
3D80B956
3DD71434
3D98889A
BDBA813B
3DBCC766
3DB562FB
3E21F601
3DA05187
3B04ED0F
3D4F89C6
3CBD8F42
39E839DD
3E2AF816
3C74FD6D
BB3CA812
3DD0D413
3D89C42C
3C14144A
BD476011
3A9D9E8C
BE02B12D
BDFB4D49
BD971393
3C19159B
3D0ED048
3DD9D452
BD7ED8EE
BDB2BBED
BD63F15C
3D99D148
3BD9932F
BE21CDE6
BDC9464A
3CFC2804
3DEF31B1
3D0619C0
3D5B55C7
3D2ACF82
3C1FC085
BCEF2F98
BDF7D391
3D8B5690
3D26FAC6
BD0BFAE0
BDC27A63
3CF69736
3D57A2EA
BDE8ADEF
BDAF3542
3DDB1AF4
BD84DAD3
BE0EC354
3D9A142E
3D3F851B
BE13061C
3DD4BA52
BDE6A7F0
BC1F9735
3CC95ABD
BD2EB108
BE18CD21
3D66FB82
BDD6EC5B
3BFD3A68
BD0EE576
BA78A3F4
BDC1DABE
3BD2CE59
BD754B8C
BD48BCD3
3DAD5927
BDEA4EBE
3DFA921D
3B129E28
3CE3D0F5
3DAA9110
BCCC5EB3
BDD2E05D
3BDA4256
BDE4A16A
BE15D13D
3D23A125
3D13FFAC
3DEE7F6F
BCDDCF1E
BD8A4675
3D9A1B92
BDBACFC5
3D64118D
BE0DDCE8
3CBCC624
BD273711
3CBAD3DC
BDF48DC1
BDA44319
BDDD9557
BD367E41
BD903600
BDC3027E
3D8CDFD5
3E1F71A8
BD760D38
3D866DD8
3D56FDDE
BC071DD6
BC9FE147
BD8EA52F
3DB5479D
BD9EC3E8
BDEFD4BF
BE28E087
BD19DF6F
BD6DAD32
BD99AC0E
3DDA7760
3D8F8BA9
BD679E3F
BD9A3535
3C0108A9
3D6C976D
3D391453
3DA8B5E7
3C16F692
3E084A0E
BCA07E5A
BD84A658
BADB52F7
BD823275
3CE1B958
3D8254A4
3DBAA3E3
3C78084F
BE20E9D5
3D965527
BDDC92DE
3DEC32A9
3DB7EBF2
BDE935B9
3DF1098D
3BFD76CE
3DFB9AE1
BCE57E3F
BC30E3CE
3D4697CA
3C480919
3B7A58F7
BDC5ACF6
BE0FBA02
BD758213
BD4BF60D
BD625793
3DA9D6F1
BD4FB92B
3D9EA97C
BDD55C53
3D3E7891
3D0C2756
BD65C0D4
3DA71A63
BE04A98B
BD5F1E74
BD084945
3E2DAB5C
BDA4EFB1
3DAC5360
3DF0BF1A
BD7D3FAC
3E0183F9
3DB0FDCF
BD6F5D00
BCD310B4
BDF81E8A
3D65BED6
3D73BC90
3E3EA572
3C803EEA
BB088B54
BDA9350B
BC184E40
3DD8E219
BDC2FE24
3D880B4C
BD7D548A
BC280354
3DF1D367
BD166242
BD18793E
3D34EF46
BDFD7D39
BBA0D522
3D723D4F
3CC3A2B7
BC8C7E5E
3C27EF32
3CA1A56C
BC1B6E46
BDCBE2A7
3C99FCCC
BDAF8E20
BD5ACEB8
3DAF162B
BDA1C476
3D2211F3
BD989AB1
3AC4DA65
3C2A3F6F
3C6BDB86
BDAFAF50
BDFE15CA
395C899D
BDB5CDFD
3C581642
3DBD9D77
BBE84462
3E1168F9
BD3A6648
3DAE1D3C
3D3B512A
3DCD64D8
BCD79DAB
BD4AC698
BDF78705
BC48D053
3D85D32E
3C511608
BE03022E
3D51EFD2
BDFF8A09
3D9AD6F4
3AA0FF94
BD05096F
BD559CEB
BC8E30B0
3E05E397
3D4EAFE1
BBD2DAC3
BD24E84D
BDDAD081
BCA6ED3F
3D1E364C
BD13D4FF
3D48C2B2
3E15B9E9
3DA239E7
3DF1FEEB
BD0DAB6A
3DA3DFD9
3C2385E1
BD9F1C32
BD9AF69E
3DDC27E9
3E449ECB
BD4862C0
3D57150A
BD398A65
3E00157F
3D5133B4
BD8147AE
BCDA2545
3C97C25F
BD6F2B67
3D001C35
3A3EEC76
BD9900ED
3C56B152
3D7B02F0
3E354003
3D8E11C1
3D32E8F6
BDF4AEC9
BCFA8E71
BC5F49A7
3DF5818C
BCB038E3
3DDD8A55
3C8F7A5C
BCF035BD
BC04B6BE
BDD35654
BBF19EFF
3C66E0E0
3DC708EE
BD8576F5
BD1BD92A
BE2391D5
BD8D70B1
BCD64FCE
BE1A3D2E
3D8E3095
BC819928
BCB5CF25
BE0F71EB
3DEFF2A1
3DFEF284
BD73B305
3DB4CE3E
3D5B3F21
3D9EDBA8
BAC32026
BDD33D29
3C555F43
BACE3C8E
3BC85889
3DA76E54
3DABC5B6
BE109742
3E1CC294
3E2AE968
BCEC4C24
BDE2B40F
BE0528AE
3E049E88
3DB2E218
BD7375FF
3B97D823
BD7E1819
BD8B19DA
BDE237CE
BDC141EA
3D23FEAD
3DAFEF8A
BE130C67
3D15E8BA
3C27C75A
BD6A49B5
3D9C8D92
3DD9C1F8
3D97DEBC
BCA01D41
BC8E9DF3
3DC46E9D
BD830F9A
BBB54CFE
BE068FD2
3E18DE2B
3E2197E5
BD4F7701
3C2960B7
3DA44666
3D9EC85D
3D8CA892
BDD79746
BCE34ABE
3E06C8B4
BD990024
BD759D71
BD45EA5A
BCFC9F8E
3DB60667
BD39468E
3DC54110
BC489B7A
BD17E961
BDE7CA64
BCC9F68E
3E304DDB
3CFE8FF3
3C678DAE
3C57F4B4
3DA4EF03
3D81CF6B
3CD1BF45
3CBCDC5F
BD25CB6C
3DBD53B3
BDCB75DD
3C13F520
3D5F0472
BDAE003E
BE351090
BE192535
3CA36270
BD2D6B58
BD726578
BD6D0D7F
BDA12458
BC808561
3E1C18B5
BE0E6794
3D409F47
3DC5A335
3CD67C43
3D5BF198
3D8C31FA
3E307A29
3DE8ED5F
BBB06BD9
BD0829EB
3B742C0C
BD8E2592
BE06872B
BD4F58E9
BD3BDF24
BE3EB39A
3D0881AF
3D75B772
3D51476B
3A271D2A
3DD192EA
3D409C73
BDE01D5C
BCAC35B3
BE0E2C99
BD34D21F
3D2CF8D7
3CCC8E18
BD706AB1
3E0143BF
BD01F65F
3CEB4CEB
3DC4B1B8
3D145D1A
BDE5B856
3D77EA02
3E0280AE
3D23E5D3
3DA8DC62
BDA95B94
3D43CB9C
3D369497
BE188095
BD673D41
BB73D3A2
3D8DCB65
BE01BBCF
3C086A9D
3E1CFF22
3D19C27F
3DBAC307
3D68D10F
3D88E318
BD28A2B6
3D96EC40
BCA1788B
3DADC3E6
BCE5F2D9
BD0F0480
BD2EE632
BC8B6A62
BE00E779
3E146562
3D322EBC
BE17D0AF
3E30902E
3E46E58A
BDD94291
BD1000FF
3C893FAF
3CF75247
BD5FB49B
BE1A0FD4
BCE2D68F
3DE4CCEE
BD6AAC2B
BCBDEAB2
BD75993F
BE424357
3DFEA140
BD7E78AC
BDF537A0
3E58DE2B
BD4A1FA9
BD5F618F
3D22E8E9
BE344135
BD6AD14A
BDFFEC9A
BDEA2B17
3D6A114C
3DE9728A
3D01E90E
BDB05AC1
3D2C244B
BA968C49
3DD82C2C
BB8779F2
3C2945DF
BDE43C3A
BD5EE385
BD6F073A
3D80AF96
BDCCA9C7
BCBC7029
BC941886
BCC38C7C
3E53EE1C
BD47F349
3D6EDA59
BCFEDE62
3D3F0CD6
3D874503
BDDD6E05
BDDF81A6
BD75E84F
3D6DE11A
BCC36397
3DAB9F70
3C15D1CE
BD6EA8A5
BDCDB1EA
3DB3EE95
3DEDA7F4
BCE35AE3
3D998295
3D948B22
3D0ABB60
3E1DAEC5
3DF80991
3DCA98AB
BD506E27
BBD919F8
3D747C59
BB3DE6AB
BDCAE1DB
BCD07274
3CA7E232
3C57E3ED
BDBE1841
BD7425A1
BC0CD0C9
3DD470EB
3C9E6C9D
3D5A7DE0
3C94BD92
3CF5C330
3BBFAFD9
3C742D64
BDFC9B41
BDB34989
BDEC069E
3D9F256D
BD9B0999
BD60EEDE
3DE9F2FE
B98C221E
BDE46F9C
BDE1F9F0
3E1CF180
3920DD38
3DFE9100
3DA30355
3CAC1821
BE054DA5
3DDD0310
BC98F565
BDC13158
BD2E8D7C
BCE1E3B5
3D889126
3E06B1A3
BDA15909
3D85D0FA
3D984308
3D9D8D52
BDE2D491
3D0D4025
3DFFBD6A
3E355B8A
3DB31B08
3E095BFF
3DAF39ED
3C918457
3DEA1E82
BD9F9B06
3D160A48
3D764338
BC3C297C
BD8B14DF
3CB061FD
3BCBA875
BCF22292
BDFEB0FB
3A8113AB
BC8141B4
3DD8F1D4
BE2BD018
BD32EA1D
BD33F8A6
3D899BF6
3E078141
BE1E4862
3DC92B58
3E1BDCAD
BDEFE932
3DF64D7F
BE1374BC
3E09F517
BE212A95
BE2D5FDD
3C939000
3D4F5F69
BE0B0100
BE25182B
BE039863
BD96EEAA
BD86B60A
3D99F999
3D9787C1
BC961291
3D72353C
3DA5AE6D
BD74C0D2
3DFE01DE
BE2FD32C
3DBDA159
BB9590A0
BDA7A9FE
3D47125E
3D50B55A
3CDB936F
3C0006F6
BD6BE86C
BD2E03B4
3E57FCFC
3D84DD14
3B9868AD
3D8F7462
3DC17904
3E1B007A
3E04B381
BE21B435
3D1B55AC
3D8E0D74
3DA6F502
3D89A1E2
3E118DAC
3BEB4431
3DCA3289
3E0A26E5
BC8879B7
BDAE3BC0
3DF0FADF
3D648337
BE10EC74
3D09D9D3
3CB586CB
3D3D95C2
3D9CAC81
BE165A57
BBD69D9C
BDBE949E
BD8758E2
BE1B2032
3D0D0DD0
3DCFBC1B
BDBE56CD
BD054A22
3E26EA85
3DC9A05D
3DB805E6
3E225700
3D8B3E4A
3C4803A5
3DD266BA
BDAD12D8
BD9DFA1C
BD257FEC
BDEAF3E4
3C30C169
BCBB8A1A
BDB0BDD8
BD1D02F5
3D58717B
BDEA886A
3D42C3E5
3DEF6599
BDD11BE7
3E2B2314
3AF44308
3AA2B7D0
BDF1A006
BBCEA0F8
3D23189E
3D888FF1
3DE23FAB
3D14166D
3D9A95F1
BD2DCFE7
BD86706A
3D1BC7C2
3D86F0D0
3CCE3BCD
BCD499EB
3D55D016
BD01D649
3E08FF76
BE50C73B
3E0C792D
BCBD6048
BD8ED2E7
3D8056E0
BDBFBC50
BC49FF93
BD39CCC5
3DA396D1
3DB2F230
BE0856A3
3E1655E3
3E157BC8
BE2B4D8C
BDFC9364
3C9E51FB
3E08969A
BE1148FE
BCB558DD
BDC6FA9E
BD0FA01C
3DDAC3EB
BDAC32B6
3E575EEA
3E394FF0
BE1604E2
3D1DFE33
BD6FC0B8
BBE96762
BD254D47
BE849214
BE1C2C5E
BD440BE3
3DB63363
BD12A7BD
BD76DC6B
BE2FF79D
3E3E1B8F
BDA1E42E
BDE1D9F5
BDDCE28F
BBEE11AB
3DBD17C6
BDC94390
3C821B63
3D4E4F84
3D68C27C
3E12A0EC
BD2977C9
3E0E42E1
3E20F063
BDEC0CE9
BE039EF1
BC945953
BDB2F987
3DE8D089
BCE236F7
3E5415F4
BD0903D0
BE374D59
3D508E58
3E0AFD11
BDE8E3EF
BE3E1501
3DCD92FB
3D0BB78E
3E0FCB4F
BCCB6813
BE7FAD2A
3DED7F95
3E6C4695
BE004DDB
3DD444E1
BDAA06B4
3D8C002C
BCCB7514
BC45EA5A
BD89AEFE
3CF8609A
BC9288CE
3CC14BC5
3CF913B2
3E981ECD
BE12923E
3D8BDF16
3DBEEEB0
BB68B12F
BDEE54F8
3D8424B0
BD7460C5
3E00D6B2
3D98973B
BE12D128
BDD798D9
BE6D6990
3D1072DF
BCEDA80F
3D1380E6
BD672F84
3E5141A7
BE63BFF9
BD826154
3E0A49C3
3E56C509
BE57A56E
3D55ADB1
3DC0BFFF
BBDD68D1
3E0A1E82
3E0F416C
3CBFDFEA
BDD2F87B
3CC50B6D
3E113059
BD89087A
BD2E1C8E
BDE66FD6
3E1C460F
BBEE8091
BD54A69B
3DE90C4E
BE06501E
3C87D39E
BE1E48A6
BDA5FD8B
BE0D8516
3DE5FD05
3D0B9F3B
3E28D866
3D3AE925
BDB99AE9
3D9FEF61
BDEF10AA
3E0EC17F
3DD65343
3CF77E51
3D3EB654
BE227ED8
BDD6312F
BE666278
BDCA59B3
BBB285E4
3D2E7884
3CF5F011
3D0E1D7F
3C4DB4BF
3D9A09BF
3E21C21A
BE1528AE
BDDED8D3
3BF1D961
3B832188
BE0B8067
3CB9AAE7
BE129281
BBF24D0F
3E10C997
BD0181C5
3E462AA2
BDDD5FDD
3E31A501
3DDF9618
3CCE27E1
3DEECC81
BD9F1A5D
3DB7DCBE
BD75356C
3BFBAFA4
3D35DDB8
BE1C304D
BDDD33D3
BD967077
3B7CD4D2
3DC9CE30
3D9B5BB4
3E08D9B6
BD19DF6F
BB88E0CF
3E26E115
BE05EC81
3DBE6596
BE1F5D79
3E4ED80A
BDBD66A0
3D8C39A2
BD68BE80
3D70CFAC
BE0F2ECF
3DC8F0C7
3B24D207
3DB9670F
BCDF8D2E
3D99F285
BDA24603
BD15BA7C
BD373A44
3D4C43A5
BDF18CA0
3DCD9DFE
BDE18937
3E03FAB1
BE6D3565
3D1E89F9
BE03BF2F
BDECF851
3D8A15E9
3E065CB3
BD5D136C
BDD47F13
3CC273AD
3E406C87
3D38B4CD
BBF577E7
BD3A7F73
3D41F080
BD26DCC9
BDC3051D
BD777B11
3D3267C7
3D848EC0
BDDD26B7
BD854B56
BE1301A8
BD3D602D
BC8F718D
3E2CE2D2
3E43AB00
BDB68662
BE2291FB
BDA74A0C
BD8D9140
BD810CE8
BE520F6F
3E1E481F
BD8CBA9B
BD34F15E
3D04AD94
3C59902A
BD503F2D
BD876816
3E2636B1
3D1B98FE
BCB264A1
3D260730
3D23BA19
BE110236
BD34256C
BE01AD21
BCF43BDC
3E199A63
BD796F72
3E0A5F42
3E0C8B87
3DCEFB2B
3E458751
BD0891BA
BDAD59BB
3DA9C3B3
BE17E804
3E1B03E2
3DD3A040
BC522567
3DA0493E
3D59F7F9
BDD9B670
BE07835A
3D68A33D
BDE0578E
3D917A61
3D82A701
3D896F72
3D3A4A2E
3E1E019B
3CC22C2A
BD46D663
3B497BB5
BC87A007
BB66B4AA
BDED887F
3D928D43
3C8A8204
3D3DD1BD
BDD1F3E9
BAF88E47
3D7A3FB2
BD82DFE4
BDFEC700
3DD10C2C
3DEC111B
BC988F79
3C89DCC3
BD563404
BC95D4B3
3D4BD414
BC574C83
BDA40FFA
3CCBB392
3DB75A67
3D4C7D1C
3D5D7973
BDCCD4AA
3DBC94B4
BDBDAB77
3C816FA1
BCA2B968
BDBDD228
BC678ABE
BDE14CEC
3E1CCD53
3D9047EF
BD24840E
3D0A8AEE
BC71BCDC
BDEBC383
3DC644D8
BCE42A4C
3DB41736
3CCA4782
BD6EDC72
BC45CEAC
3D87A96A
3D0BFFB3
BCDC0809
BDA7216A
BD172AF5
3D5365F3
BD4DBC16
3DDEDC7F
BBE9A83A
BB05B5E2
3CA92883
3C1DD4B2
BC84552F
BD7A1499
3D406672
3DDF6124
3D3B724C
3D1C4D58
BDA515E9
3D4F398F
3C2A4625
3D5CBB72
3D804443
3DF5000D
3C45E47B
BDFBEB9E
BC9195F5
3DB985D6
BC74E0E8
BD64EDF6
BD3FE41C
BD100226
3CA8CF2C
3CE402DF
3DB2F5B3
BDF3C4F4
BD71D2E1
3DA754BE
BCBF3EA5
BE1FAB54
3DD2EC6C
3CAEC794
BDBDBF7E
3E0AE2DA
3D2AD61D
BDD42EDC
BD5D5779
3D67E1AC
3DC1AAD3
3E06A26E
BDA13B84
3DA6E887
3D91E62C
3C56E33C
3D3C4398
3C89E26C
BD33BB9F
BD4C2CE4
BD5D4A28
BAF4A605
3DA21442
BD48959B
3D9D1D47
3D1607DF
3D743FBE
3D89C8AE
BDFC33F8
BD929B35
3C8BB35D
BDFF822C
BC4C334A
BDB397B5
BB480C1E
3D268C5C
3D4791C5
BD58339E
3DCB46D6
3D949D39
BDD77964
BD54CE74
3D2F463F
3D5EE583
BCB926C8
BD26FB9D
3E2DDC62
BE00F909
3B1E7F07
3D9E7020
BE049E45
BD6B6086
3D1F7E15
BC4E4BBD
3CA321A3
3DDF9160
3D09BE5A
BD91F3CE
3E0C8861
3D703933
BDD0E886
3DEBD7F5
3D2A0232
BE14E875
3CC5DCEF
3BCAC83B
3DD3250B
BDE64E48
3BB5257C
3D62C70A
3D956705
3CE96C0A
3D975FA6
3CCF301F
3C881EE8
3DBD301A
3DAFFB3B
3DA1BCB3
BDFE4F76
BDB697BC
3D5F2793
3B65309C
3D80EC8F
3DAB55FD
BD2F7411
3E1CF4A5
BD9178C1
BDA90222
BDB6B5E2
3DB6CE5E
BDEA8438
BE1F0A5F
3DD0446B
3DDFB2EE
3E0022DD
3D922516
BDCDA123
3D3EF06B
3DDE54B5
BD0665AA
BDCFC58B
BC0A2E82
BC0B5899
3E0BEF07
3B9EC7AC
BD4F21DC
3CE591F5
3D83D443
3C9C5642
BD8A742D
BD3DFE9E
BD2AC3DE
BDDF1E8E
3D9BACF7
3D243569
BDE127B3
3D8C225B
BE1FA509
3CED92AB
BE163348
3D11BDCD
BCFDE9A5
3D656B44
3D602C0A
3D344FAE
3D3262A3
BDAB796E
3DA815A0
3E123854
3B36213A
BD664346
BD7747B0
BD6CD1BA
BDDB3A69
3C94FF6C
BDA80C66
BD92B303
3D9D824F
3CEA91DA
BD37E05C
BCE50DD7
3CAD2F43
3E170FBF
BE247E4A
3DA38E52
BD576B57
BDF9FBA4
3DC1F164
3D8C3B92
BCF7FE74
3E11C2A0
3DCB654C
BDF79E17
3D9F959F
3DDA450B
3C4553C7
BAD4C696
3C90DE75
3E0FC090
3D11EC92
3CC2AED1
3D0343ED
BE36861F
BD8F89D3
3CE00C7A
BD59FB54
3CC31F6F
3DD4959E
B99DAB07
BCC19165
BC71C9DC
BC95C381
3DB4B05B
BD716101
3E09E519
BC924EED
BDFFD263
3E02FEC5
3D3A6DD5
3D86BD54
3D9F257A
3DF4623D
BD9B7AD8
BDC497ED
BE098C7E
3E2DC65C
BD898EBF
BDA782C6
3D8DC27B
BCB10F6D
3D2DF018
3D3F761D
BC81CED7
3D312480
BDCCFB76
BE2C204F
3DFC98A2
BD9B2CFD
BCA90C69
BD7495EF
BDD5CA6D
3E1479D5
BC248EC0
BC876CA6
3D7AFC8B
3C0EAF05
3DD295EA
3CC75F04
BD69901C
3D8D8AB2
BA35DBE7
3DD3F184
3DEB6A62
BD8A0EE2
BDB05FCA
BDC3AC27
BDC3906B
BC6DE83B
BCBE28C5
BD88570F
3D458114
3DE00086
3DD6DC1A
BCDAA385
BE0CB8E1
BDA73B5E
BC9BEBEF
BD81DD0D
BDBFF2AF
BDB799F3
BDA5E8AD
BE1B11C7
BD94A39E
BDBB01D7
3DBC41EB
BDBC7A6F
BD655C45
BCF20F11
BDCC928D
BD8D8E51
3DEBD556
BE01C087
BDA28523
3CA5D03E
BDAA9494
3D0746CC
3CBD9557
BD2CF165
BDB38731
BB8BE0F4
BC763EB6
BDA9B472
3DD7939A
BD00B0CA
3E0A2A0B
3E1C7608
3CEC7A11
3D9DF7E8
3E29AB2A
BE1852B5
BD0085CC
3D7275D4
3D5A2CD2
BD1C0295
3E0E7818
BD94CDFB
BD109006
BE038B48
BD7B5BC1
3D678855
BB80CD85
3D19E3D7
3C2F69E5
3D991728
3D587831
BC9BBA3B
BC350D93
BC1DC77C
BDE9BA5E
BD131840
3E168F8E
3DBE5372
BDFB2032
BE09988D
BDEC4F7F
3D906C87
BE051548
3D8408B1
3D8C4080
3D325E06
BC8083B3
3D4DE318
3D0137A3
BD33FA89
3DD5FEDA
BDD652BD
BD3F1646
3D59B9B0
3E030DFA
BDA30828
BD970E62
3D86CAF5
BD0F9442
BD87A015
BCA8A068
3DCF78FF
BDB3C1F7
3DB03D8D
3D87B9E0
3DBB8AD6
3CC62CA0
BD66AF7C
BD8E1819
3C83F29E
3B83A09E
3E09A177
BDDCC964
BD93BA6A
BD703064
3D8326B9
3CBDFAA2
BDF3C9AC
BDDC9DE0
3DAB8C68
3D837A73
3E1F5621
3CC4F5D3
BE027393
3E5AB9F5
BD114AAB
3D0A6A37
3BCEB84A
3DFF5947
BD05C9BE
BE186A4D
BDB3FEC8
BDB03BFB
3DC4C7D8
BE120642
3E2B4396
BD2D8E5E
3D576A14
3E027D89
3DAC5A66
BE07C41A
3DE4A409
3E1024F6
BE0D4F9C
3DACCDE7
BC90D505
BE0F6124
3D92552A
3D766E1B
BDB9CBFC
3D94AB02
BDFA27AF
BCB43E96
BCEA40E6
3DB7BC2F
BDB73C0C
BE3AD927
BE07FA1A
BC796115
BE02A023
3D0275C6
BCC155A0
3D3C8EC7
BDD04923
BDAC14C6
BDFC69F9
3E02A38C
3D5BA2A3
BD034408
BD9910B5
BD0A48A9
3D85C366
BD89BA79
3C2C8671
BD63382E
BD12A13D
3DE3FBBD
3E027914
BE1CC921
BDFCE39B
BD165790
3D49176B
BD16163D
BD2E42B9
3E0C7369
BDAC63E4
3C209BF7
3D257215
3C081111
BE1CFCC6
3CB04400
3D81C9F7
BCB016B4
BD6F533F
BE3EB1C4
3E13458D
3D938286
3CFA8C23
3E12F230
BDC3D908
3DB1A693
BC8C37B1
BD2B626A
BDDFAA04
3CE77814
BDBCE7B2
3DC13031
BE04B5DD
BDB3C496
BCD42C07
BC7E4F91
BD69A54B
3E05DF65
3E4E0C5B
BE2AA194
BDA9CFC2
BC845F0A
3D0F84F3
3C61E19C
3D97C7C5
BDA640B4
3C510F52
3D4BB9DD
3D62721B
BD1895C3
3DF807FF
3DB423CC
3CAE9D01
3DB8F4DE
BD924689
3CAA161E
3E0AB218
3D83633A
BE31044F
BC8CDC1C
3D359A81
BDACD317
3D92509A
BE37A2CF
3DD2A1F9
BE17D0AF
BDB1E322
BD229988
3D6CDE1A
3CE04875
3E022C45
BCD6F793
3D8CF43A
BDA16690
3DE31C65
BC89B7DA
BE1E68A1
3CCDFE5B
3C9F340D
3C97FBD5
BDDF255F
BD019C32
3DF9B6F6
BD865F0F
BD90DFA9
BDDC6328
3E0C6EF4
BD911424
BE0A26E5
BD2ECED0
3CF03A90
BCD3B412
BDFE74B0
BD4E6B32
3DB94432
BE089ACC
BDB12A37
BCABF36E
3D882A20
3D16D331
3E056DA0
3B021E7E
3CD50EBB
BDF27B2D
3E5A9153
3D4D2151
BDB37E6F
3E414C23
3D522D44
BDEFD32C
BE0FFC54
BD203E7F
3DC66F00
BD1EDCCF
3D7EC2B3
3D2E2882
BDDC31DF
3D479464
3D9DE912
BE0DA943
3E084A51
BDFA7222
3E44C37E
3D17B7AD
3DEE789E
3E3A8694
BD87A4CD
3D1CC4E2
3CA9845E
BE09346A
3CFAAD45
BC7D4032
BE367019
BDA60914
BD54C320
3E32CF53
BD3DB3C0
3CB7ADEC
3E4E414E
BD8FDFF7
BD577B2C
BDD77D95
BDDC853C
BCE7517E
BE183D79
3E07481B
3DA09BEC
3E07BF62
BDE0B3D5
3E010236
3D229C0C
3E1E9FF1
BD4079D8
3D09AED5
BE14C986
BD4FC1DF
BD7C6881
3DA937AA
3D68D3C9
BD8B0EF2
3CAFCBD5
BDEAC860
3D923BE5
BD88DEE7
3DED9A52
BDBF17A3
BCA8B561
3DE430B1
3D4B8C0A
BD3331BB
3C89879E
3D678BCB
BE352EB6
BDF178B3
3D979273
3D3329C3
BD39FCE6
BE05F527
BDDD4413
BD46610D
3DA89B5F
BDA0355F
3E05B24F
3DBE5EB8
BE304A73
3BE0AF58
BC750F77
3C99FDA2
3D127DCC
BE431876
BE4636F4
3D17FFEC
BDB2EB6D
3E2C0874
BD3B42B1
BCA47F3B
3DA80502
BD8D2E94
BDA4D3F5
BE263411
3CAB7B43
BC1643C4
3C6234A8
BCE3FA46
3C9BDF24
BC44B53C
BD99EA4A
3D3CF3F7
3DC44ED7
3D614601
BDE86C66
BE0EDF1E
3E1215BA
BD28FD6A
3E018D26
BDCF4517
3E5877EE
3DE644D8
3CC53A67
3D146AD6
3DC9D346
BC9DB304
BD2A36BB
BD0B1ACB
BDD7F38C
BD9CD416
BD6E0404
BD604CA7
3DD2220C
3CD5F535
BD376A2F
3D82CAB6
3DDDCF89
BD862670
3E023960
BE32B0A7
3DF184C2
BD223224
BD8209C5
3E17C88E
3D7BD605
3CC8FA7B
BE57CB71
BD34ED62
3DB8BA33
BDA5BD0E
BD4E7EE9
3E37DB2B
BD454717
3D7EFA47
BDCE8D11
3C18D625
BC963FA8
BD7FD80D
3D4A7B9F
BA48D43C
BC21146D
BE0C2225
BC3F6C92
BE0F5515
3CE6F212
3E0727DD
3B639F21
BD57EA1C
3AFAD16D
BCA43F45
BE5F30A5
3D07AFF8
3E1061C8
3B2695AB
3E3D3954
BDBBAD48
3D7D561C
BD8DF670
BD50ECB7
3D8EB944
BC68DD39
3DB8E7DE
BCDE4F76
BD8D145E
3D6B4487
3DCFF759
3DDAD320
BE3DA1EC
3D1390F1
BA9AE64B
BE162068
3C25332B
3CD2110F
3C4C4919
BDC53013
BD0B9FDC
3DC08879
3DD4B48D
3E203687
BE2565C3
3E2C0A4A
BE2B480A
BDBC7A47
3DA09E2D
3C8F4A8B
3AD659E9
BD58F041
3DC7BF54
3E23AEAB
BD557A86
BD9584A4
3D9CCFE5
BDACB619
BDAAAAE9
BD8B7458
BD0D1202
BD7BAF53
BE11F3A5
3CA1CDE6
3D929F09
BB928513
3C10CC76
BE79D6AE
BDC777C4
3D047E14
BCA1DF84
BD958502
3D5BB4E2
3DE13E3E
3D9D7E1D
3D5D9FD3
3D0483D8
3D9C60CC
BD835B6A
BD0E44D2
BDAB85A5
BD608C17
3DFA311F
BD02EBF3
3DD58538
3C8F92B0
BCA4770D
BDB00E43
BD95DFDE
3C6EE4BA
BCC10CA5
BD88D74D
BDB12FC6
3E2D39DA
BD66DE5B
BD5FBDF1
BD89DA3F
BD97CCA5
BE07DCBE
BD1C745A
BD4C0DDB
3DF7635E
BD5BC1AD
BC9F6DEF
BE4D7CF6
3C4411A8
3AD67065
BE36C5D2
3E529F17
3D80C367
3E131833
3D070A30
3CB54FA3
3DBC3AD7
BDCBBAF7
BE2DBA0A
3DCD18D2
3D94081D
3D94FD10
BD945BA2
BC0B81F4
3D9A56F9
3D8C03CA
BE0E670E
BD3093E7
BD6D9763
BDBFAA8B
3DAE6BB9
BDB167C4
3DEDD830
BD8B5808
3CBA4AB4
3DC4D8AD
BD9D882E
BDD70E6F
BD05C704
BD43A9A3
BD2CD3B8
BDC1C39F
3E0E1D21
BD4FE85B
3D8508DB
BD346FA9
BBD4F1CA
3D4AAE29
3DAA639C
BD0E7147
3D6F7FEB
3C1C9AD6
3D9A605C
BDE4C059
BE0AA865
BCC6C8A7
BC44C66E
3CF71469
BD88AC84
BD447072
3B1C97FC
3D3F770E
BD504344
BD86F560
BE0D3C79
BB75E199
BCA5F69F
3C9F17BE
BDE4F54D
3E2E85BA
BE07C915
BE3004FB
3DB67756
3DAF0EFC
3CA18739
BD878F5B
3DAB6D1C
BDA57CD4
BD88EE00
BD8EBB9F
3E125397
3DB4B42F
BE2C397A
3DC62ED3
3DA3774E
3D2BE271
3E06DDAD
BE2E2435
BCA4A1A0
BDCB5D39
BD9B7D9F
BE151F82
3E2F6274
BE3B50F4
3D9E9AF6
BCC5001A
BE10B1FF
3E3E18F0
BDE0D0AB
BDE5375D
BD384480
3E2F355D
BE098BF8
3DEFA26A
3DB084A5
3D89004C
BCB59833
BD7AE686
BD9C53BE
3E4970F8
3E7553EF
3CB4D926
3DB12E4E
3DD8A97A
BDA24928
3E1878FB
3D50A16E
BD008399
3C3FE98F
BCA0B659
3E123183
BC1E3BD5
3DF9E59F
BE36BF01
3D60F2F4
BBAE3979
3DC7433B
3DFD206D
3DF73322
BDDF78BC
3E0450AD
BDD132F8
3E024313
BDECE896
BD547CC4
BCA8D907
3DFA73B4
BDC2D582
3D6F369F
3DE97D8D
BCA250C3
BD1677DC
BD441320
BE043A64
3C353A09
3D09A078
BDE8F649
BD9C0D3A
3E1B5526
3D2A37FD
BDD929ED
3BC45D12
3E0CAC08
3D2ECD08
BE682CB2
3E16E43B
3E24651F
3CE3B1B6
3D8D11D9
3E048CF8
3CA03885
BB7CE7C8
3D714A40
3D32DB39
BD95837D
BDD4FF86
3E12352F
BD92963A
3E2C9DE0
3D253579
3E61F794
BCBE6A69
BE1C4934
3E03C819
3BAF72B4
3E99AD00
BD1E0EFA
3DA760A5
3E189614
BE469510
BE1E785B
BD4A95D6
BDF393AB
BD47DB2B
3E70F6AD
BAAFB565
3DF83A54
3D9E8450
BE207A29
3D954D39
3DE071C5
BE6ABF77
BDD36C59
3D59FBA4
BDAC0EBF
3E03C969
3DA3031F
3DF9713B
BD439947
BE793C04
3DDFADB0
BD86E504
3DB09BA9
BD2E1CA9
3DB17CBD
BE4DDC1E
BE0175D1
BC0DB7AE
BC476153
3E204FB1
BD28BF57
BCFBB54D
BCAC7D01
3CE9B71E
3DCC958A
BE482E02
BD19F509
BD8DDFA2
3CE3E872
BBD745E2
BD2DE332
BE2E514C
3DE0D1B7
BDB69E8D
BD8EDDA6
3C54108E
3D3896B5
3C484E4D
3CCA1166
3E3BAF96
3D77F3F8
3D8792D1
BBC7C2F8
3DF0B73D
BDE61AE7
BDC43427
3E017B0F
BD7E3433
BD92F5DC
BC81D2D3
3E1A14CF
3D91995D
BD72C534
BD2F7FEB
BCBBE33B
BDA21003
3CE65387
3D929DE2
3D86110C
3BFF27D3
BD221B7E
BDF9DC2F
3E01C21A
BDCB0227
3DEA63B7
BDD1DA38
3CCAA6ED
BDAF7355
3D0B7B5E
BD89DAED
3E1D76EE
3DAEBB5C
BDC65E46
3D8D042A
BDDC65C7
BD4A2BEE
3DB1031A
3DBBF46D
3A35E5C4
3DDAC3EB
3C85AFD8
BC11EF41
BDC1C40B
3DA21866
BE1DA8BD
BCEF9229
3E04506A
BD31FE14
BDBE8D47
BDA8AAC9
BD869B75
3DDED4A2
3CF2371F
3DD2CD7D
BCB1A08C
BD602A5D
BDD388A9
BDE1DEAD
3E21F080
BE0F9011
BDCA3975
3D7D8384
3E2CD6C3
BDD1C087
3E196745
3DA60D6E
3E1B866E
BDFD3DC9
3D107BAE
3D0E9F6B
BD9A9FB1
3DE20B3D
BE26BB99
3E3F3450
BE43E814
BD53F870
BDEF56EB
3E0B584B
BD966150
3D76B915
BD70EAD4
BB31BCFC
3E28F430
3D7633E9
3D5CD1AD
3D6D0262
BBC35FE7
BD91DA6E
BDF23811
3D6B426E
BD16F6A2
3D5DEE42
3D24C3EA
3E396AF0
BE05E9E2
3DC0F37B
3C38392C
BDBD556E
3DFE81CB
3D651274
BDCCF0FA
3DF660E5
3D826542
BD93C1CE
BE0E79AB
3CB0C0FE
3DEF46AA
3E0F34D7
3D81697F
3CC619C0
3C4FAF6B
BDA46D9E
BCC972DB
BDC02BC7
BE05D851
BCCA84F4
BDDB634E
BDE4473D
3DB09B30
BE122A6F
3E268FD2
BDF017DB
3D51D97C
3E2DBDF9
3B724EBC
BCB507B4
3C80E106
3E179314
3DC09869
3D9FF294
3C115D96
BD9328B7
3E1DABE2
3D9CD0FF
3D192A8E
3CFFF1F3
3E047304
3D07F166
BD824796
3D99345C
BD738EF3
BCF5C620
BD88EDD8
BD979D91
BDE4C48B
BD89D9EE
3DC38A8C
3D581840
BDA999B4
3DEDA33C
BE1B07D1
3DE30015
BDB26C56
3DFC9CD4
3DF9B802
3D716CBF
BDF56085
BDD33B97
3DF73F31
BDF807FF
3DE1C4FC
3CA746CC
BDE60AA6
BDDECB32
3E1AE148
3C7798BE
3C86BE60
BC49FB61
BD9B61D6
BD2F7A92
3DDAB29E
3BE25270
3DBA7CAB
BD7FC5CE
3DBA52E2
BD0D7F95
BD4738BF
BDC1A3A4
3D927C1E
3DF32724
3DC249E4
3E0B0BBF
BD504684
3DB4E60B
3DB6E71D
3DCDBD73
3D881CA7
BA75AFB4
BDFD4AE4
BE0F9AD0
BDB65930
BE049236
3C9C4977
3E0146E5
3CD444FC
3DB24979
BD7D8673
3E0B5D89
3D9EE01D
3DAEB753
BD17A701
BDFEC4E7
3D811AF5
3C819B76
3E31EA79
BDE1719F
BDB9C447
BD94266B
BD355476
BD7FCC9F
3C1FAEFD
BDE6809D
3DEECD8E
BDD87486
BD936BD3
3D5B0B6F
3C884513
BDEFD08D
BD8CBD63
BDF5B142
3DA053FE
BDE9A672
3CB125DD
BCA05D6E
3DEA9479
BE22EDBB
BDC2C7D3
BDC54ADD
BDF98F1D
BDF842B7
3DFAE361
BE21CEAF
3DDD9CAE
3D427F36
BDABF346
BDE222D5
3DA31254
3D5014EB
BE057EAA
BCB3B71C
3BACE4D0
3DA61A10
3D6A03E0
BD97B0A6
BC81FAAC
BBF9B6A5
BBF9DCD0
3D8FC166
BE09CED1
3DC55433
3DE0AB71
BDAA176E
BD5BB964
3DE0DF59
3D4DDD38
3DF9713B
BD312AE6
BA8A24B2
3D99E89C
BDA58AE1
BDA60FAF
BDB71865
3DB4EEBF
3E0A0E84
BDE75925
BE068555
3E16D3FA
3CE95564
3D11DF76
BCD360D0
BDF3F5B6
3DC4DC15
BE04812C
BE0BE447
3CF3D8E0
BE0491F3
BCABEE9B
BDA1AA24
3D1D3276
BCB2D64C
3DC5D760
3C23F9DA
3D93D7B9
BC8FCF15
3C5036E5
BE3035BD
3D591D22
3D07897C
BD04A14F
BDF64F98
BD0A492F
BDEBE8BC
BC95930F
3DC9DBFA
BCDE2626
3D4BCD5E
BBB36C3E
BCA0A2D8
BD2DA47E
3E035E31
3DDC11E4
3CB76923
3E062846
3D2BEA9F
BDF80B24
3D5E2A73
3DCBA65C
3D57EABD
3DD4F484
BC4CB627
BDA3D55D
BDAE538D
BE1DAA0D
BDD3A81E
3D694E28
BD4D0E56
BD39E9D1
3E1447C3
3D8617DD
BD9D19D1
3DE42D8C
BDDF1F15
3DFBFBDF
BB814FA1
3DF6512B
BD5A0F0A
BD94F5EE
3E015337
BD91970F
3D8CD83B
BC7964DB
BDB46F66
3CB55AC0
BD7F6083
BE2B3D8E
3DE2CB21
BD74BE69
3BD33A65
BD39BD26
BE1339C1
BDC53C8D
BD9599AA
3D98EBBF
3D17513B
BDC13A42
3D968FA9
BDE28FE2
BD863610
3BA76C81
BD20DE17
BCF4623D
3D016378
3D164B9C
BC40A3CA
3E1F59CD
BE268662
BC95786D
3D7DF330
BDB581B5
3E19C6B0
BDA93BF6
BD7ECD4B
3E397BB7
3DFA47AA
3E18ABD6
BE1DDF87
3CFC9A50
3DE0589B
BCC087B0
3D53F0AD
BD88603C
3B3E6988
BE275819
BDE03255
3E2827B7
3D0BFC73
3C74FAE9
3DB88418
3DD9ECF6
3DCBAF61
3D585DAA
BC8E9193
3B4FF2C7
3D7A3D99
3DCDB941
3C03B71A
3D095026
3DAC5C2F
BD8B422B
BCF235A8
BC12F07D
3D5ADB4E
BDA8BEB6
BE17BE55
3D9E9318
BDDEE3D6
BDD00D5F
BD23DF89
BE01DC94
3BAF5BA3
3D85D412
3D042162
3DBD1676
3D5EF24E
3D904DE9
3D94DCD1
3B30F95D
BE273D9F
3CC1C1A1
BD96D9CC
BD16605F
BD909DB5
3D8F4C1E
BE0CA969
3DEECA68
3D883FAD
BD8A7900
3B53E69D
3C769CAA
BDCB772D
BDAB653E
3C502C68
BB750276
3DD8E9F7
3E003EEA
BCDD69D3
BDDA0382
3CCB871D
3DFC5CDD
BDC7ABE1
3DB1A6E4
3D859AD2
3D077433
BDCB7458
BD936D58
3D3DB0B5
3DB4FA99
BD8C105F
BC30DD83
3DD70CDD
BDFDB121
3C68294A
3D56FD22
BB8FAE5E
3C8AC373
BBF65242
3B9D8EC7
BCA8AE3F
3D143E96
BE000D5F
BDB22B53
3CC120FD
BD199F0D
BDA1475E
BDC6FE57
3DDC0336
BE03E921
3CD5C960
BDF57D5B
BDB14C30
3DB9DDF8
3E1CA3A5
3ABAE645
3E2186DB
3D1EB6BF
BD703410
3D8A1D17
3C367FEF
BC253AB8
3DE2AC32
3DBD5065
BCE7BF2C
BDE5375D
BD77C8A9
3CF6710B
BD8B2174
3946489C
3DF3D428
BE0C1F43
3DF81A58
3E064841
BC4585B1
B9C4D269
BB488413
BD8FF5C7
3CB763AF
BC4268C6
3E3446FA
3D077E94
BE1D7CF6
3D02586A
BCD1120C
BCD690D1
3C7A6373
3D87B12C
3CC28870
3D876732
BD885107
3D3BF61B
BD3CD899
3B53B9FC
3DA03496
3E20EBEE
BCE96A5D
3D3222AD
BDA29BBC
3DF9FECA
3A879C16
BCFD1B14
3DBC297C
BA8A606C
3D8FD510
3D782540
BD5FB140
3E20196E
BDD0E347
3D80BD01
BDCB00A2
BB9F1834
3DC70F6E
3DD4B72C
BDBEE8B6
BC8E72BF
3D73685D
3B9D2885
BB4BC1B5
3B7E7135
3E327F1B
3DC876AC
BDF985AD
3E124D4D
BC791B09
BDBA6041
3D828177
3DD7CDCD
BD5A9F38
BCD2DBDB
3D52DBC0
3DA7AC82
BDC3DB49
BD9C5868
3DA05D7B
3CE35C91
3DCD51F8
3C5B80C5
BDFFB04F
BC838DBF
3C65A06E
BC9FF6E1
3E4F0132
BC39EEA4
B9C245B5
3D5AA228
3D9D7907
BDDF7F8D
BD9A65C2
BD3CCE88
3DCF4278
BD80578E
BC5B28B0
3D0885AB
BC371E7A
BD7C82B8
BDBFBA52
BD5D5561
3E1CA81A
BDAF87A0
BD960D38
BE04B988
BE72CE03
3DFBD838
BDBA7AFE
3DBDB919
3DFD5ED0
3AAFACAB
BDAE2DB3
3E0168B6
BE1EFA61
3DE8D3AE
BDD605AB
3DC5F80A
BCDF1498
BC271F94
3E052828
BE1AB10C
3E2B5D03
3D36D996
3E29F83C
BD85776E
BE110279
BD6DA91B
3DF48FDA
3E0B0814
BD908AAD
3E07BEDB
BD2C7326
3D15B127
BDA94CD8
BD782D53
3DA2CAF9
BD9B65C4
BD8CE9CB
BDB5757D
BD98BAEF
BC1FAB21
BD4484E5
BAA3796C
BD23A323
BD3A4328
BDB6512B
3D96B69E
3D301465
BD925FA6
BE203BC5
3D34F06D
BCEE935C
BE175A75
3D0D509B
BD23EC39
3E56F2E9
BD9A2538
3DC5B0A1
3D957AA1
3D97FBAD
3E2EC637
BDF2556D
BDD78B37
BDA074B5
BE2EB67C
BE39F517
3C90CFFC
BE3FF045
BDC51DC7
BDAA0798
BD6D61E8
3D3F3FE7
BD26748E
3AF04BAD
BDC6AD56
BCB18D76
BCBEA3DF
3C27DBE7
3D2114D3
3CBD3D78
BC1CAD35
BD833000
BE2151A4
BE0D2179
BD6CCB04
3DC68BBB
BE1EF1FE
3DC033CD
3E18C79F
BE0162AE
3D4DA844
3E17F456
3D826260
3D2DD5E1
BE0E8859
3D16A8B9
3E2F95D5
BDCDFC5D
3C9AE0C1
BCB4D057
BE2EE526
3E619221
3CD7B777
BDA9DF04
3DDA9F38
3E11FE22
3D9EBAAE
3D0ED22B
BD787146
BDF32724
BE0FA58F
BD86ECB9
BE0D1CC1
BBD1A3E2
BE14E4C9
3D024611
BDF89CE5
3C907E9E
BC63D817
BDD83276
BDB2EEBA
BD8C6569
BDE5B20C
3D11CCB1
3DF7FF9B
3DDEF0F1
3D29379C
BC0B4F74
3D843F95
3D708447
BD50A74D
BDF1C21A
3BAF4568
3C998EE8
BE186595
BD9AD6D9
BD758D15
BDC316C9
BDA10477
3E099E95
3D0BF80B
BE0CEEE1
BE37E2C5
3DCB0582
BD2FA21A
BE1D58C9
BD03B52C
3DFFFF7A
3E18DB05
BDE21D97
3E43D684
3DD673C5
3D70804B
BDB727B4
3D1EC36F
BD596E16
3E2C382A
BD244DA2
BE349625
3DD73A79
BDE2DB62
3C8029F1
3CA2D68F
3DBCA007
3DE3A323
BDFC903F
3DA65097
3DE85D31
3E076E61
BDC4BCAE
BD61F751
BE0961C3
BD5C75B7
3D9F6B35
BD6ECF8C
3DF0AA22
BC3AC563
BE3C4C59
BD6EEF51
3CFE0081
3D3C15E0
3E3C2D28
BBAFB275
BDB17A10
BDC69AD4
3D80332C
BE2DF330
BDC5F197
3E18EC53
3D98566E
BD06941E
3DB9B230
3D61CD95
3D5D8490
BC3072FA
3DD7BE98
3D81EB0C
3DDBD0E1
3BAAEE40
BE7272C9
3E1B3D08
3D180022
BE002A78
3D1129BE
BC1F9D49
BCB62520
3CD3ACF1
3DB0B715
BD9A3931
3D0C45F4
3C479F66
BDB0E355
BE41450F
BCBF385A
3DBD7B2E
3D3D4F31
BDC059A7
BDEA033E
3DA21676
3C747EC2
BDD78F69
3CBC8374
3C5B4388
3DEB6D01
3CFB1077
BD85E786
BD9514DD
BE1368AD
3E0A11A9
BE2FE586
3D71395E
3E2FB43E
3D7FE32A
BE653BD1
BDAAC72C
3D102851
BDC9B81D
3DF11948
BD04AD79
BD6CC17A
3E192F2B
BE4995EE
3DD55AC0
BE0221C9
BDB5D399
BE31AE71
3D8CEEEE
3E03BB84
BD89B1AA
BD66040B
3D785C83
BDCBF4BE
BD8A27FF
BE0EF1FE
3D7666AA
BE22699C
BCC72848
BE24623D
BDB57604
3DA2CC7E
BD41EABC
BD214007
BDFED6BB
3E1D8A11
3AFCDE8D
3D30088C
3E0BCD79
3D6F850E
3D52018A
BD8BB84A
BCB91B3F
BBEAAA2D
3DDE5754
BC48BEB6
BCE1FA91
39DC7061
BDDEC1C2
3D1AA334
BE0C3F3E
3D16B965
3C5D9DD5
3E340FED
BDE409E5
BD8B2753
BE203CD1
3E1F5A53
BE383559
BD861C5F
3DED6990
3D84E70A
3E185BE2
BDE03926
3D6B5ED9
3DB59536
BDB54592
3C8AF633
3DFCFFEB
3DEC692F
BD109020
3CDABDF1
3D779DAB
3E38BEB6
3E022963
BD31947D
BDF86FCE
3E011A11
3DCA76E7
3DE1F96A
3DF96D8F
BDC01663
3DC63851
3DE0FECE
3DD5568F
BDD34613
3DA025B2
3D576F53
BE12C0E8
3C2FA143
BE293BC1
BDC39DF2
BD32146A
3D031B3D
BC399FC9
3DE956C1
3E1CA601
3BFA0CF7
3D3ECA91
BD22F0C6
BE094813
BD32A04B
BDCEA4A9
BDC03B16
3D2669F7
BD43E136
3DDDD6E0
3CF83714
BD776DA5
3DF1F0C3
3D7C6C12
3DF9578A
BD4AA327
BDFFA1A1
BD7BED16
BD2394AA
BD19128B
3E02F512
BD58DB2E
BD8C556B
3D0BDF31
BDF6DFC6
BCA4865D
3D71CDF3
3E175EEA
BDC82E1C
BD9A3444
3D858D9B
BBF85338
BD44D5F3
3E514E3C
BD735420
BDD8E758
3D0BB50A
BE1BED31
3D9D5E58
BD4C04A0
3DD1BC56
3DD38A3B
3DE4180D
3D83D959
BE00FA9C
3E084E40
BE268273
3DE897EA
BDDA8933
3E352E30
BDD177A7
BDB72B6D
BE1E3FBC
BDEB60F2
3D4C3AD7
BE475968
BE687A07
BC3C53D9
BD79C1DE
3E03EF28
BD0A5F6A
3D8CB0A5
BCA03926
3C23883B
3D9877AB
BE05A922
3DB763AF
3D8F756E
BBC6E496
BE047D3D
BD03C694
BD9C7623
BDC14ECF
BD651944
3CE3439C
3E0038A0
BDC41A91
BCB114AB
BC9DBC74
BD14D1B4
3DEF66A5
3E03FC87
BD92442D
BD586A75
BC76EE74
BE039EF1
3D2E24F1
BE052D66
3DE7F6F5
BD9DDBCE
BCBC43E9
3DE3E426
3D3C6195
3CEB1374
BDAFFC04
3D415890
BD856E34
BCFD9847
BDD51B50
BD7B2AC9
3DE5FE11
BD06CADB
3DE65519
3D29D5A2
3DD9231C
3D6F8DDD
BDED5BEE
3DA8CDCF
3DDC03BC
3C963ED1
BDF6ECE1
3BDE512F
3D3050E6
BDD99136
BD37DD1C
3D803EC2
BD1F6F9C
3D80C8CD
BD718D5C
BE429521
3D944A62
3D2C70D7
BC23814F
3C889E34
BD6BDB50
BCEF1FDE
3E15B424
BD94E2D9
3E2297C0
3D0065EC
BDFE0C5B
BD43027E
3CCD1FA3
3D80D456
BE599DCB
BDA6A5E4
BD81B08A
BD34785D
BD624B34
BD8891FD
3D6EA5B5
3BBD0A4D
3D2FF4D5
3D259D99
3C7CD5A9
BDC05F94
BDCDB0DE
3D65CA7A
3D180B3F
3DB9E2BD
3C5078BE
3D91DBD8
3DD349BF
BDE33051
3D2EADFE
3C640E9D
3D261DBC
3BCDD3DE
3DB857D8
3E1795F6
3DBDC4AF
3D43BD3F
BDFB21C4
3CA8702C
3DE67BE5
BDCA4526
BC96F072
3D2C54A2
BD212366
3E48A00A
3DFD8F93
3DE12E84
BD0071C5
3DE71DE7
BD9EFE86
BDDF93FF
3DF28416
3D992A66
B9847E4C
3DFBB518
3D0FC372
3D54841C
BDE9B845
BA5FB895
BDA93716
BD77CC70
BC062A3C
BD02FCBA
3C26011C
3CC73803
BB28391A
3DF1FFF8
3CFE3B04
3CC9DE70
3C75FE8A
BBAF7462
3D36A75C
BD54D1CF
BDFF127F
BD71AE48
3DE97FA6
BDD2ABEF
3C526161
BD651599
3D5FB034
BD5EF4B8
BD1D5794
3E1E8B7E
BE252BD4
3E31B110
BD4AE5F2
BE00EC74
BD46D989
BCE07018
BE0B12D3
3D665478
BCC027D9
BCD38228
3C2127E3
BD30182B
3E4C7B46
3E3F81E9
3DAE7A4C
BC3D7831
BDFE529C
BBE5CAE0
BE363AE2
3E44DCEC
3DD9B77C
BCD16624
3D760B1F
3D937619
3DDF8983
3E2E3971
3CF647BB
3DB94508
BD58A1B7
BDFA8D65
BCA1CDB0
3DE986FD
BD0F1F07
BE207571
BD91C476
3CF99E87
3D01D573
3BFC458B
3DACC9DD
BE3A50D7
3D9DCE1F
3A878CA7
BE278290
BDB13F15
3E0A7C5B
BE02FD33
BD462797
BD75ACC0
3E2240FB
BDC9C398
BE3D6F54
3D36796F
BDCC8A6D
3BBD560C
3D8E7FF6
3CEBD8CC
3D2DE291
BD847A5B
BBD300C3
BCE20726
BE05D2D0
3D215A58
3D33D534
3E07631B
3E1D56B0
BCDE8958
3E1068DC
BD75BC2A
3E168E3F
3DADF091
BD3CC187
BD8B8598
BD131C07
BD8AE529
BD5825E1
BC6F5954
BD15FEDA
3DFA7547
BD2BE66E
BDC3A6A6
3DD2367E
3D868F16
3D32D21A
3DB645D7
3CA256A2
BB1AE142
3CC14C66
BD99DAB7
BDD08462
3D2780FE
BC4F5614
BDB83177
3E232618
3D818797
3E343ED9
BDC34B6C
3CA315AF
3BABB7D4
BDE5F288
3D04671D
3D6BCFAC
3CBB67B5
BD98B1F8
BC55728E
BC8C9E3E
BD9F8A5A
3C70307F
BE1BEF07
3C84FE6D
BDFF7A4E
BE2A9B07
BE0B5DCC
BDAA13EB
BD4D1B8C
BD988D88
BD100EA1
3D84775E
3D4FFBF7
3DC2FB42
3C79EED9
BC27E232
3DDFE6D6
BE2B14EC
3E0D423E
3D92ECE5
3CECC4F0
BAF92647
BD57A263
3E19BDC7
BDC5D3DD
3DC4A559
3D57EF40
BDCB94D9
3D4B4345
BDC62365
BCE5852A
BE0414A5
3E41A198
BD28D9A8
3CF719A7
3D4347E9
BCFD1387
BDF31DB4
BD855ACE
3D24F79C
3DA2B841
BD10990A
BC1D5530
3DB27492
BDE7685A
3E27C137
3CC29754
3D4370E9
BE06188B
3C3D27A9
3D93AF67
BE2B6FA0
3E2F76E6
3DA4C14B
BDD99DCB
3DF74FF8
3E357A35
3B1D286F
3D24DC58
3DA75013
BDBCC5B9
BE0728A6
3CBB1580
BD9E0115
3CF3735F
3AEEC51A
BD5CF554
BE2851A8
3CEF6FFA
BD3FF2E5
BC914C8E
3D4DB08D
3D040B42
3C93EF00
3E029564
3D2DA504
3E101EAC
3D895945
BE338EB0
3C963271
BD3D1351
BD6FA58F
3DF7CCC0
3DC94A46
3CCCB79E
BCC7EC93
3E0D07C8
B9A9B01B
BD3B881C
3C548B73
BDAE9F93
BC97844B
3DC28E27
BABA2D63
3D603885
3D894A1E
BE1B9ECF
3E13AEEF
BDFDEE78
BE48FB01
3D82ED35
3DBDE9DB
3D16A0F7
3D83AFE0
BE258AB9
BDE4F65A
3E0A85CB
3D764445
3D395069
BE0C9689
3E18EFBB
BD0361B4
3DD88D2A
3D470AD1
3DC03B67
3D1AEB74
3D1FBBA2
BD85FC3B
BE33C212
3DF41AEF
3CC429C6
BC97B9C6
BDBD1D98
3CEC4EDE
3C272B53
3DDD7343
3E105A2D
3E062A5E
BD9360F8
3D946A28
3D173D84
3DC2126C
3DC25687
BE3C197E
3DFA500D
BCB8A025
3E1F6F4C
BDD00BCC
3D074030
3DBF9188
3D963348
BD55F550
3CD0FD49
3D463356
BDD4E22A
BD28CDB4
BE0297C0
3D6D39A4
BE116095
BDEA0BA2
3DF151E7
3D14FF86
BD2D094E
3E37A52B
BE31C609
3CE714E2
3D4560FD
BCD8185A
3D9DD533
BE27739F
BC93631F
BD8A460A
3CEE2DA5
3E162AE5
BD18DC1F
3DA99A05
3DD0129D
BD8EDEA5
3E061E93
BD96F8A0
BD603FA6
BDB261A4
BD904D3A
3D7EC644
3D179365
3C82A602
3DA2FA94
3D26E166
3E098EDA
BE4004B8
BD63387F
BD962505
3D6F1851
3E20A4E3
3D5820D9
BDCEDBB6
3D1B5EB1
3DBAA4EF
BC7A8FE9
BE1A17B1
3D70D8B0
BDCB7EAC
3D274122
BD5184A8
3B848865
BDF13F07
3CDDE5C4
3D2C4BEE
BD1E448F
BE09A1FD
3D7BDE68
BC52B89F
BBA893DD
BCB3831A
BDF7E3D2
3D5E7B81
BCD460AA
BDDA8EF7
3C5AFA8D
BD146C69
BD853CF9
BD570D12
3DF2A498
BCB6276F
3C2425E5
3DCC19F7
3D451A36
BDCDF938
BCFDD83D
BCDE7170
3DF00D5F
3DAEB852
3D600523
BCD7412F
3D646900
BDEB588E
3DB77821
3DC4F568
BD52403F
3E16A594
3CF23B1B
3DE920C0
3D06C608
BDF07BFE
BD255BA4
BB77D83E
BDC24123
3DB194DB
3D986DD0
3D006607
3D8F3BC2
3D79B797
3D8851C3
3DDB6F5D
3D4B0E51
BD10E362
BA72EF20
BD1780D5
BD928912
3C825B5A
BD46E455
3D953D64
BD06E8F3
3DC6296D
BCC51EEE
BDE6C094
3E3B1CC9
BCED9BAF
BCE741C3
3DDA6C5D
BDCCEA29
BD89DC9B
3DABB49F
BC432E53
3C93964A
BCE929C5
3D8C2BD8
BE5C97D9
BD97C188
BD0D9092
3D82E6A7
BDA7145C
BE5A7E74
3CBC511F
3E03571D
BD4906A4
3D760052
BCBDB827
BD61C16B
3D7E2B14
3E258AB9
3D1B87E6
3D8BF9FC
3DA6EE81
3D0F9809
BDB594A2
BD99B1E0
3CFE9D29
BD19AF84
3DE1ED5B
BD6E2B21
BCF5917D
3C84C95E
BD39C447
3D6C3D40
3D45DF3D
3E05BEE4
BD8561C7
3D830B25
3CE167C4
3D913272
BC4DBA33
3D8B0F93
BCFFDF13
3D44609D
BD8EC4E7
3A4D3A97
BD5A642F
3D4D3DA0
BE2D5843
BE1D80A1
3D12527D
BD72F901
3B552185
BC280E3C
3E073E68
3DBDB552
3DEAED9A
BDC1E421
BE2345D0
BD9A3FF5
3D62CC13
3D1D0488
BD37378A
BE01105E
3B5F3BE5
BE60F51B
3E25881A
BE08B32D
3C76C69B
BE009DD0
BD5C2A02
3DBC40A8
BD23D776
BCC6D572
3D6A1222
BDBF4B2C
BD46A0B3
3C9A8EC2
BDB567C1
BD1A187A
3DBE09FF
3E2099E1
3DE2EF4E
BDD13BE2
BD5A0169
3DCBA9FA
BDB27D60
3D307DFD
3DD3910C
3E00A45D
BDD70931
BE06A50D
3D636072
3DB169F8
BD4AA0F3
BD8BA062
3D585BC7
BD18F2C6
3E16BBDC
BE1A0BE5
BD08B86B
3D9474DA
3DEB0F28
BC81FC24
3DC5886B
BD1FF1A2
3CAA9387
3E04E054
BC80E065
BE15CC85
3E4CB35F
BC000AC8
BDA228C2
BE2FF36B
3E027ED8
BD8F50BB
3C507AD7
3CCC7193
BD82E324
BD063015
BD7CFD9C
3CB39630
BCFA1901
3D50E32D
3DBE04C0
3BF9BA97
3DC2B199
BDB155C9
BC2BF1F6
3E4F3ECD
3CA9CD23
3DA7D333
BDEC343B
3D6355DB
BE03F706
BE07075B
3D275B3E
BC806FC7
3DAADF3C
BDAED4BD
3D9F53FB
BDB3F9BF
3DC30843
BD08EDCA
BDD3BAFE
3E21FD15
BD9AD62A
BD15F931
BD10039E
BB00E5EF
3DABF155
3DFD04A3
3D64194F
BC81669D
BE389375
3C0C7F35
3E0DCBDE
BDD0F5A1
3E06D938
BDB3AF09
BD5632C2
BDCAE551
BD4418FF
3E077857
3DB855CD
3DB8EB6E
BC9CBAEC
3D457647
BE08C719
3DDB2464
BCA023F7
3B8E096E
3C8135C0
3DF91D58
BDF0917D
3D23E151
BD73638A
3B81809E
3DFED8D3
3D4A88F0
BD8CACDF
BDE2CBA7
3DEDADB8
BDA46BE3
3BE36250
3D87B22B
BE0ABB45
3E39973E
3DBBAEA5
3CF960DF
BC0A4FE5
BE00DB6A
BC2BBCB2
BE25E397
3CCE87EE
3C48F176
BD6A0D35
BE0D8341
3DB18655
3D597FCE
3DC70916
3DBD442E
3D3C574F
BD574744
BC96BB99
BDA9DBDF
BB4C9341
3E3A18BD
BD18DC3A
BDAC64C8
BE00F5A1
3D65EA40
3C12B3B7
3D2190C4
BDEA0FD4
3D4BF85C
3DBAFC8B
BDA32CA5
BDFA5226
3CDA44F0
BE3F4F0E
BDC83093
3D855CB1
3DBC5BDE
BD566369
3DA13BBA
BCEA8A4D
3D8FAA55
BD00F6F1
3D8F6A87
3DB89EF0
BDC0074A
3D860441
3DEC4370
3DDB1C86
3E40678C
3CD0E779
BBF051F8
3E01A198
3D881CB4
3DC5DCD4
BD24BF32
B95AA66E
BC3C225B
BD8EF665
3D640C9F
3E0DB984
3D52C387
BD021CF6
3DB0C72D
BBB7B289
BDE1D085
BD1CD4ED
3D8F8A24
3DC88A12
3CEFB997
BD818CFE
BD9B4401
BE4CC469
BD5C928D
BD8E65F4
BDC68994
3A7A937C
3D67EBBC
3D39F5C5
BDBCDABF
BD7DEF19
BA9A8903
3A4361FB
BD09A97C
BDB8D618
BD5714BA
3DE1BF38
3BCD955F
3E07E5EB
3C4710CB
3D341404
BE079D0A
BCDFA8DD
BD8A9337
3E1F0175
BE0FB6DD
3D5BFF55
3D54053B
3E35F139
3D259E04
3E1A0019
BC8009A6
BDD477BC
3C5D32E1
3D61B288
3B80CC03
3D302059
3D400000
3E45681F
BDD3E0BD
3DB6DB29
BD907E9E
3DAEAE41
3D96CCD9
3D868F74
BDB62018
BBC03793
BDCFBC1B
BD657413
BDE37CDD
BD83AE83
BDCF733B
3DB427E3
BDA8D3F2
BD693060
BCD52F06
38BADB33
3DA0C87D
3D2EE7C5
3DE61C7A
3DE0A30E
BDDB10FD
BE0C5155
3E0CFB76
3DF696E6
3BC51117
3DCB3A9E
BDD91AB9
3D88FEEF
BDF3F530
BC4C6AA7
BD2A3C7F
BDE0C38F
BD7E864E
BE3E0547
3D951182
BD822285
3DA1B64E
3E0ABE27
3C430BEE
BD9891FD
3E05F634
BD2E2867
BE00110A
3D3AEF04
BDB5EB8F
BDCC10CA
3DA4CC18
3DE60781
3E17D780
BC1943BE
3D1724FB
BCED1831
BD250D35
BD587329
3DC99E29
3DFBD167
3C3A3F2C
3E20E4DA
3C9B04D4
BDFEFBF4
3D1BBFFF
3D4F195E
BD3318AC
3DD49518
3D877052
BDC1DEF0
3E1DC4CA
3D4C5005
3CF56B1C
3D98E087
3E1F9DB2
3C0EDDD4
3D26C43F
3E161523
BDFEEDCC
BE2877AB
3CDC2D5D
BD952320
3DE24A27
BD29A713
3E110B63
BC44DBD2
3BCB745D
3D886925
BD8824C7
BBC9E28D
3D5C88E8
BCC63935
3E3039EF
3D823E91
3DFC3CE2
3DD980F5
3C74510B
3CBA266C
BD7BB00F
3DE69F8C
3D371002
BD2158C6
3D1AC838
3C9C0FCB
BBCAF5DD
3BA281E0
3D98D9EC
3C253D3C
3D5E0356
3CACBE3A
3E05AD97
3E050A46
BE4A6A87
3DD9B2C4
3D4BCF5C
3D47B917
BD676CDC
3DA5E5B0
3DB398CF
3C630660
BAF90E1E
3E1067CF
3C3DD045
3E0F16B1
BDF0A1BE
BCB16426
3D6C929B
3DDAF640
3E4B9778
3C35FAF9
BDE46174
BE14BDFD
BC88E912
3E1262CC
3DC7EB0E
BC811E43
3D06AEA6
3D5C9C9E
3D19260C
BD769CFA
BD3102BC
3D87F76E
3CC83C0F
BE3F398F
BE049F95
3DE452C6
BE4DFBD7
3BC7EC68
BDF5C960
BE2063E0
3E415400
BE0B4A23
3E186D72
BD54440A
BDA65809
3CF28127
BE0C10D8
3D2D3664
3C588781
BDEA7BD5
3DB45862
BDD5B467
3B5A0748
3D5A7222
BD9262BE
BC29D5BC
BD815161
3BBED898
BCB227D0
BDB9217C
3D44F730
BE1D3C79
BDFB61BB
3D39C5BF
BD6DC825
BD966D88
BC0B0AAB
BE0BE404
BDAA6C6B
3E1EACC9
3DCA2489
3DB0CF91
3D3CD086
3CC1A1F6
3D0FED99
BC359F8A
3C376196
BD8FFAF8
BD1072C4
3DC25DDE
3D5A5FAD
BE10A9DF
3CE62274
3CD8C7E3
3DE45ED5
3DB4ADBC
3DA3C7F1
BD03A4D0
3C25CC42
3D11111A
BE211A97
3E0B42CC
3D9D566D
3DDD87B5
3DE62995
3C1B07B9
BE0132F8
BC76F6D7
3DBAE70C
3E2BF488
3DCDDACF
BD29424E
BD699F86
BC321160
3C939FBA
3DC4A970
3DAE8A9A
3DB77964
BD3691C2
3D876F60
BC3BFD72
BC44FA70
3DF46024
3D21D324
BD36C58F
BC58C452
3E00A6B9
BC7BB8DE
3B0C9C30
BC96DC86
BBE85930
BDF12F4D
BDF10A9A
BC4CA7E4
3D8D8DB0
3DD62281
BD0191D0
BE196D8F
3DD159C5
BA2973B5
BCB259BA
3BFD5B0A
BCCEB7BE
3DEAC216
3DEDAC26
BD80D9AF
3DF62520
3DA24928
3D024FB6
BD80E09B
BC934EC7
3D868FA9
BCEDBD07
3DE0C62E
3E1CC8DE
BD76A203
3BB24044
3DF8DBCF
BD8875A0
3DB62945
3DCC059F
3DF9F5E0
BCC8666B
BCA273FE
BCB28ACC
BDE8E821
BCDB5195
BDBAB8F6
BD43765C
3D36FDA8
BC9BC340
3DCF54D2
BD35F56A
BC67FCD4
3D863787
3DA9A62F
3E24B663
BD735FF9
3DDBA0A5
BB22F8E9
BDBFDBC6
BE1D66F1
3E15AD10
3DF3D295
3CF6C051
BE01B3AF
3CCA36BB
3DBBF551
BD0B615D
3DF2D0A2
3E1A732E
BDD9C0EC
3E316590
3CBC3281
BDA37147
3DE4A72F
BDB2D517
BDA4B465
BE032229
BDD6A7AD
BDB55D6D
3D8FC420
3BE51340
3E3297C0
3DCAE2F5
BDF68273
3BE1E461
BCA6D557
BDA0FA81
3D97C7ED
BD647E14
3D9D2FD7
BD1E567D
BD513EED
3DDAB9F5
3BBC3149
BD515974
3B8191BB
BD957F23
BCD1A361
BC85494B
3E0CF249
3DBA10EE
3C0AA39D
BCCD6E7E
BCC9289E
BE4256BD
3CF041E7
BC82F223
3DADD129
BDF9AA61
3DDFDD66
BD1A8786
3D73F515
BE55E8D5
3D45C267
3DE5CBBC
3D4F66C0
BD4882BB
BD0E5457
3E486B59
3B809CC8
3D771D38
3D88793E
3C898C05
BD8B14EC
BE30663C
3D7E675F
3D9948E9
BDE8BE2F
3D7FEF03
BDFD2C7C
3D946562
BDDFA54C
3D63D669
3E12990F
3D0E6A26
BC51CC10
3DCB594A
3C63E872
BD791439
BD1B7EC7
BDE44BF5
3DA2B679
3E0C4EB5
BD987DE8
BBF67FE4
3DEF27BB
BE2DFDAC
3D5DB893
3CBAF783
BE0C67E0
3D464CB6
BC17C8BF
BD5356A4
BC1E52D1
BE2D9946
BC0005B4
3DB7480E
BD96CD0E
3D50C042
BBCB8B84
3E0BC383
3CD70967
BDFA1555
3D2DC7D4
BAFEA334
BDE1F18D
BC36E356
3D7A3261
BE17685A
3E21C79B
BCEB6A11
BDAD2956
BDD6AE7D
3DBDE226
3DDC93EA
BC549DE7
3C8B000E
3DB77AC1
BD4FD835
BCC0332C
3DA2E2EE
3DD47E07
3DA7DBCC
BCBC4927
BDBECD15
3DB3D351
3D950276
3D90DCAC
BDB6FF48
BDE99525
3D949A13
BC80E1DD
BCD95216
BDAC7A3A
3E20DCBA
3E3176DE
BE0883BA
3CE3B1B6
3E1143BF
3CE685DB
3E033B97
3D9A17A4
3E2084E8
3DC0357A
3D8FA608
BDE6B93D
BE1BDE83
3D885F8D
BD3CEC34
3963BCB1
3DE60B2D
3D47BF62
3DAFAF0D
BDB75460
BC23CBED
3DA87633
3DA2508D
3DBC1715
BD830E80
3E025BFB
BE02E408
3C870BC3
BE14690E
BC8E9417
3E3F58C1
3E0B6912
3D17E6C1
BB3EA66E
3D9F861A
3DC14E71
BE26B096
3DFCF80E
BD4F6B93
3BEBA52A
3DBC8BA2
BE329E0A
3CC2F6C0
3D4886B7
3DEB1D50
3D422559
3D88DBF7
BD5FCDC6
3DA08CC5
BD87C287
3CF8BB32
BDF9AF9F
BD6B9C4B
3D186EF7
3E361805
BD8EEF37
BD2DA3C2
BE3E7DDD
3AC455DB
3BB4433E
BD3F98D2
3E0F7CAA
BE094FAD
3BE001C8
BD5592DA
BD203F3B
3DCD099E
BDD6B229
BD99AEAD
3E244178
BD9F544C
3DFDB4CC
BD927096
3E01D29E
3DC91984
BC7D7EB1
3C8F8402
3C119589
BD928E78
BE08EE28
BB1CF1E9
3DFB4DCF
BD900051
BE018DAC
BDC63FB5
BC89CD74
BD812077
BE121188
3D50CA38
BCCE9E5E
3DAC80BA
BE15D745
BD985DB7
3E0F8445
3D041F2F
BE173C4F
BE012CF1
BE2738A4
BD206713
3DB135A5
BD85AE6D
3D85DB34
BD3142E9
3D8072A9
BC1510FE
3E1383F1
3D2AB1D5
BDDCDB38
3D8446D1
3DC12CAE
BDDDF091
BDAD7478
3DACD226
BDC35B27
3D3E9F78
3DB2391D
BD23B70F
3C5678B3
BE109071
BE18CC9A
3D7E6850
3E3A8B8F
3C82F655
BDEE3583
3CFBA26D
BC0D7B13
3D6A14A7
BE1E0C17
BDEF5558
BCEF9E1E
BC1979C4
3D761C01
3D8F9AF8
BE018330
3DD96E9C
3DB57ED2
BD9F1AE3
3D95F22A
3DC390C9
3CCFE4E5
BCAF2AFB
BD789A46
3DA575C0
3E21719F
3D20D28E
BC096422
3D9795E9
3E453B4B
BDB88A63
BDAC0FCB
BAE67E7A
3DE73040
3DC6895F
3D712E91
3E400B03
BD915055
3C4BE115
39D665CA
BCE14B09
BC9AA45C
3D7327C5
BD3D5637
BD58FFAB
3DF167EC
3D402C91
BE167BE5
3DBB8E3E
3E1CDEE3
BD767C0E
3DC1B859
BE01DD1A
3C80C374
BCF272E4
3B9CE4D3
BDA0DF16
BCAA5970
3C6970DD
3DA68FB7
BD3F63F9
3E323B79
BCCC8A52
BD8F5390
3D23529B
BD924371
3C7A3DB4
BCC2B0B4
BD893B3A
3D8CEF3F
3CE91786
BDC40F9C
3D6E8F95
BCA7DCF4
3D3FA806
3D9F4D96
3D80FB65
BCA9FD5F
3E22CDC0
BDE9C993
3D807EFC
3D923140
3C940571
BC8B3F64
BDACCC97
3D569A76
3BFB09A1
BD9A54FB
BC0D66DB
3D5A8303
BD1E0BB9
BCC521DE
3E155EF2
3C8AB607
3DBC8DE3
BE180B24
3CA129B1
BDD84C27
BD63067A
3E199A20
3D97A3F6
BD9AC711
3C28C22C
3E008744
BCC1545E
3DA577B1
BDCEF998
3DCB8A85
BD82E240
BC74AEFF
3DB8CE8B
BC38660D
3D782CB2
BCD24512
3DEF661F
BD5FAFE4
3B56EDB8
BD389EFE
BD199872
3D8287B5
3E1EAE5C
3DCB2181
BDC42C2F
BB263ABD
3DBC6FD8
BDB7491A
3DE1B542
BC96DAD8
BDEAF9A9
BCA9F135
BE3A569B
3D16D7CE
3E0473CD
BDD7F51F
BD1EB32F
3DB27E2A
BBE40FDF
BCD47E3C
3DD21AB5
BD02A851
3D408F72
3DF7995F
BCE97438
BD808978
3DD71088
BCCB068F
3D2C6102
3DA8122B
BD30C9E7
BC9DEF6A
BD92E408
3D981817
3B14C9A6
3C7E02D0
BE0E61D0
3D593907
3D776400
BE0E5D5B
3DB9DAC5
BE04A904
3DB51BF1
3C9D3E34
3C8D367F
3D553841
3DBA747E
BE0EA748
3D89926B
3D05F882
BC2D07A0
BD995084
BC57CE89
3D2542CA
3D231112
3D991C8F
3D1A2743
BC964F2D
BD22528B
BD98D2E5
BD8FC9AF
3DAB0BE8
3E29BF16
BE100F77
BD129BFF
BC9EF050
3E209204
3DF717DF
BDAFC0D3
3CBC9AF1
3D833C96
3E074602
BDD382E4
BE13C42A
3D921201
3D4F6421
BDE45AA3
3D68B57B
3D4F8A82
BDA40406
BD94152B
BCF3D6C7
3D6B8A27
3DE15E39
3D637A73
3DA62B86
BD636D8E
BDADE516
3DCC98BD
BD63CB67
3E0DA05A
3DBEEAF7
3E460BF6
3DA12132
3DB93DE7
BCC99575
3D338965
3DF40CC8
3DC25700
BDE1D9F5
BD939FD5
3CB20A09
3CE0BBCD
BC312FB8
BE16698C
3E3C3697
BCAAB6F8
BDC7BEB3
3CA6B2BD
3C05C4C6
BD62616F
3D46948A
3C885E73
3D288E0E
BBF4B3B1
BC13C519
3DCFC7A4
3DB9AB0F
3DE4BCAE
3E16E47E
BE1B14EC
3DD1A5CA
3C057DCE
3CB383F1
BDFF5DFF
3DB4CB5C
3DE55C10
3C97DAB2
3CC4F278
3D15BBA4
BD1DEACD
3D2F8B73
BD02C69F
BDF08B33
3DDA6C5D
3D10AD97
3C20D7FC
BE2E974A
BDD1FC4C
BD444193
BE07079E
3DCD83C7
3E07F887
BB0CE4AA
3D01743F
3CD90DB8
BC742932
3D5383A0
3D683DBC
BDCF00EF
3DA3D0CD
3D8BC58E
3DF2DECA
BD18F1EF
BD813222
BDAD4710
3DE7381D
3D0CCB3A
BD849E38
BDED2DCB
3D06AAAA
BD2F3634
BE13A68B
3D4D8666
3C86E3B4
BD66BA64
3E1691A7
3CD6FD3D
3DE0D34A
BC6F1FDE
BE010CB3
BD4A2BB8
BB4CA433
BDFA109D
BD68F0F0
3C43477D
BD98BB25
3DEC282C
BD84B1C6
BDC7EBF2
3DBA7AAD
BDC62F09
BC839C6D
3D54B23F
BCC7A17F
BD2D5D4B
BD5E9029
BD9499B5
3CEC922F
3DB44517
3D27929B
BDA69AB9
3C31E555
3D7CC822
BD31BC3B
3B384353
BCC7BE05
BCE1C00E
BD96569E
3CA7A2DC
3D9BE70F
BCC1EFFA
BD53633A
3DE182ED
BC3149BA
BD5F7FDD
BD7C6BDC
BD919399
3DB81677
3E2AA327
3D822087
BD5DC26E
BCA9CA69
BDAD5462
3D5CE81E
BDD1AFC0
BE367D35
3E0938DE
3DAD6B4B
BDB46895
3D16CB89
3D8EC992
3D5E3179
BE1322AF
3E1AA3F0
3CDC8861
3D52A158
BD0EF97D
BDB38200
BDBCC690
BD0E6645
BDDE19FC
3DA64F1F
BDD81E8A
BDDE236C
BD8A6AE5
BDBFFC1F
3D907E68
3DA37345
3E25B292
3DE4F334
3D09354E
BD088A98
3E003FF7
BC6FC80F
3C216718
3DFC6195
BE2285EC
3CD582B4
BDA13CFC
BE2CD4AA
BD5B9629
3D981F2B
BD1F98ED
3BEE8483
BDDCC74C
BBB38EE3
BDB4F590
BE1BF7F0
BE537C9A
BDD5696E
BCC867AE
BCCDE5D2
BDDAA68F
BD5513A8
3E102C91
3E0E94EE
3D961911
3DDBC1AD
BDA5F9ED
BC49624A
3E0A9542
3D3A331D
3DE8C3F4
3D826F61
BC4D9B94
BE22D4D4
BD196CB9
3E119EB6
3E733094
3CBC2F26
3DF137B0
3CEA02D3
3DE83E42
BDD33440
3CE67042
BE153FC0
BCF912A6
3CA2145D
BD3BC863
3DC3509D
3E0B8412
3D119752
BBBA7A65
BD9ABEBB
3CC48500
BD391AEF
BD0EA54A
3E16B617
BE0B67C3
BDF0739B
BC8C94CE
BDA87486
3B981307
BD3E0122
3B8D040A
BD755319
BDBC24C4
BD18B7D7
BCD97EF7
3D7D528C
BCE189F3
3D757563
BD9E7C22
BC8F4AC1
BD007612
BD744B2B
3E2F2389
BE10E065
3D1E637D
BDB2A3DC
BE1348F5
BE633333
BCFC720C
3DAA7E9C
3E514AD3
3D61BAB5
3DBD54A5
BC9CBC2E
3B073467
BC82C394
3D8E19AC
BC955999
3E1E6EA8
3D0F12F8
3BDB1174
BDDA2E7F
BE1BDC6A
3CE61AB1
BE50E62A
3D96A21E
3DABBD7B
3E2AD645
3CB26EE8
3DDDD2AF
3D9FE8B9
3DCAB3EE
BE1E939F
BD844F28
3DF034B1
BDB97A5A
3DBEE815
BCBF7AD5
BD1F6464
3D62F208
3DE48CF8
3D37B4F3
3BFD9973
BD8CC50A
BDA1B867
BBCA131F
BE0AD8A1
3E152CE0
BE0D19DF
BD8509C0
BC91F6D8
BDD43AEB
BE39EA9A
BD63AAE5
BE292817
3C8B937C
3D273ED3
BCE2FCBA
3D290314
BBC66930
3D1D9DF0
BD9F03DF
BE73354C
BE418DEF
3D80CC0E
BD8E7CC3
BDA2CAB6
3D5FEB73
BE00B5AA
BDF2C062
3DEE6B83
3E065237
3E3991BC
BDC7CEA3
3DE2FCF0
3CE4A4FB
3D809AFB
3DEE4756
3D236A68
BD3BC1E3
3DF60179
BDDEC80C
BDCF3238
BD79D5E5
BCD36786
BDA6209E
BE37FAA0
BC8B5244
3D2B5294
3D816E6D
3D46B632
3BEEA8C0
BDC62EC6
3DA7932F
BC7114AB
3D477C61
BDC408BE
BCD787A6
BC7FDA40
BD005631
3D9A7463
BE31DF33
3CD55FAE
BCCDFEFC
BE28C261
BCB7F936
3D8CBF1E
BE00C027
BE1E5D18
BCA0422A
BD97ACB8
3DD5115A
3CB2099D
BD62BAAB
BBBD55A1
BDD55A3A
BE159FB2
3DBDF2D2
BE01A9FC
3C6C5A9C
3DF61672
3D5FA999
BE0D701E
3DE2424A
BE280735
BDD4EB9A
3DFB4DCF
BDBC63C9
BC8967BD
3DA67DF1
BDC396F9
BDBB2B0C
BD9E78AC
3E0285EC
3DAF474B
BD57CCA5
3D828805
BC81966E
BDD402D1
3E065F96
3D4A103F
3D30E61C
BE010907
BC6A6E9E
3DB0DF3E
3B81FFCA
BD8BDDD4
BD1917AE
3E13EDD9
3CEE0F72
3E01EC92
3DC3D740
3DFFF2E5
BDA4EA4B
BD48BB76
BDB8EFC8
3C4805BE
3DBD1D8A
BD5DE390
BDAA6747
3D03873E
BD2C2034
3DDC4114
3C692A66
3D1EC9D5
BDE4028E
3DED8BA4
3D13AE33
3CB85008
BCADCDCE
3D064E48
3D728C7A
3E2DF0D4
3C8635A4
3C8CEACA
BD846C9F
BC80FCB5
3D937E6F
BDF05EA2
3B1EDAF7
BA5AD2CA
3D5EC04A
3D478133
BDF418D7
BD4916AF
BD36F007
BD5A16E8
3DA7E3AA
BD65F21D
3DC64437
3E0D3E0C
3D296C75
BD95118F
BE5DBBE0
3D85E171
BDF273D6
3DD70DE9
3D7896D0
3C2E586D
BD90B491
BDBD3870
3DA82731
BE2B7521
3E22AE4B
3C0C036E
3AC43650
BDB6CE50
BE1A9867
BC1E3966
3D93E36A
3D960D53
3DBC7FC8
3DF71972
3D0598FC
3D246372
3E1CADDE
3DE7264A
3E62E6A7
3DB3B14B
BDA18E40
BD2D8955
3C03F167
BD291B9D
3DDD08D5
BDF06C44
BBDA7CB9
3DE21D11
3DB242F9
BDB1BF38
3D851662
BB220650
BE51AE2E
3D76C036
BD0627B2
BD300E86
3D7E4ABE
BE1F7DB7
3DC27A20
3D2E34C7
BDDC0011
BDBF71DE
3DC97694
BD2983BD
BDD53DEA
3DE59967
BD837D8B
3DE1C68F
BD313ED2
3D98008D
3E084231
BDD98BF8
BDEF5D35
BD9BB1F2
3D3506F8
3E2D98BF
3DC85B5B
BE06B7ED
BC781260
BE1D1C7E
3D9AE5A2
BE3DE11A
BE2EEDCC
3CB24F73
3CB2CB2E
BC5C8613
3D6E9FD6
3D55B69B
BBEF8E83
BE026528
3D429E0A
BC95CF3F
BDD6C051
BCBA95FE
BDE08073
BE3FAA47
3DCC85DD
BD1EFC0F
BC7E9AA5
3D474AAD
3CA9F3EF
BC8AE0CF
BD6E62B4
BD0F3FF4
3CAA6091
BC8C06D4
BE43AE25
3E690ABB
3D1F1D9D
BD2A062E
BE03571D
3E43C298
BD88A6F6
3B84D3E5
3D1C1F1A
3C8D3FEF
BD15BEAE
3DBC50F7
3D8C2664
3D94AF4F
3DA859F1
BD952AE2
BDECC3E3
3D8E65CC
BE1017DB
3D1C878B
BCFEA15B
BC0235BA
BDCDFCE3
3E101366
BD90B73D
BD762846
3D6AA0BD
BDB38569
3DACF04B
BD97859B
BD44F5EE
BE37720D
BB98B9F6
3E298634
3D7F8C72
BE06E71D
BE21A650
3DC9C2C2
BD0A4873
3E107896
BC3F58DB
BD74DF8B
BDA2E191
BD757FFA
BD6077F5
BAC9F557
BBBD8760
3C93935B
3D34C8E5
3D239E50
BD6A03FA
BBDF0635
3E15D52C
3E027B70
BCDDEC44
3E2D3997
3D2112BA
BDB84F4C
BD0CF130
BD6593F3
3CD63744
3D8EFCBD
BDF31876
BB12F439
3E244D01
3D1597E2
BD6B9B5A
BD6CA205
3CAA52BA
3DE681AA
3D63A44A
BD3BE787
BE5A350D
BE365450
BDB2D00F
BE561911
BC57FE59
3D78E630
BD983B6E
BDD6EAC8
BD5D9E91
3E185D74
BD943DE8
3D170BD0
BE056191
3E1CA793
BD94AF85
3D54A5FA
BD5187B2
BD8412A7
BD869E72
BDB517F5
3CAB2EED
3C606607
3DCCE1C6
BDA72A7C
3C7E5570
3D938731
3DD1A21F
BE0BB906
3DC87E6F
BC8CD77F
3DC0F3BE
BDFF633D
BDAC986C
3E06EB4F
BD990F66
BBEC2619
BC0F813D
BE062E90
3D957109
BE23A711
3DE555C5
BDD3D8E0
BDCA1710
BD80F401
3CD36C23
BDFEC248
BD5E84D6
3D98CDDD
3D0A8489
BD78CC9A
3DB0DC41
3CEECFC1
BC66E074
3D7A3586
BDA8B4B2
3D22A115
3C435555
3DA24801
3D8D2F1B
BDEE70C1
BD1C8FEE
BD84C56F
3DC25149
BDDC0B9A
3E05F139
BD598400
3CF1A41D
BDEA4EBE
3D2A68A4
3E0CA57A
BE053544
3DCD434A
3E03E63F
BD2DC098
3D2C6137
3D7958CC
3CF80636
BD59E102
BDB571D2
BD1AED8C
BD5DCF89
3DF5E41D
3E20E9D5
BE082D7B
BD8C60D9
BB6586D8
3DC2C5AD
BDA6BA49
3DAF8488
3D5693DB
3D91153E
